{
  "version": "1.0",
  "truncation": null,
  "padding": null,
  "added_tokens": [
    {
      "id": 0,
      "content": "<UNK>",
      "single_word": false,
      "lstrip": false,
      "rstrip": false,
      "normalized": false,
      "special": true
    },
    {
      "id": 1,
      "content": "",
      "single_word": false,
      "lstrip": false,
      "rstrip": false,
      "normalized": false,
      "special": true
    },
    {
      "id": 2,
      "content": "<PAD>",
      "single_word": false,
      "lstrip": false,
      "rstrip": false,
      "normalized": false,
      "special": true
    },
    {
      "id": 3,
      "content": "<BOS>",
      "single_word": false,
      "lstrip": false,
      "rstrip": false,
      "normalized": false,
      "special": true
    },
    {
      "id": 4,
      "content": "<EOS>",
      "single_word": false,
      "lstrip": false,
      "rstrip": false,
      "normalized": false,
      "special": true
    },
    {
      "id": 5,
      "content": "<SEP>",
      "single_word": false,
      "lstrip": false,
      "rstrip": false,
      "normalized": false,
      "special": true
    },
    {
      "id": 6,
      "content": "<MASK>",
      "single_word": false,
      "lstrip": false,
      "rstrip": false,
      "normalized": false,
      "special": true
    }
  ],
  "normalizer": {
    "type": "Sequence",
    "normalizers": [
      {
        "type": "NFC"
      },
      {
        "type": "Replace",
        "pattern": {
          "String": "\n"
        },
        "content": ""
      },
      {
        "type": "Replace",
        "pattern": {
          "String": "—"
        },
        "content": "-"
      },
      {
        "type": "Replace",
        "pattern": {
          "String": "“"
        },
        "content": "\""
      },
      {
        "type": "Replace",
        "pattern": {
          "String": "”"
        },
        "content": "\""
      },
      {
        "type": "Replace",
        "pattern": {
          "String": "’"
        },
        "content": "'"
      }
    ]
  },
  "pre_tokenizer": {
    "type": "Whitespace"
  },
  "post_processor": {
    "type": "TemplateProcessing",
    "single": [
      {
        "Sequence": {
          "id": "A",
          "type_id": 0
        }
      }
    ],
    "pair": [
      {
        "Sequence": {
          "id": "A",
          "type_id": 0
        }
      },
      {
        "Sequence": {
          "id": "B",
          "type_id": 1
        }
      }
    ],
    "special_tokens": {}
  },
  "decoder": {
    "type": "Sequence",
    "decoders": [
      {
        "type": "ByteFallback"
      },
      {
        "type": "BPEDecoder",
        "suffix": ""
      },
      {
        "type": "Replace",
        "pattern": {
          "String": ""
        },
        "content": "\n"
      }
    ]
  },
  "model": {
    "type": "BPE",
    "dropout": null,
    "unk_token": "<UNK>",
    "continuing_subword_prefix": null,
    "end_of_word_suffix": "",
    "fuse_unk": false,
    "byte_fallback": true,
    "ignore_merges": false,
    "vocab": {
      "<UNK>": 0,
      "": 1,
      "<PAD>": 2,
      "<BOS>": 3,
      "<EOS>": 4,
      "<SEP>": 5,
      "<MASK>": 6,
      "!": 7,
      "%": 8,
      "(": 9,
      ")": 10,
      ".": 11,
      "0": 12,
      "1": 13,
      "2": 14,
      "3": 15,
      "4": 16,
      "5": 17,
      "6": 18,
      "7": 19,
      "8": 20,
      "9": 21,
      ":": 22,
      "<": 23,
      "?": 24,
      "A": 25,
      "B": 26,
      "C": 27,
      "D": 28,
      "E": 29,
      "F": 30,
      "G": 31,
      "H": 32,
      "I": 33,
      "J": 34,
      "K": 35,
      "L": 36,
      "M": 37,
      "N": 38,
      "O": 39,
      "P": 40,
      "Q": 41,
      "R": 42,
      "S": 43,
      "T": 44,
      "U": 45,
      "V": 46,
      "W": 47,
      "X": 48,
      "Y": 49,
      "Z": 50,
      "a": 51,
      "b": 52,
      "c": 53,
      "d": 54,
      "e": 55,
      "f": 56,
      "g": 57,
      "h": 58,
      "i": 59,
      "j": 60,
      "k": 61,
      "l": 62,
      "m": 63,
      "n": 64,
      "o": 65,
      "p": 66,
      "q": 67,
      "r": 68,
      "s": 69,
      "t": 70,
      "u": 71,
      "v": 72,
      "w": 73,
      "x": 74,
      "y": 75,
      "z": 76,
      "؁": 77,
      "،": 78,
      "؎": 79,
      "ؐ": 80,
      "ؑ": 81,
      "ؒ": 82,
      "ؓ": 83,
      "ؕ": 84,
      "؛": 85,
      "؟": 86,
      "ء": 87,
      "آ": 88,
      "أ": 89,
      "ؤ": 90,
      "إ": 91,
      "ئ": 92,
      "ا": 93,
      "ب": 94,
      "ة": 95,
      "ت": 96,
      "ث": 97,
      "ج": 98,
      "ح": 99,
      "خ": 100,
      "د": 101,
      "ذ": 102,
      "ر": 103,
      "ز": 104,
      "س": 105,
      "ش": 106,
      "ص": 107,
      "ض": 108,
      "ط": 109,
      "ظ": 110,
      "ع": 111,
      "غ": 112,
      "ـ": 113,
      "ف": 114,
      "ق": 115,
      "ك": 116,
      "ل": 117,
      "م": 118,
      "ن": 119,
      "ه": 120,
      "و": 121,
      "ى": 122,
      "ي": 123,
      "ً": 124,
      "ٓ": 125,
      "ٔ": 126,
      "ٕ": 127,
      "ٖ": 128,
      "ٗ": 129,
      "ٚ": 130,
      "ٜ": 131,
      "٠": 132,
      "١": 133,
      "٢": 134,
      "٣": 135,
      "٤": 136,
      "٥": 137,
      "٦": 138,
      "٧": 139,
      "٨": 140,
      "٩": 141,
      "٪": 142,
      "٫": 143,
      "٬": 144,
      "٭": 145,
      "ٮ": 146,
      "ٰ": 147,
      "ٱ": 148,
      "ٴ": 149,
      "ٹ": 150,
      "ٺ": 151,
      "ٻ": 152,
      "ټ": 153,
      "ٽ": 154,
      "پ": 155,
      "ٿ": 156,
      "ڀ": 157,
      "ځ": 158,
      "ڃ": 159,
      "ڄ": 160,
      "څ": 161,
      "چ": 162,
      "ڇ": 163,
      "ڈ": 164,
      "ډ": 165,
      "ڊ": 166,
      "ڌ": 167,
      "ڍ": 168,
      "ڎ": 169,
      "ڏ": 170,
      "ڑ": 171,
      "ړ": 172,
      "ږ": 173,
      "ژ": 174,
      "ڙ": 175,
      "ښ": 176,
      "ڦ": 177,
      "ک": 178,
      "ڪ": 179,
      "ګ": 180,
      "ڭ": 181,
      "گ": 182,
      "ڱ": 183,
      "ڲ": 184,
      "ڳ": 185,
      "ڵ": 186,
      "ں": 187,
      "ڻ": 188,
      "ھ": 189,
      "ہ": 190,
      "ۂ": 191,
      "ۃ": 192,
      "ۅ": 193,
      "ۇ": 194,
      "ۉ": 195,
      "ی": 196,
      "ۍ": 197,
      "ۏ": 198,
      "ې": 199,
      "ے": 200,
      "ۓ": 201,
      "۔": 202,
      "ە": 203,
      "ۖ": 204,
      "ۗ": 205,
      "ۙ": 206,
      "ۚ": 207,
      "ۜ": 208,
      "۠": 209,
      "ۡ": 210,
      "ۢ": 211,
      "ۤ": 212,
      "۬": 213,
      "۰": 214,
      "۱": 215,
      "۲": 216,
      "۳": 217,
      "۴": 218,
      "۵": 219,
      "۶": 220,
      "۷": 221,
      "۸": 222,
      "۹": 223,
      "۽": 224,
      "۾": 225,
      "ݔ": 226,
      "ݣ": 227,
      "ݨ": 228,
      "ݯ": 229,
      "﴾": 230,
      "﴿": 231,
      "﷢": 232,
      "﷥": 233,
      "﷦": 234,
      "ي": 235,
      "ن": 236,
      "ل": 237,
      "ا": 238,
      "و": 239,
      "ء": 240,
      "س": 241,
      "ر": 242,
      "ض": 243,
      "a": 244,
      "5": 245,
      "C": 246,
      "ھ": 247,
      "s": 248,
      "i": 249,
      "g": 250,
      "ٻ": 251,
      "ه": 252,
      "م": 253,
      "ڻ": 254,
      "G": 255,
      "8": 256,
      "ز": 257,
      "r": 258,
      "ہ": 259,
      "ٺ": 260,
      "ٽ": 261,
      "ت": 262,
      "ڌ": 263,
      "7": 264,
      "P": 265,
      "ڙ": 266,
      "ب": 267,
      "n": 268,
      "ش": 269,
      "ڪ": 270,
      "ع": 271,
      "e": 272,
      "ی": 273,
      "W": 274,
      "0": 275,
      "د": 276,
      "گ": 277,
      "ف": 278,
      "4": 279,
      "1": 280,
      "c": 281,
      "ڊ": 282,
      "l": 283,
      "2": 284,
      "6": 285,
      "t": 286,
      "ح": 287,
      "پ": 288,
      "چ": 289,
      "d": 290,
      "ق": 291,
      "E": 292,
      "ج": 293,
      "v": 294,
      "!": 295,
      "R": 296,
      "۱": 297,
      "M": 298,
      "ے": 299,
      "ة": 300,
      "K": 301,
      "3": 302,
      "ژ": 303,
      "ٴ": 304,
      "y": 305,
      "ى": 306,
      "9": 307,
      "ٹ": 308,
      "ں": 309,
      "ص": 310,
      "u": 311,
      "f": 312,
      "۔": 313,
      "o": 314,
      "A": 315,
      "ؤ": 316,
      "خ": 317,
      "ئ": 318,
      "ـ": 319,
      "h": 320,
      "ڏ": 321,
      "H": 322,
      "p": 323,
      "ٿ": 324,
      "ٰ": 325,
      "T": 326,
      "k": 327,
      "S": 328,
      "ک": 329,
      "۲": 330,
      "m": 331,
      "ڱ": 332,
      "ۡ": 333,
      "ڳ": 334,
      "۰": 335,
      "z": 336,
      "F": 337,
      "ۃ": 338,
      "ذ": 339,
      "ۂ": 340,
      "ث": 341,
      "ظ": 342,
      "x": 343,
      "Z": 344,
      "ڍ": 345,
      "V": 346,
      "ط": 347,
      "b": 348,
      "ڇ": 349,
      "w": 350,
      "۽": 351,
      "N": 352,
      "I": 353,
      "q": 354,
      "L": 355,
      "ٔ": 356,
      "ۇ": 357,
      "ۓ": 358,
      "ڀ": 359,
      "D": 360,
      "O": 361,
      "U": 362,
      "آ": 363,
      "،": 364,
      ")": 365,
      "(": 366,
      ":": 367,
      "٢": 368,
      "ك": 369,
      "ڈ": 370,
      "٫": 371,
      "Q": 372,
      ".": 373,
      "B": 374,
      "۳": 375,
      "ڄ": 376,
      "ؑ": 377,
      "۸": 378,
      "ڑ": 379,
      "ۙ": 380,
      "X": 381,
      "ڦ": 382,
      "j": 383,
      "ٖ": 384,
      "۾": 385,
      "ؕ": 386,
      "؛": 387,
      "ې": 388,
      "ؒ": 389,
      "غ": 390,
      "ۤ": 391,
      "۶": 392,
      "J": 393,
      "Y": 394,
      "۷": 395,
      "ڃ": 396,
      "؎": 397,
      "٨": 398,
      "﴿": 399,
      "۵": 400,
      "۹": 401,
      "٥": 402,
      "٦": 403,
      "٣": 404,
      "۠": 405,
      "؟": 406,
      "ٗ": 407,
      "ؓ": 408,
      "٭": 409,
      "؁": 410,
      "ۚ": 411,
      "۴": 412,
      "ؐ": 413,
      "٠": 414,
      "ڵ": 415,
      "ݨ": 416,
      "٤": 417,
      "%": 418,
      "٩": 419,
      "١": 420,
      "ۜ": 421,
      "ً": 422,
      "۬": 423,
      "أ": 424,
      "ۍ": 425,
      "﷥": 426,
      "": 427,
      "٪": 428,
      "ۖ": 429,
      "٬": 430,
      "ړ": 431,
      "ۗ": 432,
      "ٓ": 433,
      "ۢ": 434,
      "٧": 435,
      "?": 436,
      "ڎ": 437,
      "﴾": 438,
      "﷦": 439,
      "﷢": 440,
      "جي": 441,
      "ان": 442,
      "ان": 443,
      "ائ": 444,
      "ار": 445,
      "آه": 446,
      "ند": 447,
      "يو": 448,
      "جو": 449,
      "ين": 450,
      "ال": 451,
      "ون": 452,
      "هن": 453,
      "آهي": 454,
      "ري": 455,
      "تي": 456,
      "ري": 457,
      "کي": 458,
      "لا": 459,
      "يا": 460,
      "ئي": 461,
      "اه": 462,
      "اس": 463,
      "ور": 464,
      "ار": 465,
      "مي": 466,
      "يء": 467,
      "را": 468,
      "يڪ": 469,
      "رو": 470,
      "ما": 471,
      "کان": 472,
      "ور": 473,
      "اد": 474,
      "سن": 475,
      "سان": 476,
      "اي": 477,
      "ھن": 478,
      "لي": 479,
      "جن": 480,
      "وي": 481,
      "ون": 482,
      "ڪي": 483,
      "اري": 484,
      "وا": 485,
      "لي": 486,
      "آهن": 487,
      "هو": 488,
      "ڪري": 489,
      "پي": 490,
      "ھي": 491,
      "هڪ": 492,
      "ته": 493,
      "ام": 494,
      "ندو": 495,
      "ائي": 496,
      "جا": 497,
      "مر": 498,
      "ڪر": 499,
      "ٿي": 500,
      "يون": 501,
      "سي": 502,
      "مو": 503,
      "جيڪ": 504,
      "اب": 505,
      "گه": 506,
      "پن": 507,
      "پو": 508,
      "مان": 509,
      "ست": 510,
      "19": 511,
      "او": 512,
      "پا": 513,
      "تع": 514,
      "لاء": 515,
      "دي": 516,
      "هن": 517,
      "ڪيو": 518,
      "ائين": 519,
      "ڻي": 520,
      "سا": 521,
      "ڪو": 522,
      "با": 523,
      "ٿو": 524,
      "به": 525,
      "يل": 526,
      "من": 527,
      "تر": 528,
      "مل": 529,
      "ويو": 530,
      "ندي": 531,
      "آھي": 532,
      "بي": 533,
      "هي": 534,
      "تا": 535,
      "بي": 536,
      "ندا": 537,
      "لو": 538,
      "ني": 539,
      "اني": 540,
      "مي": 541,
      "ٽي": 542,
      "ام": 543,
      "مح": 544,
      "جه": 545,
      "سنڌ": 546,
      "ني": 547,
      "شه": 548,
      "سند": 549,
      "نال": 550,
      "جو": 551,
      "جنهن": 552,
      "20": 553,
      "سنڌ": 554,
      "هو": 555,
      "شا": 556,
      "ڏي": 557,
      "جن": 558,
      "اڪ": 559,
      "ائي": 560,
      "سر": 561,
      "ٿي": 562,
      "در": 563,
      "اص": 564,
      "بر": 565,
      "قي": 566,
      "تي": 567,
      "ڙي": 568,
      "سو": 569,
      "ستان": 570,
      "وڏ": 571,
      "پوء": 572,
      "عل": 573,
      "سل": 574,
      "ندڙ": 575,
      "مع": 576,
      "وار": 577,
      "طور": 578,
      "ڪرڻ": 579,
      "بر": 580,
      "ڪن": 581,
      "جي": 582,
      "مرو": 583,
      "سندس": 584,
      "مد": 585,
      "پر": 586,
      "سي": 587,
      "پنهن": 588,
      "ات": 589,
      "شن": 590,
      "ڪئي": 591,
      "ٽر": 592,
      "ات": 593,
      "مق": 594,
      "ڏهن": 595,
      "عي": 596,
      "زمرو": 597,
      "ٽي": 598,
      "ره": 599,
      "نه": 600,
      "ڪي": 601,
      "في": 602,
      "تاب": 603,
      "انهن": 604,
      "ادي": 605,
      "واري": 606,
      "حي": 607,
      "تائين": 608,
      "اف": 609,
      "وڌ": 610,
      "ول": 611,
      "قت": 612,
      "ٿا": 613,
      "جيڪو": 614,
      "وڃ": 615,
      "ڪتاب": 616,
      "قي": 617,
      "رن": 618,
      "مخ": 619,
      "دي": 620,
      "اح": 621,
      "جا": 622,
      "اهه": 623,
      "په": 624,
      "تن": 625,
      "بل": 626,
      "ماڻ": 627,
      "سنڌي": 628,
      "هي": 629,
      "طر": 630,
      "ڪن": 631,
      "چي": 632,
      "اهو": 633,
      "پڻ": 634,
      "ٿيو": 635,
      "اند": 636,
      "ڳو": 637,
      "نظ": 638,
      "من": 639,
      "سال": 640,
      "پنهنجي": 641,
      "ڊي": 642,
      "انگ": 643,
      "ئا": 644,
      "ھر": 645,
      "اد": 646,
      "ال": 647,
      "اري": 648,
      "کي": 649,
      "صو": 650,
      "جون": 651,
      "گر": 652,
      "هه": 653,
      "مت": 654,
      "باد": 655,
      "ڙو": 656,
      "ھڪ": 657,
      "اڻ": 658,
      "تح": 659,
      "فر": 660,
      "محمد": 661,
      "آباد": 662,
      "پر": 663,
      "اهي": 664,
      "هئي": 665,
      "مل": 666,
      "ھو": 667,
      "وقت": 668,
      "پار": 669,
      "امل": 670,
      "ير": 671,
      "مش": 672,
      "اتي": 673,
      "نو": 674,
      "علائ": 675,
      "پاڪ": 676,
      "ڪار": 677,
      "شامل": 678,
      "نگ": 679,
      "مبر": 680,
      "ير": 681,
      "نالو": 682,
      "لک": 683,
      "يون": 684,
      "خان": 685,
      "ڪم": 686,
      "تو": 687,
      "آھن": 688,
      "شهر": 689,
      "وڃي": 690,
      "گھ": 691,
      "بن": 692,
      "هيء": 693,
      "سٽ": 694,
      "هئا": 695,
      "ويندو": 696,
      "مال": 697,
      "رک": 698,
      "ئن": 699,
      "يڪ": 700,
      "ڏن": 701,
      "مط": 702,
      "اخ": 703,
      "دا": 704,
      "چو": 705,
      "ڪا": 706,
      "تہ": 707,
      "ريون": 708,
      "اصل": 709,
      "نگ": 710,
      "پاڪستان": 711,
      "ملڪ": 712,
      "شرو": 713,
      "تاري": 714,
      "بد": 715,
      "نا": 716,
      "جنھن": 717,
      "ڪا": 718,
      "جڏهن": 719,
      "وري": 720,
      "آب": 721,
      "واق": 722,
      "ڳوٺ": 723,
      "مار": 724,
      "دار": 725,
      "فو": 726,
      "تعل": 727,
      "حص": 728,
      "شي": 729,
      "قو": 730,
      "سم": 731,
      "زي": 732,
      "ها": 733,
      "بو": 734,
      "ڻو": 735,
      "استع": 736,
      "وال": 737,
      "ٻو": 738,
      "18": 739,
      "ارن": 740,
      "ضل": 741,
      "عر": 742,
      "وئي": 743,
      "زي": 744,
      "ٽن": 745,
      "رس": 746,
      "ڊيا": 747,
      "نڍ": 748,
      "ڪو": 749,
      "دو": 750,
      "ئين": 751,
      "يور": 752,
      "رين": 753,
      "وڌيڪ": 754,
      "خو": 755,
      "جيڪي": 756,
      "نڊ": 757,
      "لڳ": 758,
      "ائڻ": 759,
      "استعمال": 760,
      "يت": 761,
      "زم": 762,
      "مير": 763,
      "موجو": 764,
      "ڪر": 765,
      "شھر": 766,
      "سائ": 767,
      "اسي": 768,
      "سڀ": 769,
      "لام": 770,
      "تو": 771,
      "لو": 772,
      "نيا": 773,
      "ڪيتر": 774,
      "سگه": 775,
      "تون": 776,
      "گڏ": 777,
      "جيڪا": 778,
      "لن": 779,
      "الي": 780,
      "مخت": 781,
      "201": 782,
      "ڪل": 783,
      "هر": 784,
      "ثر": 785,
      "سم": 786,
      "200": 787,
      "نهن": 788,
      "ليم": 789,
      "ڪرا": 790,
      "عام": 791,
      "الل": 792,
      "شاهه": 793,
      "ند": 794,
      "نالي": 795,
      "شاع": 796,
      "فل": 797,
      "وڏي": 798,
      "انا": 799,
      "است": 800,
      ")،": 801,
      "نس": 802,
      "ديھ": 803,
      "مون": 804,
      "ھن": 805,
      "علي": 806,
      "وڏو": 807,
      "بہ": 808,
      "سان": 809,
      "واقع": 810,
      "ڪل": 811,
      "وي": 812,
      "صف": 813,
      "اھ": 814,
      "مس": 815,
      "اڳ": 816,
      "ھو": 817,
      "حڪو": 818,
      "بو": 819,
      "مد": 820,
      "ڪجه": 821,
      "سيڪ": 822,
      "لف": 823,
      "دور": 824,
      "ٽر": 825,
      "صد": 826,
      "بع": 827,
      "تان": 828,
      "پاڻ": 829,
      "ڇڏ": 830,
      "کيس": 831,
      "مض": 832,
      "علائق": 833,
      "حاصل": 834,
      "في": 835,
      "دنيا": 836,
      "پي": 837,
      "ٻين": 838,
      "تاريخ": 839,
      "رهيو": 840,
      "۾،": 841,
      "تيار": 842,
      "مختلف": 843,
      "لا": 844,
      "ويا": 845,
      "مري": 846,
      "ڪار": 847,
      "ورو": 848,
      "الله": 849,
      "چون": 850,
      "وٺ": 851,
      "an": 852,
      "ٻي": 853,
      "سر": 854,
      "ڊي": 855,
      "in": 856,
      "سن": 857,
      "چي": 858,
      "خا": 859,
      "قائ": 860,
      "رو": 861,
      "سٽ": 862,
      "زن": 863,
      "آبادي": 864,
      "ننڍ": 865,
      "مام": 866,
      "ٿئي": 867,
      "ڪنهن": 868,
      "از": 869,
      "وارو": 870,
      "ڏک": 871,
      "عو": 872,
      "لف": 873,
      "اچي": 874,
      "دو": 875,
      "ڪجهه": 876,
      "مسل": 877,
      "حڪومت": 878,
      "گي": 879,
      "انگري": 880,
      "وٽ": 881,
      "ڙن": 882,
      "پرو": 883,
      "بعد": 884,
      "وچ": 885,
      "مطاب": 886,
      "حا": 887,
      "ورت": 888,
      "ڳال": 889,
      "اع": 890,
      "اڻ": 891,
      "موجود": 892,
      "بني": 893,
      "شروع": 894,
      "ذري": 895,
      "نٽ": 896,
      "وڪي": 897,
      "مطابق": 898,
      "سب": 899,
      "پور": 900,
      "انن": 901,
      "مشه": 902,
      "گو": 903,
      "ٽو": 904,
      "اتر": 905,
      "الي": 906,
      "الن": 907,
      "تعليم": 908,
      "جم": 909,
      "قر": 910,
      "ڏنو": 911,
      "بڻ": 912,
      "رت": 913,
      "پري": 914,
      "مشهور": 915,
      "مه": 916,
      "عي": 917,
      "تص": 918,
      "تب": 919,
      "وف": 920,
      "اء": 921,
      "پيڊيا": 922,
      "قائم": 923,
      "ادبي": 924,
      "جھ": 925,
      "صفح": 926,
      "نڊ": 927,
      "ڪم": 928,
      "ڀر": 929,
      "ضلعي": 930,
      "بل": 931,
      "حيدر": 932,
      "ڏکڻ": 933,
      "ڙا": 934,
      "اها": 935,
      "خاص": 936,
      "هند": 937,
      "ائون": 938,
      "اق": 939,
      "صاح": 940,
      "حيدرآباد": 941,
      "اول": 942,
      "199": 943,
      "عبد": 944,
      "دن": 945,
      "تق": 946,
      "نس": 947,
      "اڻي": 948,
      "شي": 949,
      "گرا": 950,
      "ضي": 951,
      "انهيء": 952,
      "ڳا": 953,
      "ملي": 954,
      "گڏ": 955,
      "عال": 956,
      "ٿيل": 957,
      "ٻڌ": 958,
      "پھ": 959,
      "شن": 960,
      "نديون": 961,
      "حصو": 962,
      "00": 963,
      "0ع": 964,
      "پيدا": 965,
      "ٻئي": 966,
      "خي": 967,
      "سڏ": 968,
      "باد": 969,
      "امي": 970,
      "تن": 971,
      "فار": 972,
      "زا": 973,
      "انس": 974,
      "جيئن": 975,
      "ئي": 976,
      "آر": 977,
      "اهر": 978,
      "اڳ": 979,
      "آمري": 980,
      "آز": 981,
      "ئر": 982,
      "ست": 983,
      "رياست": 984,
      "هين": 985,
      "پبل": 986,
      "ٿيڻ": 987,
      "ريء": 988,
      "تا": 989,
      "اسڪو": 990,
      "اوڀر": 991,
      "ماڻهو": 992,
      "به": 993,
      "ھيو": 994,
      "نا": 995,
      "ٽو": 996,
      "ٻول": 997,
      "7ع": 998,
      "ٿيون": 999,
      "قسم": 1000,
      "صاحب": 1001,
      "مرڪ": 1002,
      "دين": 1003,
      "آخ": 1004,
      "يونيور": 1005,
      "ارو": 1006,
      "نم": 1007,
      "ميٽر": 1008,
      "باب": 1009,
      "ڏينهن": 1010,
      "وڪيپيڊيا": 1011,
      "ايو": 1012,
      "تمام": 1013,
      "جر": 1014,
      "دري": 1015,
      "ڪيائين": 1016,
      "ڪيا": 1017,
      "ھي": 1018,
      "علائقي": 1019,
      "پنھن": 1020,
      "مب": 1021,
      "مص": 1022,
      "زند": 1023,
      "غير": 1024,
      "مذ": 1025,
      "ڙه": 1026,
      "قدي": 1027,
      "زمين": 1028,
      "فري": 1029,
      "لفظ": 1030,
      "هل": 1031,
      "فت": 1032,
      "سبب": 1033,
      "جل": 1034,
      "ڪاري": 1035,
      "ٻولي": 1036,
      "آف": 1037,
      "نق": 1038,
      "ائون": 1039,
      "انھن": 1040,
      "ڀر": 1041,
      "طرح": 1042,
      "مٿ": 1043,
      "پاران": 1044,
      "ٿيندو": 1045,
      "اسان": 1046,
      "پور": 1047,
      "جنگ": 1048,
      "اسٽي": 1049,
      "ڪيل": 1050,
      "چو": 1051,
      "مڪ": 1052,
      "ذريعي": 1053,
      "5ع": 1054,
      "ماڻهن": 1055,
      "مر": 1056,
      "دور": 1057,
      "آيو": 1058,
      "پهريون": 1059,
      "جتي": 1060,
      "2ع": 1061,
      "قل": 1062,
      "ھئي": 1063,
      "چيو": 1064,
      "شري": 1065,
      "هوندو": 1066,
      "يان": 1067,
      "بخ": 1068,
      "يو": 1069,
      "يم": 1070,
      "197": 1071,
      "198": 1072,
      "3ع": 1073,
      "اهم": 1074,
      "سل": 1075,
      "بور": 1076,
      "ڪائون": 1077,
      "سوا": 1078,
      "سما": 1079,
      "احمد": 1080,
      "برا": 1081,
      "ڏا": 1082,
      "ئر": 1083,
      "ڏانهن": 1084,
      "قديم": 1085,
      "اسڪول": 1086,
      "علا": 1087,
      "کو": 1088,
      "1ع": 1089,
      "اٿ": 1090,
      "6ع": 1091,
      "پرا": 1092,
      "غير": 1093,
      "ده": 1094,
      "پٽ": 1095,
      "ڪت": 1096,
      "دان": 1097,
      "مضمون": 1098,
      "ائن": 1099,
      "انت": 1100,
      "ول": 1101,
      "سگ": 1102,
      "عبدال": 1103,
      "نہ": 1104,
      "انڊ": 1105,
      "وغير": 1106,
      "زار": 1107,
      "سام": 1108,
      "کان": 1109,
      "پيو": 1110,
      "ريا": 1111,
      "سڀ": 1112,
      "196": 1113,
      "گي": 1114,
      "اديء": 1115,
      "چونڊ": 1116,
      "سٽي": 1117,
      "شع": 1118,
      "وٺي": 1119,
      "واپ": 1120,
      "وني": 1121,
      "فر": 1122,
      "صوبي": 1123,
      "ايڊي": 1124,
      "مث": 1125,
      "لاح": 1126,
      "اچ": 1127,
      "لوي": 1128,
      "اش": 1129,
      "ٽيڪ": 1130,
      "زر": 1131,
      "قان": 1132,
      "ڊاڪ": 1133,
      "ڪس": 1134,
      "گهڻو": 1135,
      "طرف": 1136,
      "رهي": 1137,
      "ڪندو": 1138,
      "ئون": 1139,
      "اي": 1140,
      "ٻه": 1141,
      "طرف": 1142,
      "4ع": 1143,
      "مقر": 1144,
      "ليک": 1145,
      "سندن": 1146,
      "سيد": 1147,
      "سالن": 1148,
      "شروع": 1149,
      "شر": 1150,
      "8ع": 1151,
      "سلط": 1152,
      "ڪلو": 1153,
      "گذ": 1154,
      "دوران": 1155,
      "انو": 1156,
      "وغيره": 1157,
      "ڪندا": 1158,
      "ٽا": 1159,
      "يع": 1160,
      "ٻيو": 1161,
      "حوال": 1162,
      "ما": 1163,
      "ti": 1164,
      "ڏي": 1165,
      "ارت": 1166,
      "پنھنجي": 1167,
      "خلا": 1168,
      "194": 1169,
      "خاند": 1170,
      "ڪراچي": 1171,
      "ارا": 1172,
      "اس": 1173,
      "hi": 1174,
      "ظم": 1175,
      "مقرر": 1176,
      "سياسي": 1177,
      "بت": 1178,
      "ٿين": 1179,
      "خت": 1180,
      "گور": 1181,
      "ايل": 1182,
      "ar": 1183,
      "ڪندي": 1184,
      "پهرين": 1185,
      "عت": 1186,
      "سو": 1187,
      "داد": 1188,
      "سمن": 1189,
      "صدر": 1190,
      "وفات": 1191,
      "با": 1192,
      "بورڊ": 1193,
      "پاڻي": 1194,
      "طرفان": 1195,
      "ٿيا": 1196,
      "قو": 1197,
      "شاھ": 1198,
      "ڊاڪٽر": 1199,
      "ميت": 1200,
      "195": 1201,
      "جڻ": 1202,
      "وارن": 1203,
      "حاظ": 1204,
      "ڄي": 1205,
      "ٺاه": 1206,
      "عمل": 1207,
      "فن": 1208,
      "وڪ": 1209,
      "ندر": 1210,
      "تعلقي": 1211,
      "ثق": 1212,
      "ٻن": 1213,
      "پيل": 1214,
      "سين": 1215,
      "ريت": 1216,
      "ڌر": 1217,
      "er": 1218,
      "ڀي": 1219,
      "بن": 1220,
      "کانپوء": 1221,
      "مشت": 1222,
      "رف": 1223,
      "ڏني": 1224,
      "..": 1225,
      "حد": 1226,
      "نظام": 1227,
      "گا": 1228,
      "ڪيترن": 1229,
      "9ع": 1230,
      "ind": 1231,
      "بابت": 1232,
      "يعني": 1233,
      "ڳو": 1234,
      "ڪان": 1235,
      "شم": 1236,
      "امي": 1237,
      "دائ": 1238,
      "تر": 1239,
      "بح": 1240,
      "اندر": 1241,
      "تبدي": 1242,
      "تخ": 1243,
      "طي": 1244,
      "ترين": 1245,
      "صح": 1246,
      "صدي": 1247,
      "وز": 1248,
      "افي": 1249,
      "هجي": 1250,
      "ادب": 1251,
      "ايت": 1252,
      "ڪيترائي": 1253,
      "بنياد": 1254,
      "ابن": 1255,
      "پل": 1256,
      "جد": 1257,
      "يونيورسٽي": 1258,
      "هيٺ": 1259,
      "مشتمل": 1260,
      "رکيو": 1261,
      "ڪالي": 1262,
      "پيش": 1263,
      "گهر": 1264,
      "ويندي": 1265,
      "شاي": 1266,
      "سنڌي": 1267,
      "نظر": 1268,
      "خد": 1269,
      "تحري": 1270,
      "کر": 1271,
      "17": 1272,
      "ٺه": 1273,
      "لينڊ": 1274,
      "هان": 1275,
      "ڏئي": 1276,
      "ڪائونسل": 1277,
      "مال": 1278,
      "مج": 1279,
      "شر": 1280,
      "هنڌ": 1281,
      "ڻن": 1282,
      "نام": 1283,
      "ڏيڻ": 1284,
      "سنڌيانا": 1285,
      "را": 1286,
      "سمنڊ": 1287,
      "Sind": 1288,
      "جان": 1289,
      "الدين": 1290,
      "ساڳ": 1291,
      "اصط": 1292,
      "اب": 1293,
      "ڏھن": 1294,
      "ڙيء": 1295,
      "ايم": 1296,
      "نمبر": 1297,
      "حض": 1298,
      "ڪه": 1299,
      "طري": 1300,
      "ٺو": 1301,
      "ورن": 1302,
      "ٻي": 1303,
      "ٻيا": 1304,
      "گر": 1305,
      "تعلق": 1306,
      "قومي": 1307,
      "حال": 1308,
      "مذه": 1309,
      "ثقاف": 1310,
      "سگهي": 1311,
      "هوندي": 1312,
      "لاڳا": 1313,
      "وامي": 1314,
      "اپ": 1315,
      "اڪثر": 1316,
      "نص": 1317,
      "ران": 1318,
      "پبلشر": 1319,
      "عمر": 1320,
      "اول": 1321,
      "ڪندڙ": 1322,
      "علم": 1323,
      "ڪاليج": 1324,
      "مين": 1325,
      "ملڪن": 1326,
      "خي": 1327,
      "ليکڪ": 1328,
      "رکي": 1329,
      "سط": 1330,
      "نئين": 1331,
      "سواء": 1332,
      "قب": 1333,
      "اھو": 1334,
      "سائي": 1335,
      "ترقي": 1336,
      "رنگ": 1337,
      "صورت": 1338,
      "ڇڏيو": 1339,
      "جب": 1340,
      "چور": 1341,
      "سيڪڙو": 1342,
      "بلو": 1343,
      "وارا": 1344,
      "نش": 1345,
      "ٻوليء": 1346,
      "ڪوٽ": 1347,
      "هيون": 1348,
      "چار": 1349,
      "بيان": 1350,
      "ٽيء": 1351,
      "ڀا": 1352,
      "غلام": 1353,
      "202": 1354,
      "مدد": 1355,
      "ٽس": 1356,
      "ٿيندي": 1357,
      "شخ": 1358,
      "يونين": 1359,
      "بار": 1360,
      "ــ": 1361,
      "بان": 1362,
      "فا": 1363,
      "ريلوي": 1364,
      "اهڙي": 1365,
      "هتي": 1366,
      "اڄ": 1367,
      "شيخ": 1368,
      "ڻيء": 1369,
      "اسلا": 1370,
      "اسلام": 1371,
      "گل": 1372,
      "ٻن": 1373,
      "گورن": 1374,
      "رات": 1375,
      "ختم": 1376,
      "صفحو": 1377,
      "انگريزي": 1378,
      "گرو": 1379,
      "ميل": 1380,
      "کين": 1381,
      "نوا": 1382,
      "ٿر": 1383,
      "هيو": 1384,
      "نت": 1385,
      "ڪلوميٽر": 1386,
      "گهر": 1387,
      "ايڪ": 1388,
      "ڇا": 1389,
      "شيا": 1390,
      "آمريڪا": 1391,
      "حضرت": 1392,
      "ميمبر": 1393,
      "برو": 1394,
      "ڪال": 1395,
      "وه": 1396,
      "ليون": 1397,
      "قبي": 1398,
      "ڌي": 1399,
      "ڪش": 1400,
      "ana": 1401,
      "اسٽ": 1402,
      "جهڙ": 1403,
      "نئون": 1404,
      "شاعر": 1405,
      "حيث": 1406,
      "لکيل": 1407,
      "سانچو": 1408,
      "گهٽ": 1409,
      "جلد": 1410,
      "مرزا": 1411,
      "خاندان": 1412,
      "لغ": 1413,
      "حيثيت": 1414,
      "علائقو": 1415,
      "هندستان": 1416,
      "ٽيون": 1417,
      "رھ": 1418,
      "وسي": 1419,
      "ستاني": 1420,
      "193": 1421,
      "ديد": 1422,
      "بين": 1423,
      "وار": 1424,
      "قن": 1425,
      "مغ": 1426,
      "اثر": 1427,
      "مرڪز": 1428,
      "ذڪر": 1429,
      "سڃ": 1430,
      "تل": 1431,
      "شروعات": 1432,
      "پير": 1433,
      "هڪ": 1434,
      "اٽ": 1435,
      "سڀني": 1436,
      "رل": 1437,
      "شورو": 1438,
      "آڪ": 1439,
      "تحقي": 1440,
      "ڇپ": 1441,
      "ڪلا": 1442,
      "آزاد": 1443,
      "اختيار": 1444,
      "مسجد": 1445,
      "سمجه": 1446,
      "علي": 1447,
      "سرڪاري": 1448,
      "فت": 1449,
      "نتي": 1450,
      "انتظ": 1451,
      "Sindhi": 1452,
      "دم": 1453,
      "ڄاڻ": 1454,
      "علائقن": 1455,
      "مڪمل": 1456,
      "Sindhiana": 1457,
      "en": 1458,
      "or": 1459,
      "Sindhianaسنڌيانا": 1460,
      "وانگ": 1461,
      "ڻا": 1462,
      "on": 1463,
      "فائ": 1464,
      "ايڊيشن": 1465,
      "اسٽيشن": 1466,
      "ابي": 1467,
      "مينٽ": 1468,
      "رام": 1469,
      "طان": 1470,
      "ائيندڙ": 1471,
      "خيال": 1472,
      "ورتو": 1473,
      "مول": 1474,
      "عن": 1475,
      "جيڪڏهن": 1476,
      "داخ": 1477,
      "آن": 1478,
      "زو": 1479,
      "اردو": 1480,
      "سڏيو": 1481,
      "هاڻي": 1482,
      "عور": 1483,
      "مري": 1484,
      "چئ": 1485,
      "حي": 1486,
      "ويندا": 1487,
      "در": 1488,
      "صرف": 1489,
      "برطان": 1490,
      "ڪري": 1491,
      "بنيادي": 1492,
      "فلم": 1493,
      "زندگي": 1494,
      "جاري": 1495,
      "لائ": 1496,
      "اولهه": 1497,
      "خلاف": 1498,
      "پاسي": 1499,
      "راڻي": 1500,
      "بند": 1501,
      "پڙه": 1502,
      "حق": 1503,
      "لب": 1504,
      "ويج": 1505,
      "ڪردار": 1506,
      "راء": 1507,
      "مٿي": 1508,
      "جاء": 1509,
      "ڪون": 1510,
      "تاريخي": 1511,
      "شاه": 1512,
      "موجب": 1513,
      "اسي": 1514,
      "شنل": 1515,
      "حڪ": 1516,
      "ڄام": 1517,
      "ڪمي": 1518,
      "بخش": 1519,
      "ٽڪ": 1520,
      "ڪيون": 1521,
      "لکي": 1522,
      "ڄام": 1523,
      "شھ": 1524,
      "اسلامي": 1525,
      "10": 1526,
      "on": 1527,
      "ڪڏهن": 1528,
      "زماني": 1529,
      "نسل": 1530,
      "هوء": 1531,
      "ليل": 1532,
      "کا": 1533,
      "جديد": 1534,
      "پٽ": 1535,
      "15": 1536,
      "هون": 1537,
      "صن": 1538,
      "ستي": 1539,
      "مثال": 1540,
      "يب": 1541,
      "ڪڍ": 1542,
      "يرو": 1543,
      "سائنس": 1544,
      "ڪامي": 1545,
      "ڪوش": 1546,
      "مون": 1547,
      "ٽري": 1548,
      "ڇڏي": 1549,
      "جان": 1550,
      "شايع": 1551,
      "ڪور": 1552,
      "باني": 1553,
      "مهي": 1554,
      "ٿيندا": 1555,
      "فق": 1556,
      "قانون": 1557,
      "ڙيل": 1558,
      "معي": 1559,
      "تحريڪ": 1560,
      "ٺي": 1561,
      "گڏيل": 1562,
      "جهڙوڪ": 1563,
      "رائ": 1564,
      "ترجم": 1565,
      "وڃن": 1566,
      "ريل": 1567,
      "لڳ": 1568,
      "مين": 1569,
      "انساني": 1570,
      "هوندا": 1571,
      "نيو": 1572,
      "پن": 1573,
      "ڇو": 1574,
      "عا": 1575,
      "بول": 1576,
      "سماجي": 1577,
      "ڌاري": 1578,
      "رح": 1579,
      "رڪ": 1580,
      "اھي": 1581,
      "لکيو": 1582,
      "کڻي": 1583,
      "ڪنھن": 1584,
      "معلو": 1585,
      "ديو": 1586,
      "اج": 1587,
      "نيٰ": 1588,
      "عالمي": 1589,
      "ڏس": 1590,
      "شاگر": 1591,
      "ٻار": 1592,
      "ٽرو": 1593,
      "تقري": 1594,
      "فقي": 1595,
      "ڇو": 1596,
      "سڄي": 1597,
      "سور": 1598,
      "is": 1599,
      "ارين": 1600,
      "انسان": 1601,
      "مرت": 1602,
      "16": 1603,
      "مختيار": 1604,
      "نو": 1605,
      "الو": 1606,
      "ڊگ": 1607,
      "10": 1608,
      "ڪافي": 1609,
      "چوندا": 1610,
      "فتح": 1611,
      "ادر": 1612,
      "بڻجي": 1613,
      "معنيٰ": 1614,
      "است": 1615,
      "پنهنجو": 1616,
      "پنجا": 1617,
      "آفري": 1618,
      "لحاظ": 1619,
      "ڙهي": 1620,
      "مرا": 1621,
      "لاح": 1622,
      "تڏهن": 1623,
      "دؤ": 1624,
      "رياس": 1625,
      "تعمير": 1626,
      "خط": 1627,
      "ھور": 1628,
      "استا": 1629,
      "تحت": 1630,
      "اڏ": 1631,
      "مائ": 1632,
      "20": 1633,
      "وانگر": 1634,
      "اڃ": 1635,
      "تنهن": 1636,
      "حوالي": 1637,
      "اڳوا": 1638,
      "عربي": 1639,
      "استاد": 1640,
      "فوج": 1641,
      "دست": 1642,
      "مڻ": 1643,
      "جود": 1644,
      "شاعري": 1645,
      "ظاهر": 1646,
      "هئ": 1647,
      "وزي": 1648,
      "رس": 1649,
      "جنم": 1650,
      "وٽ": 1651,
      "پنج": 1652,
      "دل": 1653,
      "مطال": 1654,
      "گيء": 1655,
      "مز": 1656,
      "انگ": 1657,
      "سلطنت": 1658,
      "it": 1659,
      "فه": 1660,
      "گاديء": 1661,
      "روا": 1662,
      "حسن": 1663,
      "چين": 1664,
      "تعداد": 1665,
      ").": 1666,
      "سگهجي": 1667,
      "پنجاب": 1668,
      "منظ": 1669,
      "حسين": 1670,
      "قرار": 1671,
      "هٿ": 1672,
      "آگ": 1673,
      "رست": 1674,
      "ڄامشورو": 1675,
      "عرب": 1676,
      "مف": 1677,
      "al": 1678,
      "حقي": 1679,
      "سين": 1680,
      "بند": 1681,
      "وڻ": 1682,
      "تنظ": 1683,
      "سا": 1684,
      "ڊرا": 1685,
      "آفي": 1686,
      "ضو": 1687,
      "ھيء": 1688,
      "پاس": 1689,
      "هنن": 1690,
      "اڪي": 1691,
      "اتو": 1692,
      "ڀاڱ": 1693,
      "آمريڪي": 1694,
      "داد": 1695,
      "بچ": 1696,
      "ٻيون": 1697,
      "عليه": 1698,
      "قا": 1699,
      "جنوري": 1700,
      "000": 1701,
      "مست": 1702,
      "رڳو": 1703,
      "شين": 1704,
      "مھ": 1705,
      "قاب": 1706,
      "تري": 1707,
      "مقام": 1708,
      "مان": 1709,
      "بيگ": 1710,
      "سه": 1711,
      "سرو": 1712,
      "دؤر": 1713,
      "ماء": 1714,
      "چونڊ": 1715,
      "پيء": 1716,
      "ماني": 1717,
      "جنرل": 1718,
      "آخري": 1719,
      "ڌو": 1720,
      "اين": 1721,
      "مطلب": 1722,
      "ٽري": 1723,
      "عو": 1724,
      "تصوي": 1725,
      "حو": 1726,
      "ترجمو": 1727,
      "متا": 1728,
      "شادي": 1729,
      "ماڻھو": 1730,
      "پيا": 1731,
      "ماري": 1732,
      "قرآن": 1733,
      "رهيا": 1734,
      "هيٺ": 1735,
      "مٿان": 1736,
      "قدر": 1737,
      "داخل": 1738,
      "سخ": 1739,
      "اسپ": 1740,
      "192": 1741,
      "مسلمان": 1742,
      "مانن": 1743,
      "ابت": 1744,
      "پھريون": 1745,
      "مارچ": 1746,
      "حصي": 1747,
      "جبل": 1748,
      "es": 1749,
      "وڏا": 1750,
      "باقي": 1751,
      "ڊس": 1752,
      "اليڪ": 1753,
      "ٽين": 1754,
      "هندو": 1755,
      "13": 1756,
      "اف": 1757,
      "ويزن": 1758,
      "سفر": 1759,
      "اقت": 1760,
      "تعلقو": 1761,
      "گهڻي": 1762,
      "مه": 1763,
      "ران": 1764,
      "ادا": 1765,
      "پوري": 1766,
      "تحقيق": 1767,
      "عورتن": 1768,
      "ڊو": 1769,
      "()": 1770,
      "ملا": 1771,
      "لاڳاپيل": 1772,
      "ٻيٽ": 1773,
      "موا": 1774,
      "ميان": 1775,
      "ڏنل": 1776,
      "زم": 1777,
      "فيص": 1778,
      "at": 1779,
      "سند": 1780,
      "ترتي": 1781,
      "ڪلي": 1782,
      "پک": 1783,
      "الا": 1784,
      "ڳالهه": 1785,
      "نيشنل": 1786,
      "هنڪري": 1787,
      "تج": 1788,
      "نن": 1789,
      "ڏيک": 1790,
      "پارٽي": 1791,
      "مسلم": 1792,
      "ھتي": 1793,
      "عالم": 1794,
      "پئي": 1795,
      "فقير": 1796,
      "فوجي": 1797,
      "زبان": 1798,
      "الڳ": 1799,
      "وال": 1800,
      "هلي": 1801,
      "اڳتي": 1802,
      "شو": 1803,
      "گن": 1804,
      "شت": 1805,
      "سگھ": 1806,
      "ملن": 1807,
      "مسلمانن": 1808,
      "ويون": 1809,
      "ٿيندڙ": 1810,
      "ڳاله": 1811,
      "ڪرو": 1812,
      "ايس": 1813,
      "فلس": 1814,
      "مسئ": 1815,
      "جائ": 1816,
      "مرتب": 1817,
      "ضر": 1818,
      "گري": 1819,
      "روي": 1820,
      "جاگرا": 1821,
      "چورس": 1822,
      "بيت": 1823,
      "ائيء": 1824,
      "جڏھن": 1825,
      "ٻنهي": 1826,
      "تشري": 1827,
      "ھئا": 1828,
      "ناهي": 1829,
      "الاق": 1830,
      "امن": 1831,
      "رواي": 1832,
      "ڏاڍ": 1833,
      "شڪ": 1834,
      "عيسو": 1835,
      "ڊائ": 1836,
      "روز": 1837,
      "لوڪ": 1838,
      "ضلعو": 1839,
      "ڪئ": 1840,
      "وزير": 1841,
      "وڪي": 1842,
      "يورپ": 1843,
      "سمن": 1844,
      "چند": 1845,
      "12": 1846,
      "لک": 1847,
      "موضو": 1848,
      "لغت": 1849,
      "اڻو": 1850,
      "توهان": 1851,
      "حڪمر": 1852,
      "آئي": 1853,
      "تعلي": 1854,
      "تبديل": 1855,
      "آيا": 1856,
      "باب": 1857,
      "عرص": 1858,
      "لاڙ": 1859,
      "ترتيب": 1860,
      "الاقوامي": 1861,
      "اض": 1862,
      "انڊيا": 1863,
      "چيء": 1864,
      "ايشيا": 1865,
      "خاص": 1866,
      "ائو": 1867,
      "مولانا": 1868,
      "12": 1869,
      "an": 1870,
      "نما": 1871,
      "مقامي": 1872,
      "زت": 1873,
      "آخر": 1874,
      "ٺن": 1875,
      "صد": 1876,
      "قتل": 1877,
      "سطح": 1878,
      "آئ": 1879,
      "ائيندا": 1880,
      "ڏيندا": 1881,
      "اٿس": 1882,
      "تف": 1883,
      "نمائ": 1884,
      "دل": 1885,
      "ڇي": 1886,
      "پئ": 1887,
      "اچڻ": 1888,
      "پيدائ": 1889,
      "فران": 1890,
      "دائي": 1891,
      "ھوندو": 1892,
      "چا": 1893,
      "پنج": 1894,
      "روڊ": 1895,
      "صر": 1896,
      "مشھور": 1897,
      "قلا": 1898,
      "15": 1899,
      "عظ": 1900,
      "پاڻيء": 1901,
      "ic": 1902,
      "پولي": 1903,
      "اوت": 1904,
      "ضرو": 1905,
      "ٻولين": 1906,
      "ريو": 1907,
      "تيء": 1908,
      "چر": 1909,
      "يڪي": 1910,
      "ملاح": 1911,
      "عد": 1912,
      "توڙي": 1913,
      "ڪوشش": 1914,
      "al": 1915,
      "زور": 1916,
      "مکي": 1917,
      "سٽري": 1918,
      "مجمو": 1919,
      "مقصد": 1920,
      "اولھ": 1921,
      "سميت": 1922,
      "ها": 1923,
      "وس": 1924,
      "er": 1925,
      "نار": 1926,
      "مقاب": 1927,
      "فارسي": 1928,
      "پٺ": 1929,
      "نڪ": 1930,
      "شخص": 1931,
      "ضو": 1932,
      "طن": 1933,
      "ننڍي": 1934,
      "ڪمپن": 1935,
      "امام": 1936,
      "بھ": 1937,
      "ٽل": 1938,
      "حڪم": 1939,
      "شو": 1940,
      "عمار": 1941,
      "ڪارڊ": 1942,
      "ڳنڍ": 1943,
      "نالا": 1944,
      "ايو": 1945,
      "موسي": 1946,
      "يونيورسٽ": 1947,
      "ڪتابن": 1948,
      "لاحن": 1949,
      "باري": 1950,
      "وره": 1951,
      "شڪل": 1952,
      "لڳي": 1953,
      "ڙيون": 1954,
      "سنڌو": 1955,
      "انداز": 1956,
      "لئ": 1957,
      "ڄاڻ": 1958,
      "چار": 1959,
      "جڳ": 1960,
      "طب": 1961,
      "جسم": 1962,
      "مار": 1963,
      "جر": 1964,
      "مڃ": 1965,
      "جني": 1966,
      "نوان": 1967,
      "گرام": 1968,
      "نتيجي": 1969,
      "آگسٽ": 1970,
      "فهرست": 1971,
      "سول": 1972,
      "خدم": 1973,
      "وس": 1974,
      "مدر": 1975,
      "ol": 1976,
      "ڊسمبر": 1977,
      "جما": 1978,
      "سنگ": 1979,
      "توڻ": 1980,
      "جيتوڻ": 1981,
      "گرم": 1982,
      "سخت": 1983,
      "بار": 1984,
      "امير": 1985,
      "سج": 1986,
      "نسي": 1987,
      "چر": 1988,
      "جدا": 1989,
      "اڳو": 1990,
      "رھيو": 1991,
      "عورت": 1992,
      "قيد": 1993,
      "ڏين": 1994,
      "جيتوڻيڪ": 1995,
      "مصن": 1996,
      "رض": 1997,
      "مير": 1998,
      "سپ": 1999,
      "موجوده": 2000,
      "اھا": 2001,
      "خان": 2002,
      "رکندڙ": 2003,
      "اريء": 2004,
      "افغ": 2005,
      "خط": 2006,
      "چن": 2007,
      "لاد": 2008,
      "بادشاهه": 2009,
      "سک": 2010,
      "می": 2011,
      "...": 2012,
      "قوم": 2013,
      "اصطلاحن": 2014,
      "نه": 2015,
      "اپو": 2016,
      "آڪٽو": 2017,
      "am": 2018,
      "ڙين": 2019,
      "تعليمي": 2020,
      "چڪو": 2021,
      "ائر": 2022,
      "فتار": 2023,
      "پري": 2024,
      "پريل": 2025,
      "مذهبي": 2026,
      "زندگيء": 2027,
      "مواد": 2028,
      "اڪ": 2029,
      "اڃا": 2030,
      "عه": 2031,
      "رکڻ": 2032,
      "مئ": 2033,
      "اداڪ": 2034,
      "14": 2035,
      "ٽن": 2036,
      "گاهه": 2037,
      "مو": 2038,
      "ھين": 2039,
      "زل": 2040,
      "عب": 2041,
      "آوا": 2042,
      "خبر": 2043,
      "ڊا": 2044,
      "والد": 2045,
      "ڪهاڻ": 2046,
      "قلعي": 2047,
      "ثقافتي": 2048,
      "چئبو": 2049,
      "حد": 2050,
      "داري": 2051,
      "ڊن": 2052,
      "ڻي": 2053,
      "of": 2054,
      "معا": 2055,
      "ماڻھن": 2056,
      "خدا": 2057,
      "گل": 2058,
      "مصنف": 2059,
      "14": 2060,
      "حاڪ": 2061,
      "بغ": 2062,
      "رست": 2063,
      "چيئر": 2064,
      "گار": 2065,
      "30": 2066,
      "پھرين": 2067,
      "آڪٽوبر": 2068,
      "چون": 2069,
      "شاعريء": 2070,
      "دف": 2071,
      "ڌار": 2072,
      "شڪر": 2073,
      "داو": 2074,
      "هزار": 2075,
      "ڪاڻي": 2076,
      "انج": 2077,
      "لڳو": 2078,
      "طي": 2079,
      "چڱ": 2080,
      "مرڪزي": 2081,
      "لائي": 2082,
      "وڌي": 2083,
      "لال": 2084,
      "اڪي": 2085,
      "ريگ": 2086,
      "جهي": 2087,
      "مکيه": 2088,
      "نبي": 2089,
      "ايران": 2090,
      "آء": 2091,
      "سڪ": 2092,
      "ڪپ": 2093,
      "اپريل": 2094,
      "سون": 2095,
      "آفريڪا": 2096,
      "ڙي": 2097,
      "es": 2098,
      "اک": 2099,
      "اعل": 2100,
      "اريو": 2101,
      "راب": 2102,
      "حالت": 2103,
      "خلي": 2104,
      "ڀيرو": 2105,
      "شريف": 2106,
      "علاو": 2107,
      "پڙ": 2108,
      "قابل": 2109,
      "ٽائي": 2110,
      "مات": 2111,
      "ڪراچيء": 2112,
      "لکڻ": 2113,
      "راڻ": 2114,
      "ڀڳ": 2115,
      "اصلي": 2116,
      "فيبرو": 2117,
      "سنڀ": 2118,
      "نومبر": 2119,
      "راج": 2120,
      "بزر": 2121,
      "قط": 2122,
      "رون": 2123,
      "ڊيو": 2124,
      "لفظ": 2125,
      "اون": 2126,
      "لس": 2127,
      "باغ": 2128,
      "11": 2129,
      "ڪناري": 2130,
      "ati": 2131,
      "رڪارڊ": 2132,
      "پسند": 2133,
      "وائ": 2134,
      "ناول": 2135,
      "ارتي": 2136,
      "تشريحي": 2137,
      "اجا": 2138,
      "يڪل": 2139,
      "فوٽ": 2140,
      "فور": 2141,
      "ڊل": 2142,
      "جولاء": 2143,
      "طاقت": 2144,
      "ٻار": 2145,
      "غل": 2146,
      "راجا": 2147,
      "سلم": 2148,
      "پورٽ": 2149,
      "اولاد": 2150,
      "آث": 2151,
      "جع": 2152,
      "ڀاء": 2153,
      "ڪلام": 2154,
      "روش": 2155,
      "سيپٽ": 2156,
      "جهان": 2157,
      "سون": 2158,
      "پيداو": 2159,
      "سامون": 2160,
      "ڇاڪ": 2161,
      "190": 2162,
      "وارڊ": 2163,
      "خود": 2164,
      "سلطان": 2165,
      "آزادي": 2166,
      "ڇاڪاڻ": 2167,
      "قبضو": 2168,
      "صحي": 2169,
      "واپس": 2170,
      "انهي": 2171,
      "زيء": 2172,
      "هندي": 2173,
      "اجي": 2174,
      "ذات": 2175,
      "as": 2176,
      "سيپٽمبر": 2177,
      "شيء": 2178,
      "ته": 2179,
      "حل": 2180,
      "ڏو": 2181,
      "ادن": 2182,
      "تنظيم": 2183,
      "منهن": 2184,
      "اٽڪل": 2185,
      "ليٰ": 2186,
      "ورتي": 2187,
      "نيو": 2188,
      "صوبو": 2189,
      "نڍ": 2190,
      "ٽرن": 2191,
      "پاس": 2192,
      "ھيا": 2193,
      "ويجهو": 2194,
      "آئين": 2195,
      "انگريزن": 2196,
      "زمي": 2197,
      "بلحاظ": 2198,
      "هاء": 2199,
      "18": 2200,
      "ليڪ": 2201,
      "وڏن": 2202,
      "افت": 2203,
      "بنگ": 2204,
      "قبر": 2205,
      "مخال": 2206,
      "اسيمب": 2207,
      "ترو": 2208,
      "وا": 2209,
      "حمل": 2210,
      "متاثر": 2211,
      "قدرتي": 2212,
      "ضرورت": 2213,
      "ڇا": 2214,
      "گو": 2215,
      "موڪل": 2216,
      "معام": 2217,
      "دوم": 2218,
      "سامونڊي": 2219,
      "ڪرو": 2220,
      "ثقافت": 2221,
      "خوا": 2222,
      "سائين": 2223,
      "قومن": 2224,
      "اٿار": 2225,
      "ac": 2226,
      "ین": 2227,
      "آواز": 2228,
      "واس": 2229,
      "طيف": 2230,
      "اصطلاح": 2231,
      "ٺاهي": 2232,
      "انقلا": 2233,
      "گورنر": 2234,
      "فيبروري": 2235,
      "ڻڻ": 2236,
      "بال": 2237,
      "مليو": 2238,
      "ٽنگ": 2239,
      "سيڪري": 2240,
      "صديء": 2241,
      "og": 2242,
      "راه": 2243,
      "ٺٽي": 2244,
      "ڪيٽ": 2245,
      "صفحا": 2246,
      "هور": 2247,
      "پٿر": 2248,
      "پهچ": 2249,
      "سلي": 2250,
      "راب": 2251,
      "وڃڻ": 2252,
      "ٻيهر": 2253,
      "13": 2254,
      "نل": 2255,
      "پريس": 2256,
      "وجود": 2257,
      "سنڌيء": 2258,
      "عظيم": 2259,
      "ڏه": 2260,
      "انجني": 2261,
      "ماڳ": 2262,
      "ابو": 2263,
      "نر": 2264,
      "25": 2265,
      "عقي": 2266,
      "پا": 2267,
      "ليت": 2268,
      "ڀارت": 2269,
      "ڇاپو": 2270,
      "تجر": 2271,
      "وسلم": 2272,
      "ٽال": 2273,
      "اخبار": 2274,
      "انتظامي": 2275,
      "سکر": 2276,
      "ٻہ": 2277,
      "ارڪ": 2278,
      "شاھ": 2279,
      "ٻارن": 2280,
      "ايندو": 2281,
      "بهترين": 2282,
      "اٺ": 2283,
      "ازي": 2284,
      "شڪ": 2285,
      "قا": 2286,
      "لن": 2287,
      "ڏسي": 2288,
      "موق": 2289,
      "اتان": 2290,
      "جه": 2291,
      "شڪار": 2292,
      "سياست": 2293,
      "موت": 2294,
      "ur": 2295,
      "ميدان": 2296,
      "tr": 2297,
      "مذهب": 2298,
      "اسيمبلي": 2299,
      "16": 2300,
      "بائي": 2301,
      "ڪريو": 2302,
      "اڌ": 2303,
      "عث": 2304,
      "عوامي": 2305,
      "ماهر": 2306,
      "چوڻ": 2307,
      "خود": 2308,
      "اهڙو": 2309,
      "پروفي": 2310,
      "ئس": 2311,
      "پراڻي": 2312,
      "ٺهيل": 2313,
      "آغ": 2314,
      "ويز": 2315,
      "برطانوي": 2316,
      "عظم": 2317,
      "متي": 2318,
      "ڏو": 2319,
      "بئ": 2320,
      "اسم": 2321,
      "تصور": 2322,
      "جوا": 2323,
      "کنڊ": 2324,
      "شهرن": 2325,
      "موضوع": 2326,
      "علاوه": 2327,
      "سلسل": 2328,
      "اط": 2329,
      "ٻاهر": 2330,
      "پورو": 2331,
      "واپار": 2332,
      "شڪار": 2333,
      "مئي": 2334,
      "تنهنڪري": 2335,
      "50": 2336,
      "راج": 2337,
      "گهه": 2338,
      "ايوارڊ": 2339,
      "ارف": 2340,
      "سڃاڻ": 2341,
      "17": 2342,
      "صاف": 2343,
      "واء": 2344,
      "مخدوم": 2345,
      "ڍنڍ": 2346,
      "سگهن": 2347,
      "19": 2348,
      "بندي": 2349,
      "جمهو": 2350,
      "لشڪر": 2351,
      "نموني": 2352,
      "el": 2353,
      "انٽر": 2354,
      "188": 2355,
      "لڊ": 2356,
      "ڪمپي": 2357,
      "سماج": 2358,
      "مراد": 2359,
      "يد": 2360,
      "گھر": 2361,
      "ڊويزن": 2362,
      "ھون": 2363,
      "نوجو": 2364,
      "بلوچ": 2365,
      "مپ": 2366,
      "چان": 2367,
      "قلي": 2368,
      "ٺھ": 2369,
      "گھر": 2370,
      "ائيندو": 2371,
      "ڪرايو": 2372,
      "شخص": 2373,
      "قاضي": 2374,
      "هار": 2375,
      "اسين": 2376,
      "ابت": 2377,
      "ذر": 2378,
      "سلا": 2379,
      "ڊڪ": 2380,
      "جوڙ": 2381,
      "اعلان": 2382,
      "خير": 2383,
      "هر": 2384,
      "ندڙن": 2385,
      "گھٽ": 2386,
      "حقيقت": 2387,
      "ورا": 2388,
      "سردار": 2389,
      "قيمت": 2390,
      "خر": 2391,
      "ڪيمي": 2392,
      "تريون": 2393,
      "روشني": 2394,
      "خات": 2395,
      "آس": 2396,
      "يه": 2397,
      "ڙهه": 2398,
      "سيڪريٽري": 2399,
      "رهن": 2400,
      "شل": 2401,
      "ڏسڻ": 2402,
      "انھيء": 2403,
      "قليچ": 2404,
      "پاڪستاني": 2405,
      "بلوچستان": 2406,
      "شاهي": 2407,
      "گير": 2408,
      "مضبو": 2409,
      "حاجي": 2410,
      "اڪيڊ": 2411,
      "هجڻ": 2412,
      "ڳي": 2413,
      "يوناني": 2414,
      "رسالو": 2415,
      "دري": 2416,
      "ٺاھ": 2417,
      "منتق": 2418,
      "بلا": 2419,
      "صحيح": 2420,
      "بائي": 2421,
      "رج": 2422,
      "آباد": 2423,
      "طو": 2424,
      "ڻيون": 2425,
      "ايون": 2426,
      "اتح": 2427,
      "علائقا": 2428,
      "پيداوار": 2429,
      "پلي": 2430,
      "محفو": 2431,
      "عرصي": 2432,
      "ڪت": 2433,
      "سلسلي": 2434,
      "رياستن": 2435,
      "ڻين": 2436,
      "نديء": 2437,
      "فن": 2438,
      "سڌ": 2439,
      "چونڊيو": 2440,
      "شاه": 2441,
      "ڪاب": 2442,
      "چوڌ": 2443,
      "om": 2444,
      "جين": 2445,
      "نڊن": 2446,
      "لين": 2447,
      "هار": 2448,
      "اعليٰ": 2449,
      "محفوظ": 2450,
      "ٻوليون": 2451,
      "ضروري": 2452,
      "پو": 2453,
      "ورها": 2454,
      "يات": 2455,
      "اداري": 2456,
      "چيئرمين": 2457,
      "اڪث": 2458,
      "پرائ": 2459,
      "گهرجي": 2460,
      "پروفيسر": 2461,
      "ويت": 2462,
      "مضمون": 2463,
      "سرحد": 2464,
      "لم": 2465,
      "وام": 2466,
      "ريڪ": 2467,
      "مند": 2468,
      "سمجهيو": 2469,
      "ڏينھن": 2470,
      "صور": 2471,
      "ٿون": 2472,
      "قبيلي": 2473,
      "جهن": 2474,
      "پکي": 2475,
      "اجازت": 2476,
      "ذي": 2477,
      "گج": 2478,
      "واڻي": 2479,
      "مذھ": 2480,
      "لفظن": 2481,
      "th": 2482,
      "سار": 2483,
      "جبل": 2484,
      "روز": 2485,
      "پبلڪ": 2486,
      "چا": 2487,
      "سياست": 2488,
      "صحت": 2489,
      "تما": 2490,
      "ايرا": 2491,
      "پاڪ": 2492,
      "پروگرام": 2493,
      "ابتدائي": 2494,
      "دمش": 2495,
      "مظ": 2496,
      "ماه": 2497,
      "ھل": 2498,
      "سائنسي": 2499,
      "ڀرسان": 2500,
      "نقص": 2501,
      "شاخ": 2502,
      "پيدائش": 2503,
      "بال": 2504,
      "عيسويء": 2505,
      "ھتان": 2506,
      "ھاڻي": 2507,
      "هوا": 2508,
      "اهميت": 2509,
      "حاڪم": 2510,
      "روايت": 2511,
      "محبت": 2512,
      "لاڙڪاڻي": 2513,
      "ليگ": 2514,
      "اٿارٽي": 2515,
      "ھان": 2516,
      "حصن": 2517,
      "بلوچ": 2518,
      "معلومات": 2519,
      "ڄائو": 2520,
      "ڪام": 2521,
      "باغ": 2522,
      "نگي": 2523,
      "ياد": 2524,
      "ٽيڪنال": 2525,
      "شمار": 2526,
      "فو": 2527,
      "قلعو": 2528,
      "زرعي": 2529,
      "شڪارپور": 2530,
      "مور": 2531,
      "ڪائ": 2532,
      "ڳول": 2533,
      "ڪرن": 2534,
      "ڪيتريون": 2535,
      "ڪرين": 2536,
      "شروعاتي": 2537,
      "عق": 2538,
      "جانورن": 2539,
      "مستق": 2540,
      "شام": 2541,
      "صل": 2542,
      "اسما": 2543,
      "گڏجي": 2544,
      "اديب": 2545,
      "سنه": 2546,
      "يورپي": 2547,
      "ساڳي": 2548,
      "il": 2549,
      "ماس": 2550,
      "ڪيم": 2551,
      "رھي": 2552,
      "ڪٿي": 2553,
      "روس": 2554,
      "ساڳئي": 2555,
      "قص": 2556,
      "رهڻ": 2557,
      "مطالعو": 2558,
      "یا": 2559,
      "وزيرا": 2560,
      "آيل": 2561,
      "اتي": 2562,
      "ڊو": 2563,
      "ايندڙ": 2564,
      "سليم": 2565,
      "حملو": 2566,
      "آئي": 2567,
      "سال": 2568,
      "مبر": 2569,
      "ماح": 2570,
      "رهندو": 2571,
      "وفا": 2572,
      "سگھي": 2573,
      "رائي": 2574,
      "مقد": 2575,
      "مضبوط": 2576,
      "اڪثريت": 2577,
      "ٻا": 2578,
      "ليا": 2579,
      "موسم": 2580,
      "قيام": 2581,
      "وگڏ": 2582,
      "درجو": 2583,
      "اث": 2584,
      "تڪر": 2585,
      "تال": 2586,
      "نظري": 2587,
      "گڏوگڏ": 2588,
      "شاگردن": 2589,
      "صوص": 2590,
      "قبول": 2591,
      "مت": 2592,
      "مڙ": 2593,
      "نڪري": 2594,
      "توان": 2595,
      "تيل": 2596,
      "191": 2597,
      "هئڻ": 2598,
      "ماحول": 2599,
      "ڪميون": 2600,
      "فرق": 2601,
      "حسا": 2602,
      "دران": 2603,
      "ٺاهڻ": 2604,
      "ٺا": 2605,
      "چائي": 2606,
      "اسپي": 2607,
      "احت": 2608,
      "معلوم": 2609,
      "اعظم": 2610,
      "سئ": 2611,
      "شيون": 2612,
      "طا": 2613,
      "ڪرائي": 2614,
      "ديني": 2615,
      "درياهه": 2616,
      "سڃاڻپ": 2617,
      "22": 2618,
      "بمب": 2619,
      "چوٿون": 2620,
      "پٽي": 2621,
      "ائش": 2622,
      "سائيز": 2623,
      "کن": 2624,
      "ماڻي": 2625,
      "ثابت": 2626,
      "گورنمينٽ": 2627,
      "جبلن": 2628,
      "21": 2629,
      "ڏٺو": 2630,
      "سائنس": 2631,
      "چئن": 2632,
      "ڪيئن": 2633,
      "di": 2634,
      "عنص": 2635,
      "انستان": 2636,
      "ھجي": 2637,
      "ميء": 2638,
      "ريگستان": 2639,
      "ئڻ": 2640,
      "صلا": 2641,
      "گروپ": 2642,
      "تڪ": 2643,
      "فض": 2644,
      "قات": 2645,
      "ڪارو": 2646,
      "مسا": 2647,
      "اڪيڊمي": 2648,
      "سلام": 2649,
      "نائ": 2650,
      "موري": 2651,
      "ابراه": 2652,
      "گرمي": 2653,
      "فقط": 2654,
      "اڳواڻ": 2655,
      "بري": 2656,
      "ــ": 2657,
      "پنجابي": 2658,
      "نمائند": 2659,
      "ڄاڻايل": 2660,
      "24": 2661,
      "نر": 2662,
      "189": 2663,
      "ارڻ": 2664,
      "ايڊ": 2665,
      "ايڇ": 2666,
      "اھڙي": 2667,
      "نمون": 2668,
      "اڀر": 2669,
      "ڪونه": 2670,
      "سڄ": 2671,
      "ريه": 2672,
      "اچن": 2673,
      "ڪمپني": 2674,
      "سلسلو": 2675,
      "دار": 2676,
      "ڌرتيء": 2677,
      "خار": 2678,
      "اوهان": 2679,
      "فٽ": 2680,
      "متن": 2681,
      "ياد": 2682,
      "عبدالله": 2683,
      "اڇ": 2684,
      "ثي": 2685,
      "قبضي": 2686,
      "ڳوٺن": 2687,
      "شون": 2688,
      "وطن": 2689,
      "انسواء": 2690,
      "ڪرت": 2691,
      "مخصوص": 2692,
      "لکيا": 2693,
      "ٽرڪ": 2694,
      "ارڊ": 2695,
      "نيٽ": 2696,
      "سياستدان": 2697,
      "ag": 2698,
      "ou": 2699,
      "اور": 2700,
      "عوام": 2701,
      "ڌن": 2702,
      "حالتن": 2703,
      "شاگرد": 2704,
      "حقن": 2705,
      "روف": 2706,
      "رستي": 2707,
      "شعر": 2708,
      "ڊگري": 2709,
      "ڊائريڪ": 2710,
      "نگئي": 2711,
      "پوي": 2712,
      "ادارن": 2713,
      "ولن": 2714,
      "پارلي": 2715,
      "ئرنگ": 2716,
      "جماعت": 2717,
      "پلا": 2718,
      "رد": 2719,
      "وٽر": 2720,
      "ٻڌل": 2721,
      "رئين": 2722,
      "انعام": 2723,
      "صوفي": 2724,
      "سانچا": 2725,
      "داس": 2726,
      "شهيد": 2727,
      "نشان": 2728,
      "بان": 2729,
      "جري": 2730,
      "قري": 2731,
      "يرا": 2732,
      "وٺڻ": 2733,
      "عدال": 2734,
      "نور": 2735,
      "سوس": 2736,
      "طريقي": 2737,
      "صنع": 2738,
      "شه": 2739,
      "ڌيء": 2740,
      "واپاري": 2741,
      "نگئيج": 2742,
      "گهٽ": 2743,
      "مختصر": 2744,
      "پرائمري": 2745,
      "بڻايو": 2746,
      "نقصان": 2747,
      "وڪ": 2748,
      "راش": 2749,
      "ڏيندو": 2750,
      "فلسفي": 2751,
      "سھ": 2752,
      "صوبائي": 2753,
      "2017": 2754,
      "ڪريم": 2755,
      "شهري": 2756,
      "قيء": 2757,
      "پکي": 2758,
      "کانسواء": 2759,
      "معني": 2760,
      "ھوندي": 2761,
      "لق": 2762,
      "نڀ": 2763,
      "هجن": 2764,
      "مقدار": 2765,
      "مائي": 2766,
      "ويڪ": 2767,
      "علمي": 2768,
      "حياتي": 2769,
      "نگر": 2770,
      "يونيورسٽيء": 2771,
      "آثار": 2772,
      "تيز": 2773,
      "پهتو": 2774,
      "پارڪ": 2775,
      "ڪلهو": 2776,
      "نماز": 2777,
      "سيء": 2778,
      "قاسم": 2779,
      "خوش": 2780,
      "لائين": 2781,
      "وسيع": 2782,
      "ec": 2783,
      "مندر": 2784,
      "اڪو": 2785,
      "شڪست": 2786,
      "ابراهيم": 2787,
      "سزا": 2788,
      "پال": 2789,
      "ھوندا": 2790,
      "پکيڙ": 2791,
      "اظ": 2792,
      "دروا": 2793,
      "مڪن": 2794,
      "نڪ": 2795,
      "ڊگه": 2796,
      "رسول": 2797,
      "صل": 2798,
      "ٽون": 2799,
      "چس": 2800,
      "اهڙيء": 2801,
      "نظم": 2802,
      "سائي": 2803,
      "ٻاه": 2804,
      "ڀٽو": 2805,
      "اهڙا": 2806,
      "23": 2807,
      "خال": 2808,
      "صيل": 2809,
      "چئي": 2810,
      "ڏين": 2811,
      "درياء": 2812,
      "وق": 2813,
      "سائيڪ": 2814,
      "وات": 2815,
      "وزيراعظم": 2816,
      "جام": 2817,
      "تحف": 2818,
      "اقت": 2819,
      "بحث": 2820,
      "باس": 2821,
      "ڪيميائي": 2822,
      "40": 2823,
      "مني": 2824,
      "سرڪار": 2825,
      "خدمتون": 2826,
      "لاڳو": 2827,
      "ننڍو": 2828,
      "قسمن": 2829,
      "آدمش": 2830,
      "لئنگئيج": 2831,
      "ايٽ": 2832,
      "افغانستان": 2833,
      "بزرگ": 2834,
      "چوڌاري": 2835,
      "توانائي": 2836,
      "هد": 2837,
      "ڪانفر": 2838,
      "رڪن": 2839,
      "چڪا": 2840,
      "ملين": 2841,
      "معاشي": 2842,
      "شير": 2843,
      "اندار": 2844,
      "گن": 2845,
      "اسب": 2846,
      "ايندا": 2847,
      "اقتص": 2848,
      "طبي": 2849,
      "چنڊ": 2850,
      "ادو": 2851,
      "تخلي": 2852,
      "فرانس": 2853,
      "نگر": 2854,
      "دوست": 2855,
      "ھند": 2856,
      "جانور": 2857,
      "قاع": 2858,
      "تصوير": 2859,
      "هز": 2860,
      "انه": 2861,
      "نوجوان": 2862,
      "واريون": 2863,
      "هڪڙو": 2864,
      "ڇپائيندڙ": 2865,
      "سلي": 2866,
      "دلچس": 2867,
      "جھ": 2868,
      "دول": 2869,
      "مادي": 2870,
      "ويئي": 2871,
      "جذ": 2872,
      "چانڊ": 2873,
      "ad": 2874,
      "ای": 2875,
      "عنوان": 2876,
      "بري": 2877,
      "زال": 2878,
      "راڳ": 2879,
      "ed": 2880,
      "آر": 2881,
      "حلي": 2882,
      "ذيب": 2883,
      "نڪت": 2884,
      "کاتي": 2885,
      "ترج": 2886,
      "قوت": 2887,
      "رڻ": 2888,
      "ميٽرن": 2889,
      "ترمي": 2890,
      "پکڙيل": 2891,
      "جاگرافي": 2892,
      "انجام": 2893,
      "تلا": 2894,
      "ڇپيل": 2895,
      "تش": 2896,
      "ٺل": 2897,
      "يڪار": 2898,
      "خلافت": 2899,
      "قدر": 2900,
      "يتن": 2901,
      "پال": 2902,
      "له": 2903,
      "مسي": 2904,
      "وزن": 2905,
      "پيپل": 2906,
      "بيمار": 2907,
      "لڳا": 2908,
      "گول": 2909,
      "نواب": 2910,
      "پالي": 2911,
      "رحي": 2912,
      "نون": 2913,
      "مود": 2914,
      "قانوني": 2915,
      "فز": 2916,
      "گيت": 2917,
      "ذمي": 2918,
      "کے": 2919,
      "حر": 2920,
      "قمبر": 2921,
      "الب": 2922,
      "In": 2923,
      "حڪيم": 2924,
      "سري": 2925,
      "وء": 2926,
      "ڪين": 2927,
      "ستن": 2928,
      "ڊيم": 2929,
      "بدران": 2930,
      "نڪتل": 2931,
      "ريان": 2932,
      "عالمن": 2933,
      "برابر": 2934,
      "زر": 2935,
      "ha": 2936,
      "ادارو": 2937,
      "وڌو": 2938,
      "بهتر": 2939,
      "اڀ": 2940,
      "دگي": 2941,
      "انسائيڪ": 2942,
      "نگار": 2943,
      "نٿو": 2944,
      "ڌرم": 2945,
      "روسي": 2946,
      "روايتي": 2947,
      "ri": 2948,
      "اينڊ": 2949,
      "روينيو": 2950,
      "دارن": 2951,
      "مبل": 2952,
      "راڄ": 2953,
      "محل": 2954,
      "مغل": 2955,
      "عمارت": 2956,
      "حما": 2957,
      "کو": 2958,
      "ميمڻ": 2959,
      "راند": 2960,
      "باو": 2961,
      "ريڊيو": 2962,
      "سٽم": 2963,
      "خدمت": 2964,
      "دا": 2965,
      "ٽائون": 2966,
      "شاعرن": 2967,
      "ڪمپيوٽر": 2968,
      "آدمشماري": 2969,
      "هندستاني": 2970,
      "سامهون": 2971,
      "ڪورٽ": 2972,
      "انقلاب": 2973,
      "واحد": 2974,
      "طيني": 2975,
      "پڙهڻ": 2976,
      "in": 2977,
      "اح": 2978,
      "جدو": 2979,
      "سنگ": 2980,
      "وينديون": 2981,
      "اعز": 2982,
      "em": 2983,
      "آسٽري": 2984,
      "ادت": 2985,
      "ديش": 2986,
      "ولد": 2987,
      "دود": 2988,
      "سڃاتو": 2989,
      "هڪڙي": 2990,
      "فيصلو": 2991,
      "پٺيان": 2992,
      "خن": 2993,
      "ڪيترا": 2994,
      "دريافت": 2995,
      "فرد": 2996,
      "شايد": 2997,
      "اليڪشن": 2998,
      "جواب": 2999,
      "ro": 3000,
      "دان": 3001,
      "رڪ": 3002,
      "ٽائي": 3003,
      "حدي": 3004,
      "ری": 3005,
      "لطيف": 3006,
      "ٽڻ": 3007,
      "ڪجي": 3008,
      "منتقل": 3009,
      "28": 3010,
      "گم": 3011,
      "186": 3012,
      "Th": 3013,
      "آن": 3014,
      "نج": 3015,
      "ترا": 3016,
      "مالي": 3017,
      "ديق": 3018,
      "ملڪي": 3019,
      "ٽيلي": 3020,
      "قبرستان": 3021,
      "ٽيڪنالاجي": 3022,
      "مس": 3023,
      "ميون": 3024,
      "تعارف": 3025,
      "منهن": 3026,
      "خوب": 3027,
      "ننڍا": 3028,
      "ڪامياب": 3029,
      "هم": 3030,
      "بلڪل": 3031,
      "يوس": 3032,
      "آندو": 3033,
      "نور": 3034,
      "انسان": 3035,
      "وسيلي": 3036,
      "صلاحي": 3037,
      "هائي": 3038,
      "سرش": 3039,
      "انتظام": 3040,
      "مقابلي": 3041,
      "ضيء": 3042,
      "ڪالوني": 3043,
      "انجنيئرنگ": 3044,
      "وجه": 3045,
      "يتون": 3046,
      "ھيون": 3047,
      "اخلا": 3048,
      "متح": 3049,
      "وڌ": 3050,
      "ڪان": 3051,
      "سنس": 3052,
      "فيد": 3053,
      "چونڊن": 3054,
      "سوسائ": 3055,
      "جيو": 3056,
      "منظور": 3057,
      "نڪر": 3058,
      "سمجھ": 3059,
      "مصر": 3060,
      "26": 3061,
      "آذر": 3062,
      "نهايت": 3063,
      "هيا": 3064,
      "تخت": 3065,
      "زو": 3066,
      "نيڪ": 3067,
      "ورھ": 3068,
      "آزاديء": 3069,
      "پوليس": 3070,
      "نف": 3071,
      "ملتان": 3072,
      "ڏيئي": 3073,
      "گاھ": 3074,
      "صلي": 3075,
      "لر": 3076,
      "راڄ": 3077,
      "چيني": 3078,
      "دٻ": 3079,
      "سڌي": 3080,
      "ماحو": 3081,
      "مرد": 3082,
      "اڳي": 3083,
      "طريقو": 3084,
      "حدون": 3085,
      "انسائيڪلو": 3086,
      "مڪي": 3087,
      "ستائين": 3088,
      "ڏنا": 3089,
      "نمائندگي": 3090,
      "ڪين": 3091,
      "نواز": 3092,
      "جتان": 3093,
      "مها": 3094,
      "185": 3095,
      "27": 3096,
      "رسالي": 3097,
      "جرمن": 3098,
      "جاگرافي": 3099,
      "لڏي": 3100,
      "کا": 3101,
      "187": 3102,
      "ڪڍي": 3103,
      "خشڪ": 3104,
      "ممڪن": 3105,
      "حدن": 3106,
      "رفتار": 3107,
      "وني": 3108,
      "منهنجي": 3109,
      "وفاقي": 3110,
      "فرا": 3111,
      "آذربائي": 3112,
      "ڊر": 3113,
      "بغاوت": 3114,
      "رائي": 3115,
      "لز": 3116,
      "هاري": 3117,
      "ھڪ": 3118,
      "ديرو": 3119,
      "ڀيٽ": 3120,
      "ماحولي": 3121,
      "عيل": 3122,
      "مجي": 3123,
      "بندر": 3124,
      "رنگ": 3125,
      "مھي": 3126,
      "ٽائ": 3127,
      "پيغ": 3128,
      "هتان": 3129,
      "لاهور": 3130,
      "گهو": 3131,
      "يڪيشن": 3132,
      "اتحاد": 3133,
      "مضمونن": 3134,
      "سور": 3135,
      "شان": 3136,
      "عزي": 3137,
      "غري": 3138,
      "لت": 3139,
      "هٿ": 3140,
      "ڊسٽ": 3141,
      "اڪبر": 3142,
      "سوويت": 3143,
      "کير": 3144,
      "سگھجي": 3145,
      "جعفر": 3146,
      "باوجود": 3147,
      "جار": 3148,
      "درجي": 3149,
      "مهراڻ": 3150,
      "چوريو": 3151,
      "سفار": 3152,
      "انسائيڪلوپيڊيا": 3153,
      "اکر": 3154,
      "ٻج": 3155,
      "رايو": 3156,
      "سسٽم": 3157,
      "پل": 3158,
      "حڪمران": 3159,
      "موڪليو": 3160,
      "As": 3161,
      "دش": 3162,
      "سير": 3163,
      "تنقيد": 3164,
      "ڏهاڪي": 3165,
      "گھڻو": 3166,
      "حال": 3167,
      "سعو": 3168,
      "پوک": 3169,
      "184": 3170,
      "ڪھ": 3171,
      "ڪيم": 3172,
      "وو": 3173,
      "ٿوري": 3174,
      "نامي": 3175,
      "ھيٺ": 3176,
      "پڌ": 3177,
      "زيشن": 3178,
      "ايڊيٽر": 3179,
      "معيشت": 3180,
      "دادڪوٽ": 3181,
      "لاس": 3182,
      "اسماعيل": 3183,
      "us": 3184,
      "گول": 3185,
      "اور": 3186,
      "عملي": 3187,
      "مور": 3188,
      "ڇپي": 3189,
      "محمود": 3190,
      "اھ": 3191,
      "الز": 3192,
      "وڄ": 3193,
      "ٺين": 3194,
      "ڀيرا": 3195,
      "ويب": 3196,
      "هف": 3197,
      "18ع": 3198,
      "ڪشمير": 3199,
      "راند": 3200,
      "شا": 3201,
      "ليء": 3202,
      "ٿينديون": 3203,
      "جاپ": 3204,
      "دستا": 3205,
      "يوسف": 3206,
      "خور": 3207,
      "تاج": 3208,
      "مغر": 3209,
      "بائ": 3210,
      "ميڊيا": 3211,
      "ing": 3212,
      "اڳوڻي": 3213,
      "کی": 3214,
      "فرز": 3215,
      "خيرپور": 3216,
      "اڀي": 3217,
      "سب": 3218,
      "هائ": 3219,
      "اڻا": 3220,
      "رسم": 3221,
      "ڪروڙ": 3222,
      "ڏاڍو": 3223,
      "29": 3224,
      "السلام": 3225,
      "جنسي": 3226,
      "دعو": 3227,
      "سرن": 3228,
      "ٽرول": 3229,
      "re": 3230,
      "تين": 3231,
      "گز": 3232,
      "تبديلي": 3233,
      "آفيس": 3234,
      "فري": 3235,
      "پاب": 3236,
      "ڌيان": 3237,
      "محسوس": 3238,
      "سامان": 3239,
      "شخصيت": 3240,
      "تقريبن": 3241,
      "ation": 3242,
      "حساب": 3243,
      "ساه": 3244,
      "ٿورو": 3245,
      "امتح": 3246,
      "وض": 3247,
      "چم": 3248,
      "ڪاؤ": 3249,
      "حل": 3250,
      "پنهنجن": 3251,
      "ديوان": 3252,
      "ڪانفرنس": 3253,
      "صوبن": 3254,
      "آمد": 3255,
      "دما": 3256,
      "دانن": 3257,
      "لان": 3258,
      "گهڻا": 3259,
      "ملڪيت": 3260,
      "جيل": 3261,
      "همي": 3262,
      "ڪڻ": 3263,
      "وارين": 3264,
      "ٻوٽن": 3265,
      "ٻڌ": 3266,
      "سائيٽ": 3267,
      "ar": 3268,
      "ولي": 3269,
      "محق": 3270,
      "رکن": 3271,
      "حملي": 3272,
      "دت": 3273,
      "فيڪ": 3274,
      "گادي": 3275,
      "ڊيٽا": 3276,
      "آغا": 3277,
      "ويل": 3278,
      "اندا": 3279,
      "بج": 3280,
      "پنهنجا": 3281,
      "انگريزيء": 3282,
      "اج": 3283,
      "جاب": 3284,
      "سموري": 3285,
      "ٽنڊ": 3286,
      "مقبر": 3287,
      "ڪائن": 3288,
      "ولا": 3289,
      "ونا": 3290,
      "ابو": 3291,
      "ساز": 3292,
      "2007ع": 3293,
      "سوال": 3294,
      "اسيمبل": 3295,
      "ra": 3296,
      "نامو": 3297,
      "لقب": 3298,
      "وائي": 3299,
      "ٽيٽي": 3300,
      "عيد": 3301,
      "ٻڌي": 3302,
      "هونديون": 3303,
      "اصول": 3304,
      "عن": 3305,
      "بير": 3306,
      "صفحي": 3307,
      "یں": 3308,
      "انگي": 3309,
      "لکت": 3310,
      "بادشاھ": 3311,
      "ڇپيندڙ": 3312,
      "لائي": 3313,
      "ڊال": 3314,
      "پنجن": 3315,
      "پهرئين": 3316,
      "وهڻ": 3317,
      "اسپتال": 3318,
      "تسليم": 3319,
      "جی": 3320,
      "ٿو": 3321,
      "نيم": 3322,
      "علاج": 3323,
      "پراڻو": 3324,
      "تھ": 3325,
      "چل": 3326,
      "الو": 3327,
      "پهچي": 3328,
      "بلند": 3329,
      "آفيسر": 3330,
      "پارليامي": 3331,
      "ٺاهي": 3332,
      "ڊائريڪٽر": 3333,
      "برسا": 3334,
      "انگريز": 3335,
      "شعبي": 3336,
      "رواج": 3337,
      "فون": 3338,
      "اين": 3339,
      "لنڊن": 3340,
      "ڀاڱو": 3341,
      "سنسڪرت": 3342,
      "هري": 3343,
      "روپ": 3344,
      "پرن": 3345,
      "مالڪ": 3346,
      "ريشن": 3347,
      "تهذيب": 3348,
      "رخ": 3349,
      "لڙ": 3350,
      "الح": 3351,
      "پوندو": 3352,
      "هند": 3353,
      "20ع": 3354,
      "حوالو": 3355,
      "خون": 3356,
      "تڪرار": 3357,
      "ارون": 3358,
      "ڇپيو": 3359,
      "محدود": 3360,
      "and": 3361,
      "بڻائي": 3362,
      "مجموعو": 3363,
      "اڪن": 3364,
      "os": 3365,
      "ننڍپڻ": 3366,
      "ڊڪشن": 3367,
      "ذاتي": 3368,
      "ائٽ": 3369,
      "منجهان": 3370,
      "سرگر": 3371,
      "احت": 3372,
      "اقتصادي": 3373,
      "اگ": 3374,
      "ايتري": 3375,
      "us": 3376,
      "پيماني": 3377,
      "اڳيان": 3378,
      "بهادر": 3379,
      "رڪٽ": 3380,
      "مگر": 3381,
      "رهائش": 3382,
      "ڊسٽرڪٽ": 3383,
      "ٿر": 3384,
      "سومرو": 3385,
      "ڪاٺ": 3386,
      "بندر": 3387,
      "ڪول": 3388,
      "برد": 3389,
      "نسلي": 3390,
      "مهيني": 3391,
      "2005ع": 3392,
      "گجرات": 3393,
      "فزڪس": 3394,
      "(:": 3395,
      "نء": 3396,
      "ايندي": 3397,
      "افظ": 3398,
      "فاظ": 3399,
      "وند": 3400,
      "2015": 3401,
      "امر": 3402,
      "ٻڌايو": 3403,
      "معيار": 3404,
      "ٽش": 3405,
      "پايو": 3406,
      "ڏيندي": 3407,
      "رهندا": 3408,
      "ڳالھ": 3409,
      "قبيلن": 3410,
      "موسيقي": 3411,
      "اسيمبليء": 3412,
      "غز": 3413,
      "بره": 3414,
      "ڪنٽرول": 3415,
      "ديوتا": 3416,
      "31": 3417,
      "حرڪ": 3418,
      "رق": 3419,
      "فطر": 3420,
      "ووٽ": 3421,
      "نظريو": 3422,
      "مرا": 3423,
      "نز": 3424,
      "چڪي": 3425,
      "انچ": 3426,
      "ادي": 3427,
      "گرفتار": 3428,
      "et": 3429,
      "حفاظ": 3430,
      "هاڻ": 3431,
      "سگهيو": 3432,
      "ٺاهيو": 3433,
      "نسل": 3434,
      "ڱي": 3435,
      "وٽان": 3436,
      "60": 3437,
      "تھ": 3438,
      "عش": 3439,
      "انيء": 3440,
      "ٿل": 3441,
      "ڀٽي": 3442,
      "ايترو": 3443,
      "ملڪي": 3444,
      "مسئلن": 3445,
      "اعزاز": 3446,
      "پس": 3447,
      "رکيل": 3448,
      "ڙڻ": 3449,
      "جهڙي": 3450,
      "معاملن": 3451,
      "ائلي": 3452,
      "ul": 3453,
      "خانو": 3454,
      "راني": 3455,
      "مولوي": 3456,
      "سروي": 3457,
      "میں": 3458,
      "عمل": 3459,
      "متعلق": 3460,
      "پٿ": 3461,
      "ميوزي": 3462,
      "جنگ": 3463,
      "اوزار": 3464,
      "ڊيو": 3465,
      "چيف": 3466,
      "مستقل": 3467,
      "آسٽريليا": 3468,
      "جاگرافيائي": 3469,
      "فرزند": 3470,
      "ادارا": 3471,
      "مجموعي": 3472,
      "35": 3473,
      "جڪ": 3474,
      "ناڪ": 3475,
      "ڏسو": 3476,
      "معاه": 3477,
      "ناٽڪ": 3478,
      "ضلعن": 3479,
      "فائدو": 3480,
      "زمين": 3481,
      "ڪانگري": 3482,
      "گا": 3483,
      "ترڪي": 3484,
      "جهاز": 3485,
      "آذربائيجان": 3486,
      "آت": 3487,
      "بڻيو": 3488,
      "انسٽيٽي": 3489,
      "اڀياس": 3490,
      "پارليامينٽ": 3491,
      "او": 3492,
      "هري": 3493,
      "چانڊيو": 3494,
      "100": 3495,
      "op": 3496,
      "فڪ": 3497,
      "اياز": 3498,
      "زميني": 3499,
      "ميوزيم": 3500,
      "زڪ": 3501,
      "پيٽ": 3502,
      "گها": 3503,
      "صفحن": 3504,
      "سعودي": 3505,
      "جز": 3506,
      "زون": 3507,
      "ڇي": 3508,
      "پرڏي": 3509,
      "خرچ": 3510,
      "آمد": 3511,
      "زرا": 3512,
      "ڪريون": 3513,
      "واض": 3514,
      "معروف": 3515,
      "ڊراما": 3516,
      "مڙس": 3517,
      "ارتق": 3518,
      "سياري": 3519,
      "مليا": 3520,
      "جهڙو": 3521,
      "ڪارن": 3522,
      "تيون": 3523,
      "وادي": 3524,
      "ھڻ": 3525,
      "ڏاڍي": 3526,
      "ريا": 3527,
      "عنصر": 3528,
      "ڪلوميٽرن": 3529,
      "عيسوي": 3530,
      "وائرس": 3531,
      "مز": 3532,
      "مدار": 3533,
      "ويس": 3534,
      "جمع": 3535,
      "قدم": 3536,
      "لاز": 3537,
      "مايو": 3538,
      "تياري": 3539,
      "صنعت": 3540,
      "un": 3541,
      "جيو": 3542,
      "فاصلي": 3543,
      "ڌر": 3544,
      "ريپبلڪ": 3545,
      "پارڪر": 3546,
      "ده": 3547,
      "سڏيندا": 3548,
      "ڌا": 3549,
      "روم": 3550,
      "ڪارڻ": 3551,
      "تنظي": 3552,
      "اضاف": 3553,
      "عثمان": 3554,
      "نظريي": 3555,
      "الع": 3556,
      "سٽن": 3557,
      "ڌرتي": 3558,
      "ڪلاسيڪ": 3559,
      "غي": 3560,
      "برقرار": 3561,
      "ڀاڱي": 3562,
      "انسٽيٽيوٽ": 3563,
      "قد": 3564,
      "دوار": 3565,
      "ميڊ": 3566,
      "ئيشن": 3567,
      "ايراضي": 3568,
      "آڳا": 3569,
      "آئر": 3570,
      "نائي": 3571,
      "فيروز": 3572,
      "بحري": 3573,
      "ذيلي": 3574,
      "درا": 3575,
      "زن": 3576,
      "طر": 3577,
      "لی": 3578,
      "مخالف": 3579,
      "ڏانھن": 3580,
      "ڪرائڻ": 3581,
      "عربن": 3582,
      "ذوال": 3583,
      "قين": 3584,
      "ڙيو": 3585,
      "الب": 3586,
      "عهدي": 3587,
      "رش": 3588,
      "پارٽيء": 3589,
      "ڳالھ": 3590,
      "ڪتب": 3591,
      "رستو": 3592,
      "ڪائنات": 3593,
      "زراعت": 3594,
      "فا": 3595,
      "ٽيو": 3596,
      "پين": 3597,
      "ائيندي": 3598,
      "حمايت": 3599,
      "80": 3600,
      "از": 3601,
      "جتو": 3602,
      "انين": 3603,
      "موٽي": 3604,
      "تصني": 3605,
      "پورا": 3606,
      "ڏاکڻي": 3607,
      "عرا": 3608,
      "لسٽ": 3609,
      "ھا": 3610,
      "تربيت": 3611,
      "شيائي": 3612,
      "مغربي": 3613,
      "oc": 3614,
      "مليل": 3615,
      "آهستي": 3616,
      "مشاه": 3617,
      "مهر": 3618,
      "نڊر": 3619,
      "سمجهي": 3620,
      "لڳل": 3621,
      "علامه": 3622,
      "چونڊجي": 3623,
      "ڪانگريس": 3624,
      "دع": 3625,
      "ڪمن": 3626,
      "ريٽ": 3627,
      "سيسي": 3628,
      "شرڪت": 3629,
      "امتحان": 3630,
      "خري": 3631,
      "صلاح": 3632,
      "وين": 3633,
      "ملڻ": 3634,
      "فارم": 3635,
      "عباد": 3636,
      "ڄڻ": 3637,
      "ڳن": 3638,
      "ھجڻ": 3639,
      "رومن": 3640,
      "گھڻي": 3641,
      "رحمان": 3642,
      "دادو": 3643,
      "حرڪت": 3644,
      "ملي": 3645,
      "ائجي": 3646,
      "هاڻ": 3647,
      "لائق": 3648,
      "عباسي": 3649,
      "سلامت": 3650,
      "ود": 3651,
      "يڪا": 3652,
      "پوئ": 3653,
      "جاد": 3654,
      "کاڌي": 3655,
      "يڪس": 3656,
      "ابوال": 3657,
      "رکندو": 3658,
      "عزيز": 3659,
      "لٽ": 3660,
      "مرحو": 3661,
      "ملائي": 3662,
      "منظر": 3663,
      "ڀو": 3664,
      "ھه": 3665,
      "بادشاه": 3666,
      "تحقيقي": 3667,
      "وڙه": 3668,
      "اڻن": 3669,
      "ist": 3670,
      "شوق": 3671,
      "ڪهاڻيون": 3672,
      "پڌرو": 3673,
      "ڪاؤنسل": 3674,
      "سکيا": 3675,
      "ضاب": 3676,
      "گلو": 3677,
      "ندن": 3678,
      "ترڪ": 3679,
      "هليو": 3680,
      "ڇپائي": 3681,
      "عورتون": 3682,
      "بمبئي": 3683,
      "سهو": 3684,
      "کائڻ": 3685,
      "ويٺو": 3686,
      "اڻيء": 3687,
      "فلمن": 3688,
      "حديث": 3689,
      "فطرت": 3690,
      "مزار": 3691,
      "هٿي": 3692,
      "ساحلي": 3693,
      "احوال": 3694,
      "توھان": 3695,
      "تقريبا": 3696,
      "غريب": 3697,
      "اضافو": 3698,
      "وڻن": 3699,
      "انگلينڊ": 3700,
      "سماني": 3701,
      "پوڄ": 3702,
      "يونٽ": 3703,
      "سڄو": 3704,
      "اکين": 3705,
      "هڻ": 3706,
      "انڪار": 3707,
      "سينٽ": 3708,
      "رضه": 3709,
      "نار": 3710,
      "ڪهاڻي": 3711,
      "بيماري": 3712,
      "سربرا": 3713,
      "جاز": 3714,
      "ناھي": 3715,
      "يادگار": 3716,
      "دماغ": 3717,
      "مرحوم": 3718,
      "سٽري": 3719,
      "برطانيا": 3720,
      "خاصيت": 3721,
      "ٽالپر": 3722,
      "سج": 3723,
      "ورهايل": 3724,
      "ڪاف": 3725,
      "ساس": 3726,
      "اھم": 3727,
      "هندن": 3728,
      "ڳنڍيل": 3729,
      "آپري": 3730,
      "خطر": 3731,
      "گلا": 3732,
      "چوٿين": 3733,
      "ٽيڪل": 3734,
      "خاندانن": 3735,
      "نمايان": 3736,
      "دولت": 3737,
      "وچ": 3738,
      "روايتن": 3739,
      "ويد": 3740,
      "ڪيائون": 3741,
      "ئيس": 3742,
      "تخليق": 3743,
      "سوسائٽي": 3744,
      "بکر": 3745,
      "ڏنائين": 3746,
      "ھنن": 3747,
      "مسيح": 3748,
      "روني": 3749,
      "رهندڙ": 3750,
      "نقشي": 3751,
      "وضاحت": 3752,
      "ڪير": 3753,
      "آباديء": 3754,
      "لازمي": 3755,
      "زل": 3756,
      "شم": 3757,
      "قبل": 3758,
      "ڪيس": 3759,
      "ديوي": 3760,
      "ڪوٺ": 3761,
      "ٺھيل": 3762,
      "وائيس": 3763,
      "نامي": 3764,
      "وستان": 3765,
      "چڪ": 3766,
      "ڙھ": 3767,
      "ويندڙ": 3768,
      "مطالعي": 3769,
      "خانا": 3770,
      "جنهنڪري": 3771,
      "تعري": 3772,
      "پنھنجو": 3773,
      "عدالت": 3774,
      "هميشه": 3775,
      "0000": 3776,
      "ab": 3777,
      "خاني": 3778,
      "دڙي": 3779,
      "مديني": 3780,
      "برٽش": 3781,
      "بوت": 3782,
      "شماري": 3783,
      "بارن": 3784,
      "سيوهڻ": 3785,
      "):": 3786,
      "25": 3787,
      "جيڪڏھن": 3788,
      "منت": 3789,
      "سرزمين": 3790,
      "معاش": 3791,
      "صوص": 3792,
      "1947ع": 3793,
      "اليڪٽر": 3794,
      "غلط": 3795,
      "دلچسپي": 3796,
      "کر": 3797,
      "مرڻ": 3798,
      "ڪوبه": 3799,
      "سرانجام": 3800,
      "برگ": 3801,
      "آرٽ": 3802,
      "چونڊيل": 3803,
      "ئيء": 3804,
      "ضي": 3805,
      "ڪيو": 3806,
      "واڌ": 3807,
      "فرانسيسي": 3808,
      "ماهرن": 3809,
      "خوبصورت": 3810,
      "ia": 3811,
      "آڻي": 3812,
      "سٺو": 3813,
      "هائي": 3814,
      "پٽن": 3815,
      "ڏھ": 3816,
      "۾.": 3817,
      "ميڪ": 3818,
      "خودمختيار": 3819,
      "حفاظت": 3820,
      "خراب": 3821,
      "له": 3822,
      "پڇ": 3823,
      "پار": 3824,
      "اره": 3825,
      "The": 3826,
      "ماحولياتي": 3827,
      "ڻائي": 3828,
      "روح": 3829,
      "روح": 3830,
      "آرڪي": 3831,
      "گذريو": 3832,
      "اميد": 3833,
      "داس": 3834,
      "دفن": 3835,
      "عل": 3836,
      "مٽ": 3837,
      "ٻر": 3838,
      "انتهائي": 3839,
      "شرح": 3840,
      "پد": 3841,
      "پيار": 3842,
      "مناسب": 3843,
      "ڪشش": 3844,
      "نتيجو": 3845,
      "راجپو": 3846,
      "اندازو": 3847,
      "خصوص": 3848,
      "سٺي": 3849,
      "صي": 3850,
      "متعارف": 3851,
      "چاه": 3852,
      "ترا": 3853,
      "جاگير": 3854,
      "آخر": 3855,
      "رحيم": 3856,
      "ورتائين": 3857,
      "نالن": 3858,
      "مقبول": 3859,
      "سڏجي": 3860,
      "مجيد": 3861,
      "حافظ": 3862,
      "عزت": 3863,
      "ونن": 3864,
      "سيم": 3865,
      "بيبي": 3866,
      "حصا": 3867,
      "ترميم": 3868,
      "ايا": 3869,
      "عمر": 3870,
      "مٽي": 3871,
      "مفيد": 3872,
      "لاطيني": 3873,
      "موس": 3874,
      "منظم": 3875,
      "درخو": 3876,
      "اختلا": 3877,
      "لاڙڪ": 3878,
      "واسطو": 3879,
      "le": 3880,
      "پکين": 3881,
      "اوچائي": 3882,
      "باز": 3883,
      "مذھب": 3884,
      "مبرن": 3885,
      "سنگهه": 3886,
      "معمو": 3887,
      "پريم": 3888,
      "اني": 3889,
      "اوارڊ": 3890,
      "منص": 3891,
      "سڪندر": 3892,
      "مخالفت": 3893,
      "اظهار": 3894,
      "آدم": 3895,
      "اق": 3896,
      "مالي": 3897,
      "ڪارو": 3898,
      "ڏنيون": 3899,
      "اميدوار": 3900,
      "سينٽر": 3901,
      "اڳوڻو": 3902,
      "بڪ": 3903,
      "طو": 3904,
      "فار": 3905,
      "ڀڳ": 3906,
      "اسري": 3907,
      "جنس": 3908,
      "سربر": 3909,
      "حيدر": 3910,
      "ورهاڱي": 3911,
      "عقد": 3912,
      "واهه": 3913,
      "ڪڇ": 3914,
      "انص": 3915,
      "ڪوئ": 3916,
      "باھ": 3917,
      "2000": 3918,
      "جامع": 3919,
      "زيو": 3920,
      "سٽر": 3921,
      "مارجي": 3922,
      "1990ع": 3923,
      "معياري": 3924,
      "روزاني": 3925,
      "لڪ": 3926,
      "مؤ": 3927,
      "ڪيري": 3928,
      "ننڍڙو": 3929,
      "صنعتي": 3930,
      "ak": 3931,
      "ir": 3932,
      "ثاني": 3933,
      "ورثي": 3934,
      "سيٽ": 3935,
      "ad": 3936,
      "آنا": 3937,
      "غزل": 3938,
      "فڪر": 3939,
      "حيات": 3940,
      "خدمتن": 3941,
      "ڊگهي": 3942,
      "ic": 3943,
      "ھنڌ": 3944,
      "عرصو": 3945,
      "or": 3946,
      "قادر": 3947,
      "پی": 3948,
      "جيت": 3949,
      "رکندي": 3950,
      "سمج": 3951,
      "شعبن": 3952,
      "70": 3953,
      "عھ": 3954,
      "وجهي": 3955,
      "ڪريء": 3956,
      "ہے": 3957,
      "کيائين": 3958,
      "اخبارن": 3959,
      "بدين": 3960,
      "واقعي": 3961,
      "انسانن": 3962,
      "Jog": 3963,
      "يار": 3964,
      "ياف": 3965,
      "اسٽو": 3966,
      "منجه": 3967,
      "منعقد": 3968,
      "ولا": 3969,
      "ڊين": 3970,
      "حڪمراني": 3971,
      "بس": 3972,
      "عه": 3973,
      "ڄمار": 3974,
      "ڪيء": 3975,
      "گذري": 3976,
      "مسٽر": 3977,
      "ٻڌائي": 3978,
      "بيگم": 3979,
      "اڳواڻي": 3980,
      "بور": 3981,
      "تڪ": 3982,
      "ھندو": 3983,
      "انو": 3984,
      "اهڙن": 3985,
      "روج": 3986,
      "روشن": 3987,
      "واڌ": 3988,
      "جمهوريه": 3989,
      "ڪه": 3990,
      "ڪلي": 3991,
      "ورلڊ": 3992,
      "ٻيٽن": 3993,
      "طريقن": 3994,
      "زميند": 3995,
      "مڇ": 3996,
      "مڇي": 3997,
      "ميري": 3998,
      "تنهن": 3999,
      "تجويز": 4000,
      "اڄ": 4001,
      "وان": 4002,
      "200": 4003,
      "سوان": 4004,
      "وزارت": 4005,
      "صلى": 4006,
      "آخرڪار": 4007,
      "غلا": 4008,
      "وو": 4009,
      "ايراني": 4010,
      "پبليڪيشن": 4011,
      "جڙيل": 4012,
      "پش": 4013,
      "ڪون": 4014,
      "مرن": 4015,
      "ڪوار": 4016,
      "کوڙ": 4017,
      "ٻنھي": 4018,
      "مهينو": 4019,
      "لاڙڪاڻو": 4020,
      "رز": 4021,
      "رپيا": 4022,
      "الن": 4023,
      "امت": 4024,
      "هين": 4025,
      "راڄڌ": 4026,
      "عڪس": 4027,
      "بازار": 4028,
      "اکرن": 4029,
      "پيپلز": 4030,
      "دڙو": 4031,
      "ٿري": 4032,
      "ڪچ": 4033,
      "دير": 4034,
      "ترقيء": 4035,
      "اڪا": 4036,
      "جھڙ": 4037,
      "پاسو": 4038,
      "تحفظ": 4039,
      "مقبرو": 4040,
      "جتوئي": 4041,
      "دهلي": 4042,
      "پائ": 4043,
      "ڪشن": 4044,
      "خليفي": 4045,
      "باهه": 4046,
      "بنا": 4047,
      "يري": 4048,
      "ارب": 4049,
      "نيٺ": 4050,
      "2018": 4051,
      "حقيقي": 4052,
      "صلاحيت": 4053,
      "محقق": 4054,
      "يائين": 4055,
      "ڪاو": 4056,
      "لات": 4057,
      "ورڪ": 4058,
      "باقاع": 4059,
      "2018ع": 4060,
      "فيض": 4061,
      "پرڳ": 4062,
      "صدين": 4063,
      "لائبري": 4064,
      "تفصيل": 4065,
      "کليل": 4066,
      "جوڻي": 4067,
      "ٽيم": 4068,
      "سڀئي": 4069,
      "مقابلو": 4070,
      "اداڪار": 4071,
      "دفعو": 4072,
      "صورتح": 4073,
      "دستاويز": 4074,
      "بجلي": 4075,
      "st": 4076,
      "شور": 4077,
      "انڪ": 4078,
      "پرست": 4079,
      "برطانيه": 4080,
      "انٽرنيشنل": 4081,
      "روانو": 4082,
      "ايشيائي": 4083,
      "نسبت": 4084,
      "چڱو": 4085,
      "ڪاروبار": 4086,
      "ميونسپ": 4087,
      "شهن": 4088,
      "مٽيء": 4089,
      "ڳڻ": 4090,
      "درس": 4091,
      "ڪارڪن": 4092,
      "سز": 4093,
      "کن": 4094,
      "ڪور": 4095,
      "اده": 4096,
      "ڪهڙي": 4097,
      "سنڀال": 4098,
      "جابلو": 4099,
      "صورتحال": 4100,
      "ڪرائون": 4101,
      "پوندي": 4102,
      "اتل": 4103,
      "موقعي": 4104,
      "ڊالر": 4105,
      "عراق": 4106,
      "لائن": 4107,
      "انٽ": 4108,
      "اوا": 4109,
      "سراسري": 4110,
      "اڻيون": 4111,
      "خوش": 4112,
      "گذاري": 4113,
      "گروهه": 4114,
      "ڪلاڪ": 4115,
      "شھرن": 4116,
      "ايوب": 4117,
      "آئيني": 4118,
      "اقتدار": 4119,
      "فلا": 4120,
      "نبا": 4121,
      "ريز": 4122,
      "مرح": 4123,
      "سوچ": 4124,
      "ڳاڙ": 4125,
      "بخاري": 4126,
      "Asad": 4127,
      "Jogi": 4128,
      "منزل": 4129,
      "طرز": 4130,
      "برادري": 4131,
      "..": 4132,
      "بلي": 4133,
      "کار": 4134,
      "انت": 4135,
      "ميمبرن": 4136,
      "رکندا": 4137,
      "ڪلاس": 4138,
      "شھري": 4139,
      "JogiAsad": 4140,
      "رپورٽ": 4141,
      "نڪا": 4142,
      "گلن": 4143,
      "ايجاد": 4144,
      "امين": 4145,
      "ڇڏي": 4146,
      "ڊر": 4147,
      "جنگي": 4148,
      "19ع": 4149,
      "منصو": 4150,
      "درجه": 4151,
      "شريڪ": 4152,
      "رحال": 4153,
      "خطي": 4154,
      "تائي": 4155,
      "صف": 4156,
      "فصل": 4157,
      "ستين": 4158,
      "سلر": 4159,
      "جاج": 4160,
      "قلم": 4161,
      "سگھن": 4162,
      "ويجھو": 4163,
      "ڪميشن": 4164,
      "اسپين": 4165,
      "پئجي": 4166,
      "لڳائي": 4167,
      "اڃان": 4168,
      "ڏيکاري": 4169,
      "ورهايو": 4170,
      "تعريف": 4171,
      "24": 4172,
      "نج": 4173,
      "آهيون": 4174,
      "ورتل": 4175,
      "جيڪب": 4176,
      "جھاز": 4177,
      "اقبال": 4178,
      "لغاري": 4179,
      "سی": 4180,
      "ڻس": 4181,
      "ريڊ": 4182,
      "سنت": 4183,
      "خواه": 4184,
      "ine": 4185,
      "مسلسل": 4186,
      "ap": 4187,
      "سالي": 4188,
      "ڀائ": 4189,
      "فراهم": 4190,
      "ذريعو": 4191,
      "مبارڪ": 4192,
      "واضح": 4193,
      "بح": 4194,
      "ڪجھ": 4195,
      "سوش": 4196,
      "ٽرانس": 4197,
      "ig": 4198,
      "حج": 4199,
      "سڪو": 4200,
      "سرگرم": 4201,
      "فيت": 4202,
      "پکڙ": 4203,
      "جعفري": 4204,
      "جاپان": 4205,
      "اون": 4206,
      "سک": 4207,
      "مک": 4208,
      "يا": 4209,
      "اسڪا": 4210,
      "گذري": 4211,
      "اريل": 4212,
      "ڪرم": 4213,
      "انگن": 4214,
      "حڪمت": 4215,
      "سري": 4216,
      "ضن": 4217,
      "پلي": 4218,
      "یو": 4219,
      "ولر": 4220,
      "ڪيترين": 4221,
      "ننڍڙي": 4222,
      "مھراڻ": 4223,
      "هزارين": 4224,
      "مٽي": 4225,
      "يار": 4226,
      "ڊنگ": 4227,
      "ونگ": 4228,
      "خيالن": 4229,
      "جرمني": 4230,
      "Re": 4231,
      "آڻڻ": 4232,
      "پوي": 4233,
      "جهد": 4234,
      "لڳايو": 4235,
      "مهينن": 4236,
      "ڳالهائيندڙ": 4237,
      "جائزو": 4238,
      "خل": 4239,
      "خالي": 4240,
      "ڊا": 4241,
      "چونڊون": 4242,
      "حياتياتي": 4243,
      "id": 4244,
      "اٺن": 4245,
      "گبول": 4246,
      "لوم": 4247,
      "ڪنن": 4248,
      "فيڊ": 4249,
      "نظر": 4250,
      "عيو": 4251,
      "ent": 4252,
      "وسند": 4253,
      "ماپ": 4254,
      "ويئر": 4255,
      "هنڌن": 4256,
      "جهڙا": 4257,
      "وڏيون": 4258,
      "رسالن": 4259,
      "تصديق": 4260,
      "رياستون": 4261,
      "بيا": 4262,
      "تپي": 4263,
      "مائي": 4264,
      "نثر": 4265,
      "ماس": 4266,
      "مهم": 4267,
      "ھيٺ": 4268,
      "نامز": 4269,
      "خاتمي": 4270,
      "جنت": 4271,
      "سرائ": 4272,
      "نوي": 4273,
      "سٽس": 4274,
      "مريد": 4275,
      "مهل": 4276,
      "مهيا": 4277,
      "نڊري": 4278,
      "مٿاڇ": 4279,
      "اجلاس": 4280,
      "لنگ": 4281,
      "پائي": 4282,
      "ڌاتو": 4283,
      "الون": 4284,
      "the": 4285,
      "برسات": 4286,
      "آل": 4287,
      "بيء": 4288,
      "دد": 4289,
      "ڦر": 4290,
      "گال": 4291,
      "1999ع": 4292,
      "ڀيڻ": 4293,
      "ضرور": 4294,
      "سنگت": 4295,
      "راشدي": 4296,
      "33": 4297,
      "خير": 4298,
      "ڇپايو": 4299,
      "گير": 4300,
      "انصاف": 4301,
      "محنت": 4302,
      "2012": 4303,
      "نمونو": 4304,
      "جدوجهد": 4305,
      "ٽنڊو": 4306,
      "ديء": 4307,
      "درج": 4308,
      "رهندي": 4309,
      "حوالا": 4310,
      "الزام": 4311,
      "معمولي": 4312,
      "آسٽ": 4313,
      "فرو": 4314,
      "انجي": 4315,
      "راتي": 4316,
      "ابڙو": 4317,
      "جوڙي": 4318,
      "هيڊ": 4319,
      "ڳالهيون": 4320,
      "هلندڙ": 4321,
      "چئجي": 4322,
      "پيدائشون": 4323,
      "نسلن": 4324,
      "راڄڌاني": 4325,
      "تار": 4326,
      "ره": 4327,
      "ممتا": 4328,
      "ايف": 4329,
      "ڪوٽ": 4330,
      "شمسي": 4331,
      "hi": 4332,
      "iv": 4333,
      "لون": 4334,
      "جناح": 4335,
      "جيستائين": 4336,
      "ڳاڙهي": 4337,
      "سئو": 4338,
      "عشق": 4339,
      "36": 4340,
      "اپ": 4341,
      "شد": 4342,
      "واپر": 4343,
      "واريء": 4344,
      "ڊيشن": 4345,
      "فرض": 4346,
      "گوشت": 4347,
      "اسٽيٽ": 4348,
      "پرنٽنگ": 4349,
      "ter": 4350,
      "ڀڃ": 4351,
      "ڀارتي": 4352,
      "يڪيو": 4353,
      "روشن": 4354,
      "ادري": 4355,
      "ڊڪشنري": 4356,
      "بش": 4357,
      "زخ": 4358,
      "ڇهه": 4359,
      "ليٽ": 4360,
      "ساٿي": 4361,
      "مارڪيٽ": 4362,
      "عبادت": 4363,
      "داستان": 4364,
      "درخواست": 4365,
      "ممتاز": 4366,
      "عباس": 4367,
      "ميٽرو": 4368,
      "ــــ": 4369,
      "مذھبي": 4370,
      "27": 4371,
      "رئيس": 4372,
      "ڀڄي": 4373,
      "اما": 4374,
      "بحال": 4375,
      "مولائي": 4376,
      "جڳهه": 4377,
      "500": 4378,
      "اچ": 4379,
      "ڀريل": 4380,
      "کل": 4381,
      "هوائي": 4382,
      "چوڪ": 4383,
      "سيڪنڊري": 4384,
      "اچار": 4385,
      "روحاني": 4386,
      "سوانح": 4387,
      "99": 4388,
      "آڏ": 4389,
      "سعيد": 4390,
      "فھ": 4391,
      "کول": 4392,
      "ڪٽ": 4393,
      "ادل": 4394,
      "گهراڻي": 4395,
      "منسو": 4396,
      "هيه": 4397,
      "سمورو": 4398,
      "1960ع": 4399,
      "ٺهڻ": 4400,
      "مجبور": 4401,
      "رياستي": 4402,
      "ايٽمي": 4403,
      "خوراڪ": 4404,
      "30": 4405,
      "32": 4406,
      "en": 4407,
      "ثبوت": 4408,
      "ڪوڊ": 4409,
      "فيٰ": 4410,
      "وڪيل": 4411,
      "بابا": 4412,
      "انڊين": 4413,
      "حياتيات": 4414,
      "دشمن": 4415,
      "اديبن": 4416,
      "ڪائي": 4417,
      "سياح": 4418,
      "اندروني": 4419,
      "سڏبو": 4420,
      "رھندڙ": 4421,
      "خاتمو": 4422,
      "بيمارين": 4423,
      "آئرلينڊ": 4424,
      "آري": 4425,
      "زوال": 4426,
      "ياتي": 4427,
      "ہیں": 4428,
      "مٿس": 4429,
      "خريد": 4430,
      "بادشاهت": 4431,
      "بيڪ": 4432,
      "ڊين": 4433,
      "ڪاس": 4434,
      "ڳڙهه": 4435,
      "بهرحال": 4436,
      "دٻاء": 4437,
      "جاني": 4438,
      "صبح": 4439,
      "ٽئين": 4440,
      "پرن": 4441,
      "ھلي": 4442,
      "برقي": 4443,
      "کوٽائي": 4444,
      "مدرسي": 4445,
      "96": 4446,
      "ڌو": 4447,
      "ڪش": 4448,
      "پيرو": 4449,
      "گهرن": 4450,
      "ناڪ": 4451,
      "خارج": 4452,
      "قريشي": 4453,
      "پيغام": 4454,
      "سڌو": 4455,
      "هڻي": 4456,
      "نيت": 4457,
      "پرستي": 4458,
      "سمجهڻ": 4459,
      "پرڏيهي": 4460,
      "نباتا": 4461,
      "سے": 4462,
      "سوي": 4463,
      "فين": 4464,
      "ڪپ": 4465,
      "ماڻهوء": 4466,
      "2007": 4467,
      "ڪالم": 4468,
      "اڀرندي": 4469,
      "پشا": 4470,
      "ڀري": 4471,
      "انکي": 4472,
      "اصولن": 4473,
      "واقعن": 4474,
      "نما": 4475,
      "1970ع": 4476,
      "مقدس": 4477,
      "دعوت": 4478,
      "اڇي": 4479,
      "بغير": 4480,
      "خبر": 4481,
      "سد": 4482,
      "لس": 4483,
      "نز": 4484,
      "ھار": 4485,
      "ساڻس": 4486,
      "پهري": 4487,
      "فاق": 4488,
      "هدايت": 4489,
      "نفسي": 4490,
      "ميڊيڪل": 4491,
      "جيء": 4492,
      "انء": 4493,
      "ميون": 4494,
      "پين": 4495,
      "منڊل": 4496,
      "لوجي": 4497,
      "سرچ": 4498,
      "2006ع": 4499,
      "علائقائي": 4500,
      "2020": 4501,
      "کاڌو": 4502,
      "ity": 4503,
      "عجائ": 4504,
      "کائي": 4505,
      "اسرائ": 4506,
      "ميلا": 4507,
      "سرو": 4508,
      "اندارن": 4509,
      "حاق": 4510,
      "قبيلو": 4511,
      "بچاء": 4512,
      "پوڄا": 4513,
      "26": 4514,
      "ot": 4515,
      "ميرن": 4516,
      "تعاون": 4517,
      "ساڄي": 4518,
      "منٽ": 4519,
      "سوسي": 4520,
      "ٻيھر": 4521,
      "ائونڊ": 4522,
      "ٽيليويزن": 4523,
      "90": 4524,
      "مڪر": 4525,
      "پڙهي": 4526,
      "واھ": 4527,
      "شهدادڪوٽ": 4528,
      "وڌڻ": 4529,
      "آغاز": 4530,
      "نڪاح": 4531,
      "دني": 4532,
      "هج": 4533,
      "سياحت": 4534,
      "گهرو": 4535,
      "ڪنڊ": 4536,
      "وڌائڻ": 4537,
      "بلدي": 4538,
      "فلڪي": 4539,
      "ڪمزور": 4540,
      "مصط": 4541,
      "tion": 4542,
      "ڪميٽي": 4543,
      "سروس": 4544,
      "اسرائيل": 4545,
      "سار": 4546,
      "ڳائڻ": 4547,
      "الحق": 4548,
      "اشارو": 4549,
      "ڳولا": 4550,
      "St": 4551,
      "قبر": 4552,
      "اسد": 4553,
      "ڪرا": 4554,
      "معن": 4555,
      "اطلا": 4556,
      "آڻي": 4557,
      "جام": 4558,
      "جاندار": 4559,
      "انور": 4560,
      "وڌائي": 4561,
      "چولي": 4562,
      "جمالي": 4563,
      "آڪسي": 4564,
      "ملاقات": 4565,
      "جاندارن": 4566,
      "ويٰ": 4567,
      "درست": 4568,
      "نايو": 4569,
      "ڊگهو": 4570,
      "پوليٽن": 4571,
      "ڪهاڻين": 4572,
      "ڪابل": 4573,
      "سرگرمين": 4574,
      "ce": 4575,
      "دهل": 4576,
      "ڍنڍ": 4577,
      "اهري": 4578,
      "پيئڻ": 4579,
      "ساز": 4580,
      "183": 4581,
      "2011": 4582,
      "نقل": 4583,
      "ڪڍيو": 4584,
      "خليفو": 4585,
      "ٻاهرين": 4586,
      "ڪمش": 4587,
      "برف": 4588,
      "سٽنٽ": 4589,
      "ناڊا": 4590,
      "ڇڏيا": 4591,
      "رھيا": 4592,
      "بندو": 4593,
      "چڱي": 4594,
      "جوڙجڪ": 4595,
      "پليٽ": 4596,
      "um": 4597,
      "دروي": 4598,
      "زير": 4599,
      "ڄمڻ": 4600,
      "چڙه": 4601,
      "يڪي": 4602,
      "ماڊل": 4603,
      "جيترو": 4604,
      "ڪاٺ": 4605,
      "عرف": 4606,
      "عبدالل": 4607,
      "سگهو": 4608,
      "تصويرون": 4609,
      "پاسن": 4610,
      "ازن": 4611,
      "سؤ": 4612,
      "غذ": 4613,
      "وڻ": 4614,
      "پس": 4615,
      "ويل": 4616,
      "گرو": 4617,
      "نوڪري": 4618,
      "آسمان": 4619,
      "يافته": 4620,
      "تڪلي": 4621,
      "عاش": 4622,
      "ڏا": 4623,
      "ڳائ": 4624,
      "مرض": 4625,
      "سيني": 4626,
      "مشر": 4627,
      "ناطي": 4628,
      "علامت": 4629,
      "ساڳيو": 4630,
      "وهڪري": 4631,
      "خطاب": 4632,
      "مفاصلي": 4633,
      "سٽريشن": 4634,
      "هداي": 4635,
      "پويان": 4636,
      "جل": 4637,
      "چش": 4638,
      "ڪڙي": 4639,
      "رياض": 4640,
      "سيني": 4641,
      "جيريا": 4642,
      "مارشل": 4643,
      "اڏاوت": 4644,
      "هيٺيان": 4645,
      "غيبي": 4646,
      "سربراھ": 4647,
      "ضل": 4648,
      "پند": 4649,
      "چٽ": 4650,
      "ٽرل": 4651,
      "گرافي": 4652,
      "آخوند": 4653,
      "ڪميونسٽ": 4654,
      "is": 4655,
      "رڊ": 4656,
      "ڌي": 4657,
      "ڏهه": 4658,
      "اهل": 4659,
      "جيڪٽ": 4660,
      "زيد": 4661,
      "1960": 4662,
      "وانگي": 4663,
      "ضم": 4664,
      "مٺ": 4665,
      "کٽي": 4666,
      "الح": 4667,
      "واٽ": 4668,
      "ڪنگ": 4669,
      "خاطر": 4670,
      "حاض": 4671,
      "صحافي": 4672,
      "ملاز": 4673,
      "مئٽرڪ": 4674,
      "سائنسدان": 4675,
      "اختلاف": 4676,
      "آڏو": 4677,
      "جسماني": 4678,
      "يهو": 4679,
      "ڌن": 4680,
      "ڪندڙن": 4681,
      "ندين": 4682,
      "ايئن": 4683,
      "پنڌ": 4684,
      "ڪوريا": 4685,
      "تازو": 4686,
      "عيسائي": 4687,
      "قبيلا": 4688,
      "چارج": 4689,
      "le": 4690,
      "دفا": 4691,
      "يز": 4692,
      "گئ": 4693,
      "محا": 4694,
      "درٻار": 4695,
      "اتيء": 4696,
      "ڪانه": 4697,
      "عيوض": 4698,
      "طبي": 4699,
      "عيت": 4700,
      "مگ": 4701,
      "بادشا": 4702,
      "هيٺان": 4703,
      "نائب": 4704,
      "جاد": 4705,
      "ٿان": 4706,
      "رومي": 4707,
      "ويب": 4708,
      "سازي": 4709,
      "شرط": 4710,
      "ڪاميابي": 4711,
      "راندين": 4712,
      "78": 4713,
      "اتر": 4714,
      "اعلي": 4715,
      "حمي": 4716,
      "ذير": 4717,
      "گزي": 4718,
      "گئس": 4719,
      "ھٿ": 4720,
      "ارو": 4721,
      "2013": 4722,
      "2019": 4723,
      "بنو": 4724,
      "خواجه": 4725,
      "واڌارو": 4726,
      "بلدياتي": 4727,
      "اشاع": 4728,
      "طالب": 4729,
      "پت": 4730,
      "ھزار": 4731,
      "لاڳ": 4732,
      "پنن": 4733,
      "ملا": 4734,
      "2000ع": 4735,
      "ڪلھو": 4736,
      "ڀرپور": 4737,
      "1980ع": 4738,
      "تحرير": 4739,
      "ڪاميٽي": 4740,
      "پاليسي": 4741,
      "هاڻوڪي": 4742,
      "پڪ": 4743,
      "ڏن": 4744,
      "ھائي": 4745,
      "آهيان": 4746,
      "ڪرڪيٽ": 4747,
      "اوچ": 4748,
      "وڏين": 4749,
      "جيني": 4750,
      "اتن": 4751,
      "صوف": 4752,
      "2012ع": 4753,
      "2008ع": 4754,
      "شعور": 4755,
      "پشاور": 4756,
      "od": 4757,
      "سڳ": 4758,
      "طه": 4759,
      "ورهين": 4760,
      "2017ع": 4761,
      "عجائب": 4762,
      "آف": 4763,
      "ڪنديون": 4764,
      "اريون": 4765,
      "ميلن": 4766,
      "ٽين": 4767,
      "اڻين": 4768,
      "گذاري": 4769,
      "Ch": 4770,
      "آسان": 4771,
      "اھر": 4772,
      "خز": 4773,
      "سچل": 4774,
      "وز": 4775,
      "چڻ": 4776,
      "ڪتي": 4777,
      "صول": 4778,
      "بادشاھ": 4779,
      "مٿين": 4780,
      "پورچو": 4781,
      "ary": 4782,
      "موضوعن": 4783,
      "نڪتو": 4784,
      "تاب": 4785,
      "ذهن": 4786,
      "غر": 4787,
      "هت": 4788,
      "کڻ": 4789,
      "رومان": 4790,
      "ستيء": 4791,
      "جيئ": 4792,
      "جھڙوڪ": 4793,
      "زئي": 4794,
      "غالب": 4795,
      "ڪڙ": 4796,
      "پوسٽ": 4797,
      "صدارتي": 4798,
      "بروهي": 4799,
      "ڇپجي": 4800,
      "ڪوارٽر": 4801,
      "ch": 4802,
      "جد": 4803,
      "وچولي": 4804,
      "اريا": 4805,
      "180": 4806,
      "ٽرز": 4807,
      "هڪٻئي": 4808,
      "سنڀال": 4809,
      "ليڪن": 4810,
      "ايراضيء": 4811,
      "آرام": 4812,
      "هال": 4813,
      "ڀت": 4814,
      "ڪث": 4815,
      "لياقت": 4816,
      "ٻيلي": 4817,
      "لاڳاپا": 4818,
      "مغلن": 4819,
      "dia": 4820,
      "ارتقا": 4821,
      "ثو": 4822,
      "عطا": 4823,
      "مپ": 4824,
      "يس": 4825,
      "يقين": 4826,
      "پڇا": 4827,
      "یر": 4828,
      "گرين": 4829,
      "واقعا": 4830,
      "اسڪولن": 4831,
      "نصير": 4832,
      "کاٻي": 4833,
      "سنگھ": 4834,
      "مٿاڇري": 4835,
      "ميٽروپوليٽن": 4836,
      "45": 4837,
      "Ne": 4838,
      "لڏ": 4839,
      "ڦو": 4840,
      "ليز": 4841,
      "تيئن": 4842,
      "تحصيل": 4843,
      "2010ع": 4844,
      "ٻڌڻ": 4845,
      "گذر": 4846,
      "An": 4847,
      "رفت": 4848,
      "سڪ": 4849,
      "ڀٽ": 4850,
      "ڊپٽي": 4851,
      "گلي": 4852,
      "ارغ": 4853,
      "الط": 4854,
      "الف": 4855,
      "راز": 4856,
      "سيٺ": 4857,
      "مقناطي": 4858,
      "ڪارپو": 4859,
      "مستقبل": 4860,
      "مسافر": 4861,
      "اک": 4862,
      "اڙي": 4863,
      "تل": 4864,
      "صالح": 4865,
      "مدي": 4866,
      "چڪر": 4867,
      "راول": 4868,
      "مول": 4869,
      "منصوبو": 4870,
      "محتر": 4871,
      "شيد": 4872,
      "رياضي": 4873,
      "ڪلاسيڪل": 4874,
      "تصنيف": 4875,
      "bl": 4876,
      "زبرد": 4877,
      "صاد": 4878,
      "عار": 4879,
      "نٿي": 4880,
      "نٿا": 4881,
      "کڻڻ": 4882,
      "وير": 4883,
      "ڪيشن": 4884,
      "امداد": 4885,
      "مردن": 4886,
      "اوائلي": 4887,
      "محبو": 4888,
      "شمس": 4889,
      "اهين": 4890,
      "بات": 4891,
      "سنڌين": 4892,
      "ڪلچر": 4893,
      "دريا": 4894,
      "يوزر": 4895,
      "صنف": 4896,
      "ڪپڙي": 4897,
      "سليمان": 4898,
      "ڪمشنر": 4899,
      "سڪي": 4900,
      "ڍي": 4901,
      "ندس": 4902,
      "سني": 4903,
      "ٽيڊ": 4904,
      "مشي": 4905,
      "نوبل": 4906,
      "آبهوا": 4907,
      "بڻائڻ": 4908,
      "1992ع": 4909,
      "ڪائونٽي": 4910,
      "ميلاپ": 4911,
      "دهليء": 4912,
      "غازي": 4913,
      "لھ": 4914,
      "وم": 4915,
      "اندر": 4916,
      "لاڏ": 4917,
      "اسڪال": 4918,
      "ويهه": 4919,
      "گرد": 4920,
      "سمون": 4921,
      "2016": 4922,
      "سيڪو": 4923,
      "اٿن": 4924,
      "مسئلا": 4925,
      "بئنڪ": 4926,
      "حلقو": 4927,
      "بص": 4928,
      "تارا": 4929,
      "جمال": 4930,
      "طري": 4931,
      "مٺي": 4932,
      "ڇهن": 4933,
      "يوني": 4934,
      "فوجن": 4935,
      "زيب": 4936,
      "هلائڻ": 4937,
      "هيٺين": 4938,
      "ابتدا": 4939,
      "زائ": 4940,
      "طب": 4941,
      "ڪمال": 4942,
      "ارام": 4943,
      "ديت": 4944,
      "ديهه": 4945,
      "ناچ": 4946,
      "تقسيم": 4947,
      "ڊرامي": 4948,
      "نرم": 4949,
      "زلز": 4950,
      "رھن": 4951,
      "زباني": 4952,
      "فاني": 4953,
      "نئ": 4954,
      "وھ": 4955,
      "مردم": 4956,
      "اصر": 4957,
      "افسان": 4958,
      "سينٽي": 4959,
      "مٽياري": 4960,
      "فھرست": 4961,
      "ڏيندڙ": 4962,
      "حڪومتي": 4963,
      "ڳالهين": 4964,
      "آرٽس": 4965,
      "ڏيکاريو": 4966,
      "ايوان": 4967,
      "uc": 4968,
      "بطور": 4969,
      "شور": 4970,
      "شوري": 4971,
      "متون": 4972,
      "ناري": 4973,
      "هجري": 4974,
      "ڪڏھن": 4975,
      "ملندو": 4976,
      "وڌندڙ": 4977,
      "هايو": 4978,
      "1991ع": 4979,
      "ايڪٽ": 4980,
      "ڪڍڻ": 4981,
      "جمع": 4982,
      "حاد": 4983,
      "قد": 4984,
      "ٺهي": 4985,
      "ڊرو": 4986,
      "ملندڙ": 4987,
      "قول": 4988,
      "ننڍن": 4989,
      "پروٽين": 4990,
      "2023ع": 4991,
      "قطب": 4992,
      "صادق": 4993,
      "34": 4994,
      "شاندار": 4995,
      "وڇ": 4996,
      "انڪري": 4997,
      "ڪنگ": 4998,
      "فيلڊ": 4999,
      "مشڪل": 5000,
      "شيدائي": 5001,
      "2004ع": 5002,
      "مزاح": 5003,
      "سينٽرل": 5004,
      "پٺاڻ": 5005,
      "منهنجو": 5006,
      "انٽرنيٽ": 5007,
      "باغباني": 5008,
      "98": 5009,
      "Al": 5010,
      "im": 5011,
      "آيت": 5012,
      "خلائي": 5013,
      "پيرن": 5014,
      "پوٽو": 5015,
      "احساس": 5016,
      "گھراڻي": 5017,
      "ڊرامن": 5018,
      "دفعا": 5019,
      "تار": 5020,
      "سپريم": 5021,
      "پخت": 5022,
      "ڏهين": 5023,
      "ادين": 5024,
      "پنهور": 5025,
      "بيب": 5026,
      "جاگير": 5027,
      "يونان": 5028,
      "مثلا": 5029,
      "نگراني": 5030,
      "عنايت": 5031,
      "رقم": 5032,
      "روشنيء": 5033,
      "300": 5034,
      "تفري": 5035,
      "جسٽ": 5036,
      "رضي": 5037,
      "سچ": 5038,
      "صدي": 5039,
      "ارڙ": 5040,
      "آهي": 5041,
      "ٽيو": 5042,
      "بنجي": 5043,
      "طريقا": 5044,
      "پنجين": 5045,
      "طبقي": 5046,
      "فضل": 5047,
      "ڪيريئر": 5048,
      "عبداللطيف": 5049,
      "آئون": 5050,
      "ذر": 5051,
      "غور": 5052,
      "ڏيو": 5053,
      "ڙائي": 5054,
      "موهن": 5055,
      "اوٽ": 5056,
      "ساحل": 5057,
      "ڏيڍ": 5058,
      "2002ع": 5059,
      "انڊوني": 5060,
      "يونيورسٽيون": 5061,
      "00": 5062,
      "ph": 5063,
      "رمض": 5064,
      "ظاھر": 5065,
      "که": 5066,
      "ڪچي": 5067,
      "ھاء": 5068,
      "واڙ": 5069,
      "جوڳي": 5070,
      "جيان": 5071,
      "ڳوٺ": 5072,
      "هلائي": 5073,
      "ميرزا": 5074,
      "پلاڻ": 5075,
      "زمينن": 5076,
      "آمدني": 5077,
      "سس": 5078,
      "عال": 5079,
      "نيء": 5080,
      "گان": 5081,
      "الم": 5082,
      "شهز": 5083,
      "شهرت": 5084,
      "شاد": 5085,
      "اندازي": 5086,
      "1956ع": 5087,
      "ڪونهي": 5088,
      "عمارتون": 5089,
      "ٺاھڻ": 5090,
      "um": 5091,
      "جج": 5092,
      "ويهي": 5093,
      "گهڻن": 5094,
      "شاخون": 5095,
      "رهيون": 5096,
      "هلندو": 5097,
      "دورن": 5098,
      "اشت": 5099,
      "فاط": 5100,
      "مهينا": 5101,
      "عثماني": 5102,
      "ميڪسيڪو": 5103,
      "لائبريري": 5104,
      "جلال": 5105,
      "سفي": 5106,
      "طلا": 5107,
      "طئي": 5108,
      "مک": 5109,
      "ناس": 5110,
      "هون": 5111,
      "پتو": 5112,
      "ڪچو": 5113,
      "ڪٽن": 5114,
      "اله": 5115,
      "القرآن": 5116,
      "ريسرچ": 5117,
      "ايمپ": 5118,
      "نامور": 5119,
      "نوازيو": 5120,
      "فلسفو": 5121,
      "آثارن": 5122,
      "ئم": 5123,
      "بگ": 5124,
      "سٽي": 5125,
      "یہ": 5126,
      "ميوز": 5127,
      "پنجون": 5128,
      "جيب": 5129,
      "نوع": 5130,
      "and": 5131,
      "جملي": 5132,
      "ذات": 5133,
      "گري": 5134,
      "ھنگ": 5135,
      "الاجي": 5136,
      "ڪيني": 5137,
      "تيمور": 5138,
      "سول": 5139,
      "1993ع": 5140,
      "1988ع": 5141,
      "تجارتي": 5142,
      "رابطا": 5143,
      "رمضان": 5144,
      "طاقت": 5145,
      "مہ": 5146,
      "ٿول": 5147,
      "الهندي": 5148,
      "مادو": 5149,
      "درياھ": 5150,
      "ٽنڊي": 5151,
      "انقلابي": 5152,
      "گھرجي": 5153,
      "اخلاقي": 5154,
      "شهنشاهه": 5155,
      "at": 5156,
      "ov": 5157,
      "خلا": 5158,
      "دليل": 5159,
      "زين": 5160,
      "قن": 5161,
      "نع": 5162,
      "نويس": 5163,
      "ڊس": 5164,
      "واب": 5165,
      "مارڪ": 5166,
      "ڪجهہ": 5167,
      "تباهه": 5168,
      "فرين": 5169,
      "دائري": 5170,
      "داخلا": 5171,
      "ite": 5172,
      "age": 5173,
      "28": 5174,
      "qu": 5175,
      "بون": 5176,
      "فائون": 5177,
      "ننگ": 5178,
      "چچ": 5179,
      "گهي": 5180,
      "نظير": 5181,
      "نگا": 5182,
      "ايڪس": 5183,
      "فقار": 5184,
      "بزرگن": 5185,
      "هائوس": 5186,
      "نامزد": 5187,
      "طاقتور": 5188,
      "ev": 5189,
      "la": 5190,
      "تارن": 5191,
      "عملن": 5192,
      "ونيا": 5193,
      "مسئلو": 5194,
      "اگر": 5195,
      "تتا": 5196,
      "يتي": 5197,
      "انس": 5198,
      "سافٽ": 5199,
      "بيل": 5200,
      "برٽ": 5201,
      "معصو": 5202,
      "چوي": 5203,
      "والي": 5204,
      "فلسط": 5205,
      "آرڪ": 5206,
      "آرمي": 5207,
      "هئو": 5208,
      "olog": 5209,
      "سربراهه": 5210,
      "سدائين": 5211,
      "رم": 5212,
      "ڇر": 5213,
      "ورهيه": 5214,
      "يڪٽر": 5215,
      "بيٺل": 5216,
      "وڌايو": 5217,
      "پروگرا": 5218,
      "ذريعن": 5219,
      "رائج": 5220,
      "گريجو": 5221,
      "رضا": 5222,
      "اه": 5223,
      "ساس": 5224,
      "مهر": 5225,
      "وج": 5226,
      "پخ": 5227,
      "چن": 5228,
      "فرمايو": 5229,
      "بدل": 5230,
      "2016ع": 5231,
      "نشاني": 5232,
      "سپر": 5233,
      "ولي": 5234,
      "ٽڪر": 5235,
      "یل": 5236,
      "پرنس": 5237,
      "چوٽي": 5238,
      "1997ع": 5239,
      "بهار": 5240,
      "مرڪب": 5241,
      "جارج": 5242,
      "پٿرن": 5243,
      "منصور": 5244,
      "آڏواڻي": 5245,
      "آھ": 5246,
      "اٽي": 5247,
      "بجاء": 5248,
      "تسل": 5249,
      "پلو": 5250,
      "ڏيون": 5251,
      "روڪڻ": 5252,
      "هني": 5253,
      "پهريان": 5254,
      "فرھنگ": 5255,
      "ٻوڏ": 5256,
      "گهربل": 5257,
      "ڪلهوڙن": 5258,
      "پابندي": 5259,
      "فلسطين": 5260,
      "ik": 5261,
      "صديق": 5262,
      "فطري": 5263,
      "نام": 5264,
      "ھندي": 5265,
      "الخط": 5266,
      "آڪسيجن": 5267,
      "لال": 5268,
      "ڍان": 5269,
      "پوڻ": 5270,
      "پوئين": 5271,
      "باتي": 5272,
      "سوين": 5273,
      "رکيا": 5274,
      "ضلعا": 5275,
      "نسر": 5276,
      "اعترا": 5277,
      "افغان": 5278,
      "ايمپائر": 5279,
      "اٽ": 5280,
      "حان": 5281,
      "دہ": 5282,
      "فني": 5283,
      "وهي": 5284,
      "چالي": 5285,
      "ڪٿا": 5286,
      "ساڻ": 5287,
      "اللہ": 5288,
      "عالم": 5289,
      "تنھن": 5290,
      "نقشو": 5291,
      "پهچڻ": 5292,
      "عقيدي": 5293,
      "جوڻيجو": 5294,
      "سوسيئيشن": 5295,
      "طلاق": 5296,
      "ربي": 5297,
      "چنا": 5298,
      "چندر": 5299,
      "ڪٽ": 5300,
      "ميلو": 5301,
      "فرش": 5302,
      "لکن": 5303,
      "فارمي": 5304,
      "چارلس": 5305,
      "پيپلز": 5306,
      "ناڪام": 5307,
      "ڙھي": 5308,
      "ڦير": 5309,
      "انڙ": 5310,
      "ائل": 5311,
      "انڊر": 5312,
      "خاصخي": 5313,
      "گذريل": 5314,
      "دفت": 5315,
      "يھو": 5316,
      "لاڙ": 5317,
      "راڻو": 5318,
      "شاھي": 5319,
      "ناظم": 5320,
      "رسمي": 5321,
      "لڳندو": 5322,
      "رابطي": 5323,
      "منسوب": 5324,
      "صلاح": 5325,
      "ڪام": 5326,
      "انٽر": 5327,
      "ويڙهه": 5328,
      "ساٿين": 5329,
      "مقصد": 5330,
      "2009ع": 5331,
      "تشدد": 5332,
      "ذوالفقار": 5333,
      "رهن": 5334,
      "انفرا": 5335,
      "اتا": 5336,
      "اتفاق": 5337,
      "ٻوٽا": 5338,
      "مصري": 5339,
      "کوجن": 5340,
      "مسئلي": 5341,
      "ڪئناڊا": 5342,
      "رجسٽريشن": 5343,
      "مقصدن": 5344,
      "ڏجي": 5345,
      "ڪڙ": 5346,
      "ايئر": 5347,
      "منيء": 5348,
      "فيئر": 5349,
      "پرائي": 5350,
      "تعلقات": 5351,
      "تبلي": 5352,
      "1948ع": 5353,
      "ory": 5354,
      "راندي": 5355,
      "سھول": 5356,
      "سرشتي": 5357,
      "آڳاٽي": 5358,
      "انصاري": 5359,
      "Ar": 5360,
      "فل": 5361,
      "هڪجه": 5362,
      "ڊان": 5363,
      "گون": 5364,
      "ايسٽ": 5365,
      "منڊ": 5366,
      "سمورا": 5367,
      "پراڻن": 5368,
      "فيصلي": 5369,
      "قلات": 5370,
      "سمجھيو": 5371,
      "36": 5372,
      "IS": 5373,
      "تائي": 5374,
      "فٽ": 5375,
      "مئن": 5376,
      "وی": 5377,
      "وش": 5378,
      "نوٽ": 5379,
      "سمورن": 5380,
      "2004": 5381,
      "1995ع": 5382,
      "تبديليون": 5383,
      "وسيلن": 5384,
      "فورڊ": 5385,
      "هٿان": 5386,
      "زڪوات": 5387,
      "37": 5388,
      "صغير": 5389,
      "يندا": 5390,
      "ڦري": 5391,
      "پوک": 5392,
      "هيل": 5393,
      "سورة": 5394,
      "آسپاس": 5395,
      "فنڪار": 5396,
      "عنصرن": 5397,
      "اڀري": 5398,
      "ڪولمب": 5399,
      "عملدار": 5400,
      "درويش": 5401,
      "53": 5402,
      "oo": 5403,
      "جسٽس": 5404,
      "نين": 5405,
      "نري": 5406,
      "ڀلي": 5407,
      "ڪلو": 5408,
      "اسسٽنٽ": 5409,
      "بحر": 5410,
      "فورس": 5411,
      "هريجن": 5412,
      "En": 5413,
      "آڱ": 5414,
      "عض": 5415,
      "ٽون": 5416,
      "چوڏ": 5417,
      "ڏاهر": 5418,
      "ھاري": 5419,
      "ماڳن": 5420,
      "ايل": 5421,
      "لڳن": 5422,
      "سائو": 5423,
      "گوگل": 5424,
      "1998ع": 5425,
      "1986ع": 5426,
      "سرشتو": 5427,
      "ٺاهيندا": 5428,
      "تنظيمن": 5429,
      "سوشلسٽ": 5430,
      "ip": 5431,
      "خانن": 5432,
      "شت": 5433,
      "عات": 5434,
      "عجيب": 5435,
      "پان": 5436,
      "پيون": 5437,
      "پارٽ": 5438,
      "والا": 5439,
      "گڏجا": 5440,
      "مڪ": 5441,
      "هٽ": 5442,
      "چند": 5443,
      "کائيندا": 5444,
      "ورين": 5445,
      "سيل": 5446,
      "لوڻ": 5447,
      "پارٽيون": 5448,
      "ڪارڪر": 5449,
      "يرآباد": 5450,
      "ناس": 5451,
      "ڪلب": 5452,
      "مٿئين": 5453,
      "1973ع": 5454,
      "مڃتا": 5455,
      "معاهدي": 5456,
      "يتيم": 5457,
      "خيرو": 5458,
      "عبر": 5459,
      "پذير": 5460,
      "ٿن": 5461,
      "ڊول": 5462,
      "ڻڪ": 5463,
      "ويز": 5464,
      "پيچي": 5465,
      "فارسيء": 5466,
      "1977ع": 5467,
      "1958ع": 5468,
      "نواب": 5469,
      "شھدادڪوٽ": 5470,
      "نيوڪلي": 5471,
      "خالد": 5472,
      "دعا": 5473,
      "مند": 5474,
      "ايس": 5475,
      "جيڪل": 5476,
      "سما": 5477,
      "نسخ": 5478,
      "ٺاهيا": 5479,
      "اکيون": 5480,
      "ماهوار": 5481,
      "ڪميونٽي": 5482,
      "آپريشن": 5483,
      "مڪران": 5484,
      "عاشق": 5485,
      "ئو": 5486,
      "عروج": 5487,
      "گلي": 5488,
      "ھجري": 5489,
      "اسحاق": 5490,
      "رهاڪو": 5491,
      "گرميء": 5492,
      "فلمي": 5493,
      "ari": 5494,
      "اضافي": 5495,
      "بنگلا": 5496,
      "دعويٰ": 5497,
      "اڄڪل": 5498,
      "لسان": 5499,
      "ٽيا": 5500,
      "ماتحت": 5501,
      "ڪوئي": 5502,
      "ايڪڙ": 5503,
      "50": 5504,
      "ob": 5505,
      "اما": 5506,
      "داني": 5507,
      "وان": 5508,
      "ڏڻ": 5509,
      "راڙيء": 5510,
      "سوار": 5511,
      "ڊيمو": 5512,
      "2013ع": 5513,
      "2011ع": 5514,
      "tic": 5515,
      "هيٺيون": 5516,
      "شخصيتن": 5517,
      "تجربو": 5518,
      "محبوب": 5519,
      ".)": 5520,
      "el": 5521,
      "تپو": 5522,
      "حبيب": 5523,
      "مٽ": 5524,
      "کوٽ": 5525,
      "ميڊي": 5526,
      "نسب": 5527,
      "لاڳاپن": 5528,
      "سائيڊ": 5529,
      "ڪوششن": 5530,
      "سهڻي": 5531,
      "چرچ": 5532,
      "ميونسپل": 5533,
      "40": 5534,
      "دی": 5535,
      "قاف": 5536,
      "لباس": 5537,
      "مڱ": 5538,
      "مة": 5539,
      "نئي": 5540,
      "ڏس": 5541,
      "کنيو": 5542,
      "ڪرڻو": 5543,
      "گھو": 5544,
      "نڊا": 5545,
      "رائچند": 5546,
      "بغداد": 5547,
      "وسنديون": 5548,
      "اڍ": 5549,
      "سع": 5550,
      "سلو": 5551,
      "مترج": 5552,
      "وٽس": 5553,
      "ٽرين": 5554,
      "ڇڏيندا": 5555,
      "ڊگھ": 5556,
      "ائشي": 5557,
      "ويسٽ": 5558,
      "فيس": 5559,
      "زيارت": 5560,
      "ing": 5561,
      "جمھو": 5562,
      "1996ع": 5563,
      "گيل": 5564,
      "ماليڪي": 5565,
      "29": 5566,
      "et": 5567,
      "th": 5568,
      "مفت": 5569,
      "نھ": 5570,
      "بوء": 5571,
      "دائود": 5572,
      "مظاه": 5573,
      "انڊونيشيا": 5574,
      "اٺ": 5575,
      "جلا": 5576,
      "ديو": 5577,
      "ٽا": 5578,
      "پون": 5579,
      "کھ": 5580,
      "ڪاري": 5581,
      "اسڪر": 5582,
      "مينهن": 5583,
      "پاڙي": 5584,
      "ساد": 5585,
      "درگاهه": 5586,
      "قيدي": 5587,
      "ang": 5588,
      "تناسب": 5589,
      "tion": 5590,
      "ثقل": 5591,
      "ism": 5592,
      "ate": 5593,
      "خاصيتون": 5594,
      "ورهائي": 5595,
      "مدرسو": 5596,
      "ڪيميا": 5597,
      "لڏپلاڻ": 5598,
      "جيون": 5599,
      "چني": 5600,
      "سيٰ": 5601,
      "مقالا": 5602,
      "عيسيٰ": 5603,
      "جھان": 5604,
      "مترجم": 5605,
      "Un": 5606,
      "ٽاور": 5607,
      "ھہ": 5608,
      "ابي": 5609,
      "گهوٽ": 5610,
      "سنڌوء": 5611,
      "سرحدون": 5612,
      "ڪنڀ": 5613,
      "بلغ": 5614,
      "ڊيز": 5615,
      "ناز": 5616,
      "فلمون": 5617,
      "1987ع": 5618,
      "عبدالمجيد": 5619,
      "1962ع": 5620,
      "178": 5621,
      "اسپيڪ": 5622,
      "خواهش": 5623,
      "اڇو": 5624,
      "اٺين": 5625,
      "ٻائي": 5626,
      "ڇت": 5627,
      "کاتو": 5628,
      "یم": 5629,
      "ماضي": 5630,
      "اوي": 5631,
      "معدي": 5632,
      "مقبري": 5633,
      "گرھ": 5634,
      "جلس": 5635,
      "لاڳاپو": 5636,
      "روزانو": 5637,
      "موسيقيء": 5638,
      "منتظم": 5639,
      "ڪارپوريشن": 5640,
      "فائونڊيشن": 5641,
      "ed": 5642,
      "لاھور": 5643,
      "رون": 5644,
      "هنر": 5645,
      "منتخ": 5646,
      "ائيڊ": 5647,
      "ائيندڙن": 5648,
      "حيد": 5649,
      "انگل": 5650,
      "مداد": 5651,
      "1950ع": 5652,
      "ڇوڙ": 5653,
      "قدرت": 5654,
      "رستن": 5655,
      "گزين": 5656,
      "هينئر": 5657,
      "پهريائين": 5658,
      "فلڪيات": 5659,
      "بز": 5660,
      "ھئڻ": 5661,
      "استح": 5662,
      "بينظير": 5663,
      "مدن": 5664,
      "اسٽيج": 5665,
      "تفصي": 5666,
      "بھترين": 5667,
      "ڀائرن": 5668,
      "آسٽريا": 5669,
      "بادشاھت": 5670,
      "عارضي": 5671,
      "منتخب": 5672,
      "بی": 5673,
      "بنايو": 5674,
      "ڄار": 5675,
      "ڦل": 5676,
      "ايجو": 5677,
      "پوزيشن": 5678,
      "ديوار": 5679,
      "معز": 5680,
      "نگاري": 5681,
      "2014": 5682,
      "نشين": 5683,
      "ڳالهائي": 5684,
      "حڪمرانن": 5685,
      "خاصيتن": 5686,
      "ميرپور": 5687,
      "برهمڻ": 5688,
      "ملازمت": 5689,
      "38": 5690,
      "80": 5691,
      "جت": 5692,
      "رهو": 5693,
      "شاديء": 5694,
      "لعل": 5695,
      "ٻه": 5696,
      "ڌما": 5697,
      "کل": 5698,
      "ھم": 5699,
      "لاش": 5700,
      "اهڙيون": 5701,
      "ايائين": 5702,
      "پيرا": 5703,
      "اڪر": 5704,
      "سومرن": 5705,
      "جيئي": 5706,
      "انگو": 5707,
      "آرگن": 5708,
      "رنگن": 5709,
      "هٿن": 5710,
      "بندرگاهه": 5711,
      "تنهنجي": 5712,
      "بست": 5713,
      "دوري": 5714,
      "رشيد": 5715,
      "لص": 5716,
      "هلا": 5717,
      "ويه": 5718,
      "جهه": 5719,
      "سرمائي": 5720,
      "ناٿ": 5721,
      "2005": 5722,
      "بنگال": 5723,
      "منتقلي": 5724,
      "ڪامريڊ": 5725,
      "گهٽتائي": 5726,
      "معاشري": 5727,
      "ڪٽنب": 5728,
      "ئل": 5729,
      "ثن": 5730,
      "زهر": 5731,
      "ساهه": 5732,
      "شئي": 5733,
      "نال": 5734,
      "هڻ": 5735,
      "ٽنگ": 5736,
      "ڀنڀ": 5737,
      "گت": 5738,
      "ارسط": 5739,
      "الف": 5740,
      "2020ع": 5741,
      "ڪنوار": 5742,
      "جاين": 5743,
      "قومون": 5744,
      "سگهجن": 5745,
      "ڇڏڻ": 5746,
      "177": 5747,
      "179": 5748,
      "2021": 5749,
      "ڪوششون": 5750,
      "گنب": 5751,
      "si": 5752,
      "نھ": 5753,
      "ٻھ": 5754,
      "ٻيء": 5755,
      "ٽائر": 5756,
      "ڊپارٽ": 5757,
      "منفرد": 5758,
      "شاب": 5759,
      "واري": 5760,
      "مارڪس": 5761,
      "لڳائڻ": 5762,
      "1994ع": 5763,
      "آفريڪي": 5764,
      "تشريح": 5765,
      "ation": 5766,
      "نيوز": 5767,
      "راجپوت": 5768,
      "37": 5769,
      "شھي": 5770,
      "ٻاھ": 5771,
      "ڄاڻي": 5772,
      "ڇهين": 5773,
      "ڌڻي": 5774,
      "امڪان": 5775,
      "گھٽ": 5776,
      "ڏند": 5777,
      "يعقو": 5778,
      "پلان": 5779,
      "ڪپڙا": 5780,
      "پختون": 5781,
      "nam": 5782,
      "ow": 5783,
      "تڪار": 5784,
      "ـي": 5785,
      "ڀائي": 5786,
      "ڙيا": 5787,
      "انيون": 5788,
      "ويٽن": 5789,
      "موڪلي": 5790,
      "گهڻ": 5791,
      "سرد": 5792,
      "دوستن": 5793,
      "ڙها": 5794,
      "ابتڙ": 5795,
      "ٺاھيو": 5796,
      "هٿيار": 5797,
      "عمرڪوٽ": 5798,
      "ay": 5799,
      "بچي": 5800,
      "لٽي": 5801,
      "وق": 5802,
      "ڊز": 5803,
      "ڦاڪ": 5804,
      "ڪع": 5805,
      "انجڻ": 5806,
      "ورڊ": 5807,
      "تيزيء": 5808,
      "ٽيريا": 5809,
      "نوآباد": 5810,
      "2003": 5811,
      "اعجاز": 5812,
      "تبص": 5813,
      "زنده": 5814,
      "گذرڻ": 5815,
      "فاضل": 5816,
      "ڊرامو": 5817,
      "شخصيتون": 5818,
      "ٽالپرن": 5819,
      "مقناطيسي": 5820,
      "پيپلزپارٽي": 5821,
      "خاصخيلي": 5822,
      "آس": 5823,
      "آرين": 5824,
      "ذهني": 5825,
      "رار": 5826,
      "وص": 5827,
      "ٺاھي": 5828,
      "چؤ": 5829,
      "ڏھ": 5830,
      "الهه": 5831,
      "ميوو": 5832,
      "ويڙ": 5833,
      "قيادت": 5834,
      "فوت": 5835,
      "قديمه": 5836,
      "اڳواڻن": 5837,
      "جماع": 5838,
      "رحيمداد": 5839,
      "گردش": 5840,
      "ربيع": 5841,
      "بنگلاديش": 5842,
      "Con": 5843,
      "res": 5844,
      "تم": 5845,
      "ھر": 5846,
      "انيا": 5847,
      "ميڪان": 5848,
      "سيک": 5849,
      "ديبل": 5850,
      "ڪوري": 5851,
      "معدني": 5852,
      "واقف": 5853,
      "واقعو": 5854,
      "1971ع": 5855,
      "بنت": 5856,
      "گاه": 5857,
      "حالتون": 5858,
      "ڊگھي": 5859,
      "استادن": 5860,
      "نظرياتي": 5861,
      "بمبئيء": 5862,
      "پرڳڻي": 5863,
      "بندوبست": 5864,
      "محاذ": 5865,
      "اخ": 5866,
      "زالون": 5867,
      "يقي": 5868,
      "ڦي": 5869,
      "کی": 5870,
      "اسٽر": 5871,
      "ميئر": 5872,
      "تيزي": 5873,
      "بلا": 5874,
      "اڻپورا": 5875,
      "زمانو": 5876,
      "صدارت": 5877,
      "هندوستان": 5878,
      "2021ع": 5879,
      "بچائڻ": 5880,
      "ڳالهائڻ": 5881,
      "عمارتن": 5882,
      "فرينچ": 5883,
      "ts": 5884,
      "اپن": 5885,
      "فرن": 5886,
      "قول": 5887,
      "ممب": 5888,
      "وحد": 5889,
      "گني": 5890,
      "امر": 5891,
      "ڊيگهه": 5892,
      "مارڻ": 5893,
      "ٻول": 5894,
      "چيائين": 5895,
      "مهار": 5896,
      "ڪانہ": 5897,
      "آباديون": 5898,
      "سائنسدانن": 5899,
      "خالص": 5900,
      "فيڊريشن": 5901,
      "35": 5902,
      "حامي": 5903,
      "لاش": 5904,
      "ڪيئي": 5905,
      "سيمينٽ": 5906,
      "ساخ": 5907,
      "نيڪ": 5908,
      "اتار": 5909,
      "صوبا": 5910,
      "خوشي": 5911,
      "مٿان": 5912,
      "1974ع": 5913,
      "قانونن": 5914,
      "گروهن": 5915,
      "ويجهي": 5916,
      "ڏيکاريل": 5917,
      "گريڊ": 5918,
      "!!": 5919,
      "34": 5920,
      "تی": 5921,
      "تصوف": 5922,
      "حده": 5923,
      "شڪي": 5924,
      "ظلم": 5925,
      "عنه": 5926,
      "قرا": 5927,
      "هڙ": 5928,
      "ٻان": 5929,
      "ڊز": 5930,
      "ڦر": 5931,
      "گد": 5932,
      "گار": 5933,
      "۾)": 5934,
      "ورثو": 5935,
      "ايئر": 5936,
      "ويه": 5937,
      "ڪينسر": 5938,
      "پاور": 5939,
      "ائيزيشن": 5940,
      "2003ع": 5941,
      "ڇوڪرين": 5942,
      "موقعو": 5943,
      "دروازي": 5944,
      "احترام": 5945,
      "bs": 5946,
      "حت": 5947,
      "قار": 5948,
      "وچين": 5949,
      "ٻر": 5950,
      "ٽئ": 5951,
      "ڄي": 5952,
      "راضي": 5953,
      "روه": 5954,
      "مخلو": 5955,
      "بدلي": 5956,
      "2015ع": 5957,
      "بنيادن": 5958,
      "ڀيري": 5959,
      "ھندستان": 5960,
      "ٿرپارڪر": 5961,
      "نائيجيريا": 5962,
      "زميندار": 5963,
      "پکڙجي": 5964,
      "واپرائيندڙ": 5965,
      "38": 5966,
      "آبي": 5967,
      "سمي": 5968,
      "ظر": 5969,
      "هما": 5970,
      "ڄائي": 5971,
      "ڊن": 5972,
      "ڪشي": 5973,
      "ٻوٽو": 5974,
      "دوائن": 5975,
      "مريض": 5976,
      "ڪمانڊر": 5977,
      "عبدالرحمان": 5978,
      "خانداني": 5979,
      "ڏينهن": 5980,
      "دروازو": 5981,
      "معدنيات": 5982,
      "تنگ": 5983,
      "ذائ": 5984,
      "ساد": 5985,
      "متب": 5986,
      "چڙهي": 5987,
      "امان": 5988,
      "افتتا": 5989,
      "ھوائي": 5990,
      "ئيٽ": 5991,
      "ڏاڏي": 5992,
      "ڄاڻايو": 5993,
      "جڳھ": 5994,
      "ڀڳت": 5995,
      "تڪليف": 5996,
      "مگسي": 5997,
      "اترئين": 5998,
      "عالمگير": 5999,
      "اماڻي": 6000,
      "جئ": 6001,
      "سفر": 6002,
      "طوف": 6003,
      "پڌر": 6004,
      "ڍا": 6005,
      "ڪڻڪ": 6006,
      "ارادو": 6007,
      "ريس": 6008,
      "ريلو": 6009,
      "ماھر": 6010,
      "موڪلي": 6011,
      "باڪو": 6012,
      "پرديش": 6013,
      "لکڻين": 6014,
      "ٻوٽي": 6015,
      "رسمن": 6016,
      "مست": 6017,
      "قلمي": 6018,
      "تقرير": 6019,
      "مڃيو": 6020,
      "آتم": 6021,
      "نباتات": 6022,
      "تارو": 6023,
      "جندڙ": 6024,
      "ساري": 6025,
      "نيون": 6026,
      "ڊم": 6027,
      "لاهي": 6028,
      "ميسر": 6029,
      "سيريز": 6030,
      "منصوبي": 6031,
      "1972ع": 6032,
      "1967ع": 6033,
      "صحافت": 6034,
      "لانٽڪ": 6035,
      "اشاعت": 6036,
      "av": 6037,
      "شار": 6038,
      "وليم": 6039,
      "پلو": 6040,
      "ٿڪ": 6041,
      "ٿڌي": 6042,
      "ڪند": 6043,
      "ھز": 6044,
      "ید": 6045,
      "پاڙي": 6046,
      "ساء": 6047,
      "ملندي": 6048,
      "مارو": 6049,
      "والدين": 6050,
      "دودي": 6051,
      "وٺندو": 6052,
      "وهڪرو": 6053,
      "رابطو": 6054,
      "ڪابه": 6055,
      "وقف": 6056,
      "احتجاج": 6057,
      "گلاب": 6058,
      "زخمي": 6059,
      "مصطفيٰ": 6060,
      "تذ": 6061,
      "تم": 6062,
      "سته": 6063,
      "ناف": 6064,
      "گين": 6065,
      "تازي": 6066,
      "هوم": 6067,
      "بدار": 6068,
      "استعي": 6069,
      "اليٰ": 6070,
      "اداڪاري": 6071,
      "زمينون": 6072,
      "پوئتي": 6073,
      "دفاع": 6074,
      "متبادل": 6075,
      "ut": 6076,
      "خر": 6077,
      "وڪرو": 6078,
      "گهڻائي": 6079,
      "2019ع": 6080,
      "گھڻا": 6081,
      "هاشم": 6082,
      "2001ع": 6083,
      "قرض": 6084,
      "پراڻا": 6085,
      "عبدالغ": 6086,
      "گيس": 6087,
      "1954ع": 6088,
      "ڪورونا": 6089,
      "نمائش": 6090,
      "اسپيني": 6091,
      "ڳڙي": 6092,
      "اوھان": 6093,
      "شاخن": 6094,
      "ڪتابي": 6095,
      "کانئس": 6096,
      "گاڏي": 6097,
      "ٺهرايو": 6098,
      "لنڪا": 6099,
      "مپس": 6100,
      "متحرڪ": 6101,
      "جيوت": 6102,
      "سازش": 6103,
      "ڪنڀار": 6104,
      "آرا": 6105,
      "تی": 6106,
      "جيا": 6107,
      "جگر": 6108,
      "شنگ": 6109,
      "پائي": 6110,
      "ڃاڻ": 6111,
      "اله": 6112,
      "ملائي": 6113,
      "لوجسٽ": 6114,
      "قيات": 6115,
      "قوي": 6116,
      "اھڙو": 6117,
      "اعتما": 6118,
      "ماليا": 6119,
      "فقه": 6120,
      "ڪهاڻيڪار": 6121,
      "حر": 6122,
      "طلب": 6123,
      "هاڪ": 6124,
      "اليء": 6125,
      "ويٺل": 6126,
      "منصور": 6127,
      "پنهنجون": 6128,
      "ننڍڙا": 6129,
      "ڪهڙو": 6130,
      "پڙهيو": 6131,
      "جائز": 6132,
      "آئس": 6133,
      "ڏوھ": 6134,
      "هجرت": 6135,
      "حميد": 6136,
      "ڪولمبيا": 6137,
      "لسانيات": 6138,
      "شھيد": 6139,
      "1ھ": 6140,
      "بک": 6141,
      "تمند": 6142,
      "خام": 6143,
      "زيل": 6144,
      "سه": 6145,
      "سمو": 6146,
      "لنگ": 6147,
      "پڪي": 6148,
      "ھائ": 6149,
      "پهه": 6150,
      "اختر": 6151,
      "مهارت": 6152,
      "مصنو": 6153,
      "ڏاڏو": 6154,
      "کولي": 6155,
      "قطر": 6156,
      "دگيء": 6157,
      "فعال": 6158,
      "وڏي": 6159,
      "پت": 6160,
      "ڏور": 6161,
      "انوي": 6162,
      "تعاليٰ": 6163,
      "ڪارا": 6164,
      "182": 6165,
      "دوا": 6166,
      "1965ع": 6167,
      "175": 6168,
      "2022ع": 6169,
      "ضرور": 6170,
      "موسيٰ": 6171,
      "سياحن": 6172,
      "ميوزڪ": 6173,
      "43": 6174,
      "اض": 6175,
      "تاري": 6176,
      "وث": 6177,
      "الاول": 6178,
      "راس": 6179,
      "ويهين": 6180,
      "منھن": 6181,
      "موجودگي": 6182,
      "فارس": 6183,
      "1985ع": 6184,
      "1940ع": 6185,
      "انجنيئر": 6186,
      "آيون": 6187,
      "شہ": 6188,
      "فه": 6189,
      "نالي": 6190,
      "علماء": 6191,
      "ولو": 6192,
      "قوم": 6193,
      "مداخ": 6194,
      "جھڙي": 6195,
      "تنھن": 6196,
      "1955ع": 6197,
      "اونهاري": 6198,
      "ڏوهه": 6199,
      "ڪابي": 6200,
      "خطرو": 6201,
      "خطرناڪ": 6202,
      "يونيسڪو": 6203,
      "حمل": 6204,
      "رايا": 6205,
      "اوڙ": 6206,
      "ديھون": 6207,
      "ترجي": 6208,
      "نيپ": 6209,
      "سگهندو": 6210,
      "ڳايو": 6211,
      "خيبر": 6212,
      "اميرن": 6213,
      "صحبت": 6214,
      "Sindhi": 6215,
      "سالار": 6216,
      "ايٽم": 6217,
      "مشرقي": 6218,
      "On": 6219,
      "خسرو": 6220,
      "دورو": 6221,
      "رٿ": 6222,
      "عڪ": 6223,
      "فاس": 6224,
      "پڙ": 6225,
      "ڀاڻ": 6226,
      "ڊويز": 6227,
      "راڳ": 6228,
      "سنئون": 6229,
      "وازن": 6230,
      "1920ع": 6231,
      "پاڻ": 6232,
      "جوش": 6233,
      "انگير": 6234,
      "سيڪنڊ": 6235,
      "ننڍيون": 6236,
      "پروسي": 6237,
      "ٽوڙي": 6238,
      "سڏين": 6239,
      "ٽيڪس": 6240,
      "مالا": 6241,
      "روزگار": 6242,
      "جڳهيون": 6243,
      "اسپيس": 6244,
      "آنلائين": 6245,
      "ھڪڙو": 6246,
      "مھيني": 6247,
      "هفتو": 6248,
      "صلاحڪار": 6249,
      "ايجوڪيشن": 6250,
      "ڊپارٽمينٽ": 6251,
      "id": 6252,
      "رٿ": 6253,
      "لط": 6254,
      "لڪي": 6255,
      "نادر": 6256,
      "ھین": 6257,
      "اينڊ": 6258,
      "سيٽون": 6259,
      "برا": 6260,
      "وٺندا": 6261,
      "خيز": 6262,
      "ھيٺين": 6263,
      "1979ع": 6264,
      "کوسو": 6265,
      "اجتما": 6266,
      "اڏو": 6267,
      "هارون": 6268,
      "ويڪر": 6269,
      "انفرادي": 6270,
      "پاڙيسري": 6271,
      "55": 6272,
      "لکيائين": 6273,
      "ميا": 6274,
      "مشن": 6275,
      "نے": 6276,
      "وں": 6277,
      "وسي": 6278,
      "ڪجھ": 6279,
      "اهوئي": 6280,
      "ايم": 6281,
      "ويٺا": 6282,
      "مرشد": 6283,
      "سيو": 6284,
      "قيمتي": 6285,
      "ھوا": 6286,
      "حڪومتن": 6287,
      "ٽرس": 6288,
      "ڀرپاسي": 6289,
      "ڪامياب": 6290,
      "رحمت": 6291,
      "رجحان": 6292,
      "ٻاهران": 6293,
      "پروگرامن": 6294,
      "مداخلت": 6295,
      "cl": 6296,
      "جڳ": 6297,
      "وت": 6298,
      "رينج": 6299,
      "لاحي": 6300,
      "ميه": 6301,
      "ايجن": 6302,
      "اوبلا": 6303,
      "منط": 6304,
      "برصغير": 6305,
      "ھيم": 6306,
      "قبائلي": 6307,
      "آڪسائيڊ": 6308,
      "ڪمپنيء": 6309,
      "يونيورسٽين": 6310,
      "گلشن": 6311,
      "جمهوريت": 6312,
      "بيماريء": 6313,
      "اخلاق": 6314,
      "سهول": 6315,
      "زبردست": 6316,
      "منصوره": 6317,
      "39": 6318,
      "edia": 6319,
      "آند": 6320,
      "تائن": 6321,
      "مليون": 6322,
      "نڪرڻ": 6323,
      "اديون": 6324,
      "گهڙ": 6325,
      "ڳولي": 6326,
      "ھونديون": 6327,
      "1953ع": 6328,
      "ٺاهيل": 6329,
      "ers": 6330,
      "بلوچي": 6331,
      "فيصل": 6332,
      "گهٽجي": 6333,
      "ڪوٺيو": 6334,
      "شپ": 6335,
      "عمو": 6336,
      "لهي": 6337,
      "هہ": 6338,
      "هال": 6339,
      "چائ": 6340,
      "راھ": 6341,
      "ويچار": 6342,
      "جهازن": 6343,
      "جوان": 6344,
      "بلڪ": 6345,
      "نوعيت": 6346,
      "سٽا": 6347,
      "ڪاٺي": 6348,
      "جرمنيء": 6349,
      "نقش": 6350,
      "1989ع": 6351,
      "1961ع": 6352,
      "نصيرآباد": 6353,
      "حقيق": 6354,
      "سکن": 6355,
      "عبد": 6356,
      "نوجوانن": 6357,
      "پيغمبر": 6358,
      "ڪيمسٽري": 6359,
      "ڏھاڪي": 6360,
      "سولنگي": 6361,
      "آزم": 6362,
      "بڪر": 6363,
      "تدري": 6364,
      "فال": 6365,
      "چاهي": 6366,
      "گور": 6367,
      "ارجن": 6368,
      "منگ": 6369,
      "لوڪل": 6370,
      "علحده": 6371,
      "ڪنارن": 6372,
      "رهين": 6373,
      "مشين": 6374,
      "اختي": 6375,
      "بدر": 6376,
      "1946ع": 6377,
      "اميه": 6378,
      "تبديلين": 6379,
      "چڱيء": 6380,
      "رن": 6381,
      "گھ": 6382,
      "پيشاب": 6383,
      "پناهه": 6384,
      "اصلو": 6385,
      "بليو": 6386,
      "2002": 6387,
      "ڪائونسلر": 6388,
      "1930ع": 6389,
      "ڪپڙو": 6390,
      "جمهوري": 6391,
      "نامياري": 6392,
      "چاهيو": 6393,
      "ٽرانسپورٽ": 6394,
      "لاڏاڻو": 6395,
      "جپ": 6396,
      "دلي": 6397,
      "رٽائر": 6398,
      "ويھين": 6399,
      "ونس": 6400,
      "موبائ": 6401,
      "منگ": 6402,
      "برج": 6403,
      "صفا": 6404,
      "اقلي": 6405,
      "1976ع": 6406,
      "1982ع": 6407,
      "1945ع": 6408,
      "ـــ": 6409,
      "ملازم": 6410,
      "ٻاھر": 6411,
      "متحد": 6412,
      "فروغ": 6413,
      "رد": 6414,
      "لارڊ": 6415,
      "نشر": 6416,
      "وائي": 6417,
      "وستاني": 6418,
      "ڳڻ": 6419,
      "اهون": 6420,
      "سام": 6421,
      "معنا": 6422,
      "پهتا": 6423,
      "بدن": 6424,
      "عرض": 6425,
      "سگهيا": 6426,
      "2010": 6427,
      "2014ع": 6428,
      "تماڪ": 6429,
      "صلح": 6430,
      "سالياني": 6431,
      "پڇاڙيء": 6432,
      "تبليغ": 6433,
      "شتگر": 6434,
      "ڪارڪردگي": 6435,
      "اعتماد": 6436,
      "پوکي": 6437,
      "درد": 6438,
      "لکين": 6439,
      "پروجيڪٽ": 6440,
      "مڪاني": 6441,
      "1000": 6442,
      "تقريب": 6443,
      "160": 6444,
      "مطالبو": 6445,
      "حاڪمن": 6446,
      "جهنگلي": 6447,
      "دارو": 6448,
      "ملائيشيا": 6449,
      "65": 6450,
      "BN": 6451,
      "اغ": 6452,
      "ماري": 6453,
      "متو": 6454,
      "گائ": 6455,
      "ميٽ": 6456,
      "پيئي": 6457,
      "امتي": 6458,
      "تيه": 6459,
      "چوندو": 6460,
      "وٺندڙ": 6461,
      "چينل": 6462,
      "1990": 6463,
      "ڀيرو": 6464,
      "مذهبن": 6465,
      "رھڻ": 6466,
      "خواب": 6467,
      "ترجمي": 6468,
      "اوچتو": 6469,
      "صديقي": 6470,
      "42": 6471,
      "بيل": 6472,
      "دڪ": 6473,
      "مرو": 6474,
      "مجلس": 6475,
      "نانگ": 6476,
      "ڌرين": 6477,
      "ڪستان": 6478,
      "مرحلي": 6479,
      "ستار": 6480,
      "ترخان": 6481,
      "سوڀ": 6482,
      "بوليت": 6483,
      "1983ع": 6484,
      "سونهن": 6485,
      "اسماعي": 6486,
      "لڙائي": 6487,
      "II": 6488,
      "ڇھ": 6489,
      "بيٺ": 6490,
      "بيٺو": 6491,
      "جيتري": 6492,
      "وڃائي": 6493,
      "نظرين": 6494,
      "چوٽيء": 6495,
      "زياده": 6496,
      "ڏکڻ": 6497,
      "برازيل": 6498,
      "وٽرن": 6499,
      "گلگت": 6500,
      "دفعي": 6501,
      "لفظي": 6502,
      "باقاعدي": 6503,
      "محترم": 6504,
      "کوجنا": 6505,
      "ڊيموڪري": 6506,
      "تفصيلي": 6507,
      "44": 6508,
      "52": 6509,
      "75": 6510,
      "Is": 6511,
      "line": 6512,
      "جايون": 6513,
      "سفڪ": 6514,
      "عدم": 6515,
      "نجي": 6516,
      "هالا": 6517,
      "وڙ": 6518,
      "يندڙ": 6519,
      "ٻاري": 6520,
      "ڌڪ": 6521,
      "کلي": 6522,
      "انٽرو": 6523,
      "الرحمان": 6524,
      "ميڙ": 6525,
      "بيتن": 6526,
      "اصلاح": 6527,
      "نظريا": 6528,
      "2008": 6529,
      "عيد": 6530,
      "جلدي": 6531,
      "نتيجا": 6532,
      "منظوري": 6533,
      "رستا": 6534,
      "جنگين": 6535,
      "دراصل": 6536,
      "ارغون": 6537,
      "رانديگر": 6538,
      "بھ": 6539,
      "تلو": 6540,
      "حب": 6541,
      "رند": 6542,
      "زمرا": 6543,
      "مسو": 6544,
      "ڇڏيندو": 6545,
      "کپي": 6546,
      "۾:": 6547,
      "پيو": 6548,
      "پوٽي": 6549,
      "لوهه": 6550,
      "زيڊ": 6551,
      "سڏجڻ": 6552,
      "1975ع": 6553,
      "صحاف": 6554,
      "ليڪچر": 6555,
      "بنگالي": 6556,
      "گھربل": 6557,
      "سس": 6558,
      "هل": 6559,
      "يمن": 6560,
      "ٽلينڊ": 6561,
      "گهري": 6562,
      "رهاڪن": 6563,
      "بلندي": 6564,
      "ڪلڪ": 6565,
      "پھچي": 6566,
      "شنز": 6567,
      "عبدالڪريم": 6568,
      "جهنگ": 6569,
      "ماستر": 6570,
      "تڪراري": 6571,
      "فضا": 6572,
      "oun": 6573,
      "لاشاري": 6574,
      "48": 6575,
      "اهن": 6576,
      "رع": 6577,
      "سادي": 6578,
      "سفيد": 6579,
      "فساد": 6580,
      "قاتي": 6581,
      "لهه": 6582,
      "مدي": 6583,
      "نی": 6584,
      "روپيا": 6585,
      "ايمان": 6586,
      "واڌاري": 6587,
      "موتي": 6588,
      "گهوٽ": 6589,
      "نيوي": 6590,
      "نياڻي": 6591,
      "درجا": 6592,
      "حياتيء": 6593,
      "سببن": 6594,
      "عبدالرحيم": 6595,
      "ڀاڱي": 6596,
      "ورهاست": 6597,
      "چمڙي": 6598,
      "جزوي": 6599,
      "مهرچند": 6600,
      "ology": 6601,
      "ib": 6602,
      "بم": 6603,
      "حرف": 6604,
      "ديا": 6605,
      "دڪان": 6606,
      "ذخيرو": 6607,
      "فيء": 6608,
      "نيل": 6609,
      "وڪال": 6610,
      "ٽڪريء": 6611,
      "پون": 6612,
      "ڪٿ": 6613,
      "ائپ": 6614,
      "پناه": 6615,
      "علمن": 6616,
      "پرور": 6617,
      "زيور": 6618,
      "بنائڻ": 6619,
      "مجاه": 6620,
      "عدد": 6621,
      "ڪلهوڙي": 6622,
      "انسانيت": 6623,
      "ورھايل": 6624,
      "سرائڪي": 6625,
      "بادشاهن": 6626,
      "مزاحمت": 6627,
      "ٻھراڙيء": 6628,
      "پختونخو": 6629,
      "978": 6630,
      "cite": 6631,
      "آپ": 6632,
      "بيون": 6633,
      "رپور": 6634,
      "ڀٽائي": 6635,
      "ڌا": 6636,
      "ائنڊ": 6637,
      "اهيء": 6638,
      "گهڻيون": 6639,
      "پاڙ": 6640,
      "سومري": 6641,
      "اھميت": 6642,
      "پروڊيو": 6643,
      "فريد": 6644,
      "هلڻ": 6645,
      "1949ع": 6646,
      "ڇوڪري": 6647,
      "خطن": 6648,
      "عقيدو": 6649,
      "رانديون": 6650,
      "جاپاني": 6651,
      "ضياء": 6652,
      "سمجھي": 6653,
      "سڳورن": 6654,
      "طوفان": 6655,
      "وڪالت": 6656,
      "as": 6657,
      "we": 6658,
      "بني": 6659,
      "داريء": 6660,
      "رائڻ": 6661,
      "شري": 6662,
      "ناي": 6663,
      "ٽڪري": 6664,
      "پمينٽ": 6665,
      "روڪ": 6666,
      "سيل": 6667,
      "جهڙن": 6668,
      "شهادت": 6669,
      "پهتي": 6670,
      "نظاماڻي": 6671,
      "نازل": 6672,
      "آبپا": 6673,
      "بادشاهي": 6674,
      "قلندر": 6675,
      "اٽلي": 6676,
      "تفسير": 6677,
      "بھتر": 6678,
      "لاڳي": 6679,
      "رگ": 6680,
      "مٿيون": 6681,
      "وئ": 6682,
      "امرو": 6683,
      "سينگ": 6684,
      "ابا": 6685,
      "بلڪه": 6686,
      "دوستي": 6687,
      "مدد": 6688,
      "برابري": 6689,
      "انڊس": 6690,
      "1942ع": 6691,
      "رھندو": 6692,
      "اڏاو": 6693,
      "مزا": 6694,
      "موسيقار": 6695,
      "عقيدن": 6696,
      "سجاول": 6697,
      "پشتو": 6698,
      "ISBN": 6699,
      "چنيسر": 6700,
      "ci": 6701,
      "اجر": 6702,
      "اترين": 6703,
      "بک": 6704,
      "تستان": 6705,
      "دھ": 6706,
      "عالي": 6707,
      "ٿاڻو": 6708,
      "چاند": 6709,
      "ھجن": 6710,
      "البت": 6711,
      "رايل": 6712,
      "راوي": 6713,
      "روضي": 6714,
      "ايسوسيئيشن": 6715,
      "سياح": 6716,
      "جوهي": 6717,
      "ڏياري": 6718,
      "چوري": 6719,
      "خوف": 6720,
      "2006": 6721,
      "نسن": 6722,
      "اعتب": 6723,
      "گرامر": 6724,
      "عبدالعزيز": 6725,
      "عبدالقادر": 6726,
      "حوالن": 6727,
      "طبعي": 6728,
      "نڪرندو": 6729,
      "لساني": 6730,
      "اسڪالر": 6731,
      "آصف": 6732,
      "اڇا": 6733,
      "تلاء": 6734,
      "تغل": 6735,
      "شراب": 6736,
      "ٽان": 6737,
      "پچ": 6738,
      "ڇڪ": 6739,
      "ڦڦ": 6740,
      "لينڊ": 6741,
      "ستر": 6742,
      "ڪنڊي": 6743,
      "ڪنڊي": 6744,
      "اتم": 6745,
      "يوري": 6746,
      "1968ع": 6747,
      "ڀاڄ": 6748,
      "اڪيلو": 6749,
      "ٽائيم": 6750,
      "جادو": 6751,
      "اڍائي": 6752,
      "58": 6753,
      "اٿي": 6754,
      "باه": 6755,
      "بشير": 6756,
      "سپل": 6757,
      "ننڊ": 6758,
      "ڍل": 6759,
      "ڏک": 6760,
      "ڦل": 6761,
      "گند": 6762,
      "واٽر": 6763,
      "بيمار": 6764,
      "سردارن": 6765,
      "نوري": 6766,
      "آرمي": 6767,
      "آرٽيڪل": 6768,
      "سڀا": 6769,
      "تخلص": 6770,
      "پليڪس": 6771,
      "ميرپور": 6772,
      "چانسلر": 6773,
      "گجراتي": 6774,
      "سفارتي": 6775,
      "آڻيندا": 6776,
      "حاضر": 6777,
      "معصوم": 6778,
      "اڄڪلهه": 6779,
      "دون": 6780,
      "صه": 6781,
      "هارين": 6782,
      "وڊيو": 6783,
      "ٿام": 6784,
      "ھد": 6785,
      "ويٽ": 6786,
      "مرمت": 6787,
      "ساٿ": 6788,
      "معاھ": 6789,
      "لکو": 6790,
      "فوٽن": 6791,
      "جھڙو": 6792,
      "مصروف": 6793,
      "سوراخ": 6794,
      "مائڪرو": 6795,
      "چاندي": 6796,
      "جوڙيو": 6797,
      "متحده": 6798,
      "پوکڻ": 6799,
      "ڪلاسيڪي": 6800,
      "الطاف": 6801,
      "ايئرپورٽ": 6802,
      "ردعمل": 6803,
      "اعتبار": 6804,
      "68": 6805,
      "ay": 6806,
      "ve": 6807,
      "آک": 6808,
      "رٿا": 6809,
      "ٿور": 6810,
      "گرن": 6811,
      "ريم": 6812,
      "ادم": 6813,
      "واپار": 6814,
      "جوڙ": 6815,
      "برفاني": 6816,
      "سومرا": 6817,
      "فيق": 6818,
      "جرنل": 6819,
      "فريئر": 6820,
      "ڀرائي": 6821,
      "ڪشان": 6822,
      "مزاج": 6823,
      "سرور": 6824,
      "وفاق": 6825,
      "نڪرندڙ": 6826,
      "ھڪڙي": 6827,
      "منجهس": 6828,
      "بشمول": 6829,
      "ڄيٺ": 6830,
      "تالي": 6831,
      "دالله": 6832,
      "راهه": 6833,
      "سی": 6834,
      "طاق": 6835,
      "غي": 6836,
      "نائي": 6837,
      "نفر": 6838,
      "چمڪ": 6839,
      "ميزباني": 6840,
      "جيمس": 6841,
      "وڌيو": 6842,
      "پهلو": 6843,
      "ڪاريء": 6844,
      "بدلائي": 6845,
      "تعلقن": 6846,
      "ڪرايا": 6847,
      "ٻيلن": 6848,
      "1978ع": 6849,
      "ent": 6850,
      "بلاڪ": 6851,
      "نمونن": 6852,
      "صلاحيتن": 6853,
      "ڇڏيائين": 6854,
      "لطف": 6855,
      "2ھ": 6856,
      "Com": 6857,
      "جہ": 6858,
      "رب": 6859,
      "نث": 6860,
      "ناو": 6861,
      "ٺٽ": 6862,
      "ميٽرڪ": 6863,
      "واڳ": 6864,
      "سيف": 6865,
      "ترن": 6866,
      "بلتستان": 6867,
      "ڪرام": 6868,
      "عيسائي": 6869,
      "ٻڌو": 6870,
      "1984ع": 6871,
      "تصويرن": 6872,
      "انجمن": 6873,
      "تجربن": 6874,
      "طبيعت": 6875,
      "ابوذر": 6876,
      "زڪام": 6877,
      "istan": 6878,
      "ٻرندڙ": 6879,
      "ڪينيڊا": 6880,
      "افتتاح": 6881,
      "Online": 6882,
      "حام": 6883,
      "سلوڪ": 6884,
      "ظاهري": 6885,
      "مڊل": 6886,
      "پسند": 6887,
      "ڪاهه": 6888,
      "الق": 6889,
      "لاکو": 6890,
      "سنوار": 6891,
      "اولي": 6892,
      "بايو": 6893,
      "جهر": 6894,
      "پرت": 6895,
      "يورو": 6896,
      "ڀريو": 6897,
      "1966ع": 6898,
      "ليکڪن": 6899,
      "نامه": 6900,
      "نصاب": 6901,
      "ٻارهن": 6902,
      "قبرون": 6903,
      "عثمان": 6904,
      "بلاول": 6905,
      "نمونا": 6906,
      "خارجي": 6907,
      "اورنگ": 6908,
      "دراو": 6909,
      "47": 6910,
      "آئن": 6911,
      "بول": 6912,
      "حملن": 6913,
      "خشڪي": 6914,
      "سڪر": 6915,
      "سڪا": 6916,
      "شمي": 6917,
      "صہ": 6918,
      "مٺو": 6919,
      "همع": 6920,
      "ٽرس": 6921,
      "ڊرو": 6922,
      "اينگ": 6923,
      "اينديون": 6924,
      "جناب": 6925,
      "تعمي": 6926,
      "ديس": 6927,
      "شهباز": 6928,
      "وارث": 6929,
      "رهه": 6930,
      "بلين": 6931,
      "يونائي": 6932,
      "مدت": 6933,
      "گوادر": 6934,
      "تباهي": 6935,
      "هلندي": 6936,
      "براعظم": 6937,
      "کوٽ": 6938,
      "وهندو": 6939,
      "1938ع": 6940,
      "فائل": 6941,
      "خطري": 6942,
      "خودمخ": 6943,
      "معاملي": 6944,
      "ماسٽر": 6945,
      "ولادت": 6946,
      "تنظيمون": 6947,
      "قدامت": 6948,
      "پيروي": 6949,
      "ممبئي": 6950,
      "عيسائيت": 6951,
      "46": 6952,
      "66": 6953,
      "am": 6954,
      "بايو": 6955,
      "قس": 6956,
      "پتي": 6957,
      "ڀائر": 6958,
      "ڪيلي": 6959,
      "ساڻي": 6960,
      "ڪوئي": 6961,
      "محرم": 6962,
      "مقبوليت": 6963,
      "ٽيهه": 6964,
      "ڪاپي": 6965,
      "مدو": 6966,
      "شريعت": 6967,
      "ماليڪيو": 6968,
      "اداڪارا": 6969,
      "خودڪار": 6970,
      "ٻاڦ": 6971,
      "41": 6972,
      "Pro": 6973,
      "Se": 6974,
      "Sh": 6975,
      "جڙي": 6976,
      "عبي": 6977,
      "فلو": 6978,
      "نائين": 6979,
      "ٽامي": 6980,
      "ارس": 6981,
      "ميلي": 6982,
      "ڪردارن": 6983,
      "تعين": 6984,
      "سرحدن": 6985,
      "احسان": 6986,
      "گرائونڊ": 6987,
      "فرسٽ": 6988,
      "ناز": 6989,
      "سمو": 6990,
      "ضلع": 6991,
      "مسعو": 6992,
      "گوار": 6993,
      "پھچ": 6994,
      "واپسي": 6995,
      "جانشين": 6996,
      "ڪلاڪن": 6997,
      "مستحڪم": 6998,
      "سهڪار": 6999,
      "عقل": 7000,
      "ill": 7001,
      "پارليام": 7002,
      "دروازا": 7003,
      "اسڪاٽلينڊ": 7004,
      "نفسياتي": 7005,
      "زلزلي": 7006,
      "نسخو": 7007,
      "پروڊيوسر": 7008,
      "ناياب": 7009,
      "49": 7010,
      "قان": 7011,
      "ليو": 7012,
      "ڪبير": 7013,
      "گانا": 7014,
      "یت": 7015,
      "ارڪ": 7016,
      "الج": 7017,
      "مادري": 7018,
      "بيهي": 7019,
      "1937ع": 7020,
      "رويي": 7021,
      "دلچسپ": 7022,
      "ماحوليات": 7023,
      "غربت": 7024,
      "دارومدار": 7025,
      "ازم": 7026,
      "تڏھن": 7027,
      "توازن": 7028,
      "زمان": 7029,
      "شار": 7030,
      "شديد": 7031,
      "پائن": 7032,
      "ڙون": 7033,
      "گان": 7034,
      "ڳائي": 7035,
      "الين": 7036,
      "ميداني": 7037,
      "روڪي": 7038,
      "ايگز": 7039,
      "پوندا": 7040,
      "رهجي": 7041,
      "ڊيمي": 7042,
      "سٽل": 7043,
      "سٽون": 7044,
      "اولمپ": 7045,
      "ڪائونسل": 7046,
      "وغيرہ": 7047,
      "1941ع": 7048,
      "1957ع": 7049,
      "ناما": 7050,
      "شاهجهان": 7051,
      "مهرباني": 7052,
      "بليڪ": 7053,
      "اطلاع": 7054,
      "فاطمه": 7055,
      "54": 7056,
      "Mar": 7057,
      "داڻا": 7058,
      "رکيائين": 7059,
      "طار": 7060,
      "طال": 7061,
      "فنڊ": 7062,
      "ناصر": 7063,
      "وڃ": 7064,
      "ڍڪيل": 7065,
      "ڪاهي": 7066,
      "راو": 7067,
      "ماي": 7068,
      "ماٿري": 7069,
      "ڪرائ": 7070,
      "ٽيئر": 7071,
      "فيه": 7072,
      "حياتي": 7073,
      "فوجين": 7074,
      "لڳاتار": 7075,
      "ڪيترو": 7076,
      "سڀي": 7077,
      "ers": 7078,
      "ٺھڻ": 7079,
      "قصو": 7080,
      "عدالتي": 7081,
      "گهوڙي": 7082,
      "موسمي": 7083,
      "فارميشن": 7084,
      "پرورش": 7085,
      "62": 7086,
      "nbs": 7087,
      "ud": 7088,
      "سپر": 7089,
      "صدر": 7090,
      "فخر": 7091,
      "ڀائي": 7092,
      "ڏجن": 7093,
      "الا": 7094,
      "اديات": 7095,
      "تعلقا": 7096,
      "عربيء": 7097,
      "خوشيء": 7098,
      "اڳئين": 7099,
      "1981ع": 7100,
      "گاڏين": 7101,
      "ڀاڱن": 7102,
      "ical": 7103,
      "نارٿ": 7104,
      "حملا": 7105,
      "اطال": 7106,
      "فنڪارن": 7107,
      "ڪاروباري": 7108,
      "تلاش": 7109,
      "ٿولڪ": 7110,
      "97896": 7111,
      "مددگار": 7112,
      "ميرپورخاص": 7113,
      "ٺٽوي": 7114,
      "اورنگزيب": 7115,
      "nbsp": 7116,
      "اھن": 7117,
      "حدي": 7118,
      "ساو": 7119,
      "ڳڙھ": 7120,
      "ھار": 7121,
      "ائيل": 7122,
      "ميان": 7123,
      "پاڙو": 7124,
      "تيز": 7125,
      "سوشل": 7126,
      "مقالو": 7127,
      "نگس": 7128,
      "کوهه": 7129,
      "1969ع": 7130,
      "دستور": 7131,
      "روايتون": 7132,
      "iction": 7133,
      "پهچائڻ": 7134,
      "ڍنڍن": 7135,
      "ويٽنام": 7136,
      ")؛": 7137,
      "48": 7138,
      "to": 7139,
      "زب": 7140,
      "نوي": 7141,
      "وڊ": 7142,
      "وول": 7143,
      "ڀڳو": 7144,
      "ڦٽي": 7145,
      "الت": 7146,
      "جنڪشن": 7147,
      "ڪوبہ": 7148,
      "بازي": 7149,
      "هيس": 7150,
      "اريندا": 7151,
      "مشغ": 7152,
      "ناڻي": 7153,
      "دوء": 7154,
      "گولي": 7155,
      "ڀرڳڙي": 7156,
      "ڄاڻو": 7157,
      "بچيل": 7158,
      "تهذي": 7159,
      "اقتصاديات": 7160,
      "برداشت": 7161,
      "990": 7162,
      "ويبسائيٽ": 7163,
      "سفير": 7164,
      "عضون": 7165,
      "اسپيڪر": 7166,
      "()،": 7167,
      "39": 7168,
      "51": 7169,
      "ran": 7170,
      "سامي": 7171,
      "سفورڊ": 7172,
      "پٽي": 7173,
      "ٿيٽر": 7174,
      "لڳڻ": 7175,
      "صفائي": 7176,
      "ٻڌمت": 7177,
      "لائيء": 7178,
      "عهد": 7179,
      "عهدو": 7180,
      "چيئرمئن": 7181,
      "جدول": 7182,
      "باقاعده": 7183,
      "نفسيات": 7184,
      "حادثي": 7185,
      "پارلياماني": 7186,
      "11": 7187,
      "Ac": 7188,
      "Am": 7189,
      "آندا": 7190,
      "جون": 7191,
      "خمي": 7192,
      "رح": 7193,
      "شير": 7194,
      "فص": 7195,
      "فور": 7196,
      "مـ": 7197,
      "وٿ": 7198,
      "چرل": 7199,
      "کٽ": 7200,
      "ائنٽ": 7201,
      "اوند": 7202,
      "افز": 7203,
      "ٻيڙي": 7204,
      "ڏکيو": 7205,
      "1964ع": 7206,
      "170": 7207,
      "1936ع": 7208,
      "ڄاڻخانو": 7209,
      "هئائين": 7210,
      "بچڻ": 7211,
      "نيوٽن": 7212,
      "جارجيا": 7213,
      "ناميارو": 7214,
      "راولپن": 7215,
      "پيچيده": 7216,
      "واپارين": 7217,
      "97896990": 7218,
      "9789699098": 7219,
      "ne": 7220,
      "رليز": 7221,
      "سخي": 7222,
      "علوم": 7223,
      "واه": 7224,
      "وڪو": 7225,
      "ٻانهن": 7226,
      "ڄاتل": 7227,
      "چيل": 7228,
      "ڪھاڻي": 7229,
      "ڪرشن": 7230,
      "اوچو": 7231,
      "ڪوانٽ": 7232,
      "منڊي": 7233,
      "ائينديون": 7234,
      "نسب": 7235,
      "زرخيز": 7236,
      "1951ع": 7237,
      "نشانيون": 7238,
      "دستخط": 7239,
      "خاتون": 7240,
      "آساني": 7241,
      "رجسٽ": 7242,
      "ڳولڻ": 7243,
      "کوليو": 7244,
      "اطالوي": 7245,
      "،،": 7246,
      "آسان": 7247,
      "جم": 7248,
      "ذخي": 7249,
      "ٽور": 7250,
      "ٽڪرا": 7251,
      "ڪٽي": 7252,
      "ڪبو": 7253,
      "الاسلام": 7254,
      "ايلي": 7255,
      "مره": 7256,
      "اوز": 7257,
      "باڻي": 7258,
      "منڇر": 7259,
      "جهي": 7260,
      "اصلو": 7261,
      "پارسي": 7262,
      "رسائي": 7263,
      "پنھنجا": 7264,
      "ڀرتي": 7265,
      "گروھ": 7266,
      "اسٽري": 7267,
      "150": 7268,
      "مينار": 7269,
      "ڊوائي": 7270,
      "گنجائ": 7271,
      "ڪئنال": 7272,
      "قطار": 7273,
      "ويڪرائي": 7274,
      "طبيعي": 7275,
      "هائيڊرو": 7276,
      "سھولت": 7277,
      "يقيني": 7278,
      "آندي": 7279,
      "سانگي": 7280,
      "طون": 7281,
      "پڪو": 7282,
      "ڏٺ": 7283,
      "ڏها": 7284,
      "بيهڪ": 7285,
      "ڪاغ": 7286,
      "2009": 7287,
      "چونڊي": 7288,
      "مهمان": 7289,
      "1998": 7290,
      "ard": 7291,
      "مائل": 7292,
      "تجرباتي": 7293,
      "ure": 7294,
      "تخليقي": 7295,
      "ميونسپل": 7296,
      "ووڊ": 7297,
      "ماليه": 7298,
      "عھدي": 7299,
      "پورچوگي": 7300,
      "نوآبادياتي": 7301,
      "if": 7302,
      "جز": 7303,
      "حس": 7304,
      "ذري": 7305,
      "طني": 7306,
      "عاق": 7307,
      "نم": 7308,
      "نش": 7309,
      "هڙ": 7310,
      "همت": 7311,
      "السنڌ": 7312,
      "الاهي": 7313,
      "اهيو": 7314,
      "اهڃاڻ": 7315,
      "ابڙي": 7316,
      "اباڻي": 7317,
      "ستارن": 7318,
      "هوس": 7319,
      "معت": 7320,
      "ڪارل": 7321,
      "سانچي": 7322,
      "اپا": 7323,
      "2024ع": 7324,
      "اسٽالن": 7325,
      "باغي": 7326,
      "صنعتن": 7327,
      "ڳاڙهو": 7328,
      "ذاتين": 7329,
      "گريجوئيشن": 7330,
      "ارسطو": 7331,
      "ڪوانٽم": 7332,
      "56": 7333,
      "60": 7334,
      "Pak": 7335,
      "رز": 7336,
      "فعل": 7337,
      "نيڪل": 7338,
      "ٽڪرن": 7339,
      "ڀون": 7340,
      "ڪمي": 7341,
      "اسرائي": 7342,
      "ويهن": 7343,
      "باڪس": 7344,
      "درين": 7345,
      "سوڊان": 7346,
      "افس": 7347,
      "هيرو": 7348,
      "توکي": 7349,
      "اخبار": 7350,
      "عرب": 7351,
      "ھوء": 7352,
      "پھريان": 7353,
      "مڪت": 7354,
      "شماري": 7355,
      "1935ع": 7356,
      "1939ع": 7357,
      "آڪسفورڊ": 7358,
      "نتيجن": 7359,
      "لائبر": 7360,
      "ڪاميٽيء": 7361,
      "هئس": 7362,
      "آفيسرن": 7363,
      "پئسفڪ": 7364,
      "چاڙ": 7365,
      "name": 7366,
      "چانديء": 7367,
      "Hist": 7368,
      "ot": 7369,
      "خانگي": 7370,
      "دريء": 7371,
      "قبو": 7372,
      "ننگر": 7373,
      "ٽرا": 7374,
      "ڪاني": 7375,
      "ڪامل": 7376,
      "ارباب": 7377,
      "لاڙو": 7378,
      "روسو": 7379,
      "ايپل": 7380,
      "ڪيٿولڪ": 7381,
      "سينيٽ": 7382,
      "نياز": 7383,
      "جهانگير": 7384,
      "جوڙيل": 7385,
      "ٻيلو": 7386,
      "گڏي": 7387,
      "انڊا": 7388,
      "ڏسندي": 7389,
      "مرادو": 7390,
      "معاملا": 7391,
      "ابوبڪر": 7392,
      "ڪثرت": 7393,
      "مظاهرو": 7394,
      "مصنوعي": 7395,
      "Kh": 7396,
      "az": 7397,
      "رسمون": 7398,
      "سانگ": 7399,
      "غن": 7400,
      "قه": 7401,
      "وٺ": 7402,
      "ھٿي": 7403,
      "اناج": 7404,
      "پيرا": 7405,
      "ڪرڻي": 7406,
      "ستگي": 7407,
      "ملهايو": 7408,
      "سرحدي": 7409,
      "سوا": 7410,
      "فيل": 7411,
      "اولپور": 7412,
      "گاهن": 7413,
      "ساڳيء": 7414,
      "نشاند": 7415,
      "ٿلهي": 7416,
      "سهولت": 7417,
      "اليڪٽران": 7418,
      "پندرهن": 7419,
      "يهودي": 7420,
      "جينياتي": 7421,
      "رومانوي": 7422,
      "يعقوب": 7423,
      "تغلق": 7424,
      "47": 7425,
      "Diction": 7426,
      "pl": 7427,
      "خادم": 7428,
      "دس": 7429,
      "رتو": 7430,
      "زائن": 7431,
      "قسط": 7432,
      "ڊيء": 7433,
      "ڊور": 7434,
      "ھڙ": 7435,
      "ھمي": 7436,
      "انفر": 7437,
      "ميني": 7438,
      "ايري": 7439,
      "ديسي": 7440,
      "منھن": 7441,
      "بيدار": 7442,
      "قياتي": 7443,
      "تنقيدي": 7444,
      "شعبو": 7445,
      "بروھي": 7446,
      "رھندا": 7447,
      "پڙهيل": 7448,
      "اڏام": 7449,
      "ناروي": 7450,
      "خانه": 7451,
      "طبيب": 7452,
      "ذميوار": 7453,
      "آتش": 7454,
      "آبپاشي": 7455,
      "ٿامس": 7456,
      "نفرت": 7457,
      "سڪرنڊ": 7458,
      "58": 7459,
      "59": 7460,
      "ub": 7461,
      "آچر": 7462,
      "رتي": 7463,
      "سڪل": 7464,
      "عين": 7465,
      "عمرو": 7466,
      "ٺاهه": 7467,
      "اسٽا": 7468,
      "ميٽڪ": 7469,
      "ايجنسي": 7470,
      "ليڊر": 7471,
      "منع": 7472,
      "بيريا": 7473,
      "شاعر": 7474,
      "برن": 7475,
      "جاڳ": 7476,
      "نوح": 7477,
      "لکندو": 7478,
      "گھرن": 7479,
      "181": 7480,
      "سگهون": 7481,
      "اليگزي": 7482,
      "2001": 7483,
      "ڪمار": 7484,
      "هليا": 7485,
      "بخار": 7486,
      "گذارڻ": 7487,
      "بحالي": 7488,
      "گروپن": 7489,
      "اسٽريٽ": 7490,
      "مڃڻ": 7491,
      "جوڙڻ": 7492,
      "نگران": 7493,
      "هفتي": 7494,
      "محققن": 7495,
      "مشاهدو": 7496,
      "مرحلن": 7497,
      "ڍنڍون": 7498,
      "تفريح": 7499,
      "ڀيرومل": 7500,
      "گنجائش": 7501,
      "اڙ": 7502,
      "جی": 7503,
      "جاس": 7504,
      "جئين": 7505,
      "جزو": 7506,
      "لڻ": 7507,
      "مکي": 7508,
      "ٺيڪ": 7509,
      "پڇ": 7510,
      "ڍو": 7511,
      "کڻ": 7512,
      "کہ": 7513,
      "گس": 7514,
      "گاري": 7515,
      "انفارميشن": 7516,
      "اردن": 7517,
      "ريجن": 7518,
      "اهڙين": 7519,
      "ورو": 7520,
      "راڳي": 7521,
      "ڪيمپس": 7522,
      "پيس": 7523,
      "پنگ": 7524,
      "لوھ": 7525,
      "نيپال": 7526,
      "جهلي": 7527,
      "فرقي": 7528,
      "پھتو": 7529,
      "شعبا": 7530,
      "رھين": 7531,
      "ترجما": 7532,
      "ديوتائن": 7533,
      "مائٽن": 7534,
      "پنجاهه": 7535,
      "چانهه": 7536,
      "مسافرن": 7537,
      "تھھ": 7538,
      "فلاسا": 7539,
      "اروڙ": 7540,
      "همايون": 7541,
      "مزاحي": 7542,
      "ماليڪيول": 7543,
      "66": 7544,
      "sp": 7545,
      "جهن": 7546,
      "حالي": 7547,
      "حجاز": 7548,
      "شدت": 7549,
      "ٺار": 7550,
      "ڀرو": 7551,
      "کائ": 7552,
      "آهين": 7553,
      "لاڻي": 7554,
      "اسيء": 7555,
      "ماضيء": 7556,
      "سنس": 7557,
      "پيئر": 7558,
      "سيٽ": 7559,
      "ڪول": 7560,
      "بيڪ": 7561,
      "جوهر": 7562,
      "ڪاش": 7563,
      "والده": 7564,
      "اھڙا": 7565,
      "ٽران": 7566,
      "شنن": 7567,
      "پراڻ": 7568,
      "راجس": 7569,
      "واسطي": 7570,
      "خالق": 7571,
      "معاهدو": 7572,
      "ڪاوش": 7573,
      "يڪيوٽو": 7574,
      "پرنسپال": 7575,
      "آھستي": 7576,
      "ڊگھائي": 7577,
      "ڪعبي": 7578,
      "يونائيٽيڊ": 7579,
      "400": 7580,
      "سيون": 7581,
      "غار": 7582,
      "لزم": 7583,
      "ورتا": 7584,
      "ايريا": 7585,
      "ليس": 7586,
      "ويڙھ": 7587,
      "تير": 7588,
      "تيوار": 7589,
      "کير": 7590,
      "ناهن": 7591,
      "دريائن": 7592,
      "پورهي": 7593,
      "مڪان": 7594,
      "tic": 7595,
      "وٽامن": 7596,
      "مزدور": 7597,
      "مفادن": 7598,
      "اليڪٽرڪ": 7599,
      "غلط": 7600,
      "ترجمان": 7601,
      "ذميواري": 7602,
      "ائٽلانٽڪ": 7603,
      "دهشتگر": 7604,
      "وحدت": 7605,
      "نافذ": 7606,
      "Jo": 7607,
      "شمو": 7608,
      "ضا": 7609,
      "ضاد": 7610,
      "عمان": 7611,
      "لڪ": 7612,
      "نان": 7613,
      "الم": 7614,
      "ڪيتري": 7615,
      "موٽ": 7616,
      "پاڳ": 7617,
      "پاڻي": 7618,
      "مطل": 7619,
      "قائد": 7620,
      "1978": 7621,
      "1952ع": 7622,
      "ٺاهين": 7623,
      "176": 7624,
      "1932ع": 7625,
      "1933ع": 7626,
      "اڪيلي": 7627,
      "ٽريٽ": 7628,
      "سنڀالي": 7629,
      "مشاهدي": 7630,
      "خبرون": 7631,
      "حامد": 7632,
      "فصلن": 7633,
      "Sp": 7634,
      "aw": 7635,
      "eg": 7636,
      "بط": 7637,
      "تلا": 7638,
      "دني": 7639,
      "غر": 7640,
      "لپي": 7641,
      "پائڻ": 7642,
      "ٿان": 7643,
      "چترا": 7644,
      "گالي": 7645,
      "المو": 7646,
      "يڪو": 7647,
      "رور": 7648,
      "سيڙ": 7649,
      "ملھ": 7650,
      "ٽيسٽ": 7651,
      "حيدري": 7652,
      "گران": 7653,
      "ڪهڙا": 7654,
      "شاهنواز": 7655,
      "بندش": 7656,
      "ڪمپنين": 7657,
      "سپاهي": 7658,
      "هزارن": 7659,
      "پاليسين": 7660,
      "مٽاسٽا": 7661,
      "وڻندڙ": 7662,
      "57": 7663,
      "57": 7664,
      "64": 7665,
      "99": 7666,
      "تڪاري": 7667,
      "جشن": 7668,
      "خيل": 7669,
      "سٺا": 7670,
      "وش": 7671,
      "چال": 7672,
      "ڊرائي": 7673,
      "گنگا": 7674,
      "انہ": 7675,
      "ائتا": 7676,
      "ارات": 7677,
      "آهيو": 7678,
      "اسڪ": 7679,
      "رام": 7680,
      "پيشي": 7681,
      "سرمست": 7682,
      "تاريخ": 7683,
      "سگهڙ": 7684,
      "ڪليڪٽر": 7685,
      "ٻيڙين": 7686,
      "ڏاڙ": 7687,
      "انڊو": 7688,
      "ثقافتن": 7689,
      "لغوي": 7690,
      "1923ع": 7691,
      "چارڻ": 7692,
      "چرپر": 7693,
      "خانبهادر": 7694,
      "عهدن": 7695,
      "پڙھ": 7696,
      "تجربا": 7697,
      "باغن": 7698,
      "نامياتي": 7699,
      "ميونسپال": 7700,
      "هيلٿ": 7701,
      "طبيعيات": 7702,
      "Pakistan": 7703,
      "اخبارون": 7704,
      "Par": 7705,
      "iz": 7706,
      "اڱ": 7707,
      "تباھ": 7708,
      "فتو": 7709,
      "ٺٽو": 7710,
      "ليو": 7711,
      "جنسون": 7712,
      "پيشو": 7713,
      "ترت": 7714,
      "ٽيف": 7715,
      "حيرت": 7716,
      "پرفار": 7717,
      "اختياري": 7718,
      "سانگهڙ": 7719,
      "ٻيلا": 7720,
      "1963ع": 7721,
      "1943ع": 7722,
      "بنائي": 7723,
      "فائز": 7724,
      "ڏسجي": 7725,
      "طبقاتي": 7726,
      "معاويه": 7727,
      "چوڌري": 7728,
      "مظفر": 7729,
      "نيڪال": 7730,
      "وڄائڻ": 7731,
      "رزاق": 7732,
      "النساء": 7733,
      "آفتاب": 7734,
      "بصري": 7735,
      "اسماعيلي": 7736,
      "خودمختياري": 7737,
      ":؛": 7738,
      "اڌ": 7739,
      "جزن": 7740,
      "شاني": 7741,
      "لار": 7742,
      "يزيد": 7743,
      "پشن": 7744,
      "ريہ": 7745,
      "ماھ": 7746,
      "ساڍا": 7747,
      "شهرين": 7748,
      "ڏيهي": 7749,
      "جيٽل": 7750,
      "هيري": 7751,
      "ڪارڪنن": 7752,
      "گيٽ": 7753,
      "نشانو": 7754,
      "2024": 7755,
      "ence": 7756,
      "وسندي": 7757,
      "شاھه": 7758,
      "جذب": 7759,
      "رياض": 7760,
      "جدون": 7761,
      "شهزادي": 7762,
      "تسلط": 7763,
      "شموليت": 7764,
      "چترال": 7765,
      "ah": 7766,
      "cy": 7767,
      "آريا": 7768,
      "تد": 7769,
      "تمدن": 7770,
      "صار": 7771,
      "مجا": 7772,
      "هانت": 7773,
      "ٿل": 7774,
      "ڍن": 7775,
      "ڪانگو": 7776,
      "گفت": 7777,
      "گنڊا": 7778,
      "یٰ": 7779,
      "ميجر": 7780,
      "رابرٽ": 7781,
      "موٽ": 7782,
      "ديوارن": 7783,
      "جاچ": 7784,
      "پرستيء": 7785,
      "ڪاربن": 7786,
      "گھڻ": 7787,
      "آرڊر": 7788,
      "حضور": 7789,
      "نصر": 7790,
      "کاڌا": 7791,
      "هيٺئين": 7792,
      "وڪٽو": 7793,
      "حرارت": 7794,
      "سرگرميون": 7795,
      "ملير": 7796,
      "دفتري": 7797,
      "همعصر": 7798,
      "ڪوئيٽا": 7799,
      "ڪاغذ": 7800,
      "per": 7801,
      "ئت": 7802,
      "جلو": 7803,
      "دنگ": 7804,
      "زالن": 7805,
      "نب": 7806,
      "ٻڪريون": 7807,
      "ڀريا": 7808,
      "ڌام": 7809,
      "کنيا": 7810,
      "ريج": 7811,
      "لاهو": 7812,
      "ماٿ": 7813,
      "واع": 7814,
      "پيٽرو": 7815,
      "پول": 7816,
      "ڪوڙي": 7817,
      "تاڻ": 7818,
      "ڪاس": 7819,
      "ننڍين": 7820,
      "گهرجن": 7821,
      "ڪورس": 7822,
      "قابليت": 7823,
      "tri": 7824,
      "عڪاسي": 7825,
      "انٽرويو": 7826,
      "ايگزيڪيوٽو": 7827,
      "Ph": 7828,
      "آل": 7829,
      "حن": 7830,
      "رور": 7831,
      "فات": 7832,
      "نقوي": 7833,
      "کٽ": 7834,
      "انجو": 7835,
      "انتق": 7836,
      "وراث": 7837,
      "ميران": 7838,
      "ساھ": 7839,
      "جوڳ": 7840,
      "ڏنڊ": 7841,
      "يورپين": 7842,
      "زمري": 7843,
      "ڏاک": 7844,
      "گيرن": 7845,
      "اشرف": 7846,
      "دائرو": 7847,
      "گهرائي": 7848,
      "فقيرن": 7849,
      "1922ع": 7850,
      "ڏاڍا": 7851,
      "سنڀالي": 7852,
      "پيداواري": 7853,
      "ell": 7854,
      "ارتقائي": 7855,
      "ڪوٽڙي": 7856,
      "آرگنائيزيشن": 7857,
      "ترجيح": 7858,
      "پختونخوا": 7859,
      "ڦڦڙن": 7860,
      "3000": 7861,
      "49": 7862,
      "ch": 7863,
      "ئرن": 7864,
      "جھن": 7865,
      "ذخير": 7866,
      "سمي": 7867,
      "نان": 7868,
      "ٻير": 7869,
      "پسمن": 7870,
      "ڀڄ": 7871,
      "ڊان": 7872,
      "ڦٽن": 7873,
      "ڦٽل": 7874,
      "الثاني": 7875,
      "اسڪي": 7876,
      "ماخ": 7877,
      "ادار": 7878,
      "موٽر": 7879,
      "پاء": 7880,
      "وارھ": 7881,
      "وڌندو": 7882,
      "سڏبا": 7883,
      "فريم": 7884,
      "گيري": 7885,
      "رحم": 7886,
      "شوڪت": 7887,
      "تجربي": 7888,
      "حسام": 7889,
      "اڀرندڙ": 7890,
      "وقتن": 7891,
      "ورھاست": 7892,
      "هٿيارن": 7893,
      "رهنمائي": 7894,
      "ماليڪيولر": 7895,
      "اجتماعي": 7896,
      "نشاندهي": 7897,
      "بد": 7898,
      "خليل": 7899,
      "سچي": 7900,
      "شمارو": 7901,
      "مروج": 7902,
      "يارڪ": 7903,
      "ٽڪرين": 7904,
      "پگه": 7905,
      "چڪيون": 7906,
      "ميگ": 7907,
      "ويھ": 7908,
      "گهہ": 7909,
      "منس": 7910,
      "منين": 7911,
      "جهاد": 7912,
      "سنڌو": 7913,
      "اصح": 7914,
      "ٽيلي": 7915,
      "وڌا": 7916,
      "جاکوڙ": 7917,
      "هيار": 7918,
      "ٻيڙيء": 7919,
      "قرار": 7920,
      "ائونٽ": 7921,
      "بادشاه": 7922,
      "مثالي": 7923,
      "بلوچن": 7924,
      "تجزي": 7925,
      "پئسا": 7926,
      "سائنسز": 7927,
      "راشد": 7928,
      "لائيٽ": 7929,
      "گذريا": 7930,
      "جمعي": 7931,
      "ساخت": 7932,
      "ذائقي": 7933,
      "ڊيموڪريٽڪ": 7934,
      "....": 7935,
      "68": 7936,
      "ion": 7937,
      "آله": 7938,
      "اجا": 7939,
      "باس": 7940,
      "رہ": 7941,
      "زه": 7942,
      "عنو": 7943,
      "چرا": 7944,
      "چاري": 7945,
      "ڪہ": 7946,
      "ڪئين": 7947,
      "اردوء": 7948,
      "ڪرنسي": 7949,
      "منجھان": 7950,
      "ڪنڊن": 7951,
      "جير": 7952,
      "هيئن": 7953,
      "فردن": 7954,
      "ذريعا": 7955,
      "پراڪرت": 7956,
      "گاڏ": 7957,
      "ڪريٽ": 7958,
      "فيصلا": 7959,
      "بئراج": 7960,
      "قصي": 7961,
      "سوسائٽيء": 7962,
      "رنگين": 7963,
      "ٻرڙو": 7964,
      "ڊينمارڪ": 7965,
      "ساليانو": 7966,
      "عبرت": 7967,
      "معزز": 7968,
      "لاڳيتو": 7969,
      "70": 7970,
      "اڏي": 7971,
      "جسمن": 7972,
      "دلي": 7973,
      "فڪري": 7974,
      "ڳري": 7975,
      "واڙي": 7976,
      "منن": 7977,
      "لوب": 7978,
      "ائيٽ": 7979,
      "ٿيس": 7980,
      "معرفت": 7981,
      "پراس": 7982,
      "خوب": 7983,
      "لڳندي": 7984,
      "قائد": 7985,
      "سبز": 7986,
      "سگھو": 7987,
      "شعري": 7988,
      "رواجي": 7989,
      "قابض": 7990,
      "جمادي": 7991,
      "سنگيت": 7992,
      "ڪپڙن": 7993,
      "خوشحال": 7994,
      "ذميداري": 7995,
      "Ind": 7996,
      "دانشور": 7997,
      "سياحتي": 7998,
      "سنڀاليو": 7999,
      "وابسته": 8000,
      "هڪجهڙائي": 8001,
      "تلوار": 8002,
      "پسمنظر": 8003,
      "72": 8004,
      "ge": 8005,
      "تے": 8006,
      "جهو": 8007,
      "حق": 8008,
      "حجاج": 8009,
      "شمش": 8010,
      "ضمير": 8011,
      "فان": 8012,
      "قادري": 8013,
      "نٿ": 8014,
      "پڪ": 8015,
      "چنگ": 8016,
      "ڇان": 8017,
      "رين": 8018,
      "ميٽري": 8019,
      "ميدانن": 8020,
      "روار": 8021,
      "روڊن": 8022,
      "ماتا": 8023,
      "ڪيفيت": 8024,
      "مولو": 8025,
      "پنا": 8026,
      "ديھن": 8027,
      "نيائي": 8028,
      "محروم": 8029,
      "براه": 8030,
      "ڳوڙ": 8031,
      "پارٽين": 8032,
      "مارئي": 8033,
      "صفر": 8034,
      "قربان": 8035,
      "1959ع": 8036,
      "سگھيو": 8037,
      "سپاهين": 8038,
      "اظھار": 8039,
      "تھذيب": 8040,
      "عمران": 8041,
      "ڳڻپ": 8042,
      "ڪنگڊم": 8043,
      "ڊولپمينٽ": 8044,
      "رهواسي": 8045,
      "اغوا": 8046,
      "63": 8047,
      "ubl": 8048,
      "آکي": 8049,
      "آھي": 8050,
      "آڌار": 8051,
      "اط": 8052,
      "مٿو": 8053,
      "وجھ": 8054,
      "ٿڌو": 8055,
      "کنڀ": 8056,
      "ارادي": 8057,
      "الأ": 8058,
      "الملڪ": 8059,
      "ريڊ": 8060,
      "ميرو": 8061,
      "ميگزين": 8062,
      "لينن": 8063,
      "مله": 8064,
      "ملهه": 8065,
      "برڪت": 8066,
      "سوڄ": 8067,
      "افلا": 8068,
      "فوجون": 8069,
      "انڊيڪس": 8070,
      "گيتا": 8071,
      "نشانين": 8072,
      "رھائش": 8073,
      "رائل": 8074,
      "بچائي": 8075,
      "ٽريننگ": 8076,
      "فلسطيني": 8077,
      "طبع": 8078,
      "ایک": 8079,
      "پابند": 8080,
      "معنى": 8081,
      "آرمينيا": 8082,
      "ڇڪتاڻ": 8083,
      "زبانن": 8084,
      "راولپنڊي": 8085,
      "آسانيء": 8086,
      "خرا": 8087,
      "دخ": 8088,
      "داڻي": 8089,
      "سبي": 8090,
      "عط": 8091,
      "نڪي": 8092,
      "پڄاڻ": 8093,
      "چل": 8094,
      "کاڻ": 8095,
      "ويلز": 8096,
      "موڙ": 8097,
      "بيحد": 8098,
      "جيم": 8099,
      "ڪلين": 8100,
      "قرباني": 8101,
      "تصور": 8102,
      "اقليت": 8103,
      "ٽيڪنيڪل": 8104,
      "ٺهراء": 8105,
      "نصيب": 8106,
      "2022": 8107,
      "ساهت": 8108,
      "وڙهڻ": 8109,
      "موسمي": 8110,
      "ڳائڻي": 8111,
      "پورچوگال": 8112,
      "قنڌار": 8113,
      "ڍانچي": 8114,
      "web": 8115,
      "5000": 8116,
      "Pl": 8117,
      "آڻ": 8118,
      "وڇو": 8119,
      "ٻٻر": 8120,
      "ڪمان": 8121,
      "ھري": 8122,
      "ھوري": 8123,
      "پنڊ": 8124,
      "19هين": 8125,
      "معاو": 8126,
      "قيدين": 8127,
      "ڪاررو": 8128,
      "سٽڪ": 8129,
      "تاريخن": 8130,
      "مسجدون": 8131,
      "اڳڪٿي": 8132,
      "اولھه": 8133,
      "جليء": 8134,
      "نقاد": 8135,
      "سامھون": 8136,
      "هڪدم": 8137,
      "ڪميٽيء": 8138,
      "دستن": 8139,
      "مکيہ": 8140,
      "اداڪار": 8141,
      "سڌارن": 8142,
      "گذرندڙ": 8143,
      "نوابشاهه": 8144,
      "گيلري": 8145,
      "امتياز": 8146,
      "زيڊنٽ": 8147,
      "رجسٽرڊ": 8148,
      "فاتح": 8149,
      "73": 8150,
      "om": 8151,
      "ter": 8152,
      "ws": 8153,
      "تڙ": 8154,
      "عضو": 8155,
      "فنگس": 8156,
      "هڻڻ": 8157,
      "وريء": 8158,
      "يندو": 8159,
      "ٿائي": 8160,
      "ڀو": 8161,
      "ڌڻ": 8162,
      "ھھ": 8163,
      "انيڪ": 8164,
      "رويو": 8165,
      "روپي": 8166,
      "اوڀ": 8167,
      "باق": 8168,
      "ملڪاڻي": 8169,
      "بينڪ": 8170,
      "درگاھ": 8171,
      "سوم": 8172,
      "پرين": 8173,
      "گوبند": 8174,
      "پريفيڪ": 8175,
      "آرڊين": 8176,
      "مثبت": 8177,
      "دائيء": 8178,
      "تبديليء": 8179,
      "سڃاتل": 8180,
      "عليہ": 8181,
      "ڳالهائيندڙن": 8182,
      "مدرسه": 8183,
      "مئني": 8184,
      "راجستان": 8185,
      "سڌارا": 8186,
      "ڪلهوڙو": 8187,
      "خصوصيت": 8188,
      "اندرين": 8189,
      "افسانوي": 8190,
      "ٽيوب": 8191,
      "ڀنڀور": 8192,
      "تنھنڪري": 8193,
      "اسرائيلي": 8194,
      "120": 8195,
      "aj": 8196,
      "آسماني": 8197,
      "اپر": 8198,
      "جرا": 8199,
      "قم": 8200,
      "ٺڪر": 8201,
      "پائونڊ": 8202,
      "چيڪ": 8203,
      "ڊجيٽل": 8204,
      "ڦه": 8205,
      "گز": 8206,
      "یخ": 8207,
      "ائب": 8208,
      "الور": 8209,
      "ماڇي": 8210,
      "ويڙه": 8211,
      "سينا": 8212,
      "ستا": 8213,
      "سافٽ": 8214,
      "ڪوه": 8215,
      "شال": 8216,
      "ڏيارڻ": 8217,
      "فيع": 8218,
      "توسي": 8219,
      "توحيد": 8220,
      "گھرو": 8221,
      "رکو": 8222,
      "شيات": 8223,
      "قوتن": 8224,
      "ڇڏين": 8225,
      "زرداري": 8226,
      "1947": 8227,
      "ٺهرائي": 8228,
      "اسٽار": 8229,
      "وسيلا": 8230,
      "مغيري": 8231,
      "100": 8232,
      "اجيء": 8233,
      "مائڪرو": 8234,
      "وٽنگ": 8235,
      "تجزيو": 8236,
      "پئماني": 8237,
      "غلطي": 8238,
      "مهاجر": 8239,
      "غلامن": 8240,
      "ضرورتن": 8241,
      "سسئي": 8242,
      "طارق": 8243,
      "ذخيرا": 8244,
      "آني": 8245,
      "تند": 8246,
      "حاص": 8247,
      "خی": 8248,
      "سڏ": 8249,
      "مھر": 8250,
      "نڊي": 8251,
      "ياسين": 8252,
      "ڀٽ": 8253,
      "چاچي": 8254,
      "گارن": 8255,
      "ميزبان": 8256,
      "رول": 8257,
      "ايما": 8258,
      "ڪير": 8259,
      "ڪيل": 8260,
      "پيرو": 8261,
      "ڪرنل": 8262,
      "سيال": 8263,
      "ابرا": 8264,
      "گهڙي": 8265,
      "پولينڊ": 8266,
      "ستون": 8267,
      "هول": 8268,
      "ڊيزائن": 8269,
      "مشاب": 8270,
      "بوٽ": 8271,
      "بوڪ": 8272,
      "سائوٿ": 8273,
      "1995": 8274,
      "تنتي": 8275,
      "مثاني": 8276,
      "1934ع": 8277,
      "مونکي": 8278,
      "مائٽ": 8279,
      "نڪتا": 8280,
      "جذبي": 8281,
      "وجهڻ": 8282,
      "هفتيوار": 8283,
      "العلوم": 8284,
      "منتظ": 8285,
      "گانڌي": 8286,
      "تاريخدان": 8287,
      "وراثت": 8288,
      "آرڊيننس": 8289,
      "os": 8290,
      "اٽو": 8291,
      "بمطابق": 8292,
      "سراج": 8293,
      "فيل": 8294,
      "لنڪ": 8295,
      "وح": 8296,
      "کنڊ": 8297,
      "ڪتب": 8298,
      "ھج": 8299,
      "ويدن": 8300,
      "موزون": 8301,
      "گهريلو": 8302,
      "اوڻ": 8303,
      "ملوڪ": 8304,
      "بيو": 8305,
      "ماريو": 8306,
      "سگهندا": 8307,
      "سبق": 8308,
      "پريشان": 8309,
      "وفد": 8310,
      "بناوت": 8311,
      "فائيل": 8312,
      "1925ع": 8313,
      "پهچايو": 8314,
      "جهنڊو": 8315,
      "ايسڊ": 8316,
      "نازڪ": 8317,
      "اوزارن": 8318,
      ".،": 8319,
      "De": 8320,
      "آب": 8321,
      "دون": 8322,
      "سالي": 8323,
      "عد": 8324,
      "عائ": 8325,
      "متف": 8326,
      "نٽ": 8327,
      "وين": 8328,
      "وتي": 8329,
      "ٺي": 8330,
      "ڊبليو": 8331,
      "ڪپهه": 8332,
      "انچن": 8333,
      "ايسٽ": 8334,
      "پاٽ": 8335,
      "هنگ": 8336,
      "هوش": 8337,
      "ٿيوري": 8338,
      "درسي": 8339,
      "افسوس": 8340,
      "مشورو": 8341,
      "1999": 8342,
      "بابل": 8343,
      "نقش": 8344,
      "1970": 8345,
      "1944ع": 8346,
      "مزدورن": 8347,
      "مفاد": 8348,
      "آئسو": 8349,
      "طبقو": 8350,
      "ريگستاني": 8351,
      "دمشق": 8352,
      "طبيعي": 8353,
      "مجيب": 8354,
      "مھينو": 8355,
      "گولڊ": 8356,
      "ڊڪشنريون": 8357,
      "مڇيء": 8358,
      "يهودين": 8359,
      "چاليهه": 8360,
      "اسڪرپٽ": 8361,
      "مسعود": 8362,
      "طالبان": 8363,
      "پرفارمنس": 8364,
      "de": 8365,
      "ug": 8366,
      "اٿي": 8367,
      "بلي": 8368,
      "صاب": 8369,
      "ظفر": 8370,
      "فتح": 8371,
      "مڻن": 8372,
      "نـ": 8373,
      "چڙ": 8374,
      "چادر": 8375,
      "ڪٽر": 8376,
      "اسلم": 8377,
      "ميوي": 8378,
      "امڪاني": 8379,
      "گهيرو": 8380,
      "باز": 8381,
      "درآمد": 8382,
      "سوئي": 8383,
      "ٽيڪ": 8384,
      "ٽيشن": 8385,
      "فيظ": 8386,
      "وڌندي": 8387,
      "ولين": 8388,
      "ڊيگھ": 8389,
      "اريندڙ": 8390,
      "مسٽ": 8391,
      "جھنگ": 8392,
      "جھڙا": 8393,
      "مرڪزن": 8394,
      "نقطو": 8395,
      "ڪانگ": 8396,
      "اسٽل": 8397,
      "ڪريان": 8398,
      "گنج": 8399,
      "ڳنڍي": 8400,
      "موڪلون": 8401,
      "مظهر": 8402,
      "ھلندڙ": 8403,
      "اثرن": 8404,
      "1917ع": 8405,
      "عاقل": 8406,
      "گفتگو": 8407,
      "توسيع": 8408,
      "متفق": 8409,
      "Sy": 8410,
      "con": 8411,
      "ir": 8412,
      "بقا": 8413,
      "بجليء": 8414,
      "تون": 8415,
      "حوي": 8416,
      "رباني": 8417,
      "شھن": 8418,
      "فی": 8419,
      "لاني": 8420,
      "وبا": 8421,
      "وصف": 8422,
      "ڀلائي": 8423,
      "ڊرن": 8424,
      "یز": 8425,
      "انڍ": 8426,
      "الاس": 8427,
      "پيئ": 8428,
      "مرث": 8429,
      "ڏيڻو": 8430,
      "ٽيز": 8431,
      "لڳيون": 8432,
      "حڪومتون": 8433,
      "ڪمري": 8434,
      "نقطي": 8435,
      "بنان": 8436,
      "گاڏيون": 8437,
      "اسٽاڪ": 8438,
      "ويجھي": 8439,
      "راجائن": 8440,
      "اتحادي": 8441,
      "ational": 8442,
      "پريفيڪچر": 8443,
      "69": 8444,
      "600": 8445,
      "تهه": 8446,
      "جزا": 8447,
      "سچائي": 8448,
      "عامر": 8449,
      "هيڪ": 8450,
      "ڙجي": 8451,
      "نداسين": 8452,
      "ريئ": 8453,
      "ليٽ": 8454,
      "بيري": 8455,
      "برھ": 8456,
      "اتراول": 8457,
      "قوميت": 8458,
      "لڳندا": 8459,
      "وٺن": 8460,
      "مصر": 8461,
      "ڌرمي": 8462,
      "1929ع": 8463,
      "مڃي": 8464,
      "سکڻ": 8465,
      "1843ع": 8466,
      "بندرگاھ": 8467,
      "ٿلهو": 8468,
      "راجپوتن": 8469,
      "مرحلو": 8470,
      "سويڊن": 8471,
      "عاليشان": 8472,
      "عربستان": 8473,
      "History": 8474,
      "ٽرانز": 8475,
      "جري": 8476,
      "خاڪو": 8477,
      "رھو": 8478,
      "رخن": 8479,
      "رچنا": 8480,
      "سـ": 8481,
      "نط": 8482,
      "ٺھي": 8483,
      "ٻڪري": 8484,
      "ڊچ": 8485,
      "ڊارون": 8486,
      "ڪانس": 8487,
      "ماکي": 8488,
      "سنه": 8489,
      "جنسن": 8490,
      "ويهڻ": 8491,
      "سيارن": 8492,
      "بيه": 8493,
      "تاء": 8494,
      "محلو": 8495,
      "محلات": 8496,
      "جوز": 8497,
      "سوئ": 8498,
      "سوڀ": 8499,
      "ڪنوين": 8500,
      "ڊيل": 8501,
      "صوفي": 8502,
      "گرا": 8503,
      "لکيون": 8504,
      "ڪايو": 8505,
      "شينهن": 8506,
      "زيه": 8507,
      "سانوڻ": 8508,
      "ڪلر": 8509,
      "مسج": 8510,
      "چونڊي": 8511,
      "ٽولي": 8512,
      "صاحبه": 8513,
      "شنو": 8514,
      "فائدي": 8515,
      "ٽروجن": 8516,
      "مفتي": 8517,
      "سنگم": 8518,
      "ٻارڻ": 8519,
      "معاملو": 8520,
      "ايڊمن": 8521,
      "قريش": 8522,
      "ڊگها": 8523,
      "سفارش": 8524,
      "ولايت": 8525,
      "ڀڃڪڙي": 8526,
      "نئشنل": 8527,
      "اوبلاسٽ": 8528,
      "ناولن": 8529,
      "اليگزينڊر": 8530,
      "قرارداد": 8531,
      "قائداعظم": 8532,
      "تخت": 8533,
      "تمغ": 8534,
      "سؤ": 8535,
      "سراء": 8536,
      "عاب": 8537,
      "لطي": 8538,
      "ٺو": 8539,
      "ٻڙ": 8540,
      "ٽپال": 8541,
      "پالي": 8542,
      "کيء": 8543,
      "ڪڪڙ": 8544,
      "انب": 8545,
      "ادريء": 8546,
      "ونڊ": 8547,
      "پياري": 8548,
      "سيشن": 8549,
      "1918ع": 8550,
      "اوج": 8551,
      "باگ": 8552,
      "مني": 8553,
      "تاق": 8554,
      "سرون": 8555,
      "شيئر": 8556,
      "سيڪي": 8557,
      "سيڪشن": 8558,
      "آمريڪن": 8559,
      "ڙهيون": 8560,
      "پرايو": 8561,
      "پڙهائي": 8562,
      "پڙهندڙ": 8563,
      "مينھن": 8564,
      "all": 8565,
      "پوليٽيڪل": 8566,
      "ڏهاڪن": 8567,
      "ڪلهوڙا": 8568,
      "خوشبوء": 8569,
      "مالياتي": 8570,
      "igh": 8571,
      "تسلسل": 8572,
      "يھودين": 8573,
      "پاڻمرادو": 8574,
      "4ھ": 8575,
      "76": 8576,
      "بيڪار": 8577,
      "تري": 8578,
      "ثانوي": 8579,
      "جوي": 8580,
      "حفيظ": 8581,
      "سيا": 8582,
      "لان": 8583,
      "هٿي": 8584,
      "وهن": 8585,
      "ٿنڀ": 8586,
      "ڀي": 8587,
      "ڀتين": 8588,
      "چيڪ": 8589,
      "ڏڪار": 8590,
      "الغ": 8591,
      "لاگ": 8592,
      "اسڪرين": 8593,
      "ميوا": 8594,
      "رواني": 8595,
      "بيعت": 8596,
      "جوڙي": 8597,
      "سوالن": 8598,
      "ٽيج": 8599,
      "اھري": 8600,
      "مبني": 8601,
      "1921ع": 8602,
      "ica": 8603,
      "ورهائجي": 8604,
      "سڪون": 8605,
      "اثرائ": 8606,
      "متنوع": 8607,
      "بانڊ": 8608,
      "مهاڳ": 8609,
      "ائٽمي": 8610,
      "منصوبا": 8611,
      "سرائيڪي": 8612,
      "غذا": 8613,
      "وھندڙ": 8614,
      "دفتر": 8615,
      "ڪجھه": 8616,
      "سهولتون": 8617,
      "روپيه": 8618,
      "ur": 8619,
      "دکن": 8620,
      "عز": 8621,
      "پيڪ": 8622,
      "ڀٽن": 8623,
      "چيا": 8624,
      "ڊپلو": 8625,
      "ڏاه": 8626,
      "ڪشا": 8627,
      "ڪپور": 8628,
      "اسن": 8629,
      "ميو": 8630,
      "راڻيء": 8631,
      "ويجهڙ": 8632,
      "سيٽن": 8633,
      "سيارو": 8634,
      "موري": 8635,
      "1919ع": 8636,
      "منصوبن": 8637,
      "سنڌيڪار": 8638,
      "سرائي": 8639,
      "سرڪل": 8640,
      "برعڪس": 8641,
      "ڪرايائين": 8642,
      "مها": 8643,
      "فاروق": 8644,
      "اسڪوائر": 8645,
      "بابر": 8646,
      "گاجي": 8647,
      "نامن": 8648,
      "2023": 8649,
      "گهرڙن": 8650,
      "خطو": 8651,
      "تصويرون": 8652,
      "آئوٽ": 8653,
      "amb": 8654,
      "ڏوهن": 8655,
      "بالٽڪ": 8656,
      "موقف": 8657,
      "ھندوستاني": 8658,
      "cycl": 8659,
      "250": 8660,
      "Br": 8661,
      "اڪرم": 8662,
      "رٽائ": 8663,
      "سٺ": 8664,
      "فون": 8665,
      "مبا": 8666,
      "هماليه": 8667,
      "چهن": 8668,
      "ڪڇي": 8669,
      "مايا": 8670,
      "ايٿو": 8671,
      "واڻيء": 8672,
      "ساگر": 8673,
      "باع": 8674,
      "منگي": 8675,
      "ترڪي": 8676,
      "ملائڻ": 8677,
      "تاج": 8678,
      "عليء": 8679,
      "اتون": 8680,
      "گرفت": 8681,
      "فرانس": 8682,
      "پرائي": 8683,
      "مشرو": 8684,
      "يونانين": 8685,
      "ناگ": 8686,
      "تصورن": 8687,
      "ڪمپليڪس": 8688,
      "جلدن": 8689,
      "مٿن": 8690,
      "برادريء": 8691,
      "مثنوي": 8692,
      "سلطن": 8693,
      "بناوٽ": 8694,
      "رڪاوٽ": 8695,
      "ڪئلي": 8696,
      "افغاني": 8697,
      "عقيدت": 8698,
      "موقعن": 8699,
      "اڄوڪي": 8700,
      "سنڀالڻ": 8701,
      "گڏجاڻي": 8702,
      "ھزارين": 8703,
      "ڪنوينشن": 8704,
      "Ad": 8705,
      "eh": 8706,
      "it": 8707,
      "رپيو": 8708,
      "طان": 8709,
      "قز": 8710,
      "مڌ": 8711,
      "ٿورا": 8712,
      "ڀري": 8713,
      "ڀيل": 8714,
      "ڀوري": 8715,
      "ڊٽ": 8716,
      "ڌل": 8717,
      "کٽي": 8718,
      "انيت": 8719,
      "لاڙي": 8720,
      "ميز": 8721,
      "ميڊل": 8722,
      "راڪ": 8723,
      "روان": 8724,
      "ماتي": 8725,
      "اميا": 8726,
      "سيرت": 8727,
      "موڪل": 8728,
      "سنڌيڪا": 8729,
      "معافي": 8730,
      "نقشن": 8731,
      "مڪلي": 8732,
      "عبدالرزاق": 8733,
      "مقرري": 8734,
      "1958": 8735,
      "بحران": 8736,
      "شرطن": 8737,
      "طريق": 8738,
      "فائر": 8739,
      "فائدي": 8740,
      "آفريقي": 8741,
      "قدرن": 8742,
      "لنگهي": 8743,
      "خراسان": 8744,
      "سئني": 8745,
      "قريب": 8746,
      "ويڪرو": 8747,
      "دانش": 8748,
      "اعتراف": 8749,
      "مخلوق": 8750,
      "استعيفيٰ": 8751,
      "عثمانيه": 8752,
      "تعميراتي": 8753,
      "ڌامرا": 8754,
      "cyclop": 8755,
      "90": 8756,
      "95": 8757,
      "ta": 8758,
      "سچو": 8759,
      "پتا": 8760,
      "ڏور": 8761,
      "ڳچيء": 8762,
      "ھاڻ": 8763,
      "رازي": 8764,
      "پيرس": 8765,
      "ڪرپشن": 8766,
      "منٺار": 8767,
      "نيه": 8768,
      "نيرو": 8769,
      "جها": 8770,
      "معاف": 8771,
      "اتين": 8772,
      "گرلس": 8773,
      "مشوري": 8774,
      "مشرف": 8775,
      "مشتاق": 8776,
      "شيشي": 8777,
      "صديون": 8778,
      "ana": 8779,
      "ننڍڙن": 8780,
      "خيالي": 8781,
      "آرٽ": 8782,
      "ڀاڱا": 8783,
      "1924ع": 8784,
      "ڊومين": 8785,
      "ace": 8786,
      "ماسڪو": 8787,
      "نسلون": 8788,
      "ابوالحسن": 8789,
      "اسٽوڊن": 8790,
      "تڪميل": 8791,
      "انٽارڪ": 8792,
      "تابڪاري": 8793,
      "آرڪٽڪ": 8794,
      "اعتراض": 8795,
      "وصيت": 8796,
      "منطق": 8797,
      "سڀيتا": 8798,
      "ميونسپلٽي": 8799,
      "افلاطون": 8800,
      "مسجدن": 8801,
      "فائديمند": 8802,
      "اسٽوڊنٽس": 8803,
      "Sha": 8804,
      "eb": 8805,
      "ies": 8806,
      "آڇ": 8807,
      "رخ": 8808,
      "وجي": 8809,
      "وصول": 8810,
      "ٽان": 8811,
      "چلي": 8812,
      "ڊپ": 8813,
      "ڙڪ": 8814,
      "گانو": 8815,
      "ارت": 8816,
      "الات": 8817,
      "واد": 8818,
      "واجب": 8819,
      "پيج": 8820,
      "پول": 8821,
      "پوريء": 8822,
      "پاڙون": 8823,
      "سايو": 8824,
      "بين": 8825,
      "نيز": 8826,
      "برو": 8827,
      "مخزن": 8828,
      "هير": 8829,
      "گرد": 8830,
      "اخذ": 8831,
      "دوسي": 8832,
      "ڪلڪتي": 8833,
      "جمالي": 8834,
      "بهاولپور": 8835,
      "هلڪي": 8836,
      "براء": 8837,
      "1931ع": 8838,
      "ڇوڪرن": 8839,
      "منظوم": 8840,
      "1927ع": 8841,
      "گريٽر": 8842,
      "جنيد": 8843,
      "سڪائي": 8844,
      "فورم": 8845,
      "سمجھڻ": 8846,
      "واضع": 8847,
      "گلوبل": 8848,
      "ڪافيون": 8849,
      "ايڪسپريس": 8850,
      "aries": 8851,
      "نسبتا": 8852,
      "تدريس": 8853,
      "ڄيٺمل": 8854,
      "دخل": 8855,
      "85": 8856,
      "Ab": 8857,
      "em": 8858,
      "ld": 8859,
      "se": 8860,
      "بالا": 8861,
      "تامل": 8862,
      "رجب": 8863,
      "عمري": 8864,
      "فزي": 8865,
      "نھن": 8866,
      "ياس": 8867,
      "ڄاتو": 8868,
      "چور": 8869,
      "ڇانو": 8870,
      "ويدڪ": 8871,
      "مرضي": 8872,
      "ستو": 8873,
      "باضاب": 8874,
      "منڍ": 8875,
      "درسگ": 8876,
      "اصف": 8877,
      "برآمد": 8878,
      "نظامن": 8879,
      "پرچار": 8880,
      "نوشه": 8881,
      "الياس": 8882,
      "ڪراء": 8883,
      "مريم": 8884,
      "وٺندي": 8885,
      "ڳايا": 8886,
      "خيبر": 8887,
      "برادرين": 8888,
      "گذر": 8889,
      "سمنڊن": 8890,
      "ern": 8891,
      "گاج": 8892,
      "اجل": 8893,
      "ڊگھو": 8894,
      "سگھجن": 8895,
      "سکيو": 8896,
      "فورنيا": 8897,
      "1914ع": 8898,
      "ايڊورڊ": 8899,
      "ھندوستان": 8900,
      "گنبذ": 8901,
      "حقيقتن": 8902,
      "نيويارڪ": 8903,
      "62": 8904,
      "63": 8905,
      "97": 8906,
      "il": 8907,
      "بالي": 8908,
      "جڙ": 8909,
      "جمش": 8910,
      "جسام": 8911,
      "حرن": 8912,
      "دال": 8913,
      "رچر": 8914,
      "عارف": 8915,
      "لل": 8916,
      "هٽي": 8917,
      "ومينٽ": 8918,
      "يـ": 8919,
      "ڄمون": 8920,
      "سنگا": 8921,
      "ونگ": 8922,
      "گهم": 8923,
      "اوچي": 8924,
      "اوسر": 8925,
      "تعال": 8926,
      "ديدار": 8927,
      "منا": 8928,
      "محسن": 8929,
      "جوڳو": 8930,
      "ڏيک": 8931,
      "فرمان": 8932,
      "ڪارخانا": 8933,
      "حصي": 8934,
      "شيم": 8935,
      "زين": 8936,
      "رسالا": 8937,
      "ٽرمپ": 8938,
      "مريخ": 8939,
      "پرويز": 8940,
      "عيسائين": 8941,
      "نڊم": 8942,
      "تنوير": 8943,
      "بخشا": 8944,
      "شرم": 8945,
      "ايڪو": 8946,
      "سمجهندا": 8947,
      "صنفن": 8948,
      "سهڻو": 8949,
      "اسپت": 8950,
      "مواف": 8951,
      "مدرسن": 8952,
      "اونھاري": 8953,
      "مضمون202": 8954,
      "اسپيشل": 8955,
      "غلاميء": 8956,
      "ليڪچرار": 8957,
      "طاقتن": 8958,
      "61": 8959,
      "69": 8960,
      "77": 8961,
      "Ex": 8962,
      "بی": 8963,
      "جس": 8964,
      "سڻ": 8965,
      "سڱ": 8966,
      "ساب": 8967,
      "سادن": 8968,
      "غرا": 8969,
      "نڪو": 8970,
      "نسٽ": 8971,
      "يتي": 8972,
      "ڀان": 8973,
      "چاڪر": 8974,
      "ڇاڻ": 8975,
      "ارجن": 8976,
      "الڪرام": 8977,
      "ريتي": 8978,
      "اسٽ": 8979,
      "مايو": 8980,
      "ادائ": 8981,
      "مرون": 8982,
      "مولا": 8983,
      "پوٽي": 8984,
      "نيٽ": 8985,
      "سرگرمي": 8986,
      "سولو": 8987,
      "احتي": 8988,
      "تبت": 8989,
      "گرامي": 8990,
      "هلچل": 8991,
      "يوڪري": 8992,
      "شعبان": 8993,
      "ٺاهيون": 8994,
      "اسٽيل": 8995,
      "جهڙيون": 8996,
      "شھز": 8997,
      "ڏسندا": 8998,
      "ڊوڙ": 8999,
      "نمائندو": 9000,
      "ڇاڇ": 9001,
      "بالغ": 9002,
      "مقدمو": 9003,
      "مساوات": 9004,
      "Inter": 9005,
      "پوئلڳ": 9006,
      "هينري": 9007,
      "مندرن": 9008,
      "ڪابينا": 9009,
      "لينڊز": 9010,
      "افزائي": 9011,
      "جوزف": 9012,
      "جمشيد": 9013,
      "78": 9014,
      "98": 9015,
      "for": 9016,
      "ian": 9017,
      "تتر": 9018,
      "سورت": 9019,
      "شجا": 9020,
      "فائي": 9021,
      "می": 9022,
      "ماهي": 9023,
      "چٽو": 9024,
      "ڪمر": 9025,
      "ائز": 9026,
      "المع": 9027,
      "العلماء": 9028,
      "روڪيو": 9029,
      "ليف": 9030,
      "ليه": 9031,
      "ليڪ": 9032,
      "ڪينيا": 9033,
      "مرمر": 9034,
      "سينگار": 9035,
      "پاڙن": 9036,
      "مناف": 9037,
      "منٽن": 9038,
      "افرا": 9039,
      "جاڻي": 9040,
      "هيڊ": 9041,
      "مشق": 9042,
      "موجود": 9043,
      "صفت": 9044,
      "ڇڏيون": 9045,
      "جھد": 9046,
      "ٻولهه": 9047,
      "هلڪو": 9048,
      "انڊسٽري": 9049,
      "ساڳيا": 9050,
      "اسٽاف": 9051,
      "ish": 9052,
      "دستي": 9053,
      "بچايو": 9054,
      "طبقن": 9055,
      "خانہ": 9056,
      "amm": 9057,
      "پهچائي": 9058,
      "ڪھاڻيون": 9059,
      "ساهتيه": 9060,
      "جنگيون": 9061,
      "سمجهن": 9062,
      "پسندي": 9063,
      "چشتي": 9064,
      "بدلجي": 9065,
      "ڏاڙھون": 9066,
      "نصرپور": 9067,
      "جسامت": 9068,
      "(،": 9069,
      "74": 9070,
      "87": 9071,
      "El": 9072,
      "ep": 9073,
      "our": 9074,
      "آد": 9075,
      "اڙ": 9076,
      "اڏي": 9077,
      "اپيل": 9078,
      "جبر": 9079,
      "زبي": 9080,
      "ٽڪي": 9081,
      "ڀاڳ": 9082,
      "ڳڙهي": 9083,
      "ليلي": 9084,
      "ويلا": 9085,
      "واس": 9086,
      "پيرز": 9087,
      "سيريل": 9088,
      "موار": 9089,
      "ڪوفي": 9090,
      "تاث": 9091,
      "اصليت": 9092,
      "سومار": 9093,
      "لکڻيون": 9094,
      "گوتم": 9095,
      "دائمي": 9096,
      "174": 9097,
      "جذبن": 9098,
      "لهڻ": 9099,
      "نيڪي": 9100,
      "فراز": 9101,
      "غلامي": 9102,
      "ڪلھوڙن": 9103,
      "پرائيويٽ": 9104,
      "هلايو": 9105,
      "خاموش": 9106,
      "راجسٿان": 9107,
      "آئسوٽو": 9108,
      "سنگاپور": 9109,
      "50ع": 9110,
      "UT": 9111,
      "pp": 9112,
      "اماڻ": 9113,
      "تائ": 9114,
      "سکي": 9115,
      "سدا": 9116,
      "شاديون": 9117,
      "متان": 9118,
      "نئي": 9119,
      "همدر": 9120,
      "وآله": 9121,
      "ينء": 9122,
      "ٽڪراء": 9123,
      "پد": 9124,
      "چاچ": 9125,
      "ڌارين": 9126,
      "ڏٺا": 9127,
      "ڪوي": 9128,
      "ڪچر": 9129,
      "انوالا": 9130,
      "اسير": 9131,
      "ستان": 9132,
      "علحد": 9133,
      "اتما": 9134,
      "حيران": 9135,
      "هيم": 9136,
      "پرڻ": 9137,
      "ڪاڇي": 9138,
      "ناٿن": 9139,
      "شيراز": 9140,
      "ڇڏجي": 9141,
      "چين": 9142,
      "مهدي": 9143,
      "1992": 9144,
      "گراف": 9145,
      "بادل": 9146,
      "جلاله": 9147,
      "پورٽل": 9148,
      "گيتن": 9149,
      "شاهڪار": 9150,
      "تفھيم": 9151,
      "1901ع": 9152,
      "ھليو": 9153,
      "قصي": 9154,
      "گهٽائڻ": 9155,
      "فيڪلٽي": 9156,
      "لڙائيء": 9157,
      "گهاٽي": 9158,
      "رشپ": 9159,
      "آرڪيالاجي": 9160,
      "سرمائيداري": 9161,
      "ڪاميابيء": 9162,
      "وڪٽوريا": 9163,
      "ماٿريء": 9164,
      "22": 9165,
      "::": 9166,
      "آلو": 9167,
      "اں": 9168,
      "حون": 9169,
      "دھلي": 9170,
      "سادو": 9171,
      "شرا": 9172,
      "عہ": 9173,
      "ناسي": 9174,
      "هـ": 9175,
      "هالي": 9176,
      "ٰي": 9177,
      "ڀاري": 9178,
      "ڊاء": 9179,
      "کار": 9180,
      "ڪشم": 9181,
      "ارض": 9182,
      "الھ": 9183,
      "ويڪ": 9184,
      "ويٺي": 9185,
      "مردان": 9186,
      "مودودي": 9187,
      "ساڙي": 9188,
      "ترقياتي": 9189,
      "ملندا": 9190,
      "2019": 9191,
      "فرنٽ": 9192,
      "ناء": 9193,
      "اسٽيڊيم": 9194,
      "انتها": 9195,
      "خلاص": 9196,
      "ٺهيو": 9197,
      "اٽڪ": 9198,
      "انتظار": 9199,
      "انتظاميه": 9200,
      "رحمة": 9201,
      "istr": 9202,
      "بھی": 9203,
      "بھادر": 9204,
      "سڪند": 9205,
      "ڇاپي": 9206,
      "خواه": 9207,
      "ous": 9208,
      "پلاٽ": 9209,
      "بيماريون": 9210,
      "غريبن": 9211,
      "ٺاهيندو": 9212,
      "گلابي": 9213,
      "ڊرئ": 9214,
      "آرمينيائي": 9215,
      "پختون": 9216,
      "سعد": 9217,
      "پلانٽ": 9218,
      "اجرڪ": 9219,
      "ڀڳوان": 9220,
      "مشغول": 9221,
      "Dictionaries": 9222,
      "ماھرن": 9223,
      "71": 9224,
      "86": 9225,
      "94": 9226,
      "92": 9227,
      "ys": 9228,
      "آنڊن": 9229,
      "بع": 9230,
      "رطو": 9231,
      "سست": 9232,
      "سارو": 9233,
      "شف": 9234,
      "غائب": 9235,
      "مبي": 9236,
      "نڪرن": 9237,
      "ننگر": 9238,
      "ومي": 9239,
      "وصف": 9240,
      "ٿرا": 9241,
      "ڏوه": 9242,
      "ڪڇ": 9243,
      "ڪسي": 9244,
      "ميم": 9245,
      "روانا": 9246,
      "ليبار": 9247,
      "ويم": 9248,
      "اموي": 9249,
      "اصغر": 9250,
      "برانچ": 9251,
      "سوتي": 9252,
      "جيٽ": 9253,
      "صوبيدار": 9254,
      "مشتر": 9255,
      "توهين": 9256,
      "مسڪين": 9257,
      "ani": 9258,
      "قائل": 9259,
      "قانون": 9260,
      "اسلاميه": 9261,
      "انتظاميا": 9262,
      "داخلي": 9263,
      "ڊگريون": 9264,
      "مراڪش": 9265,
      "بندين": 9266,
      "1912ع": 9267,
      "دارال": 9268,
      "emb": 9269,
      "نڪرندا": 9270,
      "الوجي": 9271,
      "بيڪٽيريا": 9272,
      "قسمت": 9273,
      "حاصلات": 9274,
      "ارضيات": 9275,
      "96": 9276,
      "Gl": 9277,
      "ol": 9278,
      "ra": 9279,
      "بجي": 9280,
      "جبار": 9281,
      "رڪنن": 9282,
      "عتون": 9283,
      "غوث": 9284,
      "قسم": 9285,
      "لڪل": 9286,
      "نڪس": 9287,
      "يہ": 9288,
      "يحي": 9289,
      "پاري": 9290,
      "ٿڙ": 9291,
      "ڇانو": 9292,
      "ڍڪي": 9293,
      "ڦٽ": 9294,
      "گاھ": 9295,
      "ڳر": 9296,
      "اربند": 9297,
      "ورڇ": 9298,
      "ميٽر": 9299,
      "جنون": 9300,
      "پيش": 9301,
      "پوش": 9302,
      "پوشا": 9303,
      "پولو": 9304,
      "منفي": 9305,
      "بيس": 9306,
      "بيشمار": 9307,
      "بيلٽ": 9308,
      "2020": 9309,
      "سلا": 9310,
      "ڪنور": 9311,
      "قيصر": 9312,
      "احسن": 9313,
      "مشڪلا": 9314,
      "سانگ": 9315,
      "ٽرئ": 9316,
      "ann": 9317,
      "ڳاڙها": 9318,
      "سڏي": 9319,
      "بخارا": 9320,
      "1983": 9321,
      "کوکر": 9322,
      "ڪهڪشان": 9323,
      "نصب": 9324,
      "وسيلو": 9325,
      "ڄامشوري": 9326,
      "150": 9327,
      "سورج": 9328,
      "رضاڪ": 9329,
      "موڪلڻ": 9330,
      "مقدمي": 9331,
      "1911ع": 9332,
      "سڄڻ": 9333,
      "جدوجھد": 9334,
      "اليڪٽرانڪ": 9335,
      "ڪاوڙ": 9336,
      "ھيٺيون": 9337,
      "رياضياتي": 9338,
      "کهاوڙ": 9339,
      "تائيوان": 9340,
      "استحص": 9341,
      "سئنيما": 9342,
      "93": 9343,
      "Sc": 9344,
      "ئه": 9345,
      "رئ": 9346,
      "صارف": 9347,
      "ضد": 9348,
      "فيا": 9349,
      "ممل": 9350,
      "نعر": 9351,
      "نانڪ": 9352,
      "هٽائي": 9353,
      "چاهه": 9354,
      "چشم": 9355,
      "چلر": 9356,
      "ڊون": 9357,
      "ڏندن": 9358,
      "گائي": 9359,
      "ماڪڙ": 9360,
      "تعص": 9361,
      "ديري": 9362,
      "ملائ": 9363,
      "نيرون": 9364,
      "هوشي": 9365,
      "اصلاحي": 9366,
      "صوفين": 9367,
      "پردي": 9368,
      "شيعه": 9369,
      "سائٽ": 9370,
      "اعت": 9371,
      "ٽوڙڻ": 9372,
      "هندڙن": 9373,
      "درياه": 9374,
      "يوم": 9375,
      "1982": 9376,
      "ٽيڪساس": 9377,
      "گذاريو": 9378,
      "مجسمو": 9379,
      "نامڪس": 9380,
      "مائش": 9381,
      "سهڻا": 9382,
      "رضوي": 9383,
      "غزه": 9384,
      "ڇيڙي": 9385,
      "البم": 9386,
      "سربراهي": 9387,
      "ڪوئلي": 9388,
      "ivers": 9389,
      "ڀڃي": 9390,
      "سينيئر": 9391,
      "دفاعي": 9392,
      "نھايت": 9393,
      "ٻهرا": 9394,
      "جماعتن": 9395,
      "قومپرست": 9396,
      "عبيدالله": 9397,
      "رچرڊ": 9398,
      "te": 9399,
      "بانو": 9400,
      "جرن": 9401,
      "جتن": 9402,
      "خض": 9403,
      "رجو": 9404,
      "زا": 9405,
      "سجا": 9406,
      "شڪاري": 9407,
      "شبير": 9408,
      "ضبط": 9409,
      "لبر": 9410,
      "نفيس": 9411,
      "وھي": 9412,
      "وڪا": 9413,
      "ووٽرن": 9414,
      "وشنو": 9415,
      "ٻڍل": 9416,
      "ٽائن": 9417,
      "ٿانو": 9418,
      "ڊڪ": 9419,
      "ڏان": 9420,
      "گوري": 9421,
      "اندران": 9422,
      "نداس": 9423,
      "لاڻ": 9424,
      "استق": 9425,
      "واشنگ": 9426,
      "پنو": 9427,
      "اوس": 9428,
      "ڪوه": 9429,
      "ڪوڙو": 9430,
      "منحص": 9431,
      "لوڪن": 9432,
      "تيستائين": 9433,
      "ڪنڊو": 9434,
      "جيلاني": 9435,
      "نگن": 9436,
      "يره": 9437,
      "سمورين": 9438,
      "هاڪ": 9439,
      "عرساڻي": 9440,
      "مدني": 9441,
      "ٽرا": 9442,
      "هندو": 9443,
      "فارغ": 9444,
      "يوڪرين": 9445,
      "حالات": 9446,
      "ڪالون": 9447,
      "پڙهائڻ": 9448,
      "وزيرن": 9449,
      "مھتاب": 9450,
      "1926ع": 9451,
      "1928ع": 9452,
      "بھار": 9453,
      "خوشحالي": 9454,
      "جامعه": 9455,
      "مھينا": 9456,
      "گهوڙن": 9457,
      "عھدو": 9458,
      "ڌنڌو": 9459,
      "منڊلي": 9460,
      "ذخيرن": 9461,
      "کيرٿر": 9462,
      "ڊرئميٽڪ": 9463,
      "واشنگٽن": 9464,
      "منحصر": 9465,
      "Wor": 9466,
      "اڃ": 9467,
      "بست": 9468,
      "ضمان": 9469,
      "طل": 9470,
      "طبع": 9471,
      "غيب": 9472,
      "مٺا": 9473,
      "وحي": 9474,
      "ٺٽ": 9475,
      "پڳ": 9476,
      "ڄڻا": 9477,
      "ڍاڪا": 9478,
      "کيو": 9479,
      "اسڪائ": 9480,
      "وران": 9481,
      "ڪيمسٽ": 9482,
      "لوئر": 9483,
      "ڪنڌ": 9484,
      "ڪنارو": 9485,
      "جيسل": 9486,
      "ڊيرا": 9487,
      "لکندڙ": 9488,
      "هاس": 9489,
      "ڪرايون": 9490,
      "1996": 9491,
      "ڀرنش": 9492,
      "1987": 9493,
      "مشتري": 9494,
      "تحريڪن": 9495,
      "پڙهندو": 9496,
      "سٽريٽ": 9497,
      "پڙھڻ": 9498,
      "گھرڙن": 9499,
      "جزائر": 9500,
      "معاشرتي": 9501,
      "ڪاٺيا": 9502,
      "ڪلھوڙو": 9503,
      "تفريحي": 9504,
      "آهي202": 9505,
      "آرڪائي": 9506,
      "ress": 9507,
      "عبدالغفور": 9508,
      "پروسيسنگ": 9509,
      "موبائل": 9510,
      "اولمپڪ": 9511,
      "مطلق": 9512,
      "ڪارروائي": 9513,
      "مباح": 9514,
      "67": 9515,
      "Bl": 9516,
      "Col": 9517,
      "Im": 9518,
      "اچو": 9519,
      "بڻي": 9520,
      "رت": 9521,
      "شفيع": 9522,
      "طيء": 9523,
      "فوري": 9524,
      "مجر": 9525,
      "ٽڪن": 9526,
      "پره": 9527,
      "ڦاسي": 9528,
      "اهل": 9529,
      "ماڙي": 9530,
      "ليبر": 9531,
      "امو": 9532,
      "گهي": 9533,
      "پني": 9534,
      "پوريون": 9535,
      "اوپن": 9536,
      "ڪوھ": 9537,
      "باش": 9538,
      "محب": 9539,
      "بردار": 9540,
      "ٽيبل": 9541,
      "نگري": 9542,
      "گھڻن": 9543,
      "چوڻي": 9544,
      "تاريخد": 9545,
      "دودو": 9546,
      "سيڪيور": 9547,
      "شنڪانس": 9548,
      "مصالح": 9549,
      "نقطه": 9550,
      "ons": 9551,
      "قافي": 9552,
      "تجارت": 9553,
      "شڪتي": 9554,
      "مئگزين": 9555,
      "پڙھي": 9556,
      "ast": 9557,
      "ڏوڪري": 9558,
      "چاڙه": 9559,
      "سڄيء": 9560,
      "ذميواريون": 9561,
      "وومين": 9562,
      "رقص": 9563,
      "پڇڙ": 9564,
      "انيس": 9565,
      "آريسر": 9566,
      "چڙهڻ": 9567,
      "ويبسرزمين": 9568,
      "ارڙهين": 9569,
      "ذاتيون": 9570,
      "ساساني": 9571,
      "بزنس": 9572,
      "ٽرسٽ": 9573,
      "ڪيليفورنيا": 9574,
      "نقشبندي": 9575,
      "ايٿوپيا": 9576,
      "شنڪانسين": 9577,
      "84": 9578,
      "CO": 9579,
      "Str": 9580,
      "اٻ": 9581,
      "بٽ": 9582,
      "باي": 9583,
      "بستي": 9584,
      "ثنا": 9585,
      "سرا": 9586,
      "شرف": 9587,
      "كي": 9588,
      "لڪش": 9589,
      "نانء": 9590,
      "ٽڪيٽ": 9591,
      "ٿيء": 9592,
      "چڪ": 9593,
      "ڳچ": 9594,
      "انھي": 9595,
      "ورس": 9596,
      "ميٽ": 9597,
      "يڪن": 9598,
      "ايڊ": 9599,
      "جنهن": 9600,
      "پيپر": 9601,
      "ڪرنٽ": 9602,
      "سيتا": 9603,
      "ڪوري": 9604,
      "بيورو": 9605,
      "محد": 9606,
      "جوم": 9607,
      "ڊيني": 9608,
      "آبشار": 9609,
      "مريضن": 9610,
      "ٽوپي": 9611,
      "بڻجڻ": 9612,
      "شنا": 9613,
      "قلعا": 9614,
      "1986": 9615,
      "براعظ": 9616,
      "عبدالملڪ": 9617,
      "عبدالمطلب": 9618,
      "طرفن": 9619,
      "ڪڍندا": 9620,
      "رحه": 9621,
      "ڪمپنيون": 9622,
      "اداڪاره": 9623,
      "est": 9624,
      "اجاگر": 9625,
      "هرهڪ": 9626,
      "خوشبو": 9627,
      "ائٽم": 9628,
      "زبردستي": 9629,
      "ڳوٺاڻن": 9630,
      "تبصرو": 9631,
      "پناهگيرن": 9632,
      "الاجيڪل": 9633,
      "triev": 9634,
      "ماخذ": 9635,
      "این": 9636,
      "جاوا": 9637,
      "رجي": 9638,
      "رسو": 9639,
      "زوري": 9640,
      "سز": 9641,
      "غم": 9642,
      "غال": 9643,
      "ٻئين": 9644,
      "پڙي": 9645,
      "چري": 9646,
      "ڦار": 9647,
      "کائيندو": 9648,
      "ڪالي": 9649,
      "یات": 9650,
      "البي": 9651,
      "ميلا": 9652,
      "ڪيپ": 9653,
      "پير": 9654,
      "ڪرداس": 9655,
      "سيوستان": 9656,
      "موڪ": 9657,
      "پوٽا": 9658,
      "منجهن": 9659,
      "نيس": 9660,
      "20هين": 9661,
      "سومر": 9662,
      "ڪنڊا": 9663,
      "ٽيري": 9664,
      "وڃو": 9665,
      "ڪاربان": 9666,
      "ڪاء": 9667,
      "هاض": 9668,
      "مريدن": 9669,
      "گوا": 9670,
      "ٽوريل": 9671,
      "بڻيل": 9672,
      "پريزيڊنٽ": 9673,
      "ڪمبو": 9674,
      "ئرس": 9675,
      "علامتن": 9676,
      "پرامن": 9677,
      "ڪانهي": 9678,
      "ڀاڄي": 9679,
      "ڇپيا": 9680,
      "مفهوم": 9681,
      "عظمت": 9682,
[...]
