{
  "version": "1.0",
  "truncation": null,
  "padding": null,
  "added_tokens": [
    {
      "id": 0,
      "content": "<UNK>",
      "single_word": false,
      "lstrip": false,
      "rstrip": false,
      "normalized": false,
      "special": true
    },
    {
      "id": 1,
      "content": "",
      "single_word": false,
      "lstrip": false,
      "rstrip": false,
      "normalized": false,
      "special": true
    },
    {
      "id": 2,
      "content": "<PAD>",
      "single_word": false,
      "lstrip": false,
      "rstrip": false,
      "normalized": false,
      "special": true
    },
    {
      "id": 3,
      "content": "<BOS>",
      "single_word": false,
      "lstrip": false,
      "rstrip": false,
      "normalized": false,
      "special": true
    },
    {
      "id": 4,
      "content": "<EOS>",
      "single_word": false,
      "lstrip": false,
      "rstrip": false,
      "normalized": false,
      "special": true
    },
    {
      "id": 5,
      "content": "<SEP>",
      "single_word": false,
      "lstrip": false,
      "rstrip": false,
      "normalized": false,
      "special": true
    },
    {
      "id": 6,
      "content": "<MASK>",
      "single_word": false,
      "lstrip": false,
      "rstrip": false,
      "normalized": false,
      "special": true
    },
    {
      "id": 7,
      "content": "<0x00>",
      "single_word": false,
      "lstrip": false,
      "rstrip": false,
      "normalized": false,
      "special": true
    },
    {
      "id": 8,
      "content": "<0x01>",
      "single_word": false,
      "lstrip": false,
      "rstrip": false,
      "normalized": false,
      "special": true
    },
    {
      "id": 9,
      "content": "<0x02>",
      "single_word": false,
      "lstrip": false,
      "rstrip": false,
      "normalized": false,
      "special": true
    },
    {
      "id": 10,
      "content": "<0x03>",
      "single_word": false,
      "lstrip": false,
      "rstrip": false,
      "normalized": false,
      "special": true
    },
    {
      "id": 11,
      "content": "<0x04>",
      "single_word": false,
      "lstrip": false,
      "rstrip": false,
      "normalized": false,
      "special": true
    },
    {
      "id": 12,
      "content": "<0x05>",
      "single_word": false,
      "lstrip": false,
      "rstrip": false,
      "normalized": false,
      "special": true
    },
    {
      "id": 13,
      "content": "<0x06>",
      "single_word": false,
      "lstrip": false,
      "rstrip": false,
      "normalized": false,
      "special": true
    },
    {
      "id": 14,
      "content": "<0x07>",
      "single_word": false,
      "lstrip": false,
      "rstrip": false,
      "normalized": false,
      "special": true
    },
    {
      "id": 15,
      "content": "<0x08>",
      "single_word": false,
      "lstrip": false,
      "rstrip": false,
      "normalized": false,
      "special": true
    },
    {
      "id": 16,
      "content": "<0x09>",
      "single_word": false,
      "lstrip": false,
      "rstrip": false,
      "normalized": false,
      "special": true
    },
    {
      "id": 17,
      "content": "<0x0A>",
      "single_word": false,
      "lstrip": false,
      "rstrip": false,
      "normalized": false,
      "special": true
    },
    {
      "id": 18,
      "content": "<0x0B>",
      "single_word": false,
      "lstrip": false,
      "rstrip": false,
      "normalized": false,
      "special": true
    },
    {
      "id": 19,
      "content": "<0x0C>",
      "single_word": false,
      "lstrip": false,
      "rstrip": false,
      "normalized": false,
      "special": true
    },
    {
      "id": 20,
      "content": "<0x0D>",
      "single_word": false,
      "lstrip": false,
      "rstrip": false,
      "normalized": false,
      "special": true
    },
    {
      "id": 21,
      "content": "<0x0E>",
      "single_word": false,
      "lstrip": false,
      "rstrip": false,
      "normalized": false,
      "special": true
    },
    {
      "id": 22,
      "content": "<0x0F>",
      "single_word": false,
      "lstrip": false,
      "rstrip": false,
      "normalized": false,
      "special": true
    },
    {
      "id": 23,
      "content": "<0x10>",
      "single_word": false,
      "lstrip": false,
      "rstrip": false,
      "normalized": false,
      "special": true
    },
    {
      "id": 24,
      "content": "<0x11>",
      "single_word": false,
      "lstrip": false,
      "rstrip": false,
      "normalized": false,
      "special": true
    },
    {
      "id": 25,
      "content": "<0x12>",
      "single_word": false,
      "lstrip": false,
      "rstrip": false,
      "normalized": false,
      "special": true
    },
    {
      "id": 26,
      "content": "<0x13>",
      "single_word": false,
      "lstrip": false,
      "rstrip": false,
      "normalized": false,
      "special": true
    },
    {
      "id": 27,
      "content": "<0x14>",
      "single_word": false,
      "lstrip": false,
      "rstrip": false,
      "normalized": false,
      "special": true
    },
    {
      "id": 28,
      "content": "<0x15>",
      "single_word": false,
      "lstrip": false,
      "rstrip": false,
      "normalized": false,
      "special": true
    },
    {
      "id": 29,
      "content": "<0x16>",
      "single_word": false,
      "lstrip": false,
      "rstrip": false,
      "normalized": false,
      "special": true
    },
    {
      "id": 30,
      "content": "<0x17>",
      "single_word": false,
      "lstrip": false,
      "rstrip": false,
      "normalized": false,
      "special": true
    },
    {
      "id": 31,
      "content": "<0x18>",
      "single_word": false,
      "lstrip": false,
      "rstrip": false,
      "normalized": false,
      "special": true
    },
    {
      "id": 32,
      "content": "<0x19>",
      "single_word": false,
      "lstrip": false,
      "rstrip": false,
      "normalized": false,
      "special": true
    },
    {
      "id": 33,
      "content": "<0x1A>",
      "single_word": false,
      "lstrip": false,
      "rstrip": false,
      "normalized": false,
      "special": true
    },
    {
      "id": 34,
      "content": "<0x1B>",
      "single_word": false,
      "lstrip": false,
      "rstrip": false,
      "normalized": false,
      "special": true
    },
    {
      "id": 35,
      "content": "<0x1C>",
      "single_word": false,
      "lstrip": false,
      "rstrip": false,
      "normalized": false,
      "special": true
    },
    {
      "id": 36,
      "content": "<0x1D>",
      "single_word": false,
      "lstrip": false,
      "rstrip": false,
      "normalized": false,
      "special": true
    },
    {
      "id": 37,
      "content": "<0x1E>",
      "single_word": false,
      "lstrip": false,
      "rstrip": false,
      "normalized": false,
      "special": true
    },
    {
      "id": 38,
      "content": "<0x1F>",
      "single_word": false,
      "lstrip": false,
      "rstrip": false,
      "normalized": false,
      "special": true
    },
    {
      "id": 39,
      "content": "<0x20>",
      "single_word": false,
      "lstrip": false,
      "rstrip": false,
      "normalized": false,
      "special": true
    },
    {
      "id": 40,
      "content": "<0x21>",
      "single_word": false,
      "lstrip": false,
      "rstrip": false,
      "normalized": false,
      "special": true
    },
    {
      "id": 41,
      "content": "<0x22>",
      "single_word": false,
      "lstrip": false,
      "rstrip": false,
      "normalized": false,
      "special": true
    },
    {
      "id": 42,
      "content": "<0x23>",
      "single_word": false,
      "lstrip": false,
      "rstrip": false,
      "normalized": false,
      "special": true
    },
    {
      "id": 43,
      "content": "<0x24>",
      "single_word": false,
      "lstrip": false,
      "rstrip": false,
      "normalized": false,
      "special": true
    },
    {
      "id": 44,
      "content": "<0x25>",
      "single_word": false,
      "lstrip": false,
      "rstrip": false,
      "normalized": false,
      "special": true
    },
    {
      "id": 45,
      "content": "<0x26>",
      "single_word": false,
      "lstrip": false,
      "rstrip": false,
      "normalized": false,
      "special": true
    },
    {
      "id": 46,
      "content": "<0x27>",
      "single_word": false,
      "lstrip": false,
      "rstrip": false,
      "normalized": false,
      "special": true
    },
    {
      "id": 47,
      "content": "<0x28>",
      "single_word": false,
      "lstrip": false,
      "rstrip": false,
      "normalized": false,
      "special": true
    },
    {
      "id": 48,
      "content": "<0x29>",
      "single_word": false,
      "lstrip": false,
      "rstrip": false,
      "normalized": false,
      "special": true
    },
    {
      "id": 49,
      "content": "<0x2A>",
      "single_word": false,
      "lstrip": false,
      "rstrip": false,
      "normalized": false,
      "special": true
    },
    {
      "id": 50,
      "content": "<0x2B>",
      "single_word": false,
      "lstrip": false,
      "rstrip": false,
      "normalized": false,
      "special": true
    },
    {
      "id": 51,
      "content": "<0x2C>",
      "single_word": false,
      "lstrip": false,
      "rstrip": false,
      "normalized": false,
      "special": true
    },
    {
      "id": 52,
      "content": "<0x2D>",
      "single_word": false,
      "lstrip": false,
      "rstrip": false,
      "normalized": false,
      "special": true
    },
    {
      "id": 53,
      "content": "<0x2E>",
      "single_word": false,
      "lstrip": false,
      "rstrip": false,
      "normalized": false,
      "special": true
    },
    {
      "id": 54,
      "content": "<0x2F>",
      "single_word": false,
      "lstrip": false,
      "rstrip": false,
      "normalized": false,
      "special": true
    },
    {
      "id": 55,
      "content": "<0x30>",
      "single_word": false,
      "lstrip": false,
      "rstrip": false,
      "normalized": false,
      "special": true
    },
    {
      "id": 56,
      "content": "<0x31>",
      "single_word": false,
      "lstrip": false,
      "rstrip": false,
      "normalized": false,
      "special": true
    },
    {
      "id": 57,
      "content": "<0x32>",
      "single_word": false,
      "lstrip": false,
      "rstrip": false,
      "normalized": false,
      "special": true
    },
    {
      "id": 58,
      "content": "<0x33>",
      "single_word": false,
      "lstrip": false,
      "rstrip": false,
      "normalized": false,
      "special": true
    },
    {
      "id": 59,
      "content": "<0x34>",
      "single_word": false,
      "lstrip": false,
      "rstrip": false,
      "normalized": false,
      "special": true
    },
    {
      "id": 60,
      "content": "<0x35>",
      "single_word": false,
      "lstrip": false,
      "rstrip": false,
      "normalized": false,
      "special": true
    },
    {
      "id": 61,
      "content": "<0x36>",
      "single_word": false,
      "lstrip": false,
      "rstrip": false,
      "normalized": false,
      "special": true
    },
    {
      "id": 62,
      "content": "<0x37>",
      "single_word": false,
      "lstrip": false,
      "rstrip": false,
      "normalized": false,
      "special": true
    },
    {
      "id": 63,
      "content": "<0x38>",
      "single_word": false,
      "lstrip": false,
      "rstrip": false,
      "normalized": false,
      "special": true
    },
    {
      "id": 64,
      "content": "<0x39>",
      "single_word": false,
      "lstrip": false,
      "rstrip": false,
      "normalized": false,
      "special": true
    },
    {
      "id": 65,
      "content": "<0x3A>",
      "single_word": false,
      "lstrip": false,
      "rstrip": false,
      "normalized": false,
      "special": true
    },
    {
      "id": 66,
      "content": "<0x3B>",
      "single_word": false,
      "lstrip": false,
      "rstrip": false,
      "normalized": false,
      "special": true
    },
    {
      "id": 67,
      "content": "<0x3C>",
      "single_word": false,
      "lstrip": false,
      "rstrip": false,
      "normalized": false,
      "special": true
    },
    {
      "id": 68,
      "content": "<0x3D>",
      "single_word": false,
      "lstrip": false,
      "rstrip": false,
      "normalized": false,
      "special": true
    },
    {
      "id": 69,
      "content": "<0x3E>",
      "single_word": false,
      "lstrip": false,
      "rstrip": false,
      "normalized": false,
      "special": true
    },
    {
      "id": 70,
      "content": "<0x3F>",
      "single_word": false,
      "lstrip": false,
      "rstrip": false,
      "normalized": false,
      "special": true
    },
    {
      "id": 71,
      "content": "<0x40>",
      "single_word": false,
      "lstrip": false,
      "rstrip": false,
      "normalized": false,
      "special": true
    },
    {
      "id": 72,
      "content": "<0x41>",
      "single_word": false,
      "lstrip": false,
      "rstrip": false,
      "normalized": false,
      "special": true
    },
    {
      "id": 73,
      "content": "<0x42>",
      "single_word": false,
      "lstrip": false,
      "rstrip": false,
      "normalized": false,
      "special": true
    },
    {
      "id": 74,
      "content": "<0x43>",
      "single_word": false,
      "lstrip": false,
      "rstrip": false,
      "normalized": false,
      "special": true
    },
    {
      "id": 75,
      "content": "<0x44>",
      "single_word": false,
      "lstrip": false,
      "rstrip": false,
      "normalized": false,
      "special": true
    },
    {
      "id": 76,
      "content": "<0x45>",
      "single_word": false,
      "lstrip": false,
      "rstrip": false,
      "normalized": false,
      "special": true
    },
    {
      "id": 77,
      "content": "<0x46>",
      "single_word": false,
      "lstrip": false,
      "rstrip": false,
      "normalized": false,
      "special": true
    },
    {
      "id": 78,
      "content": "<0x47>",
      "single_word": false,
      "lstrip": false,
      "rstrip": false,
      "normalized": false,
      "special": true
    },
    {
      "id": 79,
      "content": "<0x48>",
      "single_word": false,
      "lstrip": false,
      "rstrip": false,
      "normalized": false,
      "special": true
    },
    {
      "id": 80,
      "content": "<0x49>",
      "single_word": false,
      "lstrip": false,
      "rstrip": false,
      "normalized": false,
      "special": true
    },
    {
      "id": 81,
      "content": "<0x4A>",
      "single_word": false,
      "lstrip": false,
      "rstrip": false,
      "normalized": false,
      "special": true
    },
    {
      "id": 82,
      "content": "<0x4B>",
      "single_word": false,
      "lstrip": false,
      "rstrip": false,
      "normalized": false,
      "special": true
    },
    {
      "id": 83,
      "content": "<0x4C>",
      "single_word": false,
      "lstrip": false,
      "rstrip": false,
      "normalized": false,
      "special": true
    },
    {
      "id": 84,
      "content": "<0x4D>",
      "single_word": false,
      "lstrip": false,
      "rstrip": false,
      "normalized": false,
      "special": true
    },
    {
      "id": 85,
      "content": "<0x4E>",
      "single_word": false,
      "lstrip": false,
      "rstrip": false,
      "normalized": false,
      "special": true
    },
    {
      "id": 86,
      "content": "<0x4F>",
      "single_word": false,
      "lstrip": false,
      "rstrip": false,
      "normalized": false,
      "special": true
    },
    {
      "id": 87,
      "content": "<0x50>",
      "single_word": false,
      "lstrip": false,
      "rstrip": false,
      "normalized": false,
      "special": true
    },
    {
      "id": 88,
      "content": "<0x51>",
      "single_word": false,
      "lstrip": false,
      "rstrip": false,
      "normalized": false,
      "special": true
    },
    {
      "id": 89,
      "content": "<0x52>",
      "single_word": false,
      "lstrip": false,
      "rstrip": false,
      "normalized": false,
      "special": true
    },
    {
      "id": 90,
      "content": "<0x53>",
      "single_word": false,
      "lstrip": false,
      "rstrip": false,
      "normalized": false,
      "special": true
    },
    {
      "id": 91,
      "content": "<0x54>",
      "single_word": false,
      "lstrip": false,
      "rstrip": false,
      "normalized": false,
      "special": true
    },
    {
      "id": 92,
      "content": "<0x55>",
      "single_word": false,
      "lstrip": false,
      "rstrip": false,
      "normalized": false,
      "special": true
    },
    {
      "id": 93,
      "content": "<0x56>",
      "single_word": false,
      "lstrip": false,
      "rstrip": false,
      "normalized": false,
      "special": true
    },
    {
      "id": 94,
      "content": "<0x57>",
      "single_word": false,
      "lstrip": false,
      "rstrip": false,
      "normalized": false,
      "special": true
    },
    {
      "id": 95,
      "content": "<0x58>",
      "single_word": false,
      "lstrip": false,
      "rstrip": false,
      "normalized": false,
      "special": true
    },
    {
      "id": 96,
      "content": "<0x59>",
      "single_word": false,
      "lstrip": false,
      "rstrip": false,
      "normalized": false,
      "special": true
    },
    {
      "id": 97,
      "content": "<0x5A>",
      "single_word": false,
      "lstrip": false,
      "rstrip": false,
      "normalized": false,
      "special": true
    },
    {
      "id": 98,
      "content": "<0x5B>",
      "single_word": false,
      "lstrip": false,
      "rstrip": false,
      "normalized": false,
      "special": true
    },
    {
      "id": 99,
      "content": "<0x5C>",
      "single_word": false,
      "lstrip": false,
      "rstrip": false,
      "normalized": false,
      "special": true
    },
    {
      "id": 100,
      "content": "<0x5D>",
      "single_word": false,
      "lstrip": false,
      "rstrip": false,
      "normalized": false,
      "special": true
    },
    {
      "id": 101,
      "content": "<0x5E>",
      "single_word": false,
      "lstrip": false,
      "rstrip": false,
      "normalized": false,
      "special": true
    },
    {
      "id": 102,
      "content": "<0x5F>",
      "single_word": false,
      "lstrip": false,
      "rstrip": false,
      "normalized": false,
      "special": true
    },
    {
      "id": 103,
      "content": "<0x60>",
      "single_word": false,
      "lstrip": false,
      "rstrip": false,
      "normalized": false,
      "special": true
    },
    {
      "id": 104,
      "content": "<0x61>",
      "single_word": false,
      "lstrip": false,
      "rstrip": false,
      "normalized": false,
      "special": true
    },
    {
      "id": 105,
      "content": "<0x62>",
      "single_word": false,
      "lstrip": false,
      "rstrip": false,
      "normalized": false,
      "special": true
    },
    {
      "id": 106,
      "content": "<0x63>",
      "single_word": false,
      "lstrip": false,
      "rstrip": false,
      "normalized": false,
      "special": true
    },
    {
      "id": 107,
      "content": "<0x64>",
      "single_word": false,
      "lstrip": false,
      "rstrip": false,
      "normalized": false,
      "special": true
    },
    {
      "id": 108,
      "content": "<0x65>",
      "single_word": false,
      "lstrip": false,
      "rstrip": false,
      "normalized": false,
      "special": true
    },
    {
      "id": 109,
      "content": "<0x66>",
      "single_word": false,
      "lstrip": false,
      "rstrip": false,
      "normalized": false,
      "special": true
    },
    {
      "id": 110,
      "content": "<0x67>",
      "single_word": false,
      "lstrip": false,
      "rstrip": false,
      "normalized": false,
      "special": true
    },
    {
      "id": 111,
      "content": "<0x68>",
      "single_word": false,
      "lstrip": false,
      "rstrip": false,
      "normalized": false,
      "special": true
    },
    {
      "id": 112,
      "content": "<0x69>",
      "single_word": false,
      "lstrip": false,
      "rstrip": false,
      "normalized": false,
      "special": true
    },
    {
      "id": 113,
      "content": "<0x6A>",
      "single_word": false,
      "lstrip": false,
      "rstrip": false,
      "normalized": false,
      "special": true
    },
    {
      "id": 114,
      "content": "<0x6B>",
      "single_word": false,
      "lstrip": false,
      "rstrip": false,
      "normalized": false,
      "special": true
    },
    {
      "id": 115,
      "content": "<0x6C>",
      "single_word": false,
      "lstrip": false,
      "rstrip": false,
      "normalized": false,
      "special": true
    },
    {
      "id": 116,
      "content": "<0x6D>",
      "single_word": false,
      "lstrip": false,
      "rstrip": false,
      "normalized": false,
      "special": true
    },
    {
      "id": 117,
      "content": "<0x6E>",
      "single_word": false,
      "lstrip": false,
      "rstrip": false,
      "normalized": false,
      "special": true
    },
    {
      "id": 118,
      "content": "<0x6F>",
      "single_word": false,
      "lstrip": false,
      "rstrip": false,
      "normalized": false,
      "special": true
    },
    {
      "id": 119,
      "content": "<0x70>",
      "single_word": false,
      "lstrip": false,
      "rstrip": false,
      "normalized": false,
      "special": true
    },
    {
      "id": 120,
      "content": "<0x71>",
      "single_word": false,
      "lstrip": false,
      "rstrip": false,
      "normalized": false,
      "special": true
    },
    {
      "id": 121,
      "content": "<0x72>",
      "single_word": false,
      "lstrip": false,
      "rstrip": false,
      "normalized": false,
      "special": true
    },
    {
      "id": 122,
      "content": "<0x73>",
      "single_word": false,
      "lstrip": false,
      "rstrip": false,
      "normalized": false,
      "special": true
    },
    {
      "id": 123,
      "content": "<0x74>",
      "single_word": false,
      "lstrip": false,
      "rstrip": false,
      "normalized": false,
      "special": true
    },
    {
      "id": 124,
      "content": "<0x75>",
      "single_word": false,
      "lstrip": false,
      "rstrip": false,
      "normalized": false,
      "special": true
    },
    {
      "id": 125,
      "content": "<0x76>",
      "single_word": false,
      "lstrip": false,
      "rstrip": false,
      "normalized": false,
      "special": true
    },
    {
      "id": 126,
      "content": "<0x77>",
      "single_word": false,
      "lstrip": false,
      "rstrip": false,
      "normalized": false,
      "special": true
    },
    {
      "id": 127,
      "content": "<0x78>",
      "single_word": false,
      "lstrip": false,
      "rstrip": false,
      "normalized": false,
      "special": true
    },
    {
      "id": 128,
      "content": "<0x79>",
      "single_word": false,
      "lstrip": false,
      "rstrip": false,
      "normalized": false,
      "special": true
    },
    {
      "id": 129,
      "content": "<0x7A>",
      "single_word": false,
      "lstrip": false,
      "rstrip": false,
      "normalized": false,
      "special": true
    },
    {
      "id": 130,
      "content": "<0x7B>",
      "single_word": false,
      "lstrip": false,
      "rstrip": false,
      "normalized": false,
      "special": true
    },
    {
      "id": 131,
      "content": "<0x7C>",
      "single_word": false,
      "lstrip": false,
      "rstrip": false,
      "normalized": false,
      "special": true
    },
    {
      "id": 132,
      "content": "<0x7D>",
      "single_word": false,
      "lstrip": false,
      "rstrip": false,
      "normalized": false,
      "special": true
    },
    {
      "id": 133,
      "content": "<0x7E>",
      "single_word": false,
      "lstrip": false,
      "rstrip": false,
      "normalized": false,
      "special": true
    },
    {
      "id": 134,
      "content": "<0x7F>",
      "single_word": false,
      "lstrip": false,
      "rstrip": false,
      "normalized": false,
      "special": true
    },
    {
      "id": 135,
      "content": "<0x80>",
      "single_word": false,
      "lstrip": false,
      "rstrip": false,
      "normalized": false,
      "special": true
    },
    {
      "id": 136,
      "content": "<0x81>",
      "single_word": false,
      "lstrip": false,
      "rstrip": false,
      "normalized": false,
      "special": true
    },
    {
      "id": 137,
      "content": "<0x82>",
      "single_word": false,
      "lstrip": false,
      "rstrip": false,
      "normalized": false,
      "special": true
    },
    {
      "id": 138,
      "content": "<0x83>",
      "single_word": false,
      "lstrip": false,
      "rstrip": false,
      "normalized": false,
      "special": true
    },
    {
      "id": 139,
      "content": "<0x84>",
      "single_word": false,
      "lstrip": false,
      "rstrip": false,
      "normalized": false,
      "special": true
    },
    {
      "id": 140,
      "content": "<0x85>",
      "single_word": false,
      "lstrip": false,
      "rstrip": false,
      "normalized": false,
      "special": true
    },
    {
      "id": 141,
      "content": "<0x86>",
      "single_word": false,
      "lstrip": false,
      "rstrip": false,
      "normalized": false,
      "special": true
    },
    {
      "id": 142,
      "content": "<0x87>",
      "single_word": false,
      "lstrip": false,
      "rstrip": false,
      "normalized": false,
      "special": true
    },
    {
      "id": 143,
      "content": "<0x88>",
      "single_word": false,
      "lstrip": false,
      "rstrip": false,
      "normalized": false,
      "special": true
    },
    {
      "id": 144,
      "content": "<0x89>",
      "single_word": false,
      "lstrip": false,
      "rstrip": false,
      "normalized": false,
      "special": true
    },
    {
      "id": 145,
      "content": "<0x8A>",
      "single_word": false,
      "lstrip": false,
      "rstrip": false,
      "normalized": false,
      "special": true
    },
    {
      "id": 146,
      "content": "<0x8B>",
      "single_word": false,
      "lstrip": false,
      "rstrip": false,
      "normalized": false,
      "special": true
    },
    {
      "id": 147,
      "content": "<0x8C>",
      "single_word": false,
      "lstrip": false,
      "rstrip": false,
      "normalized": false,
      "special": true
    },
    {
      "id": 148,
      "content": "<0x8D>",
      "single_word": false,
      "lstrip": false,
      "rstrip": false,
      "normalized": false,
      "special": true
    },
    {
      "id": 149,
      "content": "<0x8E>",
      "single_word": false,
      "lstrip": false,
      "rstrip": false,
      "normalized": false,
      "special": true
    },
    {
      "id": 150,
      "content": "<0x8F>",
      "single_word": false,
      "lstrip": false,
      "rstrip": false,
      "normalized": false,
      "special": true
    },
    {
      "id": 151,
      "content": "<0x90>",
      "single_word": false,
      "lstrip": false,
      "rstrip": false,
      "normalized": false,
      "special": true
    },
    {
      "id": 152,
      "content": "<0x91>",
      "single_word": false,
      "lstrip": false,
      "rstrip": false,
      "normalized": false,
      "special": true
    },
    {
      "id": 153,
      "content": "<0x92>",
      "single_word": false,
      "lstrip": false,
      "rstrip": false,
      "normalized": false,
      "special": true
    },
    {
      "id": 154,
      "content": "<0x93>",
      "single_word": false,
      "lstrip": false,
      "rstrip": false,
      "normalized": false,
      "special": true
    },
    {
      "id": 155,
      "content": "<0x94>",
      "single_word": false,
      "lstrip": false,
      "rstrip": false,
      "normalized": false,
      "special": true
    },
    {
      "id": 156,
      "content": "<0x95>",
      "single_word": false,
      "lstrip": false,
      "rstrip": false,
      "normalized": false,
      "special": true
    },
    {
      "id": 157,
      "content": "<0x96>",
      "single_word": false,
      "lstrip": false,
      "rstrip": false,
      "normalized": false,
      "special": true
    },
    {
      "id": 158,
      "content": "<0x97>",
      "single_word": false,
      "lstrip": false,
      "rstrip": false,
      "normalized": false,
      "special": true
    },
    {
      "id": 159,
      "content": "<0x98>",
      "single_word": false,
      "lstrip": false,
      "rstrip": false,
      "normalized": false,
      "special": true
    },
    {
      "id": 160,
      "content": "<0x99>",
      "single_word": false,
      "lstrip": false,
      "rstrip": false,
      "normalized": false,
      "special": true
    },
    {
      "id": 161,
      "content": "<0x9A>",
      "single_word": false,
      "lstrip": false,
      "rstrip": false,
      "normalized": false,
      "special": true
    },
    {
      "id": 162,
      "content": "<0x9B>",
      "single_word": false,
      "lstrip": false,
      "rstrip": false,
      "normalized": false,
      "special": true
    },
    {
      "id": 163,
      "content": "<0x9C>",
      "single_word": false,
      "lstrip": false,
      "rstrip": false,
      "normalized": false,
      "special": true
    },
    {
      "id": 164,
      "content": "<0x9D>",
      "single_word": false,
      "lstrip": false,
      "rstrip": false,
      "normalized": false,
      "special": true
    },
    {
      "id": 165,
      "content": "<0x9E>",
      "single_word": false,
      "lstrip": false,
      "rstrip": false,
      "normalized": false,
      "special": true
    },
    {
      "id": 166,
      "content": "<0x9F>",
      "single_word": false,
      "lstrip": false,
      "rstrip": false,
      "normalized": false,
      "special": true
    },
    {
      "id": 167,
      "content": "<0xA0>",
      "single_word": false,
      "lstrip": false,
      "rstrip": false,
      "normalized": false,
      "special": true
    },
    {
      "id": 168,
      "content": "<0xA1>",
      "single_word": false,
      "lstrip": false,
      "rstrip": false,
      "normalized": false,
      "special": true
    },
    {
      "id": 169,
      "content": "<0xA2>",
      "single_word": false,
      "lstrip": false,
      "rstrip": false,
      "normalized": false,
      "special": true
    },
    {
      "id": 170,
      "content": "<0xA3>",
      "single_word": false,
      "lstrip": false,
      "rstrip": false,
      "normalized": false,
      "special": true
    },
    {
      "id": 171,
      "content": "<0xA4>",
      "single_word": false,
      "lstrip": false,
      "rstrip": false,
      "normalized": false,
      "special": true
    },
    {
      "id": 172,
      "content": "<0xA5>",
      "single_word": false,
      "lstrip": false,
      "rstrip": false,
      "normalized": false,
      "special": true
    },
    {
      "id": 173,
      "content": "<0xA6>",
      "single_word": false,
      "lstrip": false,
      "rstrip": false,
      "normalized": false,
      "special": true
    },
    {
      "id": 174,
      "content": "<0xA7>",
      "single_word": false,
      "lstrip": false,
      "rstrip": false,
      "normalized": false,
      "special": true
    },
    {
      "id": 175,
      "content": "<0xA8>",
      "single_word": false,
      "lstrip": false,
      "rstrip": false,
      "normalized": false,
      "special": true
    },
    {
      "id": 176,
      "content": "<0xA9>",
      "single_word": false,
      "lstrip": false,
      "rstrip": false,
      "normalized": false,
      "special": true
    },
    {
      "id": 177,
      "content": "<0xAA>",
      "single_word": false,
      "lstrip": false,
      "rstrip": false,
      "normalized": false,
      "special": true
    },
    {
      "id": 178,
      "content": "<0xAB>",
      "single_word": false,
      "lstrip": false,
      "rstrip": false,
      "normalized": false,
      "special": true
    },
    {
      "id": 179,
      "content": "<0xAC>",
      "single_word": false,
      "lstrip": false,
      "rstrip": false,
      "normalized": false,
      "special": true
    },
    {
      "id": 180,
      "content": "<0xAD>",
      "single_word": false,
      "lstrip": false,
      "rstrip": false,
      "normalized": false,
      "special": true
    },
    {
      "id": 181,
      "content": "<0xAE>",
      "single_word": false,
      "lstrip": false,
      "rstrip": false,
      "normalized": false,
      "special": true
    },
    {
      "id": 182,
      "content": "<0xAF>",
      "single_word": false,
      "lstrip": false,
      "rstrip": false,
      "normalized": false,
      "special": true
    },
    {
      "id": 183,
      "content": "<0xB0>",
      "single_word": false,
      "lstrip": false,
      "rstrip": false,
      "normalized": false,
      "special": true
    },
    {
      "id": 184,
      "content": "<0xB1>",
      "single_word": false,
      "lstrip": false,
      "rstrip": false,
      "normalized": false,
      "special": true
    },
    {
      "id": 185,
      "content": "<0xB2>",
      "single_word": false,
      "lstrip": false,
      "rstrip": false,
      "normalized": false,
      "special": true
    },
    {
      "id": 186,
      "content": "<0xB3>",
      "single_word": false,
      "lstrip": false,
      "rstrip": false,
      "normalized": false,
      "special": true
    },
    {
      "id": 187,
      "content": "<0xB4>",
      "single_word": false,
      "lstrip": false,
      "rstrip": false,
      "normalized": false,
      "special": true
    },
    {
      "id": 188,
      "content": "<0xB5>",
      "single_word": false,
      "lstrip": false,
      "rstrip": false,
      "normalized": false,
      "special": true
    },
    {
      "id": 189,
      "content": "<0xB6>",
      "single_word": false,
      "lstrip": false,
      "rstrip": false,
      "normalized": false,
      "special": true
    },
    {
      "id": 190,
      "content": "<0xB7>",
      "single_word": false,
      "lstrip": false,
      "rstrip": false,
      "normalized": false,
      "special": true
    },
    {
      "id": 191,
      "content": "<0xB8>",
      "single_word": false,
      "lstrip": false,
      "rstrip": false,
      "normalized": false,
      "special": true
    },
    {
      "id": 192,
      "content": "<0xB9>",
      "single_word": false,
      "lstrip": false,
      "rstrip": false,
      "normalized": false,
      "special": true
    },
    {
      "id": 193,
      "content": "<0xBA>",
      "single_word": false,
      "lstrip": false,
      "rstrip": false,
      "normalized": false,
      "special": true
    },
    {
      "id": 194,
      "content": "<0xBB>",
      "single_word": false,
      "lstrip": false,
      "rstrip": false,
      "normalized": false,
      "special": true
    },
    {
      "id": 195,
      "content": "<0xBC>",
      "single_word": false,
      "lstrip": false,
      "rstrip": false,
      "normalized": false,
      "special": true
    },
    {
      "id": 196,
      "content": "<0xBD>",
      "single_word": false,
      "lstrip": false,
      "rstrip": false,
      "normalized": false,
      "special": true
    },
    {
      "id": 197,
      "content": "<0xBE>",
      "single_word": false,
      "lstrip": false,
      "rstrip": false,
      "normalized": false,
      "special": true
    },
    {
      "id": 198,
      "content": "<0xBF>",
      "single_word": false,
      "lstrip": false,
      "rstrip": false,
      "normalized": false,
      "special": true
    },
    {
      "id": 199,
      "content": "<0xC0>",
      "single_word": false,
      "lstrip": false,
      "rstrip": false,
      "normalized": false,
      "special": true
    },
    {
      "id": 200,
      "content": "<0xC1>",
      "single_word": false,
      "lstrip": false,
      "rstrip": false,
      "normalized": false,
      "special": true
    },
    {
      "id": 201,
      "content": "<0xC2>",
      "single_word": false,
      "lstrip": false,
      "rstrip": false,
      "normalized": false,
      "special": true
    },
    {
      "id": 202,
      "content": "<0xC3>",
      "single_word": false,
      "lstrip": false,
      "rstrip": false,
      "normalized": false,
      "special": true
    },
    {
      "id": 203,
      "content": "<0xC4>",
      "single_word": false,
      "lstrip": false,
      "rstrip": false,
      "normalized": false,
      "special": true
    },
    {
      "id": 204,
      "content": "<0xC5>",
      "single_word": false,
      "lstrip": false,
      "rstrip": false,
      "normalized": false,
      "special": true
    },
    {
      "id": 205,
      "content": "<0xC6>",
      "single_word": false,
      "lstrip": false,
      "rstrip": false,
      "normalized": false,
      "special": true
    },
    {
      "id": 206,
      "content": "<0xC7>",
      "single_word": false,
      "lstrip": false,
      "rstrip": false,
      "normalized": false,
      "special": true
    },
    {
      "id": 207,
      "content": "<0xC8>",
      "single_word": false,
      "lstrip": false,
      "rstrip": false,
      "normalized": false,
      "special": true
    },
    {
      "id": 208,
      "content": "<0xC9>",
      "single_word": false,
      "lstrip": false,
      "rstrip": false,
      "normalized": false,
      "special": true
    },
    {
      "id": 209,
      "content": "<0xCA>",
      "single_word": false,
      "lstrip": false,
      "rstrip": false,
      "normalized": false,
      "special": true
    },
    {
      "id": 210,
      "content": "<0xCB>",
      "single_word": false,
      "lstrip": false,
      "rstrip": false,
      "normalized": false,
      "special": true
    },
    {
      "id": 211,
      "content": "<0xCC>",
      "single_word": false,
      "lstrip": false,
      "rstrip": false,
      "normalized": false,
      "special": true
    },
    {
      "id": 212,
      "content": "<0xCD>",
      "single_word": false,
      "lstrip": false,
      "rstrip": false,
      "normalized": false,
      "special": true
    },
    {
      "id": 213,
      "content": "<0xCE>",
      "single_word": false,
      "lstrip": false,
      "rstrip": false,
      "normalized": false,
      "special": true
    },
    {
      "id": 214,
      "content": "<0xCF>",
      "single_word": false,
      "lstrip": false,
      "rstrip": false,
      "normalized": false,
      "special": true
    },
    {
      "id": 215,
      "content": "<0xD0>",
      "single_word": false,
      "lstrip": false,
      "rstrip": false,
      "normalized": false,
      "special": true
    },
    {
      "id": 216,
      "content": "<0xD1>",
      "single_word": false,
      "lstrip": false,
      "rstrip": false,
      "normalized": false,
      "special": true
    },
    {
      "id": 217,
      "content": "<0xD2>",
      "single_word": false,
      "lstrip": false,
      "rstrip": false,
      "normalized": false,
      "special": true
    },
    {
      "id": 218,
      "content": "<0xD3>",
      "single_word": false,
      "lstrip": false,
      "rstrip": false,
      "normalized": false,
      "special": true
    },
    {
      "id": 219,
      "content": "<0xD4>",
      "single_word": false,
      "lstrip": false,
      "rstrip": false,
      "normalized": false,
      "special": true
    },
    {
      "id": 220,
      "content": "<0xD5>",
      "single_word": false,
      "lstrip": false,
      "rstrip": false,
      "normalized": false,
      "special": true
    },
    {
      "id": 221,
      "content": "<0xD6>",
      "single_word": false,
      "lstrip": false,
      "rstrip": false,
      "normalized": false,
      "special": true
    },
    {
      "id": 222,
      "content": "<0xD7>",
      "single_word": false,
      "lstrip": false,
      "rstrip": false,
      "normalized": false,
      "special": true
    },
    {
      "id": 223,
      "content": "<0xD8>",
      "single_word": false,
      "lstrip": false,
      "rstrip": false,
      "normalized": false,
      "special": true
    },
    {
      "id": 224,
      "content": "<0xD9>",
      "single_word": false,
      "lstrip": false,
      "rstrip": false,
      "normalized": false,
      "special": true
    },
    {
      "id": 225,
      "content": "<0xDA>",
      "single_word": false,
      "lstrip": false,
      "rstrip": false,
      "normalized": false,
      "special": true
    },
    {
      "id": 226,
      "content": "<0xDB>",
      "single_word": false,
      "lstrip": false,
      "rstrip": false,
      "normalized": false,
      "special": true
    },
    {
      "id": 227,
      "content": "<0xDC>",
      "single_word": false,
      "lstrip": false,
      "rstrip": false,
      "normalized": false,
      "special": true
    },
    {
      "id": 228,
      "content": "<0xDD>",
      "single_word": false,
      "lstrip": false,
      "rstrip": false,
      "normalized": false,
      "special": true
    },
    {
      "id": 229,
      "content": "<0xDE>",
      "single_word": false,
      "lstrip": false,
      "rstrip": false,
      "normalized": false,
      "special": true
    },
    {
      "id": 230,
      "content": "<0xDF>",
      "single_word": false,
      "lstrip": false,
      "rstrip": false,
      "normalized": false,
      "special": true
    },
    {
      "id": 231,
      "content": "<0xE0>",
      "single_word": false,
      "lstrip": false,
      "rstrip": false,
      "normalized": false,
      "special": true
    },
    {
      "id": 232,
      "content": "<0xE1>",
      "single_word": false,
      "lstrip": false,
      "rstrip": false,
      "normalized": false,
      "special": true
    },
    {
      "id": 233,
      "content": "<0xE2>",
      "single_word": false,
      "lstrip": false,
      "rstrip": false,
      "normalized": false,
      "special": true
    },
    {
      "id": 234,
      "content": "<0xE3>",
      "single_word": false,
      "lstrip": false,
      "rstrip": false,
      "normalized": false,
      "special": true
    },
    {
      "id": 235,
      "content": "<0xE4>",
      "single_word": false,
      "lstrip": false,
      "rstrip": false,
      "normalized": false,
      "special": true
    },
    {
      "id": 236,
      "content": "<0xE5>",
      "single_word": false,
      "lstrip": false,
      "rstrip": false,
      "normalized": false,
      "special": true
    },
    {
      "id": 237,
      "content": "<0xE6>",
      "single_word": false,
      "lstrip": false,
      "rstrip": false,
      "normalized": false,
      "special": true
    },
    {
      "id": 238,
      "content": "<0xE7>",
      "single_word": false,
      "lstrip": false,
      "rstrip": false,
      "normalized": false,
      "special": true
    },
    {
      "id": 239,
      "content": "<0xE8>",
      "single_word": false,
      "lstrip": false,
      "rstrip": false,
      "normalized": false,
      "special": true
    },
    {
      "id": 240,
      "content": "<0xE9>",
      "single_word": false,
      "lstrip": false,
      "rstrip": false,
      "normalized": false,
      "special": true
    },
    {
      "id": 241,
      "content": "<0xEA>",
      "single_word": false,
      "lstrip": false,
      "rstrip": false,
      "normalized": false,
      "special": true
    },
    {
      "id": 242,
      "content": "<0xEB>",
      "single_word": false,
      "lstrip": false,
      "rstrip": false,
      "normalized": false,
      "special": true
    },
    {
      "id": 243,
      "content": "<0xEC>",
      "single_word": false,
      "lstrip": false,
      "rstrip": false,
      "normalized": false,
      "special": true
    },
    {
      "id": 244,
      "content": "<0xED>",
      "single_word": false,
      "lstrip": false,
      "rstrip": false,
      "normalized": false,
      "special": true
    },
    {
      "id": 245,
      "content": "<0xEE>",
      "single_word": false,
      "lstrip": false,
      "rstrip": false,
      "normalized": false,
      "special": true
    },
    {
      "id": 246,
      "content": "<0xEF>",
      "single_word": false,
      "lstrip": false,
      "rstrip": false,
      "normalized": false,
      "special": true
    },
    {
      "id": 247,
      "content": "<0xF0>",
      "single_word": false,
      "lstrip": false,
      "rstrip": false,
      "normalized": false,
      "special": true
    },
    {
      "id": 248,
      "content": "<0xF1>",
      "single_word": false,
      "lstrip": false,
      "rstrip": false,
      "normalized": false,
      "special": true
    },
    {
      "id": 249,
      "content": "<0xF2>",
      "single_word": false,
      "lstrip": false,
      "rstrip": false,
      "normalized": false,
      "special": true
    },
    {
      "id": 250,
      "content": "<0xF3>",
      "single_word": false,
      "lstrip": false,
      "rstrip": false,
      "normalized": false,
      "special": true
    },
    {
      "id": 251,
      "content": "<0xF4>",
      "single_word": false,
      "lstrip": false,
      "rstrip": false,
      "normalized": false,
      "special": true
    },
    {
      "id": 252,
      "content": "<0xF5>",
      "single_word": false,
      "lstrip": false,
      "rstrip": false,
      "normalized": false,
      "special": true
    },
    {
      "id": 253,
      "content": "<0xF6>",
      "single_word": false,
      "lstrip": false,
      "rstrip": false,
      "normalized": false,
      "special": true
    },
    {
      "id": 254,
      "content": "<0xF7>",
      "single_word": false,
      "lstrip": false,
      "rstrip": false,
      "normalized": false,
      "special": true
    },
    {
      "id": 255,
      "content": "<0xF8>",
      "single_word": false,
      "lstrip": false,
      "rstrip": false,
      "normalized": false,
      "special": true
    },
    {
      "id": 256,
      "content": "<0xF9>",
      "single_word": false,
      "lstrip": false,
      "rstrip": false,
      "normalized": false,
      "special": true
    },
    {
      "id": 257,
      "content": "<0xFA>",
      "single_word": false,
      "lstrip": false,
      "rstrip": false,
      "normalized": false,
      "special": true
    },
    {
      "id": 258,
      "content": "<0xFB>",
      "single_word": false,
      "lstrip": false,
      "rstrip": false,
      "normalized": false,
      "special": true
    },
    {
      "id": 259,
      "content": "<0xFC>",
      "single_word": false,
      "lstrip": false,
      "rstrip": false,
      "normalized": false,
      "special": true
    },
    {
      "id": 260,
      "content": "<0xFD>",
      "single_word": false,
      "lstrip": false,
      "rstrip": false,
      "normalized": false,
      "special": true
    },
    {
      "id": 261,
      "content": "<0xFE>",
      "single_word": false,
      "lstrip": false,
      "rstrip": false,
      "normalized": false,
      "special": true
    },
    {
      "id": 262,
      "content": "<0xFF>",
      "single_word": false,
      "lstrip": false,
      "rstrip": false,
      "normalized": false,
      "special": true
    }
  ],
  "normalizer": {
    "type": "Sequence",
    "normalizers": [
      {
        "type": "NFC"
      },
      {
        "type": "Replace",
        "pattern": {
          "String": "\n"
        },
        "content": ""
      },
      {
        "type": "Replace",
        "pattern": {
          "String": "—"
        },
        "content": "-"
      },
      {
        "type": "Replace",
        "pattern": {
          "Regex": "[\\u064B\\u064C\\u064D\\u064E\\u065E\\u064F\\u0650\\u0651\\u0652]"
        },
        "content": ""
      },
      {
        "type": "Replace",
        "pattern": {
          "Regex": "[“”«»]"
        },
        "content": "\""
      },
      {
        "type": "Replace",
        "pattern": {
          "Regex": "[’’‘]"
        },
        "content": "'"
      }
    ]
  },
  "pre_tokenizer": {
    "type": "Whitespace"
  },
  "post_processor": {
    "type": "TemplateProcessing",
    "single": [
      {
        "Sequence": {
          "id": "A",
          "type_id": 0
        }
      }
    ],
    "pair": [
      {
        "Sequence": {
          "id": "A",
          "type_id": 0
        }
      },
      {
        "Sequence": {
          "id": "B",
          "type_id": 1
        }
      }
    ],
    "special_tokens": {}
  },
  "decoder": {
    "type": "Sequence",
    "decoders": [
      {
        "type": "ByteFallback"
      },
      {
        "type": "BPEDecoder",
        "suffix": ""
      },
      {
        "type": "Replace",
        "pattern": {
          "String": ""
        },
        "content": "\n"
      }
    ]
  },
  "model": {
    "type": "BPE",
    "dropout": null,
    "unk_token": "<UNK>",
    "continuing_subword_prefix": null,
    "end_of_word_suffix": "",
    "fuse_unk": false,
    "byte_fallback": true,
    "ignore_merges": false,
    "vocab": {
      "<UNK>": 0,
      "": 1,
      "<PAD>": 2,
      "<BOS>": 3,
      "<EOS>": 4,
      "<SEP>": 5,
      "<MASK>": 6,
      "<0x00>": 7,
      "<0x01>": 8,
      "<0x02>": 9,
      "<0x03>": 10,
      "<0x04>": 11,
      "<0x05>": 12,
      "<0x06>": 13,
      "<0x07>": 14,
      "<0x08>": 15,
      "<0x09>": 16,
      "<0x0A>": 17,
      "<0x0B>": 18,
      "<0x0C>": 19,
      "<0x0D>": 20,
      "<0x0E>": 21,
      "<0x0F>": 22,
      "<0x10>": 23,
      "<0x11>": 24,
      "<0x12>": 25,
      "<0x13>": 26,
      "<0x14>": 27,
      "<0x15>": 28,
      "<0x16>": 29,
      "<0x17>": 30,
      "<0x18>": 31,
      "<0x19>": 32,
      "<0x1A>": 33,
      "<0x1B>": 34,
      "<0x1C>": 35,
      "<0x1D>": 36,
      "<0x1E>": 37,
      "<0x1F>": 38,
      "<0x20>": 39,
      "<0x21>": 40,
      "<0x22>": 41,
      "<0x23>": 42,
      "<0x24>": 43,
      "<0x25>": 44,
      "<0x26>": 45,
      "<0x27>": 46,
      "<0x28>": 47,
      "<0x29>": 48,
      "<0x2A>": 49,
      "<0x2B>": 50,
      "<0x2C>": 51,
      "<0x2D>": 52,
      "<0x2E>": 53,
      "<0x2F>": 54,
      "<0x30>": 55,
      "<0x31>": 56,
      "<0x32>": 57,
      "<0x33>": 58,
      "<0x34>": 59,
      "<0x35>": 60,
      "<0x36>": 61,
      "<0x37>": 62,
      "<0x38>": 63,
      "<0x39>": 64,
      "<0x3A>": 65,
      "<0x3B>": 66,
      "<0x3C>": 67,
      "<0x3D>": 68,
      "<0x3E>": 69,
      "<0x3F>": 70,
      "<0x40>": 71,
      "<0x41>": 72,
      "<0x42>": 73,
      "<0x43>": 74,
      "<0x44>": 75,
      "<0x45>": 76,
      "<0x46>": 77,
      "<0x47>": 78,
      "<0x48>": 79,
      "<0x49>": 80,
      "<0x4A>": 81,
      "<0x4B>": 82,
      "<0x4C>": 83,
      "<0x4D>": 84,
      "<0x4E>": 85,
      "<0x4F>": 86,
      "<0x50>": 87,
      "<0x51>": 88,
      "<0x52>": 89,
      "<0x53>": 90,
      "<0x54>": 91,
      "<0x55>": 92,
      "<0x56>": 93,
      "<0x57>": 94,
      "<0x58>": 95,
      "<0x59>": 96,
      "<0x5A>": 97,
      "<0x5B>": 98,
      "<0x5C>": 99,
      "<0x5D>": 100,
      "<0x5E>": 101,
      "<0x5F>": 102,
      "<0x60>": 103,
      "<0x61>": 104,
      "<0x62>": 105,
      "<0x63>": 106,
      "<0x64>": 107,
      "<0x65>": 108,
      "<0x66>": 109,
      "<0x67>": 110,
      "<0x68>": 111,
      "<0x69>": 112,
      "<0x6A>": 113,
      "<0x6B>": 114,
      "<0x6C>": 115,
      "<0x6D>": 116,
      "<0x6E>": 117,
      "<0x6F>": 118,
      "<0x70>": 119,
      "<0x71>": 120,
      "<0x72>": 121,
      "<0x73>": 122,
      "<0x74>": 123,
      "<0x75>": 124,
      "<0x76>": 125,
      "<0x77>": 126,
      "<0x78>": 127,
      "<0x79>": 128,
      "<0x7A>": 129,
      "<0x7B>": 130,
      "<0x7C>": 131,
      "<0x7D>": 132,
      "<0x7E>": 133,
      "<0x7F>": 134,
      "<0x80>": 135,
      "<0x81>": 136,
      "<0x82>": 137,
      "<0x83>": 138,
      "<0x84>": 139,
      "<0x85>": 140,
      "<0x86>": 141,
      "<0x87>": 142,
      "<0x88>": 143,
      "<0x89>": 144,
      "<0x8A>": 145,
      "<0x8B>": 146,
      "<0x8C>": 147,
      "<0x8D>": 148,
      "<0x8E>": 149,
      "<0x8F>": 150,
      "<0x90>": 151,
      "<0x91>": 152,
      "<0x92>": 153,
      "<0x93>": 154,
      "<0x94>": 155,
      "<0x95>": 156,
      "<0x96>": 157,
      "<0x97>": 158,
      "<0x98>": 159,
      "<0x99>": 160,
      "<0x9A>": 161,
      "<0x9B>": 162,
      "<0x9C>": 163,
      "<0x9D>": 164,
      "<0x9E>": 165,
      "<0x9F>": 166,
      "<0xA0>": 167,
      "<0xA1>": 168,
      "<0xA2>": 169,
      "<0xA3>": 170,
      "<0xA4>": 171,
      "<0xA5>": 172,
      "<0xA6>": 173,
      "<0xA7>": 174,
      "<0xA8>": 175,
      "<0xA9>": 176,
      "<0xAA>": 177,
      "<0xAB>": 178,
      "<0xAC>": 179,
      "<0xAD>": 180,
      "<0xAE>": 181,
      "<0xAF>": 182,
      "<0xB0>": 183,
      "<0xB1>": 184,
      "<0xB2>": 185,
      "<0xB3>": 186,
      "<0xB4>": 187,
      "<0xB5>": 188,
      "<0xB6>": 189,
      "<0xB7>": 190,
      "<0xB8>": 191,
      "<0xB9>": 192,
      "<0xBA>": 193,
      "<0xBB>": 194,
      "<0xBC>": 195,
      "<0xBD>": 196,
      "<0xBE>": 197,
      "<0xBF>": 198,
      "<0xC0>": 199,
      "<0xC1>": 200,
      "<0xC2>": 201,
      "<0xC3>": 202,
      "<0xC4>": 203,
      "<0xC5>": 204,
      "<0xC6>": 205,
      "<0xC7>": 206,
      "<0xC8>": 207,
      "<0xC9>": 208,
      "<0xCA>": 209,
      "<0xCB>": 210,
      "<0xCC>": 211,
      "<0xCD>": 212,
      "<0xCE>": 213,
      "<0xCF>": 214,
      "<0xD0>": 215,
      "<0xD1>": 216,
      "<0xD2>": 217,
      "<0xD3>": 218,
      "<0xD4>": 219,
      "<0xD5>": 220,
      "<0xD6>": 221,
      "<0xD7>": 222,
      "<0xD8>": 223,
      "<0xD9>": 224,
      "<0xDA>": 225,
      "<0xDB>": 226,
      "<0xDC>": 227,
      "<0xDD>": 228,
      "<0xDE>": 229,
      "<0xDF>": 230,
      "<0xE0>": 231,
      "<0xE1>": 232,
      "<0xE2>": 233,
      "<0xE3>": 234,
      "<0xE4>": 235,
      "<0xE5>": 236,
      "<0xE6>": 237,
      "<0xE7>": 238,
      "<0xE8>": 239,
      "<0xE9>": 240,
      "<0xEA>": 241,
      "<0xEB>": 242,
      "<0xEC>": 243,
      "<0xED>": 244,
      "<0xEE>": 245,
      "<0xEF>": 246,
      "<0xF0>": 247,
      "<0xF1>": 248,
      "<0xF2>": 249,
      "<0xF3>": 250,
      "<0xF4>": 251,
      "<0xF5>": 252,
      "<0xF6>": 253,
      "<0xF7>": 254,
      "<0xF8>": 255,
      "<0xF9>": 256,
      "<0xFA>": 257,
      "<0xFB>": 258,
      "<0xFC>": 259,
      "<0xFD>": 260,
      "<0xFE>": 261,
      "<0xFF>": 262,
      "!": 263,
      "%": 264,
      "(": 265,
      ")": 266,
      "+": 267,
      "-": 268,
      ".": 269,
      "/": 270,
      "0": 271,
      "1": 272,
      "2": 273,
      "3": 274,
      "4": 275,
      "5": 276,
      "6": 277,
      "7": 278,
      "8": 279,
      "9": 280,
      ":": 281,
      "?": 282,
      "A": 283,
      "B": 284,
      "C": 285,
      "D": 286,
      "E": 287,
      "F": 288,
      "G": 289,
      "H": 290,
      "I": 291,
      "J": 292,
      "K": 293,
      "L": 294,
      "M": 295,
      "N": 296,
      "O": 297,
      "P": 298,
      "Q": 299,
      "R": 300,
      "S": 301,
      "T": 302,
      "U": 303,
      "V": 304,
      "W": 305,
      "X": 306,
      "Y": 307,
      "Z": 308,
      "a": 309,
      "b": 310,
      "c": 311,
      "d": 312,
      "e": 313,
      "f": 314,
      "g": 315,
      "h": 316,
      "i": 317,
      "j": 318,
      "k": 319,
      "l": 320,
      "m": 321,
      "n": 322,
      "o": 323,
      "p": 324,
      "q": 325,
      "r": 326,
      "s": 327,
      "t": 328,
      "u": 329,
      "v": 330,
      "w": 331,
      "x": 332,
      "y": 333,
      "z": 334,
      "؁": 335,
      "،": 336,
      "؎": 337,
      "ؐ": 338,
      "ؑ": 339,
      "ؒ": 340,
      "ؓ": 341,
      "ؕ": 342,
      "؛": 343,
      "؟": 344,
      "ء": 345,
      "آ": 346,
      "أ": 347,
      "ؤ": 348,
      "إ": 349,
      "ئ": 350,
      "ا": 351,
      "ب": 352,
      "ة": 353,
      "ت": 354,
      "ث": 355,
      "ج": 356,
      "ح": 357,
      "خ": 358,
      "د": 359,
      "ذ": 360,
      "ر": 361,
      "ز": 362,
      "س": 363,
      "ش": 364,
      "ص": 365,
      "ض": 366,
      "ط": 367,
      "ظ": 368,
      "ع": 369,
      "غ": 370,
      "ـ": 371,
      "ف": 372,
      "ق": 373,
      "ك": 374,
      "ل": 375,
      "م": 376,
      "ن": 377,
      "ه": 378,
      "و": 379,
      "ى": 380,
      "ي": 381,
      "ٓ": 382,
      "ٔ": 383,
      "ٕ": 384,
      "ٖ": 385,
      "ٗ": 386,
      "ٚ": 387,
      "ٜ": 388,
      "٠": 389,
      "١": 390,
      "٢": 391,
      "٣": 392,
      "٤": 393,
      "٥": 394,
      "٦": 395,
      "٧": 396,
      "٨": 397,
      "٩": 398,
      "٪": 399,
      "٫": 400,
      "٬": 401,
      "٭": 402,
      "ٮ": 403,
      "ٰ": 404,
      "ٱ": 405,
      "ٴ": 406,
      "ٹ": 407,
      "ٺ": 408,
      "ٻ": 409,
      "ټ": 410,
      "ٽ": 411,
      "پ": 412,
      "ٿ": 413,
      "ڀ": 414,
      "ځ": 415,
      "ڃ": 416,
      "ڄ": 417,
      "څ": 418,
      "چ": 419,
      "ڇ": 420,
      "ڈ": 421,
      "ډ": 422,
      "ڊ": 423,
      "ڌ": 424,
      "ڍ": 425,
      "ڎ": 426,
      "ڏ": 427,
      "ڑ": 428,
      "ړ": 429,
      "ږ": 430,
      "ژ": 431,
      "ڙ": 432,
      "ښ": 433,
      "ڦ": 434,
      "ک": 435,
      "ڪ": 436,
      "ګ": 437,
      "ڭ": 438,
      "گ": 439,
      "ڱ": 440,
      "ڲ": 441,
      "ڳ": 442,
      "ڵ": 443,
      "ں": 444,
      "ڻ": 445,
      "ھ": 446,
      "ہ": 447,
      "ۂ": 448,
      "ۃ": 449,
      "ۅ": 450,
      "ۇ": 451,
      "ۉ": 452,
      "ی": 453,
      "ۍ": 454,
      "ۏ": 455,
      "ې": 456,
      "ے": 457,
      "ۓ": 458,
      "۔": 459,
      "ە": 460,
      "ۖ": 461,
      "ۗ": 462,
      "ۙ": 463,
      "ۚ": 464,
      "ۜ": 465,
      "۠": 466,
      "ۡ": 467,
      "ۢ": 468,
      "ۤ": 469,
      "۬": 470,
      "۰": 471,
      "۱": 472,
      "۲": 473,
      "۳": 474,
      "۴": 475,
      "۵": 476,
      "۶": 477,
      "۷": 478,
      "۸": 479,
      "۹": 480,
      "۽": 481,
      "۾": 482,
      "ݔ": 483,
      "ݣ": 484,
      "ݨ": 485,
      "ݯ": 486,
      "﴾": 487,
      "﴿": 488,
      "﷢": 489,
      "﷥": 490,
      "﷦": 491,
      "ي": 492,
      "ا": 493,
      "2": 494,
      "ڻ": 495,
      "ه": 496,
      "e": 497,
      "ن": 498,
      "d": 499,
      "ج": 500,
      "1": 501,
      "ڪ": 502,
      "ء": 503,
      "ل": 504,
      "ڇ": 505,
      "ب": 506,
      "w": 507,
      "س": 508,
      "د": 509,
      "ر": 510,
      "ہ": 511,
      "ش": 512,
      "n": 513,
      "s": 514,
      "ت": 515,
      "و": 516,
      "f": 517,
      "3": 518,
      "ی": 519,
      "H": 520,
      "ز": 521,
      "ٽ": 522,
      "a": 523,
      "ع": 524,
      "m": 525,
      "خ": 526,
      "ک": 527,
      "ف": 528,
      "4": 529,
      "ڊ": 530,
      "0": 531,
      "ق": 532,
      ")": 533,
      "k": 534,
      "م": 535,
      "ة": 536,
      "y": 537,
      "ے": 538,
      "ھ": 539,
      "6": 540,
      "گ": 541,
      "ۙ": 542,
      "h": 543,
      "B": 544,
      "o": 545,
      "i": 546,
      "8": 547,
      "ۂ": 548,
      "g": 549,
      "r": 550,
      "5": 551,
      "ى": 552,
      "ٺ": 553,
      "z": 554,
      "ض": 555,
      "c": 556,
      "j": 557,
      "ڙ": 558,
      "u": 559,
      "۹": 560,
      "l": 561,
      "ح": 562,
      "ں": 563,
      "X": 564,
      "ٿ": 565,
      "A": 566,
      "9": 567,
      "چ": 568,
      "C": 569,
      "7": 570,
      "q": 571,
      "۸": 572,
      "t": 573,
      "P": 574,
      "ؑ": 575,
      "پ": 576,
      "ۃ": 577,
      "ص": 578,
      "N": 579,
      "R": 580,
      "G": 581,
      "ؤ": 582,
      ".": 583,
      "Y": 584,
      "ـ": 585,
      "D": 586,
      "ڑ": 587,
      "T": 588,
      "۷": 589,
      "۾": 590,
      "ئ": 591,
      "W": 592,
      "U": 593,
      "ذ": 594,
      "ك": 595,
      "ٰ": 596,
      "I": 597,
      "ؓ": 598,
      "غ": 599,
      "O": 600,
      "Z": 601,
      "L": 602,
      "ث": 603,
      "ٹ": 604,
      "١": 605,
      "ڌ": 606,
      "۠": 607,
      "S": 608,
      "ط": 609,
      "ڏ": 610,
      "ڄ": 611,
      "V": 612,
      "-": 613,
      "E": 614,
      "،": 615,
      "ڳ": 616,
      "p": 617,
      "v": 618,
      ":": 619,
      "ٗ": 620,
      "x": 621,
      "۴": 622,
      "ٔ": 623,
      "﴿": 624,
      "ڃ": 625,
      "b": 626,
      "ظ": 627,
      "۲": 628,
      "ڈ": 629,
      "ڱ": 630,
      "ؒ": 631,
      "ڀ": 632,
      "؛": 633,
      "۱": 634,
      "K": 635,
      "ۚ": 636,
      "ې": 637,
      "F": 638,
      "/": 639,
      "ٻ": 640,
      "J": 641,
      "آ": 642,
      "ۡ": 643,
      "M": 644,
      "٣": 645,
      "ڍ": 646,
      "Q": 647,
      "ڦ": 648,
      "!": 649,
      "۽": 650,
      "ؕ": 651,
      "۰": 652,
      "۵": 653,
      "ٖ": 654,
      "(": 655,
      "٨": 656,
      "٬": 657,
      "٠": 658,
      "۳": 659,
      "ݨ": 660,
      "%": 661,
      "٢": 662,
      "ۤ": 663,
      "ژ": 664,
      "؟": 665,
      "۶": 666,
      "أ": 667,
      "ٓ": 668,
      "ۓ": 669,
      "٦": 670,
      "؎": 671,
      "ۗ": 672,
      "ۖ": 673,
      "ۍ": 674,
      "۔": 675,
      "﷦": 676,
      "۬": 677,
      "ڎ": 678,
      "؁": 679,
      "ؐ": 680,
      "ڵ": 681,
      "٭": 682,
      "ړ": 683,
      "+": 684,
      "ٴ": 685,
      "٩": 686,
      "?": 687,
      "٥": 688,
      "٫": 689,
      "﷥": 690,
      "﷢": 691,
      "ۢ": 692,
      "٪": 693,
      "٤": 694,
      "ۇ": 695,
      "﴾": 696,
      "٧": 697,
      "": 698,
      "ۜ": 699,
      "جي": 700,
      "ان": 701,
      "ان": 702,
      "ائ": 703,
      "ار": 704,
      "آه": 705,
      "ند": 706,
      "يو": 707,
      "جو": 708,
      "ين": 709,
      "ال": 710,
      "ون": 711,
      "هن": 712,
      "آهي": 713,
      "ري": 714,
      "تي": 715,
      "ري": 716,
      "کي": 717,
      "لا": 718,
      "يا": 719,
      "ئي": 720,
      "اه": 721,
      "اس": 722,
      "ور": 723,
      "ار": 724,
      "مي": 725,
      "يء": 726,
      "يڪ": 727,
      "را": 728,
      "رو": 729,
      "ما": 730,
      "کان": 731,
      "ور": 732,
      "اد": 733,
      "سن": 734,
      "سان": 735,
      "اي": 736,
      "ھن": 737,
      "لي": 738,
      "جن": 739,
      "وي": 740,
      "ون": 741,
      "ڪي": 742,
      "اري": 743,
      "وا": 744,
      "لي": 745,
      "آهن": 746,
      "هو": 747,
      "ڪري": 748,
      "ھي": 749,
      "پي": 750,
      "هڪ": 751,
      "ته": 752,
      "ام": 753,
      "ندو": 754,
      "ائي": 755,
      "جا": 756,
      "مر": 757,
      "ڪر": 758,
      "ٿي": 759,
      "يون": 760,
      "سي": 761,
      "مو": 762,
      "جيڪ": 763,
      "اب": 764,
      "گه": 765,
      "پن": 766,
      "پو": 767,
      "مان": 768,
      "ست": 769,
      "او": 770,
      "19": 771,
      "پا": 772,
      "تع": 773,
      "لاء": 774,
      "دي": 775,
      "هن": 776,
      "ڪيو": 777,
      "ائين": 778,
      "ڻي": 779,
      "سا": 780,
      "ڪو": 781,
      "با": 782,
      "ٿو": 783,
      "به": 784,
      "يل": 785,
      "من": 786,
      "تر": 787,
      "مل": 788,
      "ويو": 789,
      "ندي": 790,
      "آھي": 791,
      "بي": 792,
      "هي": 793,
      "تا": 794,
      "بي": 795,
      "ندا": 796,
      "لو": 797,
      "اني": 798,
      "ني": 799,
      "مي": 800,
      "ٽي": 801,
      "ام": 802,
      "مح": 803,
      "جه": 804,
      "سنڌ": 805,
      "ني": 806,
      "شه": 807,
      "سند": 808,
      "نال": 809,
      "جو": 810,
      "جنهن": 811,
      "سنڌ": 812,
      "20": 813,
      "هو": 814,
      "شا": 815,
      "ڏي": 816,
      "جن": 817,
      "اڪ": 818,
      "سر": 819,
      "ائي": 820,
      "ٿي": 821,
      "اص": 822,
      "در": 823,
      "قي": 824,
      "بر": 825,
      "تي": 826,
      "ڙي": 827,
      "سو": 828,
      "ستان": 829,
      "وڏ": 830,
      "پوء": 831,
      "عل": 832,
      "سل": 833,
      "ندڙ": 834,
      "مع": 835,
      "وار": 836,
      "طور": 837,
      "ڪرڻ": 838,
      "ڪن": 839,
      "بر": 840,
      "مرو": 841,
      "جي": 842,
      "سندس": 843,
      "مد": 844,
      "پر": 845,
      "سي": 846,
      "ات": 847,
      "پنهن": 848,
      "شن": 849,
      "ڪئي": 850,
      "ٽر": 851,
      "ات": 852,
      "مق": 853,
      "ڏهن": 854,
      "عي": 855,
      "زمرو": 856,
      "ٽي": 857,
      "ره": 858,
      "نه": 859,
      "ڪي": 860,
      "في": 861,
      "تاب": 862,
      "انهن": 863,
      "ادي": 864,
      "واري": 865,
      "حي": 866,
      "تائين": 867,
      "اف": 868,
      "وڌ": 869,
      "قت": 870,
      "ٿا": 871,
      "جيڪو": 872,
      "وڃ": 873,
      "ڪتاب": 874,
      "ول": 875,
      "قي": 876,
      "رن": 877,
      "مخ": 878,
      "دي": 879,
      "اح": 880,
      "اهه": 881,
      "جا": 882,
      "تن": 883,
      "په": 884,
      "بل": 885,
      "سنڌي": 886,
      "ماڻ": 887,
      "طر": 888,
      "هي": 889,
      "ڪن": 890,
      "چي": 891,
      "اهو": 892,
      "پڻ": 893,
      "ٿيو": 894,
      "اند": 895,
      "ڳو": 896,
      "نظ": 897,
      "من": 898,
      "سال": 899,
      "پنهنجي": 900,
      "انگ": 901,
      "ڊي": 902,
      "ئا": 903,
      "اد": 904,
      "ھر": 905,
      "ال": 906,
      "کي": 907,
      "اري": 908,
      "هه": 909,
      "جون": 910,
      "صو": 911,
      "گر": 912,
      "باد": 913,
      "مت": 914,
      "ڙو": 915,
      "ھڪ": 916,
      "اڻ": 917,
      "تح": 918,
      "فر": 919,
      "محمد": 920,
      "آباد": 921,
      "پر": 922,
      "اهي": 923,
      "هئي": 924,
      "ھو": 925,
      "مل": 926,
      "امل": 927,
      "وقت": 928,
      "پار": 929,
      "ير": 930,
      "مش": 931,
      "اتي": 932,
      "علائ": 933,
      "نو": 934,
      "شامل": 935,
      "پاڪ": 936,
      "ڪار": 937,
      "مبر": 938,
      "نگ": 939,
      "ير": 940,
      "نالو": 941,
      "لک": 942,
      "يون": 943,
      "خان": 944,
      "ڪم": 945,
      "آھن": 946,
      "شهر": 947,
      "وڃي": 948,
      "گھ": 949,
      "بن": 950,
      "هيء": 951,
      "هئا": 952,
      "تو": 953,
      "سٽ": 954,
      "مال": 955,
      "ويندو": 956,
      "رک": 957,
      "ئن": 958,
      "يڪ": 959,
      "ڏن": 960,
      "مط": 961,
      "اخ": 962,
      "دا": 963,
      "ڪا": 964,
      "چو": 965,
      "تہ": 966,
      "ريون": 967,
      "اصل": 968,
      "نگ": 969,
      "پاڪستان": 970,
      "ملڪ": 971,
      "شرو": 972,
      "تاري": 973,
      "بد": 974,
      "نا": 975,
      "جنھن": 976,
      "ڪا": 977,
      "جڏهن": 978,
      "وري": 979,
      "آب": 980,
      "ڳوٺ": 981,
      "واق": 982,
      "دار": 983,
      "مار": 984,
      "فو": 985,
      "قو": 986,
      "تعل": 987,
      "حص": 988,
      "شي": 989,
      "زي": 990,
      "سم": 991,
      "ها": 992,
      "بو": 993,
      "ڻو": 994,
      "استع": 995,
      "ٻو": 996,
      "وال": 997,
      "ارن": 998,
      "ضل": 999,
      "عر": 1000,
      "18": 1001,
      "وئي": 1002,
      "ٽن": 1003,
      "زي": 1004,
      "رس": 1005,
      "نڍ": 1006,
      "ڪو": 1007,
      "ئين": 1008,
      "دو": 1009,
      "يور": 1010,
      "رين": 1011,
      "وڌيڪ": 1012,
      "جيڪي": 1013,
      "خو": 1014,
      "نڊ": 1015,
      "ڊيا": 1016,
      "لڳ": 1017,
      "ائڻ": 1018,
      "استعمال": 1019,
      "يت": 1020,
      "مير": 1021,
      "زم": 1022,
      "ڪر": 1023,
      "موجو": 1024,
      "لو": 1025,
      "شھر": 1026,
      "سائ": 1027,
      "اسي": 1028,
      "لام": 1029,
      "سڀ": 1030,
      "نيا": 1031,
      "نهن": 1032,
      "ڪيتر": 1033,
      "تون": 1034,
      "سگه": 1035,
      "گڏ": 1036,
      "201": 1037,
      "تو": 1038,
      "جيڪا": 1039,
      "لن": 1040,
      "مخت": 1041,
      "الي": 1042,
      "ڪل": 1043,
      "هر": 1044,
      "ثر": 1045,
      "سم": 1046,
      "ليم": 1047,
      "مون": 1048,
      "200": 1049,
      "عام": 1050,
      "ڪرا": 1051,
      "الل": 1052,
      "شاهه": 1053,
      "ند": 1054,
      "نالي": 1055,
      "شاع": 1056,
      "فل": 1057,
      "وڏي": 1058,
      "انا": 1059,
      "است": 1060,
      "ديھ": 1061,
      ")،": 1062,
      "ھن": 1063,
      "علي": 1064,
      "نس": 1065,
      "وڏو": 1066,
      "بہ": 1067,
      "وي": 1068,
      "واقع": 1069,
      "ڪل": 1070,
      "صف": 1071,
      "اھ": 1072,
      "سان": 1073,
      "مس": 1074,
      "اڳ": 1075,
      "ھو": 1076,
      "حڪو": 1077,
      "بو": 1078,
      "مد": 1079,
      "ڪجه": 1080,
      "لف": 1081,
      "دور": 1082,
      "سيڪ": 1083,
      "صد": 1084,
      "تان": 1085,
      "پاڻ": 1086,
      "ٽر": 1087,
      "بع": 1088,
      "ڇڏ": 1089,
      "کيس": 1090,
      "علائق": 1091,
      "حاصل": 1092,
      "في": 1093,
      "مض": 1094,
      "دنيا": 1095,
      "تاريخ": 1096,
      "ٻين": 1097,
      "رهيو": 1098,
      "۾،": 1099,
      "پي": 1100,
      "تيار": 1101,
      "مختلف": 1102,
      "لا": 1103,
      "ورو": 1104,
      "ڪار": 1105,
      "ويا": 1106,
      "مري": 1107,
      "الله": 1108,
      "وٺ": 1109,
      "ڊي": 1110,
      "سر": 1111,
      "رو": 1112,
      "ٻي": 1113,
      "چون": 1114,
      "کڻ": 1115,
      "سٽ": 1116,
      "سن": 1117,
      "خا": 1118,
      "قائ": 1119,
      "an": 1120,
      "in": 1121,
      "زن": 1122,
      "ننڍ": 1123,
      "آبادي": 1124,
      "چي": 1125,
      "مام": 1126,
      "ٿئي": 1127,
      "ڪنهن": 1128,
      "از": 1129,
      "وارو": 1130,
      "عو": 1131,
      "اچي": 1132,
      "دو": 1133,
      "لف": 1134,
      "ڪجهه": 1135,
      "مسل": 1136,
      "حڪومت": 1137,
      "گي": 1138,
      "وٽ": 1139,
      "انگري": 1140,
      "بعد": 1141,
      "ڙن": 1142,
      "پرو": 1143,
      "اتر": 1144,
      "وچ": 1145,
      "مطاب": 1146,
      "حا": 1147,
      "اڻ": 1148,
      "موجود": 1149,
      "ڳال": 1150,
      "اع": 1151,
      "ورت": 1152,
      "بني": 1153,
      "شروع": 1154,
      "نٽ": 1155,
      "ذري": 1156,
      "مطابق": 1157,
      "سب": 1158,
      "پور": 1159,
      "انن": 1160,
      "مشه": 1161,
      "گو": 1162,
      "الي": 1163,
      "ٽو": 1164,
      "الن": 1165,
      "تعليم": 1166,
      "جم": 1167,
      "قر": 1168,
      "ڏنو": 1169,
      "بڻ": 1170,
      "ڏکڻ": 1171,
      "رت": 1172,
      "مشهور": 1173,
      "مه": 1174,
      "پري": 1175,
      "عي": 1176,
      "تب": 1177,
      "وڪي": 1178,
      "وف": 1179,
      "اء": 1180,
      "قائم": 1181,
      "تص": 1182,
      "ادبي": 1183,
      "جھ": 1184,
      "ڀر": 1185,
      "صفح": 1186,
      "ڪم": 1187,
      "ضلعي": 1188,
      "اول": 1189,
      "نڊ": 1190,
      "بل": 1191,
      "حيدر": 1192,
      "ڙا": 1193,
      "اها": 1194,
      "خاص": 1195,
      "ائون": 1196,
      "صاح": 1197,
      "نس": 1198,
      "حيدرآباد": 1199,
      "اق": 1200,
      "پيڊيا": 1201,
      "دن": 1202,
      "عبد": 1203,
      "199": 1204,
      "تق": 1205,
      "شي": 1206,
      "اڻي": 1207,
      "گرا": 1208,
      "ضي": 1209,
      "نديون": 1210,
      "انهيء": 1211,
      "ملي": 1212,
      "ڳا": 1213,
      "گڏ": 1214,
      "ٿيل": 1215,
      "عال": 1216,
      "پھ": 1217,
      "ٻڌ": 1218,
      "00": 1219,
      "حصو": 1220,
      "0ع": 1221,
      "شن": 1222,
      "پيدا": 1223,
      "ٻئي": 1224,
      "هند": 1225,
      "باد": 1226,
      "سڏ": 1227,
      "امي": 1228,
      "خي": 1229,
      "فار": 1230,
      "زا": 1231,
      "تن": 1232,
      "سوا": 1233,
      "جيئن": 1234,
      "اهر": 1235,
      "ئي": 1236,
      "اڳ": 1237,
      "آر": 1238,
      "ئر": 1239,
      "اوڀر": 1240,
      "آمري": 1241,
      "آز": 1242,
      "ست": 1243,
      "رياست": 1244,
      "هين": 1245,
      "ڏينهن": 1246,
      "پبل": 1247,
      "ٿيڻ": 1248,
      "ريء": 1249,
      "تا": 1250,
      "اسڪو": 1251,
      "ماڻهو": 1252,
      "ٽو": 1253,
      "به": 1254,
      "ھيو": 1255,
      "نا": 1256,
      "ٻول": 1257,
      "7ع": 1258,
      "ٿيون": 1259,
      "کان": 1260,
      "قسم": 1261,
      "صاحب": 1262,
      "دين": 1263,
      "آخ": 1264,
      "مرڪ": 1265,
      "يونيور": 1266,
      "ارو": 1267,
      "ميٽر": 1268,
      "نم": 1269,
      "باب": 1270,
      "ايو": 1271,
      "تمام": 1272,
      "دري": 1273,
      "جر": 1274,
      "ڪيا": 1275,
      "ڪيائين": 1276,
      "علائقي": 1277,
      "ھي": 1278,
      "پنھن": 1279,
      "زند": 1280,
      "مب": 1281,
      "مص": 1282,
      "ڙه": 1283,
      "مذ": 1284,
      "قدي": 1285,
      "زمين": 1286,
      "لفظ": 1287,
      "غير": 1288,
      "فري": 1289,
      "فت": 1290,
      "هل": 1291,
      "سبب": 1292,
      "ڪاري": 1293,
      "جل": 1294,
      "آف": 1295,
      "ٻولي": 1296,
      "ائون": 1297,
      "وڪيپيڊيا": 1298,
      "نق": 1299,
      "انھن": 1300,
      "مٿ": 1301,
      "ڀر": 1302,
      "طرح": 1303,
      "پاران": 1304,
      "ٿيندو": 1305,
      "اسان": 1306,
      "جنگ": 1307,
      "اسٽي": 1308,
      "پور": 1309,
      "ڪيل": 1310,
      "ذريعي": 1311,
      "مڪ": 1312,
      "5ع": 1313,
      "ماڻهن": 1314,
      "مر": 1315,
      "دور": 1316,
      "آيو": 1317,
      "پهريون": 1318,
      "مضمون": 1319,
      "جتي": 1320,
      "چو": 1321,
      "2ع": 1322,
      "قل": 1323,
      "ھئي": 1324,
      "چيو": 1325,
      "شري": 1326,
      "هوندو": 1327,
      "يان": 1328,
      "يم": 1329,
      "اي": 1330,
      "بخ": 1331,
      "يو": 1332,
      "3ع": 1333,
      "197": 1334,
      "اهم": 1335,
      "198": 1336,
      "سل": 1337,
      "بور": 1338,
      "ڪائون": 1339,
      "سما": 1340,
      "احمد": 1341,
      "انس": 1342,
      "برا": 1343,
      "ڏا": 1344,
      "ڏانهن": 1345,
      "قديم": 1346,
      "کو": 1347,
      "اسڪول": 1348,
      "علا": 1349,
      "ئر": 1350,
      "1ع": 1351,
      "6ع": 1352,
      "غير": 1353,
      "اٿ": 1354,
      "پرا": 1355,
      "ده": 1356,
      "پٽ": 1357,
      "دان": 1358,
      "ڪت": 1359,
      "ائن": 1360,
      "انت": 1361,
      "ول": 1362,
      "عبدال": 1363,
      "سگ": 1364,
      "نہ": 1365,
      "وغير": 1366,
      "انڊ": 1367,
      "زار": 1368,
      "ريا": 1369,
      "سام": 1370,
      "پيو": 1371,
      "سڀ": 1372,
      "اديء": 1373,
      "196": 1374,
      "سواء": 1375,
      "سٽي": 1376,
      "گي": 1377,
      "چونڊ": 1378,
      "شع": 1379,
      "وٺي": 1380,
      "واپ": 1381,
      "وني": 1382,
      "فر": 1383,
      "مث": 1384,
      "ايڊي": 1385,
      "صوبي": 1386,
      "لاح": 1387,
      "اچ": 1388,
      "لوي": 1389,
      "اش": 1390,
      "ٻه": 1391,
      "قان": 1392,
      "ٽيڪ": 1393,
      "ڪس": 1394,
      "ڊاڪ": 1395,
      "زر": 1396,
      "گهڻو": 1397,
      "طرف": 1398,
      "ڪندو": 1399,
      "رهي": 1400,
      "ئون": 1401,
      "4ع": 1402,
      "طرف": 1403,
      "ليک": 1404,
      "مقر": 1405,
      "سندن": 1406,
      "سيد": 1407,
      "شروع": 1408,
      "سالن": 1409,
      "شر": 1410,
      "8ع": 1411,
      "سلط": 1412,
      "انو": 1413,
      "گذ": 1414,
      "ٽا": 1415,
      "دوران": 1416,
      "ڪلو": 1417,
      "وغيره": 1418,
      "ڪندا": 1419,
      "يع": 1420,
      "ٻيو": 1421,
      "ما": 1422,
      "حوال": 1423,
      "ارت": 1424,
      "ڏي": 1425,
      "خلا": 1426,
      "پنھنجي": 1427,
      "خاند": 1428,
      "ڪراچي": 1429,
      "ارا": 1430,
      "194": 1431,
      "ti": 1432,
      "ظم": 1433,
      "سياسي": 1434,
      "مقرر": 1435,
      "hi": 1436,
      "ٿين": 1437,
      "بت": 1438,
      "گور": 1439,
      "خت": 1440,
      "اس": 1441,
      "ايل": 1442,
      "ڪندي": 1443,
      "داد": 1444,
      "پهرين": 1445,
      "عت": 1446,
      "سو": 1447,
      "صدر": 1448,
      "با": 1449,
      "بورڊ": 1450,
      "ar": 1451,
      "سمن": 1452,
      "پاڻي": 1453,
      "وفات": 1454,
      "طرفان": 1455,
      "ٿيا": 1456,
      "شاھ": 1457,
      "ميت": 1458,
      "ڊاڪٽر": 1459,
      "195": 1460,
      "جڻ": 1461,
      "وارن": 1462,
      "قو": 1463,
      "حاظ": 1464,
      "ڄي": 1465,
      "عمل": 1466,
      "ٺاه": 1467,
      "وڪ": 1468,
      "فن": 1469,
      "ندر": 1470,
      "ٻن": 1471,
      "تعلقي": 1472,
      "ثق": 1473,
      "سين": 1474,
      "پيل": 1475,
      "ريت": 1476,
      "ڌر": 1477,
      "ڀي": 1478,
      "کانپوء": 1479,
      "er": 1480,
      "بن": 1481,
      "رف": 1482,
      "مشت": 1483,
      "حد": 1484,
      "ڏني": 1485,
      "نظام": 1486,
      "..": 1487,
      "گا": 1488,
      "ڪيترن": 1489,
      "9ع": 1490,
      "بابت": 1491,
      "يعني": 1492,
      "ڳو": 1493,
      "ind": 1494,
      "ڪان": 1495,
      "بح": 1496,
      "دائ": 1497,
      "اندر": 1498,
      "تر": 1499,
      "امي": 1500,
      "شم": 1501,
      "تبدي": 1502,
      "طي": 1503,
      "تخ": 1504,
      "ترين": 1505,
      "صح": 1506,
      "صدي": 1507,
      "افي": 1508,
      "وز": 1509,
      "ادب": 1510,
      "هجي": 1511,
      "ايت": 1512,
      "ڪيترائي": 1513,
      "بنياد": 1514,
      "ابن": 1515,
      "جد": 1516,
      "يونيورسٽي": 1517,
      "هيٺ": 1518,
      "پل": 1519,
      "رکيو": 1520,
      "مشتمل": 1521,
      "گهر": 1522,
      "ڪالي": 1523,
      "پيش": 1524,
      "شاي": 1525,
      "کر": 1526,
      "ويندي": 1527,
      "نظر": 1528,
      "ٺه": 1529,
      "خد": 1530,
      "تحري": 1531,
      "سنڌي": 1532,
      "لينڊ": 1533,
      "هان": 1534,
      "ڪائونسل": 1535,
      "ڏئي": 1536,
      "مج": 1537,
      "را": 1538,
      "مال": 1539,
      "هنڌ": 1540,
      "گر": 1541,
      "ڻن": 1542,
      "ڏيڻ": 1543,
      "اب": 1544,
      "نام": 1545,
      "17": 1546,
      "الدين": 1547,
      "سنڌيانا": 1548,
      "شر": 1549,
      "سمنڊ": 1550,
      "جان": 1551,
      "ساڳ": 1552,
      "اصط": 1553,
      "نمبر": 1554,
      "Sind": 1555,
      "ايم": 1556,
      "ڏھن": 1557,
      "ڙيء": 1558,
      "حض": 1559,
      "ورن": 1560,
      "ٻي": 1561,
      "ٻيا": 1562,
      "ٺو": 1563,
      "طري": 1564,
      "ڪه": 1565,
      "تعلق": 1566,
      "قومي": 1567,
      "حال": 1568,
      "ثقاف": 1569,
      "مذه": 1570,
      "هوندي": 1571,
      "سگهي": 1572,
      "وامي": 1573,
      "لاڳا": 1574,
      "اڪثر": 1575,
      "ران": 1576,
      "نص": 1577,
      "اول": 1578,
      "اپ": 1579,
      "پبلشر": 1580,
      "عمر": 1581,
      "مين": 1582,
      "ڪندڙ": 1583,
      "علم": 1584,
      "ڪاليج": 1585,
      "سط": 1586,
      "ليکڪ": 1587,
      "خي": 1588,
      "ملڪن": 1589,
      "رکي": 1590,
      "رنگ": 1591,
      "نئين": 1592,
      "اھو": 1593,
      "سائي": 1594,
      "ترقي": 1595,
      "قب": 1596,
      "صورت": 1597,
      "جب": 1598,
      "ڇڏيو": 1599,
      "سيڪڙو": 1600,
      "بلو": 1601,
      "ڪوٽ": 1602,
      "وارا": 1603,
      "ٻوليء": 1604,
      "چار": 1605,
      "بيان": 1606,
      "نش": 1607,
      "هيون": 1608,
      "ٽيء": 1609,
      "غلام": 1610,
      "چور": 1611,
      "ڀا": 1612,
      "ٽس": 1613,
      "مدد": 1614,
      "ٿيندي": 1615,
      "يونين": 1616,
      "شخ": 1617,
      "بان": 1618,
      "بار": 1619,
      "ــ": 1620,
      "ريلوي": 1621,
      "اهڙي": 1622,
      "فا": 1623,
      "هتي": 1624,
      "اڄ": 1625,
      "گل": 1626,
      "ڻيء": 1627,
      "اسلام": 1628,
      "شيخ": 1629,
      "گورن": 1630,
      "کين": 1631,
      "اسلا": 1632,
      "ٻن": 1633,
      "رات": 1634,
      "ختم": 1635,
      "صفحو": 1636,
      "انگريزي": 1637,
      "گرو": 1638,
      "ميل": 1639,
      "نوا": 1640,
      "ٿر": 1641,
      "شيا": 1642,
      "هيو": 1643,
      "نت": 1644,
      "202": 1645,
      "ايڪ": 1646,
      "گهر": 1647,
      "آمريڪا": 1648,
      "ليون": 1649,
      "وه": 1650,
      "حضرت": 1651,
      "ميمبر": 1652,
      "ڪلوميٽر": 1653,
      "ڪال": 1654,
      "قبي": 1655,
      "برو": 1656,
      "ڌي": 1657,
      "ڪش": 1658,
      "شاعر": 1659,
      "جلد": 1660,
      "اسٽ": 1661,
      "نئون": 1662,
      "جهڙ": 1663,
      "حيث": 1664,
      "لکيل": 1665,
      "ana": 1666,
      "گهٽ": 1667,
      "هندستان": 1668,
      "مرزا": 1669,
      "خاندان": 1670,
      "حيثيت": 1671,
      "لغ": 1672,
      "ستاني": 1673,
      "علائقو": 1674,
      "ٽيون": 1675,
      "رھ": 1676,
      "وار": 1677,
      "وسي": 1678,
      "بين": 1679,
      "قن": 1680,
      "اثر": 1681,
      "193": 1682,
      "مغ": 1683,
      "ديد": 1684,
      "ذڪر": 1685,
      "سڃ": 1686,
      "مرڪز": 1687,
      "شروعات": 1688,
      "تل": 1689,
      "پير": 1690,
      "رل": 1691,
      "سڀني": 1692,
      "اٽ": 1693,
      "شورو": 1694,
      "تحقي": 1695,
      "ڇپ": 1696,
      "ڪلا": 1697,
      "آڪ": 1698,
      "آزاد": 1699,
      "مسجد": 1700,
      "هڪ": 1701,
      "اختيار": 1702,
      "سانچو": 1703,
      "سمجه": 1704,
      "علي": 1705,
      "سرڪاري": 1706,
      "فت": 1707,
      "انتظ": 1708,
      "نتي": 1709,
      "دم": 1710,
      "ڄاڻ": 1711,
      "Sindhi": 1712,
      "علائقن": 1713,
      "ڻا": 1714,
      "مڪمل": 1715,
      "ڇا": 1716,
      "وانگ": 1717,
      "Sindhiana": 1718,
      "Sindhianaسنڌيانا": 1719,
      "فائ": 1720,
      "ايڊيشن": 1721,
      "اولهه": 1722,
      "اسٽيشن": 1723,
      "ابي": 1724,
      "or": 1725,
      "مينٽ": 1726,
      "رام": 1727,
      "en": 1728,
      "آن": 1729,
      "ائيندڙ": 1730,
      "طان": 1731,
      "خيال": 1732,
      "ورتو": 1733,
      "عن": 1734,
      "مول": 1735,
      "جيڪڏهن": 1736,
      "داخ": 1737,
      "on": 1738,
      "اردو": 1739,
      "زو": 1740,
      "هاڻي": 1741,
      "سڏيو": 1742,
      "مري": 1743,
      "عور": 1744,
      "چئ": 1745,
      "در": 1746,
      "ويندا": 1747,
      "صرف": 1748,
      "حي": 1749,
      "زندگي": 1750,
      "فلم": 1751,
      "بنيادي": 1752,
      "برطان": 1753,
      "جاري": 1754,
      "ڪري": 1755,
      "لائ": 1756,
      "خلاف": 1757,
      "پاسي": 1758,
      "راڻي": 1759,
      "پڙه": 1760,
      "راء": 1761,
      "بند": 1762,
      "حق": 1763,
      "ويج": 1764,
      "لب": 1765,
      "ڪردار": 1766,
      "مٿي": 1767,
      "تاريخي": 1768,
      "ڪون": 1769,
      "جاء": 1770,
      "موجب": 1771,
      "شاه": 1772,
      "شنل": 1773,
      "حڪ": 1774,
      "ڄام": 1775,
      "ٽڪ": 1776,
      "بخش": 1777,
      "اسي": 1778,
      "on": 1779,
      "ڪمي": 1780,
      "لکي": 1781,
      "ڄام": 1782,
      "اسلامي": 1783,
      "ڪيون": 1784,
      "شھ": 1785,
      "نسل": 1786,
      "ڪڏهن": 1787,
      "زماني": 1788,
      "سائنس": 1789,
      "ليل": 1790,
      "هوء": 1791,
      "کا": 1792,
      "هون": 1793,
      "جديد": 1794,
      "صن": 1795,
      "پٽ": 1796,
      "ستي": 1797,
      "مثال": 1798,
      "يب": 1799,
      "ڪڍ": 1800,
      "يرو": 1801,
      "ڪامي": 1802,
      "ڪوش": 1803,
      "ٽري": 1804,
      "جان": 1805,
      "ڇڏي": 1806,
      "شايع": 1807,
      "باني": 1808,
      "مهي": 1809,
      "15": 1810,
      "نو": 1811,
      "ڙيل": 1812,
      "ٿيندا": 1813,
      "فق": 1814,
      "قانون": 1815,
      "معي": 1816,
      "رائ": 1817,
      "تحريڪ": 1818,
      "ڪور": 1819,
      "ٺي": 1820,
      "عا": 1821,
      "گڏيل": 1822,
      "جهڙوڪ": 1823,
      "ترجم": 1824,
      "وڃن": 1825,
      "لڳ": 1826,
      "ريل": 1827,
      "نيو": 1828,
      "پن": 1829,
      "10": 1830,
      "انساني": 1831,
      "هوندا": 1832,
      "سماجي": 1833,
      "ڇو": 1834,
      "ڌاري": 1835,
      "بول": 1836,
      "اھي": 1837,
      "کڻي": 1838,
      "رڪ": 1839,
      "لکيو": 1840,
      "ڪنھن": 1841,
      "رح": 1842,
      "اج": 1843,
      "نن": 1844,
      "معلو": 1845,
      "ديو": 1846,
      "نيٰ": 1847,
      "ڏس": 1848,
      "عالمي": 1849,
      "شاگر": 1850,
      "10": 1851,
      "ٻار": 1852,
      "ڇو": 1853,
      "ٽرو": 1854,
      "فقي": 1855,
      "تقري": 1856,
      "سڄي": 1857,
      "سور": 1858,
      "الو": 1859,
      "ارين": 1860,
      "انسان": 1861,
      "مرت": 1862,
      "ڊگ": 1863,
      "مختيار": 1864,
      "is": 1865,
      "ڪافي": 1866,
      "فتح": 1867,
      "چوندا": 1868,
      "بڻجي": 1869,
      "ادر": 1870,
      "معنيٰ": 1871,
      "دست": 1872,
      "پنهنجو": 1873,
      "20": 1874,
      "عربي": 1875,
      "لحاظ": 1876,
      "پنجا": 1877,
      "آفري": 1878,
      "ڙهي": 1879,
      "لاح": 1880,
      "تڏهن": 1881,
      "دؤ": 1882,
      "رياس": 1883,
      "مرا": 1884,
      "تعمير": 1885,
      "است": 1886,
      "16": 1887,
      "ھور": 1888,
      "استا": 1889,
      "اڏ": 1890,
      "تحت": 1891,
      "وانگر": 1892,
      "اڃ": 1893,
      "تنهن": 1894,
      "خط": 1895,
      "اڳوا": 1896,
      "حوالي": 1897,
      "مائ": 1898,
      "فوج": 1899,
      "استاد": 1900,
      "مڻ": 1901,
      "جود": 1902,
      "شاعري": 1903,
      "ظاهر": 1904,
      "هئ": 1905,
      "رس": 1906,
      "وزي": 1907,
      "جنم": 1908,
      "مطال": 1909,
      "دل": 1910,
      "گيء": 1911,
      "پنج": 1912,
      "مز": 1913,
      "چين": 1914,
      "سلطنت": 1915,
      "وٽ": 1916,
      "فه": 1917,
      "انگ": 1918,
      "گاديء": 1919,
      "تعداد": 1920,
      "روا": 1921,
      "حسن": 1922,
      "it": 1923,
      "منظ": 1924,
      "سگهجي": 1925,
      "رست": 1926,
      "پنجاب": 1927,
      ").": 1928,
      "حسين": 1929,
      "هٿ": 1930,
      "قرار": 1931,
      "ڄامشورو": 1932,
      "آگ": 1933,
      "عرب": 1934,
      "سا": 1935,
      "مف": 1936,
      "حقي": 1937,
      "تنظ": 1938,
      "وڻ": 1939,
      "ضو": 1940,
      "آفي": 1941,
      "ڊرا": 1942,
      "ھيء": 1943,
      "بند": 1944,
      "پاس": 1945,
      "هنن": 1946,
      "اتو": 1947,
      "اڪي": 1948,
      "آمريڪي": 1949,
      "ڀاڱ": 1950,
      "زمي": 1951,
      "بچ": 1952,
      "ٻيون": 1953,
      "عليه": 1954,
      "جنوري": 1955,
      "قا": 1956,
      "شين": 1957,
      "مون": 1958,
      "سين": 1959,
      "قاب": 1960,
      "مھ": 1961,
      "تري": 1962,
      "مست": 1963,
      "رڳو": 1964,
      "ادا": 1965,
      "مقام": 1966,
      "000": 1967,
      "al": 1968,
      "پيء": 1969,
      "بيگ": 1970,
      "ماء": 1971,
      "دؤر": 1972,
      "سه": 1973,
      "ماني": 1974,
      "سرو": 1975,
      "مان": 1976,
      "جنرل": 1977,
      "آخري": 1978,
      "ڌو": 1979,
      "قرآن": 1980,
      "مطلب": 1981,
      "عو": 1982,
      "حو": 1983,
      "ٽري": 1984,
      "ترجمو": 1985,
      "متا": 1986,
      "چونڊ": 1987,
      "شادي": 1988,
      "ماڻھو": 1989,
      "پيا": 1990,
      "ماري": 1991,
      "رهيا": 1992,
      "اين": 1993,
      "هيٺ": 1994,
      "مٿان": 1995,
      "داخل": 1996,
      "سخ": 1997,
      "اسپ": 1998,
      "ابت": 1999,
      "مسلمان": 2000,
      "قدر": 2001,
      "مانن": 2002,
      "پھريون": 2003,
      "هندو": 2004,
      "192": 2005,
      "حصي": 2006,
      "جبل": 2007,
      "ٽين": 2008,
      "ڊس": 2009,
      "مارچ": 2010,
      "es": 2011,
      "باقي": 2012,
      "وڏا": 2013,
      "اليڪ": 2014,
      "تصوي": 2015,
      "اف": 2016,
      "سفر": 2017,
      "ويزن": 2018,
      "تعلقو": 2019,
      "اقت": 2020,
      "مه": 2021,
      "گهڻي": 2022,
      "تحقيق": 2023,
      "موا": 2024,
      "پوري": 2025,
      "عورتن": 2026,
      "ملا": 2027,
      "لاڳاپيل": 2028,
      "ٻيٽ": 2029,
      "ڏنل": 2030,
      "ڊو": 2031,
      "داد": 2032,
      "ران": 2033,
      "زم": 2034,
      "ميان": 2035,
      "سند": 2036,
      "الا": 2037,
      "فيص": 2038,
      "ايس": 2039,
      "ڳالهه": 2040,
      "ڪلي": 2041,
      "ترتي": 2042,
      "هنڪري": 2043,
      "نيشنل": 2044,
      "تج": 2045,
      "پک": 2046,
      "ڏيک": 2047,
      "مسلم": 2048,
      "ھتي": 2049,
      "زبان": 2050,
      "پئي": 2051,
      "پارٽي": 2052,
      "فقير": 2053,
      "هلي": 2054,
      "at": 2055,
      "الڳ": 2056,
      "فوجي": 2057,
      "عالم": 2058,
      "اڳتي": 2059,
      "شت": 2060,
      "وال": 2061,
      "13": 2062,
      "سگھ": 2063,
      "گن": 2064,
      "ملن": 2065,
      "مسلمانن": 2066,
      "ٿيندڙ": 2067,
      "ويون": 2068,
      "شو": 2069,
      "ڳاله": 2070,
      "مسئ": 2071,
      "جائ": 2072,
      "فلس": 2073,
      "مرتب": 2074,
      "بيت": 2075,
      "جاگرا": 2076,
      "ڪرو": 2077,
      "ضر": 2078,
      "روي": 2079,
      "گري": 2080,
      "()": 2081,
      "ائيء": 2082,
      "ٻنهي": 2083,
      "جڏھن": 2084,
      "تشري": 2085,
      "ناهي": 2086,
      "ھئا": 2087,
      "چورس": 2088,
      "امن": 2089,
      "الاق": 2090,
      "وڪي": 2091,
      "ڏاڍ": 2092,
      "شڪ": 2093,
      "عيسو": 2094,
      "لوڪ": 2095,
      "ڊائ": 2096,
      "ضلعو": 2097,
      "رواي": 2098,
      "ڪئ": 2099,
      "وزير": 2100,
      "ايشيا": 2101,
      "يورپ": 2102,
      "اڻو": 2103,
      "سمن": 2104,
      "آيا": 2105,
      "موضو": 2106,
      "روز": 2107,
      "لغت": 2108,
      "لک": 2109,
      "توهان": 2110,
      "آئي": 2111,
      "اض": 2112,
      "تبديل": 2113,
      "an": 2114,
      "حڪمر": 2115,
      "چند": 2116,
      "تعلي": 2117,
      "12": 2118,
      "عرص": 2119,
      "لاڙ": 2120,
      "ترتيب": 2121,
      "الاقوامي": 2122,
      "چيء": 2123,
      "انڊيا": 2124,
      "ائو": 2125,
      "مولانا": 2126,
      "خاص": 2127,
      "زت": 2128,
      "نما": 2129,
      "مقامي": 2130,
      "آخر": 2131,
      "ٺن": 2132,
      "سطح": 2133,
      "آئ": 2134,
      "قتل": 2135,
      "صد": 2136,
      "باب": 2137,
      "ائيندا": 2138,
      "ڏيندا": 2139,
      "اٿس": 2140,
      "تف": 2141,
      "پئ": 2142,
      "نمائ": 2143,
      "ڇي": 2144,
      "دل": 2145,
      "دائي": 2146,
      "فران": 2147,
      "ھوندو": 2148,
      "اچڻ": 2149,
      "چا": 2150,
      "پنج": 2151,
      "روڊ": 2152,
      "پيدائ": 2153,
      "صر": 2154,
      "مشھور": 2155,
      "قلا": 2156,
      "15": 2157,
      "ها": 2158,
      "اولھ": 2159,
      "پاڻيء": 2160,
      "اوت": 2161,
      "ضرو": 2162,
      "عظ": 2163,
      "al": 2164,
      "پولي": 2165,
      "ٻولين": 2166,
      "12": 2167,
      "ريو": 2168,
      "تيء": 2169,
      "ic": 2170,
      "فارسي": 2171,
      "ملاح": 2172,
      "چر": 2173,
      "توڙي": 2174,
      "ڪوشش": 2175,
      "عد": 2176,
      "مکي": 2177,
      "نار": 2178,
      "زور": 2179,
      "مجمو": 2180,
      "مقصد": 2181,
      "سميت": 2182,
      "نڪ": 2183,
      "وس": 2184,
      "er": 2185,
      "يڪي": 2186,
      "مقاب": 2187,
      "سٽري": 2188,
      "پٺ": 2189,
      "طن": 2190,
      "ننڍي": 2191,
      "ضو": 2192,
      "شو": 2193,
      "امام": 2194,
      "ڪمپن": 2195,
      "بھ": 2196,
      "شخص": 2197,
      "ٽل": 2198,
      "ڪارڊ": 2199,
      "حڪم": 2200,
      "عمار": 2201,
      "ڳنڍ": 2202,
      "نالا": 2203,
      "يونيورسٽ": 2204,
      "موسي": 2205,
      "ڪتابن": 2206,
      "سنڌو": 2207,
      "لاحن": 2208,
      "وره": 2209,
      "باري": 2210,
      "لڳي": 2211,
      "شڪل": 2212,
      "ڙيون": 2213,
      "انداز": 2214,
      "ايو": 2215,
      "گرام": 2216,
      "جڳ": 2217,
      "ڄاڻ": 2218,
      "جر": 2219,
      "لئ": 2220,
      "چار": 2221,
      "مار": 2222,
      "جسم": 2223,
      "طب": 2224,
      "فهرست": 2225,
      "نوان": 2226,
      "مڃ": 2227,
      "جني": 2228,
      "نتيجي": 2229,
      "آگسٽ": 2230,
      "رون": 2231,
      "مدر": 2232,
      "خدم": 2233,
      "ڊسمبر": 2234,
      "وس": 2235,
      "سول": 2236,
      "جما": 2237,
      "گرم": 2238,
      "توڻ": 2239,
      "سخت": 2240,
      "جيتوڻ": 2241,
      "امير": 2242,
      "سنگ": 2243,
      "نسي": 2244,
      "سج": 2245,
      "ol": 2246,
      "بار": 2247,
      "قيد": 2248,
      "جدا": 2249,
      "عورت": 2250,
      "افغ": 2251,
      "رھيو": 2252,
      "اڳو": 2253,
      "جيتوڻيڪ": 2254,
      "چر": 2255,
      "رض": 2256,
      "مصن": 2257,
      "رکندڙ": 2258,
      "موجوده": 2259,
      "اھا": 2260,
      "اريء": 2261,
      "چن": 2262,
      "سپ": 2263,
      "خط": 2264,
      "لاد": 2265,
      "بادشاهه": 2266,
      "می": 2267,
      "مير": 2268,
      "قوم": 2269,
      "اصطلاحن": 2270,
      "نه": 2271,
      "پري": 2272,
      "اپو": 2273,
      "...": 2274,
      "ڙين": 2275,
      "آڪٽو": 2276,
      "تعليمي": 2277,
      "مواد": 2278,
      "فتار": 2279,
      "چڪو": 2280,
      "ائر": 2281,
      "پريل": 2282,
      "زندگيء": 2283,
      "مذهبي": 2284,
      "اڪ": 2285,
      "اداڪ": 2286,
      "رکڻ": 2287,
      "اڃا": 2288,
      "مئ": 2289,
      "ڊا": 2290,
      "گاهه": 2291,
      "مو": 2292,
      "14": 2293,
      "ڊن": 2294,
      "ھين": 2295,
      "زل": 2296,
      "عه": 2297,
      "عب": 2298,
      "والد": 2299,
      "ثقافتي": 2300,
      "داري": 2301,
      "قلعي": 2302,
      "چئبو": 2303,
      "ڪهاڻ": 2304,
      "آوا": 2305,
      "ٽن": 2306,
      "معا": 2307,
      "am": 2308,
      "خدا": 2309,
      "ماڻھن": 2310,
      "حاڪ": 2311,
      "مصنف": 2312,
      "بغ": 2313,
      "حد": 2314,
      "گل": 2315,
      "نھن": 2316,
      "گار": 2317,
      "چيئر": 2318,
      "پھرين": 2319,
      "30": 2320,
      "of": 2321,
      "چون": 2322,
      "آڪٽوبر": 2323,
      "خان": 2324,
      "شاعريء": 2325,
      "رست": 2326,
      "ڌار": 2327,
      "دف": 2328,
      "ڻي": 2329,
      "شڪر": 2330,
      "داو": 2331,
      "هزار": 2332,
      "مرڪزي": 2333,
      "لائي": 2334,
      "انج": 2335,
      "ڪاڻي": 2336,
      "لڳو": 2337,
      "طي": 2338,
      "چڱ": 2339,
      "اڪي": 2340,
      "وڌي": 2341,
      "ريگ": 2342,
      "ايران": 2343,
      "مکيه": 2344,
      "جهي": 2345,
      "14": 2346,
      "نبي": 2347,
      "لال": 2348,
      "اپريل": 2349,
      "آء": 2350,
      "سڪ": 2351,
      "ڪپ": 2352,
      "آفريڪا": 2353,
      "سون": 2354,
      "اريو": 2355,
      "خلي": 2356,
      "راب": 2357,
      "اعل": 2358,
      "حالت": 2359,
      "ڀيرو": 2360,
      "علاو": 2361,
      "شريف": 2362,
      "قابل": 2363,
      "اک": 2364,
      "ٽائي": 2365,
      "پڙ": 2366,
      "مات": 2367,
      "ڪراچيء": 2368,
      "es": 2369,
      "لکڻ": 2370,
      "هندي": 2371,
      "راڻ": 2372,
      "نومبر": 2373,
      "ڀڳ": 2374,
      "اصلي": 2375,
      "سنڀ": 2376,
      "فيبرو": 2377,
      "لس": 2378,
      "11": 2379,
      "بزر": 2380,
      "قط": 2381,
      "راج": 2382,
      "ڙي": 2383,
      "باغ": 2384,
      "اون": 2385,
      "ناول": 2386,
      "ڊيو": 2387,
      "ارتي": 2388,
      "ڪناري": 2389,
      "رڪارڊ": 2390,
      "پسند": 2391,
      "يڪل": 2392,
      "فوٽ": 2393,
      "اجا": 2394,
      "لفظ": 2395,
      "تشريحي": 2396,
      "جولاء": 2397,
      "طاقت": 2398,
      "فور": 2399,
      "پورٽ": 2400,
      "غل": 2401,
      "ٻار": 2402,
      "ڊل": 2403,
      "ati": 2404,
      "راجا": 2405,
      "سلم": 2406,
      "آث": 2407,
      "اولاد": 2408,
      "وائ": 2409,
      "ڪلام": 2410,
      "جع": 2411,
      "روش": 2412,
      "ڀاء": 2413,
      "کن": 2414,
      "جهان": 2415,
      "سيپٽ": 2416,
      "وارڊ": 2417,
      "سامون": 2418,
      "سون": 2419,
      "ڇاڪ": 2420,
      "پيداو": 2421,
      "سلطان": 2422,
      "آزادي": 2423,
      "خود": 2424,
      "ڇاڪاڻ": 2425,
      "اجي": 2426,
      "قبضو": 2427,
      "انهي": 2428,
      "واپس": 2429,
      "صحي": 2430,
      "زيء": 2431,
      "ذات": 2432,
      "وا": 2433,
      "شيء": 2434,
      "تنظيم": 2435,
      "سيپٽمبر": 2436,
      "190": 2437,
      "ڏو": 2438,
      "نل": 2439,
      "ادن": 2440,
      "اٽڪل": 2441,
      "نڍ": 2442,
      "ليٰ": 2443,
      "حل": 2444,
      "ورتي": 2445,
      "منهن": 2446,
      "ته": 2447,
      "ٽرن": 2448,
      "پاس": 2449,
      "صوبو": 2450,
      "ويجهو": 2451,
      "as": 2452,
      "آئين": 2453,
      "ھيا": 2454,
      "انگريزن": 2455,
      "18": 2456,
      "بلحاظ": 2457,
      "نيو": 2458,
      "وڏن": 2459,
      "ليڪ": 2460,
      "بنگ": 2461,
      "افت": 2462,
      "مخال": 2463,
      "هاء": 2464,
      "قبر": 2465,
      "گو": 2466,
      "اسيمب": 2467,
      "ترو": 2468,
      "ڪرو": 2469,
      "حمل": 2470,
      "دوم": 2471,
      "متاثر": 2472,
      "موڪل": 2473,
      "قدرتي": 2474,
      "ضرورت": 2475,
      "سامونڊي": 2476,
      "سائين": 2477,
      "معام": 2478,
      "ثقافت": 2479,
      "خوا": 2480,
      "هور": 2481,
      "واس": 2482,
      "قومن": 2483,
      "اٿار": 2484,
      "اصطلاح": 2485,
      "گورنر": 2486,
      "آواز": 2487,
      "ٺاهي": 2488,
      "ڇا": 2489,
      "انقلا": 2490,
      "طيف": 2491,
      "ٽنگ": 2492,
      "ڻڻ": 2493,
      "فيبروري": 2494,
      "25": 2495,
      "بال": 2496,
      "خبر": 2497,
      "مليو": 2498,
      "ین": 2499,
      "ac": 2500,
      "سيڪري": 2501,
      "صديء": 2502,
      "ڪيٽ": 2503,
      "راه": 2504,
      "ٺٽي": 2505,
      "پٿر": 2506,
      "پهچ": 2507,
      "صفحا": 2508,
      "13": 2509,
      "سلي": 2510,
      "og": 2511,
      "راب": 2512,
      "وڃڻ": 2513,
      "پريس": 2514,
      "ٻيهر": 2515,
      "نون": 2516,
      "وجود": 2517,
      "ڀارت": 2518,
      "ڏه": 2519,
      "انجني": 2520,
      "ماڳ": 2521,
      "ابو": 2522,
      "سنڌيء": 2523,
      "نر": 2524,
      "عظيم": 2525,
      "پا": 2526,
      "ليت": 2527,
      "عقي": 2528,
      "ڇاپو": 2529,
      "تجر": 2530,
      "سکر": 2531,
      "وسلم": 2532,
      "ارڪ": 2533,
      "16": 2534,
      "ٻہ": 2535,
      "ٽال": 2536,
      "انتظامي": 2537,
      "قا": 2538,
      "ٻارن": 2539,
      "ايندو": 2540,
      "شاھ": 2541,
      "اخبار": 2542,
      "بهترين": 2543,
      "شڪ": 2544,
      "اٺ": 2545,
      "ازي": 2546,
      "جه": 2547,
      "لن": 2548,
      "موق": 2549,
      "اتان": 2550,
      "ڏسي": 2551,
      "سياست": 2552,
      "شڪار": 2553,
      "ميدان": 2554,
      "اڌ": 2555,
      "موت": 2556,
      "اسيمبلي": 2557,
      "بائي": 2558,
      "ارف": 2559,
      "مذهب": 2560,
      "مين": 2561,
      "ڪريو": 2562,
      "عوامي": 2563,
      "ماهر": 2564,
      "خود": 2565,
      "عث": 2566,
      "چوڻ": 2567,
      "tr": 2568,
      "ئس": 2569,
      "19": 2570,
      "50": 2571,
      "ur": 2572,
      "اهڙو": 2573,
      "متي": 2574,
      "پروفي": 2575,
      "ٺهيل": 2576,
      "برطانوي": 2577,
      "اسم": 2578,
      "ڏو": 2579,
      "پراڻي": 2580,
      "موضوع": 2581,
      "بئ": 2582,
      "عظم": 2583,
      "تصور": 2584,
      "آغ": 2585,
      "کنڊ": 2586,
      "جوا": 2587,
      "شهرن": 2588,
      "17": 2589,
      "علاوه": 2590,
      "شڪار": 2591,
      "سلسل": 2592,
      "اط": 2593,
      "مئي": 2594,
      "ٻاهر": 2595,
      "پورو": 2596,
      "ايوارڊ": 2597,
      "واپار": 2598,
      "تنهنڪري": 2599,
      "ويز": 2600,
      "صاف": 2601,
      "گهه": 2602,
      "راج": 2603,
      "سڃاڻ": 2604,
      "مخدوم": 2605,
      "بندي": 2606,
      "ڍنڍ": 2607,
      "سگهن": 2608,
      "جمهو": 2609,
      "لشڪر": 2610,
      "نموني": 2611,
      "ڪمپي": 2612,
      "سماج": 2613,
      "مراد": 2614,
      "ڊويزن": 2615,
      "لڊ": 2616,
      "انٽر": 2617,
      "188": 2618,
      "بلوچ": 2619,
      "ھون": 2620,
      "شخص": 2621,
      "چان": 2622,
      "نوجو": 2623,
      "گھر": 2624,
      "قلي": 2625,
      "ٺھ": 2626,
      "گھر": 2627,
      "ڪرايو": 2628,
      "ائيندو": 2629,
      "مپ": 2630,
      "قاضي": 2631,
      "يد": 2632,
      "اسين": 2633,
      "هار": 2634,
      "ورا": 2635,
      "ذر": 2636,
      "سلا": 2637,
      "ابت": 2638,
      "اعلان": 2639,
      "خير": 2640,
      "ندڙن": 2641,
      "ڪيمي": 2642,
      "ڊڪ": 2643,
      "گھٽ": 2644,
      "حقيقت": 2645,
      "هر": 2646,
      "جوڙ": 2647,
      "سردار": 2648,
      "el": 2649,
      "قيمت": 2650,
      "آس": 2651,
      "خر": 2652,
      "تريون": 2653,
      "پاڪستاني": 2654,
      "شل": 2655,
      "روشني": 2656,
      "خات": 2657,
      "ڙهه": 2658,
      "رهن": 2659,
      "سيڪريٽري": 2660,
      "ڳي": 2661,
      "انھيء": 2662,
      "ڏسڻ": 2663,
      "بلوچستان": 2664,
      "قليچ": 2665,
      "يه": 2666,
      "يوناني": 2667,
      "حاجي": 2668,
      "دري": 2669,
      "شاهي": 2670,
      "مضبو": 2671,
      "اڪيڊ": 2672,
      "هجڻ": 2673,
      "گير": 2674,
      "رسالو": 2675,
      "ٺاھ": 2676,
      "منتق": 2677,
      "صحيح": 2678,
      "بائي": 2679,
      "رج": 2680,
      "طو": 2681,
      "ڻيون": 2682,
      "ايون": 2683,
      "علائقا": 2684,
      "بلا": 2685,
      "اتح": 2686,
      "پيداوار": 2687,
      "پلي": 2688,
      "ڪت": 2689,
      "عرصي": 2690,
      "رياستن": 2691,
      "نديء": 2692,
      "محفو": 2693,
      "سلسلي": 2694,
      "ڻين": 2695,
      "ٻوليون": 2696,
      "جين": 2697,
      "شاه": 2698,
      "چونڊيو": 2699,
      "سڌ": 2700,
      "چوڌ": 2701,
      "ڪاب": 2702,
      "لين": 2703,
      "اعليٰ": 2704,
      "پو": 2705,
      "اداري": 2706,
      "نڊن": 2707,
      "ضروري": 2708,
      "هار": 2709,
      "ورها": 2710,
      "يات": 2711,
      "محفوظ": 2712,
      "om": 2713,
      "چيئرمين": 2714,
      "ويت": 2715,
      "اڪث": 2716,
      "سرحد": 2717,
      "گهرجي": 2718,
      "پرائ": 2719,
      "پروفيسر": 2720,
      "لم": 2721,
      "ڏينھن": 2722,
      "وام": 2723,
      "مند": 2724,
      "ريڪ": 2725,
      "سمجهيو": 2726,
      "روز": 2727,
      "قبيلي": 2728,
      "اجازت": 2729,
      "ذي": 2730,
      "صور": 2731,
      "پکي": 2732,
      "جهن": 2733,
      "واڻي": 2734,
      "پاڪ": 2735,
      "سياست": 2736,
      "مذھ": 2737,
      "لفظن": 2738,
      "ٿون": 2739,
      "پبلڪ": 2740,
      "ابتدائي": 2741,
      "تما": 2742,
      "گج": 2743,
      "سائنسي": 2744,
      "صحت": 2745,
      "جبل": 2746,
      "چا": 2747,
      "ايرا": 2748,
      "دمش": 2749,
      "سار": 2750,
      "ھل": 2751,
      "پروگرام": 2752,
      "مظ": 2753,
      "ماه": 2754,
      "ڀرسان": 2755,
      "نقص": 2756,
      "شاخ": 2757,
      "عيسويء": 2758,
      "بال": 2759,
      "هوا": 2760,
      "ھتان": 2761,
      "نگي": 2762,
      "پيدائش": 2763,
      "ھاڻي": 2764,
      "th": 2765,
      "اهميت": 2766,
      "روايت": 2767,
      "حاڪم": 2768,
      "محبت": 2769,
      "ليگ": 2770,
      "لاڙڪاڻي": 2771,
      "آباد": 2772,
      "حصن": 2773,
      "اٿارٽي": 2774,
      "بلوچ": 2775,
      "معلومات": 2776,
      "سک": 2777,
      "ڪام": 2778,
      "باغ": 2779,
      "زرعي": 2780,
      "ڄائو": 2781,
      "فو": 2782,
      "ٽيڪنال": 2783,
      "ياد": 2784,
      "شمار": 2785,
      "شڪارپور": 2786,
      "ڳول": 2787,
      "قلعو": 2788,
      "ڪرن": 2789,
      "جانورن": 2790,
      "ڪيتريون": 2791,
      "ڪرين": 2792,
      "ڪائ": 2793,
      "يورپي": 2794,
      "شروعاتي": 2795,
      "مستق": 2796,
      "شام": 2797,
      "صل": 2798,
      "عق": 2799,
      "اديب": 2800,
      "ڊو": 2801,
      "اسما": 2802,
      "روس": 2803,
      "سنه": 2804,
      "گڏجي": 2805,
      "ڪيم": 2806,
      "ساڳي": 2807,
      "رھي": 2808,
      "قص": 2809,
      "ڪٿي": 2810,
      "ساڳئي": 2811,
      "رهڻ": 2812,
      "مطالعو": 2813,
      "آيل": 2814,
      "یا": 2815,
      "وزيرا": 2816,
      "ايندڙ": 2817,
      "حملو": 2818,
      "سليم": 2819,
      "ماس": 2820,
      "ماح": 2821,
      "مضبوط": 2822,
      "il": 2823,
      "رهندو": 2824,
      "وفا": 2825,
      "سگھي": 2826,
      "آئي": 2827,
      "اتي": 2828,
      "اڪثريت": 2829,
      "رائي": 2830,
      "سال": 2831,
      "نڪ": 2832,
      "مقد": 2833,
      "ليا": 2834,
      "ٻا": 2835,
      "مور": 2836,
      "موسم": 2837,
      "وگڏ": 2838,
      "درجو": 2839,
      "قيام": 2840,
      "شاگردن": 2841,
      "اث": 2842,
      "صوص": 2843,
      "گڏوگڏ": 2844,
      "22": 2845,
      "تڪر": 2846,
      "تال": 2847,
      "نظري": 2848,
      "قبول": 2849,
      "مڙ": 2850,
      "نڪري": 2851,
      "توان": 2852,
      "ماحول": 2853,
      "تيل": 2854,
      "مبر": 2855,
      "ڪميون": 2856,
      "مت": 2857,
      "هئڻ": 2858,
      "191": 2859,
      "فرق": 2860,
      "ٺاهڻ": 2861,
      "چائي": 2862,
      "دران": 2863,
      "حسا": 2864,
      "ٺا": 2865,
      "اسپي": 2866,
      "ڪرائي": 2867,
      "احت": 2868,
      "اعظم": 2869,
      "معلوم": 2870,
      "سئ": 2871,
      "شيون": 2872,
      "ديني": 2873,
      "درياهه": 2874,
      "سڃاڻپ": 2875,
      "طا": 2876,
      "21": 2877,
      "بمب": 2878,
      "ائش": 2879,
      "سائيز": 2880,
      "ماڻي": 2881,
      "فٽ": 2882,
      "پٽي": 2883,
      "گورنمينٽ": 2884,
      "جبلن": 2885,
      "ثابت": 2886,
      "ڏٺو": 2887,
      "24": 2888,
      "گروپ": 2889,
      "چئن": 2890,
      "انستان": 2891,
      "عنص": 2892,
      "ڪيئن": 2893,
      "چوٿون": 2894,
      "40": 2895,
      "فض": 2896,
      "مسا": 2897,
      "ھجي": 2898,
      "اڳواڻ": 2899,
      "ريگستان": 2900,
      "صلا": 2901,
      "قات": 2902,
      "ميء": 2903,
      "ئڻ": 2904,
      "di": 2905,
      "فقط": 2906,
      "اڪيڊمي": 2907,
      "بري": 2908,
      "سلام": 2909,
      "نائ": 2910,
      "ايڇ": 2911,
      "موري": 2912,
      "ابراه": 2913,
      "گرمي": 2914,
      "ڪارو": 2915,
      "نمائند": 2916,
      "ــ": 2917,
      "ڄاڻايل": 2918,
      "پنجابي": 2919,
      "ارڻ": 2920,
      "ايڊ": 2921,
      "اھڙي": 2922,
      "نمون": 2923,
      "خار": 2924,
      "نر": 2925,
      "ڪونه": 2926,
      "اڀر": 2927,
      "سڄ": 2928,
      "اچن": 2929,
      "ڪمپني": 2930,
      "سلسلو": 2931,
      "ريه": 2932,
      "189": 2933,
      "ڌرتيء": 2934,
      "اوهان": 2935,
      "عبدالله": 2936,
      "متن": 2937,
      "اڇ": 2938,
      "ياد": 2939,
      "سائنس": 2940,
      "تڪ": 2941,
      "ثي": 2942,
      "شون": 2943,
      "ڪرت": 2944,
      "مخصوص": 2945,
      "ٽرڪ": 2946,
      "وطن": 2947,
      "ڳوٺن": 2948,
      "قبضي": 2949,
      "سياستدان": 2950,
      "لکيا": 2951,
      "ارڊ": 2952,
      "نيٽ": 2953,
      "اور": 2954,
      "جري": 2955,
      "دار": 2956,
      "عوام": 2957,
      "حالتن": 2958,
      "شاگرد": 2959,
      "ڌن": 2960,
      "رستي": 2961,
      "شعر": 2962,
      "ڊگري": 2963,
      "وٽر": 2964,
      "روف": 2965,
      "ڊائريڪ": 2966,
      "ag": 2967,
      "حقن": 2968,
      "پوي": 2969,
      "ولن": 2970,
      "نگئي": 2971,
      "ادارن": 2972,
      "جماعت": 2973,
      "پارلي": 2974,
      "ئرنگ": 2975,
      "رد": 2976,
      "پلا": 2977,
      "صوفي": 2978,
      "سانچا": 2979,
      "رئين": 2980,
      "نور": 2981,
      "ٻڌل": 2982,
      "ou": 2983,
      "يرا": 2984,
      "وٺڻ": 2985,
      "نشان": 2986,
      "2017": 2987,
      "قري": 2988,
      "سوس": 2989,
      "واپاري": 2990,
      "طريقي": 2991,
      "عدال": 2992,
      "ڌيء": 2993,
      "صنع": 2994,
      "شه": 2995,
      "نڀ": 2996,
      "مختصر": 2997,
      "پرائمري": 2998,
      "نگئيج": 2999,
      "نقصان": 3000,
      "بان": 3001,
      "سھ": 3002,
      "راش": 3003,
      "شهري": 3004,
      "ڏيندو": 3005,
      "بڻايو": 3006,
      "انعام": 3007,
      "شهيد": 3008,
      "صوبائي": 3009,
      "نگر": 3010,
      "ڪريم": 3011,
      "فلسفي": 3012,
      "پکي": 3013,
      "گهٽ": 3014,
      "قيء": 3015,
      "ھوندي": 3016,
      "کانسواء": 3017,
      "آثار": 3018,
      "هجن": 3019,
      "مقدار": 3020,
      "وڪ": 3021,
      "مائي": 3022,
      "ويڪ": 3023,
      "علمي": 3024,
      "يونيورسٽيء": 3025,
      "لق": 3026,
      "اڪو": 3027,
      "تيز": 3028,
      "معني": 3029,
      "تصوير": 3030,
      "نماز": 3031,
      "قاسم": 3032,
      "حياتي": 3033,
      "پارڪ": 3034,
      "ڪلهو": 3035,
      "سيء": 3036,
      "پهتو": 3037,
      "داس": 3038,
      "لائين": 3039,
      "وسيع": 3040,
      "خوش": 3041,
      "شڪست": 3042,
      "ابراهيم": 3043,
      "سزا": 3044,
      "مندر": 3045,
      "پال": 3046,
      "ھوندا": 3047,
      "پکيڙ": 3048,
      "اظ": 3049,
      "دروا": 3050,
      "صل": 3051,
      "ٽون": 3052,
      "مڪن": 3053,
      "ٻاه": 3054,
      "چس": 3055,
      "ڊگه": 3056,
      "نظم": 3057,
      "اهڙيء": 3058,
      "ec": 3059,
      "سائي": 3060,
      "ڀٽو": 3061,
      "اهڙا": 3062,
      "درياء": 3063,
      "بزرگ": 3064,
      "رسول": 3065,
      "چئي": 3066,
      "ڏين": 3067,
      "بحث": 3068,
      "ڪيميائي": 3069,
      "صيل": 3070,
      "خال": 3071,
      "وات": 3072,
      "وزيراعظم": 3073,
      "تحف": 3074,
      "اقت": 3075,
      "جام": 3076,
      "مني": 3077,
      "فن": 3078,
      "باس": 3079,
      "سرڪار": 3080,
      "سائيڪ": 3081,
      "ننڍو": 3082,
      "خدمتون": 3083,
      "لاڳو": 3084,
      "آدمش": 3085,
      "قسمن": 3086,
      "لئنگئيج": 3087,
      "افغانستان": 3088,
      "توانائي": 3089,
      "23": 3090,
      "رڪن": 3091,
      "گن": 3092,
      "ايٽ": 3093,
      "چوڌاري": 3094,
      "هد": 3095,
      "وق": 3096,
      "فرانس": 3097,
      "شير": 3098,
      "ڪانفر": 3099,
      "معاشي": 3100,
      "عنوان": 3101,
      "چڪا": 3102,
      "ملين": 3103,
      "اندار": 3104,
      "آر": 3105,
      "ايندا": 3106,
      "اقتص": 3107,
      "چنڊ": 3108,
      "اسب": 3109,
      "ادو": 3110,
      "دوست": 3111,
      "جانور": 3112,
      "طبي": 3113,
      "ويب": 3114,
      "قاع": 3115,
      "هز": 3116,
      "ھان": 3117,
      "انه": 3118,
      "تخلي": 3119,
      "سلي": 3120,
      "واريون": 3121,
      "ڇپائيندڙ": 3122,
      "نوجوان": 3123,
      "هڪڙو": 3124,
      "دلچس": 3125,
      "نگر": 3126,
      "مادي": 3127,
      "جھ": 3128,
      "دول": 3129,
      "چانڊ": 3130,
      "جاگرافي": 3131,
      "جذ": 3132,
      "ويئي": 3133,
      "ed": 3134,
      "راڳ": 3135,
      "زال": 3136,
      "قوت": 3137,
      "حلي": 3138,
      "بري": 3139,
      "ذيب": 3140,
      "کاتي": 3141,
      "ميٽرن": 3142,
      "ad": 3143,
      "نڪت": 3144,
      "وزن": 3145,
      "ٺل": 3146,
      "ترمي": 3147,
      "پکڙيل": 3148,
      "انجام": 3149,
      "رڻ": 3150,
      "قدر": 3151,
      "له": 3152,
      "يڪار": 3153,
      "ترج": 3154,
      "تلا": 3155,
      "ڇپيل": 3156,
      "نواب": 3157,
      "يتن": 3158,
      "خلافت": 3159,
      "بيمار": 3160,
      "لڳا": 3161,
      "گول": 3162,
      "تش": 3163,
      "پال": 3164,
      "پالي": 3165,
      "پيپل": 3166,
      "مود": 3167,
      "قانوني": 3168,
      "کے": 3169,
      "ذمي": 3170,
      "قمبر": 3171,
      "مسي": 3172,
      "گيت": 3173,
      "حر": 3174,
      "فز": 3175,
      "ڪين": 3176,
      "الب": 3177,
      "ڊيم": 3178,
      "حڪيم": 3179,
      "رحي": 3180,
      "وء": 3181,
      "In": 3182,
      "ستن": 3183,
      "ريان": 3184,
      "بدران": 3185,
      "زر": 3186,
      "تعارف": 3187,
      "عالمن": 3188,
      "نڪتل": 3189,
      "ادارو": 3190,
      "سري": 3191,
      "روسي": 3192,
      "وڌو": 3193,
      "نگار": 3194,
      "بهتر": 3195,
      "ha": 3196,
      "اڀ": 3197,
      "برابر": 3198,
      "ڌرم": 3199,
      "دا": 3200,
      "دگي": 3201,
      "نٿو": 3202,
      "روايتي": 3203,
      "دارن": 3204,
      "مبل": 3205,
      "روينيو": 3206,
      "عمارت": 3207,
      "انسائيڪ": 3208,
      "محل": 3209,
      "طيني": 3210,
      "مغل": 3211,
      "ڪمپيوٽر": 3212,
      "راڄ": 3213,
      "اينڊ": 3214,
      "حما": 3215,
      "کو": 3216,
      "ھند": 3217,
      "ريڊيو": 3218,
      "ميمڻ": 3219,
      "واحد": 3220,
      "خدمت": 3221,
      "راند": 3222,
      "باو": 3223,
      "ٽائون": 3224,
      "شاعرن": 3225,
      "ri": 3226,
      "هندستاني": 3227,
      "آدمشماري": 3228,
      "سنگ": 3229,
      "سٽم": 3230,
      "سامهون": 3231,
      "ڪورٽ": 3232,
      "انقلاب": 3233,
      "پڙهڻ": 3234,
      "اح": 3235,
      "اعز": 3236,
      "in": 3237,
      "جدو": 3238,
      "ادت": 3239,
      "وينديون": 3240,
      "ديش": 3241,
      "فرد": 3242,
      "دود": 3243,
      "سڃاتو": 3244,
      "هڪڙي": 3245,
      "فيصلو": 3246,
      "پٺيان": 3247,
      "رڪ": 3248,
      "ولد": 3249,
      "ڪيترا": 3250,
      "28": 3251,
      "ای": 3252,
      "خن": 3253,
      "شايد": 3254,
      "جواب": 3255,
      "ٽيڪنالاجي": 3256,
      "ٽڻ": 3257,
      "اليڪشن": 3258,
      "حدي": 3259,
      "لطيف": 3260,
      "نج": 3261,
      "ڪجي": 3262,
      "دريافت": 3263,
      "منتقل": 3264,
      "ری": 3265,
      "em": 3266,
      "مالي": 3267,
      "ٽائي": 3268,
      "گم": 3269,
      "ملڪي": 3270,
      "مس": 3271,
      "ديق": 3272,
      "منهن": 3273,
      "قبرستان": 3274,
      "Th": 3275,
      "آسٽري": 3276,
      "ترا": 3277,
      "هم": 3278,
      "ٽيلي": 3279,
      "خوب": 3280,
      "ننڍا": 3281,
      "ميون": 3282,
      "يوس": 3283,
      "ڪامياب": 3284,
      "آندو": 3285,
      "يتون": 3286,
      "بلڪل": 3287,
      "صلاحي": 3288,
      "آن": 3289,
      "دان": 3290,
      "سرش": 3291,
      "وسيلي": 3292,
      "انتظام": 3293,
      "انجنيئرنگ": 3294,
      "ضيء": 3295,
      "هائي": 3296,
      "انسان": 3297,
      "ڪالوني": 3298,
      "ro": 3299,
      "نور": 3300,
      "وجه": 3301,
      "مقابلي": 3302,
      "26": 3303,
      "متح": 3304,
      "وڌ": 3305,
      "ھيون": 3306,
      "سنس": 3307,
      "اخلا": 3308,
      "ڪان": 3309,
      "فيد": 3310,
      "186": 3311,
      "چيني": 3312,
      "منظور": 3313,
      "نڪر": 3314,
      "هيا": 3315,
      "سوسائ": 3316,
      "مصر": 3317,
      "آذر": 3318,
      "چونڊن": 3319,
      "نهايت": 3320,
      "سمجھ": 3321,
      "تخت": 3322,
      "پوليس": 3323,
      "ورھ": 3324,
      "آزاديء": 3325,
      "زو": 3326,
      "راڄ": 3327,
      "ملتان": 3328,
      "ڏيئي": 3329,
      "گاھ": 3330,
      "صلي": 3331,
      "لر": 3332,
      "نف": 3333,
      "مرد": 3334,
      "دٻ": 3335,
      "سڌي": 3336,
      "ماحو": 3337,
      "اڳي": 3338,
      "دستا": 3339,
      "حدون": 3340,
      "نمائندگي": 3341,
      "مڪي": 3342,
      "نيڪ": 3343,
      "ستائين": 3344,
      "هند": 3345,
      "ڏنا": 3346,
      "طريقو": 3347,
      "جرمن": 3348,
      "نواز": 3349,
      "جتان": 3350,
      "لاهور": 3351,
      "جيو": 3352,
      "مها": 3353,
      "ڪين": 3354,
      "رسالي": 3355,
      "مونن": 3356,
      "انسائيڪلو": 3357,
      "لڏي": 3358,
      "کا": 3359,
      "ڪڍي": 3360,
      "27": 3361,
      "خشڪ": 3362,
      "185": 3363,
      "حدن": 3364,
      "رفتار": 3365,
      "ممڪن": 3366,
      "منهنجي": 3367,
      "وفاقي": 3368,
      "ڊر": 3369,
      "آذربائي": 3370,
      "فرا": 3371,
      "ديرو": 3372,
      "بغاوت": 3373,
      "اکر": 3374,
      "لز": 3375,
      "مور": 3376,
      "هاري": 3377,
      "187": 3378,
      "جاگرافي": 3379,
      "ڀيٽ": 3380,
      "ماحولي": 3381,
      "سوويت": 3382,
      "بندر": 3383,
      "عيل": 3384,
      "مجي": 3385,
      "مھي": 3386,
      "ھڪ": 3387,
      "پيغ": 3388,
      "شان": 3389,
      "هتان": 3390,
      "ٽائ": 3391,
      "گهو": 3392,
      "يڪيشن": 3393,
      "رائي": 3394,
      "عزي": 3395,
      "غري": 3396,
      "ڊسٽ": 3397,
      "اڪبر": 3398,
      "کير": 3399,
      "مضمونن": 3400,
      "سگھجي": 3401,
      "جعفر": 3402,
      "باوجود": 3403,
      "سور": 3404,
      "لت": 3405,
      "هٿ": 3406,
      "درجي": 3407,
      "مهراڻ": 3408,
      "اتحاد": 3409,
      "جار": 3410,
      "رنگ": 3411,
      "سفار": 3412,
      "ٻج": 3413,
      "پل": 3414,
      "چوريو": 3415,
      "رايو": 3416,
      "حڪمران": 3417,
      "موڪليو": 3418,
      "دش": 3419,
      "سسٽم": 3420,
      "تنقيد": 3421,
      "ڏهاڪي": 3422,
      "انسائيڪلوپيڊيا": 3423,
      "گھڻو": 3424,
      "سعو": 3425,
      "ڪيم": 3426,
      "نامي": 3427,
      "حال": 3428,
      "لاس": 3429,
      "سير": 3430,
      "184": 3431,
      "ايڊيٽر": 3432,
      "As": 3433,
      "us": 3434,
      "ٿوري": 3435,
      "ڪھ": 3436,
      "زيشن": 3437,
      "دادڪوٽ": 3438,
      "پڌ": 3439,
      "معيشت": 3440,
      "ھيٺ": 3441,
      "وني": 3442,
      "عملي": 3443,
      "اسماعيل": 3444,
      "گول": 3445,
      "محمود": 3446,
      "اھ": 3447,
      "اور": 3448,
      "الز": 3449,
      "وڄ": 3450,
      "ٺين": 3451,
      "ڀيرا": 3452,
      "29": 3453,
      "شا": 3454,
      "ليء": 3455,
      "ڪشمير": 3456,
      "راند": 3457,
      "وو": 3458,
      "ٿينديون": 3459,
      "يوسف": 3460,
      "80": 3461,
      "سب": 3462,
      "ميڊيا": 3463,
      "تاج": 3464,
      "خيرپور": 3465,
      "18ع": 3466,
      "مغر": 3467,
      "بائ": 3468,
      "خور": 3469,
      "هائ": 3470,
      "ڇپي": 3471,
      "کی": 3472,
      "جاپ": 3473,
      "فرز": 3474,
      "اڳوڻي": 3475,
      "دعو": 3476,
      "جنسي": 3477,
      "رسم": 3478,
      "ڏاڍو": 3479,
      "اڀي": 3480,
      "فري": 3481,
      "السلام": 3482,
      "اڻا": 3483,
      "ing": 3484,
      "ٽرول": 3485,
      "سرن": 3486,
      "ڪروڙ": 3487,
      "سامان": 3488,
      "شخصيت": 3489,
      "تين": 3490,
      "آفيس": 3491,
      "پاب": 3492,
      "ڌيان": 3493,
      "گز": 3494,
      "محسوس": 3495,
      "تبديلي": 3496,
      "ar": 3497,
      "حساب": 3498,
      "ڪاؤ": 3499,
      "وض": 3500,
      "ٿورو": 3501,
      "امتح": 3502,
      "re": 3503,
      "ساه": 3504,
      "چم": 3505,
      "صوبن": 3506,
      "ديوان": 3507,
      "تقريبن": 3508,
      "ation": 3509,
      "پنهنجن": 3510,
      "ڊيٽا": 3511,
      "ٻوٽن": 3512,
      "ڪانفرنس": 3513,
      "آمد": 3514,
      "دانن": 3515,
      "گهڻا": 3516,
      "سائيٽ": 3517,
      "ملڪيت": 3518,
      "جيل": 3519,
      "دما": 3520,
      "ڪڻ": 3521,
      "وارين": 3522,
      "لان": 3523,
      "همي": 3524,
      "ٻڌ": 3525,
      "ويل": 3526,
      "نيم": 3527,
      "سوال": 3528,
      "ولي": 3529,
      "محق": 3530,
      "رکن": 3531,
      "حملي": 3532,
      "دت": 3533,
      "گادي": 3534,
      "اندا": 3535,
      "پنهنجا": 3536,
      "انگريزيء": 3537,
      "آغا": 3538,
      "بج": 3539,
      "نامو": 3540,
      "-،": 3541,
      "اج": 3542,
      "جاب": 3543,
      "سموري": 3544,
      "بير": 3545,
      "ولا": 3546,
      "ابو": 3547,
      "ساز": 3548,
      "اسيمبل": 3549,
      "وائي": 3550,
      "2007ع": 3551,
      "عيد": 3552,
      "ڪائن": 3553,
      "ٽيٽي": 3554,
      "لکت": 3555,
      "ٻڌي": 3556,
      "ra": 3557,
      "ٽنڊ": 3558,
      "یں": 3559,
      "هونديون": 3560,
      "اصول": 3561,
      "لقب": 3562,
      "جی": 3563,
      "فيڪ": 3564,
      "مقبر": 3565,
      "پنجن": 3566,
      "انگي": 3567,
      "صفحي": 3568,
      "بادشاھ": 3569,
      "تسليم": 3570,
      "پهرئين": 3571,
      "پراڻو": 3572,
      "وهڻ": 3573,
      "اسپتال": 3574,
      "عن": 3575,
      "لائي": 3576,
      "ونا": 3577,
      "پهچي": 3578,
      "علاج": 3579,
      "تھ": 3580,
      "ڊال": 3581,
      "بلند": 3582,
      "آفيسر": 3583,
      "پارليامي": 3584,
      "انگريز": 3585,
      "ٺاهي": 3586,
      "ٿو": 3587,
      "برسا": 3588,
      "رواج": 3589,
      "ڊائريڪٽر": 3590,
      "سنسڪرت": 3591,
      "شعبي": 3592,
      "فون": 3593,
      "چل": 3594,
      "الح": 3595,
      "ريشن": 3596,
      "ڀاڱو": 3597,
      "ڇپيندڙ": 3598,
      "هري": 3599,
      "روپ": 3600,
      "حوالو": 3601,
      "مالڪ": 3602,
      "رخ": 3603,
      "لنڊن": 3604,
      "20ع": 3605,
      "پوندو": 3606,
      "پرن": 3607,
      "تهذيب": 3608,
      "تڪرار": 3609,
      "خون": 3610,
      "لڙ": 3611,
      "ارون": 3612,
      "الو": 3613,
      "محدود": 3614,
      "مجموعو": 3615,
      "ڇپيو": 3616,
      "بڻائي": 3617,
      "and": 3618,
      "اڪن": 3619,
      "ننڍپڻ": 3620,
      "سرگر": 3621,
      "احت": 3622,
      "اقتصادي": 3623,
      "ذاتي": 3624,
      "ائٽ": 3625,
      "ايتري": 3626,
      "منجهان": 3627,
      "ڊڪشن": 3628,
      "حل": 3629,
      "رهائش": 3630,
      "2015": 3631,
      "رڪٽ": 3632,
      "31": 3633,
      "خانو": 3634,
      "مگر": 3635,
      "پيماني": 3636,
      "سومرو": 3637,
      "نسلي": 3638,
      "اڳيان": 3639,
      "گجرات": 3640,
      "ڊسٽرڪٽ": 3641,
      "ڪاٺ": 3642,
      "بهادر": 3643,
      "os": 3644,
      "نء": 3645,
      "برد": 3646,
      "بندر": 3647,
      "ٿر": 3648,
      "2005ع": 3649,
      "مهيني": 3650,
      "اين": 3651,
      "ايندي": 3652,
      "ڪول": 3653,
      "فاظ": 3654,
      "فزڪس": 3655,
      "(:": 3656,
      "اگ": 3657,
      "مرا": 3658,
      "وند": 3659,
      "امر": 3660,
      "افظ": 3661,
      "ٻڌايو": 3662,
      "پايو": 3663,
      "ڏيندي": 3664,
      "بره": 3665,
      "قبيلن": 3666,
      "معيار": 3667,
      "موسيقي": 3668,
      "اسيمبليء": 3669,
      "ووٽ": 3670,
      "ٽش": 3671,
      "ڪنٽرول": 3672,
      "رهندا": 3673,
      "نظريو": 3674,
      "us": 3675,
      "غز": 3676,
      "60": 3677,
      "حرڪ": 3678,
      "فطر": 3679,
      "نز": 3680,
      "ڳالھ": 3681,
      "گرفتار": 3682,
      "ديوتا": 3683,
      "حفاظ": 3684,
      "رق": 3685,
      "ڱي": 3686,
      "سگهيو": 3687,
      "وٽان": 3688,
      "چڪي": 3689,
      "انچ": 3690,
      "تھ": 3691,
      "عش": 3692,
      "ٺاهيو": 3693,
      "انيء": 3694,
      "ڀٽي": 3695,
      "ايترو": 3696,
      "ملڪي": 3697,
      "رکيل": 3698,
      "مسئلن": 3699,
      "اعزاز": 3700,
      "et": 3701,
      "هاڻ": 3702,
      "پس": 3703,
      "معاملن": 3704,
      "نسل": 3705,
      "ٿل": 3706,
      "ڙڻ": 3707,
      "اوزار": 3708,
      "جهڙي": 3709,
      "او": 3710,
      "آسٽريليا": 3711,
      "راني": 3712,
      "پٿ": 3713,
      "مولوي": 3714,
      "ڊيو": 3715,
      "سروي": 3716,
      "عمل": 3717,
      "متعلق": 3718,
      "ادي": 3719,
      "چيف": 3720,
      "میں": 3721,
      "مستقل": 3722,
      "فرزند": 3723,
      "ڏسو": 3724,
      "گا": 3725,
      "ائلي": 3726,
      "ميوزي": 3727,
      "ادارا": 3728,
      "ترڪي": 3729,
      "ناٽڪ": 3730,
      "مجموعي": 3731,
      "آذربائيجان": 3732,
      "جاگرافيائي": 3733,
      "جڪ": 3734,
      "معاه": 3735,
      "ضلعن": 3736,
      "فائدو": 3737,
      "ناڪ": 3738,
      "ڪانگري": 3739,
      "جنگ": 3740,
      "اڀياس": 3741,
      "بڻيو": 3742,
      "انسٽيٽي": 3743,
      "پارليامينٽ": 3744,
      "100": 3745,
      "فڪ": 3746,
      "هري": 3747,
      "جهاز": 3748,
      "چانڊيو": 3749,
      "آت": 3750,
      "جيو": 3751,
      "زون": 3752,
      "اياز": 3753,
      "پيٽ": 3754,
      "زميني": 3755,
      "سعودي": 3756,
      "زڪ": 3757,
      "گها": 3758,
      "پرڏي": 3759,
      "صفحن": 3760,
      "خرچ": 3761,
      "ميوزيم": 3762,
      "جز": 3763,
      "ڇي": 3764,
      "ڊراما": 3765,
      "آمد": 3766,
      "زرا": 3767,
      "مڙس": 3768,
      "35": 3769,
      "تيون": 3770,
      "وادي": 3771,
      "ڪريون": 3772,
      "ارتق": 3773,
      "مليا": 3774,
      "جهڙو": 3775,
      "معروف": 3776,
      "ڪارن": 3777,
      "ھڻ": 3778,
      "سياري": 3779,
      "دوار": 3780,
      "ڏاڍي": 3781,
      "ul": 3782,
      "واض": 3783,
      "اضاف": 3784,
      "عنصر": 3785,
      "op": 3786,
      "ڪلوميٽرن": 3787,
      "عيسوي": 3788,
      "قدم": 3789,
      "مدار": 3790,
      "ريا": 3791,
      "ويس": 3792,
      "تياري": 3793,
      "فيروز": 3794,
      "پارڪر": 3795,
      "جمع": 3796,
      "وائرس": 3797,
      "مز": 3798,
      "ڌا": 3799,
      "لاز": 3800,
      "صنعت": 3801,
      "فاصلي": 3802,
      "ريپبلڪ": 3803,
      "مايو": 3804,
      "ڌرتي": 3805,
      "ذيلي": 3806,
      "سڏيندا": 3807,
      "روم": 3808,
      "ڪارڻ": 3809,
      "سٽن": 3810,
      "ڪلاسيڪ": 3811,
      "ڀاڱي": 3812,
      "ڌر": 3813,
      "تنظي": 3814,
      "عثمان": 3815,
      "نظريي": 3816,
      "الع": 3817,
      "برقرار": 3818,
      "انسٽيٽيوٽ": 3819,
      "قول": 3820,
      "غي": 3821,
      "ميڊ": 3822,
      "ايراضي": 3823,
      "ده": 3824,
      "قد": 3825,
      "پين": 3826,
      "ئيشن": 3827,
      "بحري": 3828,
      "un": 3829,
      "آئر": 3830,
      "درا": 3831,
      "فا": 3832,
      "مخالف": 3833,
      "آڳا": 3834,
      "نائي": 3835,
      "ڏانھن": 3836,
      "ڪرائڻ": 3837,
      "عربن": 3838,
      "ڳالھ": 3839,
      "ذوال": 3840,
      "لی": 3841,
      "لسٽ": 3842,
      "ڙيو": 3843,
      "شيائي": 3844,
      "عهدي": 3845,
      "رستو": 3846,
      "قين": 3847,
      "ٽيو": 3848,
      "انين": 3849,
      "الب": 3850,
      "پارٽيء": 3851,
      "ڪتب": 3852,
      "زراعت": 3853,
      "رش": 3854,
      "ائيندي": 3855,
      "حمايت": 3856,
      "جتو": 3857,
      "ھا": 3858,
      "موٽي": 3859,
      "پورا": 3860,
      "ڏاکڻي": 3861,
      "ڪائنات": 3862,
      "عرا": 3863,
      "رومن": 3864,
      "تربيت": 3865,
      "تصني": 3866,
      "دادو": 3867,
      "زن": 3868,
      "مليل": 3869,
      "مشاه": 3870,
      "نڊر": 3871,
      "شرڪت": 3872,
      "مغربي": 3873,
      "سيسي": 3874,
      "لڳل": 3875,
      "مهر": 3876,
      "علامه": 3877,
      "چونڊجي": 3878,
      "ڪانگريس": 3879,
      "دع": 3880,
      "ڪمن": 3881,
      "آهستي": 3882,
      "سمجهي": 3883,
      "صلاح": 3884,
      "عباد": 3885,
      "ريٽ": 3886,
      "ملڻ": 3887,
      "فارم": 3888,
      "امتحان": 3889,
      "خري": 3890,
      "وڙه": 3891,
      "ڄڻ": 3892,
      "ڳن": 3893,
      "ھجڻ": 3894,
      "گھڻي": 3895,
      "رحمان": 3896,
      "ڪهاڻيون": 3897,
      "ائجي": 3898,
      "وين": 3899,
      "هاڻ": 3900,
      "لائق": 3901,
      "سلامت": 3902,
      "حرڪت": 3903,
      "از": 3904,
      "طر": 3905,
      "ود": 3906,
      "پوئ": 3907,
      "بادشاه": 3908,
      "کاڌي": 3909,
      "منظر": 3910,
      "يڪا": 3911,
      "يڪس": 3912,
      "ابوال": 3913,
      "عباسي": 3914,
      "عزيز": 3915,
      "لٽ": 3916,
      "ملي": 3917,
      "ھه": 3918,
      "مرحو": 3919,
      "ملائي": 3920,
      "جاد": 3921,
      "رکندو": 3922,
      "گلو": 3923,
      "تحقيقي": 3924,
      "سکيا": 3925,
      "ڀو": 3926,
      "اڻن": 3927,
      "شوق": 3928,
      "پڌرو": 3929,
      "ڪاؤنسل": 3930,
      "oc": 3931,
      "سينٽ": 3932,
      "ضاب": 3933,
      "ندن": 3934,
      "انگلينڊ": 3935,
      "هليو": 3936,
      "ڇپائي": 3937,
      "کائڻ": 3938,
      "ويٺو": 3939,
      "احوال": 3940,
      "اڻيء": 3941,
      "عورتون": 3942,
      "ist": 3943,
      "بمبئي": 3944,
      "حديث": 3945,
      "اضافو": 3946,
      "مزار": 3947,
      "هٿي": 3948,
      "ساحلي": 3949,
      "ترڪ": 3950,
      "فلمن": 3951,
      "تقريبا": 3952,
      "غريب": 3953,
      "فطرت": 3954,
      "سهو": 3955,
      "سماني": 3956,
      "يونٽ": 3957,
      "سڄو": 3958,
      "اکين": 3959,
      "هڻ": 3960,
      "وڻن": 3961,
      "انڪار": 3962,
      "برطانيا": 3963,
      "رضه": 3964,
      "ڪهاڻي": 3965,
      "پوڄ": 3966,
      "سربرا": 3967,
      "جاز": 3968,
      "يادگار": 3969,
      "دماغ": 3970,
      "مرحوم": 3971,
      "ساس": 3972,
      "بيماري": 3973,
      "سٽري": 3974,
      "ناھي": 3975,
      "ٽالپر": 3976,
      "سج": 3977,
      "نار": 3978,
      "ٽيڪل": 3979,
      "شماري": 3980,
      "خاصيت": 3981,
      "ورهايل": 3982,
      "اھم": 3983,
      "هندن": 3984,
      "روايتن": 3985,
      "ڳنڍيل": 3986,
      "آپري": 3987,
      "ڪاف": 3988,
      "چوٿين": 3989,
      "خاندانن": 3990,
      "نمايان": 3991,
      "دولت": 3992,
      "گلا": 3993,
      "خطر": 3994,
      "ويد": 3995,
      "ڪيائون": 3996,
      "ئيس": 3997,
      "تصويرون": 3998,
      "تخليق": 3999,
      "بکر": 4000,
      "ڏنائين": 4001,
      "ھنن": 4002,
      "سوسائٽي": 4003,
      "روني": 4004,
      "رهندڙ": 4005,
      "نقشي": 4006,
      "مسيح": 4007,
      "وضاحت": 4008,
      "زل": 4009,
      "ڙھ": 4010,
      "ڪير": 4011,
      "آباديء": 4012,
      "ٺھيل": 4013,
      "لازمي": 4014,
      "شم": 4015,
      "قبل": 4016,
      "وستان": 4017,
      "ديوي": 4018,
      "ڪوٺ": 4019,
      "وائيس": 4020,
      "خانا": 4021,
      "نامي": 4022,
      "ڪيس": 4023,
      "مطالعي": 4024,
      "خاني": 4025,
      "دڙي": 4026,
      "چڪ": 4027,
      "جنهنڪري": 4028,
      "ويندڙ": 4029,
      "تعري": 4030,
      "برٽش": 4031,
      "پنھنجو": 4032,
      "عدالت": 4033,
      "0000": 4034,
      "مديني": 4035,
      "بوت": 4036,
      "هميشه": 4037,
      "بارن": 4038,
      "کر": 4039,
      "سيوهڻ": 4040,
      "معاش": 4041,
      "فرانسيسي": 4042,
      "جيڪڏھن": 4043,
      "1947ع": 4044,
      "دلچسپي": 4045,
      "ڏھ": 4046,
      "مرڻ": 4047,
      "ڪوبه": 4048,
      "سرانجام": 4049,
      "برگ": 4050,
      "چونڊيل": 4051,
      "اليڪٽر": 4052,
      "غلط": 4053,
      "ia": 4054,
      "ئيء": 4055,
      "وچ": 4056,
      "پٽن": 4057,
      "ميڪ": 4058,
      "واڌ": 4059,
      "صوص": 4060,
      "آرٽ": 4061,
      "ماهرن": 4062,
      "خوبصورت": 4063,
      "آڻي": 4064,
      "سٺو": 4065,
      "عل": 4066,
      "پار": 4067,
      "۾.": 4068,
      "منت": 4069,
      "سرزمين": 4070,
      "خودمختيار": 4071,
      "حفاظت": 4072,
      "ab": 4073,
      "خراب": 4074,
      "داس": 4075,
      "ضي": 4076,
      "هائي": 4077,
      "اره": 4078,
      "روح": 4079,
      "ماحولياتي": 4080,
      "له": 4081,
      "پڇ": 4082,
      "ڻائي": 4083,
      "آرڪي": 4084,
      "اميد": 4085,
      "دفن": 4086,
      "مٽ": 4087,
      "ٻر": 4088,
      "روح": 4089,
      "سيم": 4090,
      "انتهائي": 4091,
      "گذريو": 4092,
      "اميدوار": 4093,
      "دستاويز": 4094,
      "):": 4095,
      "هف": 4096,
      "ڪيو": 4097,
      "مناسب": 4098,
      "شرح": 4099,
      "ڪشش": 4100,
      "نتيجو": 4101,
      "راجپو": 4102,
      "The": 4103,
      "اندازو": 4104,
      "le": 4105,
      "خصوص": 4106,
      "صي": 4107,
      "متعارف": 4108,
      "پد": 4109,
      "چاه": 4110,
      "جاگير": 4111,
      "آخر": 4112,
      "ترميم": 4113,
      "سٺي": 4114,
      "ورتائين": 4115,
      "پيار": 4116,
      "بيبي": 4117,
      "مقبول": 4118,
      "2000": 4119,
      "سڏجي": 4120,
      "مجيد": 4121,
      "عزت": 4122,
      "لاطيني": 4123,
      "ونن": 4124,
      "ترا": 4125,
      "ڪاڻو": 4126,
      "نالن": 4127,
      "حصا": 4128,
      "مهينو": 4129,
      "ايا": 4130,
      "مٽي": 4131,
      "مفيد": 4132,
      "سنگهه": 4133,
      "موس": 4134,
      "اوچائي": 4135,
      "منظم": 4136,
      "اختلا": 4137,
      "واسطو": 4138,
      "اق": 4139,
      "حافظ": 4140,
      "پکين": 4141,
      "پريم": 4142,
      "مذھب": 4143,
      "مبرن": 4144,
      "رحيم": 4145,
      "بڪ": 4146,
      "باز": 4147,
      "درخو": 4148,
      "معمو": 4149,
      "500": 4150,
      "اوارڊ": 4151,
      "ڪارو": 4152,
      "سڪندر": 4153,
      "مخالفت": 4154,
      "اظهار": 4155,
      "آدم": 4156,
      "عمر": 4157,
      "منص": 4158,
      "ڏنيون": 4159,
      "فار": 4160,
      "مالي": 4161,
      "ڪيري": 4162,
      "سربر": 4163,
      "حيدر": 4164,
      "معياري": 4165,
      "سينٽر": 4166,
      "اڳوڻو": 4167,
      "ورهاڱي": 4168,
      "طو": 4169,
      "واهه": 4170,
      "ڪڇ": 4171,
      "انص": 4172,
      "جنس": 4173,
      "جامع": 4174,
      "زيو": 4175,
      "ڀڳ": 4176,
      "اسري": 4177,
      "ڪوئ": 4178,
      "باھ": 4179,
      "مارجي": 4180,
      "ننڍڙو": 4181,
      "1990ع": 4182,
      "روزاني": 4183,
      "سٽر": 4184,
      "لڪ": 4185,
      "عقد": 4186,
      "ir": 4187,
      "ic": 4188,
      "ثاني": 4189,
      "عه": 4190,
      "سيٽ": 4191,
      "حيات": 4192,
      "بدين": 4193,
      "صنعتي": 4194,
      "ڊگهي": 4195,
      "70": 4196,
      "آنا": 4197,
      "غزل": 4198,
      "فڪر": 4199,
      "يار": 4200,
      "ورثي": 4201,
      "پوک": 4202,
      "خدمتن": 4203,
      "ak": 4204,
      "2018": 4205,
      "قادر": 4206,
      "جيت": 4207,
      "رکندي": 4208,
      "شعبن": 4209,
      "عرصو": 4210,
      "ad": 4211,
      "عھ": 4212,
      "مؤ": 4213,
      "وو": 4214,
      "وجهي": 4215,
      "پی": 4216,
      "ڪريء": 4217,
      "ہے": 4218,
      "اسٽو": 4219,
      "کيائين": 4220,
      "اخبارن": 4221,
      "واقعي": 4222,
      "سمج": 4223,
      "ھنڌ": 4224,
      "انسانن": 4225,
      "ھندو": 4226,
      "منجه": 4227,
      "ولا": 4228,
      "or": 4229,
      "بس": 4230,
      "تڪ": 4231,
      "ڄمار": 4232,
      "گذري": 4233,
      "مسٽر": 4234,
      "ٻڌائي": 4235,
      "حڪمراني": 4236,
      "لاڙڪاڻو": 4237,
      "Jog": 4238,
      "ڪيء": 4239,
      "منعقد": 4240,
      "ڊين": 4241,
      "اڳواڻي": 4242,
      "بور": 4243,
      "جڙيل": 4244,
      "اهڙن": 4245,
      "روج": 4246,
      "روشن": 4247,
      "جمهوريه": 4248,
      "وان": 4249,
      "ڪه": 4250,
      "ڪلي": 4251,
      "واڌ": 4252,
      "بيگم": 4253,
      "ٻيٽن": 4254,
      "طريقن": 4255,
      "زميند": 4256,
      "مڇ": 4257,
      "ورلڊ": 4258,
      "ميري": 4259,
      "تنهن": 4260,
      "تجويز": 4261,
      "اڄ": 4262,
      "مڇي": 4263,
      "يس": 4264,
      "200": 4265,
      "سوان": 4266,
      "وزارت": 4267,
      "صلى": 4268,
      "آخرڪار": 4269,
      "غلا": 4270,
      "ياف": 4271,
      "انو": 4272,
      "ايراني": 4273,
      "2019": 4274,
      "پبليڪيشن": 4275,
      "ڪون": 4276,
      "مرن": 4277,
      "ڪوار": 4278,
      "کوڙ": 4279,
      "ٻنھي": 4280,
      "اکرن": 4281,
      "تحفظ": 4282,
      "رز": 4283,
      "رپيا": 4284,
      "عڪس": 4285,
      "ٿري": 4286,
      "امت": 4287,
      "راڄڌ": 4288,
      "دڙو": 4289,
      "الن": 4290,
      "دير": 4291,
      "بازار": 4292,
      "حقيقي": 4293,
      "خليفي": 4294,
      "پيپلز": 4295,
      "دهلي": 4296,
      "يري": 4297,
      "ڪچ": 4298,
      "ايشيائي": 4299,
      "ترقيء": 4300,
      "اڪا": 4301,
      "جھڙ": 4302,
      "پاسو": 4303,
      "جتوئي": 4304,
      "باهه": 4305,
      "بنا": 4306,
      "پش": 4307,
      "اوا": 4308,
      "يائين": 4309,
      "ارب": 4310,
      "نيٺ": 4311,
      "ٽيم": 4312,
      "اداڪار": 4313,
      "صلاحيت": 4314,
      "محقق": 4315,
      "کليل": 4316,
      "لات": 4317,
      "ورڪ": 4318,
      "باقاع": 4319,
      "فيض": 4320,
      "پرڳ": 4321,
      "صدين": 4322,
      "لائبري": 4323,
      "بجلي": 4324,
      "جوڻي": 4325,
      "هين": 4326,
      "سڀئي": 4327,
      "تفصيل": 4328,
      "دفعو": 4329,
      "صورتح": 4330,
      "مقبرو": 4331,
      "مقابلو": 4332,
      "st": 4333,
      "انڪ": 4334,
      "روانو": 4335,
      "پرست": 4336,
      "سنڀال": 4337,
      "انٽرنيشنل": 4338,
      "ڪاروبار": 4339,
      "سز": 4340,
      "شور": 4341,
      "شهن": 4342,
      "مٽيء": 4343,
      "ڪور": 4344,
      "اده": 4345,
      "2018ع": 4346,
      "درس": 4347,
      "ڪارڪن": 4348,
      "چڱو": 4349,
      "ميونسپ": 4350,
      "کن": 4351,
      "ڳڻ": 4352,
      "انٽ": 4353,
      "نسبت": 4354,
      "ڪهڙي": 4355,
      "برطانيه": 4356,
      "اقتدار": 4357,
      "جابلو": 4358,
      "صورتحال": 4359,
      "ڪرائون": 4360,
      "پوندي": 4361,
      "اتل": 4362,
      "شريڪ": 4363,
      "ڪلاس": 4364,
      "موقعي": 4365,
      "آئيني": 4366,
      "ڊالر": 4367,
      "عراق": 4368,
      "ڪاو": 4369,
      "سوچ": 4370,
      "اڻيون": 4371,
      "خوش": 4372,
      "گذاري": 4373,
      "گروهه": 4374,
      "ڪلاڪ": 4375,
      "شھرن": 4376,
      "ايوب": 4377,
      "فلا": 4378,
      "لائن": 4379,
      "نبا": 4380,
      "مرح": 4381,
      "طرز": 4382,
      "بخاري": 4383,
      "..": 4384,
      "ريز": 4385,
      "منزل": 4386,
      "سراسري": 4387,
      "برادري": 4388,
      "کار": 4389,
      "انت": 4390,
      "ميمبرن": 4391,
      "امين": 4392,
      "19ع": 4393,
      "رکندا": 4394,
      "شھري": 4395,
      "Asad": 4396,
      "نڪا": 4397,
      "ستين": 4398,
      "Jogi": 4399,
      "بلي": 4400,
      "فصل": 4401,
      "پائ": 4402,
      "ڇڏي": 4403,
      "گلن": 4404,
      "جنگي": 4405,
      "منصو": 4406,
      "درجه": 4407,
      "ڳاڙ": 4408,
      "رحال": 4409,
      "JogiAsad": 4410,
      "تائي": 4411,
      "صف": 4412,
      "ايجاد": 4413,
      "سلر": 4414,
      "جاج": 4415,
      "قلم": 4416,
      "ويجھو": 4417,
      "خطي": 4418,
      "اسپين": 4419,
      "پئجي": 4420,
      "--": 4421,
      "رپورٽ": 4422,
      "فيڊ": 4423,
      "سگھن": 4424,
      "ڪميشن": 4425,
      "اڃان": 4426,
      "ڏيکاري": 4427,
      "ورهايو": 4428,
      "تعريف": 4429,
      "آهيون": 4430,
      "ريڊ": 4431,
      "لڳائي": 4432,
      "ine": 4433,
      "جھاز": 4434,
      "لغاري": 4435,
      "ڻس": 4436,
      "ورتل": 4437,
      "خواه": 4438,
      "مسلسل": 4439,
      "ذريعو": 4440,
      "اقبال": 4441,
      "نج": 4442,
      "ڀائ": 4443,
      "سنت": 4444,
      "فراهم": 4445,
      "مبارڪ": 4446,
      "2020": 4447,
      "بح": 4448,
      "سڪو": 4449,
      "جعفري": 4450,
      "واضح": 4451,
      "حج": 4452,
      "سالي": 4453,
      "ڪرم": 4454,
      "جيڪب": 4455,
      "سرگرم": 4456,
      "ap": 4457,
      "اون": 4458,
      "سک": 4459,
      "پلي": 4460,
      "ڪجھ": 4461,
      "سوش": 4462,
      "فيت": 4463,
      "ولر": 4464,
      "انگن": 4465,
      "پکڙ": 4466,
      "اريل": 4467,
      "اسڪا": 4468,
      "ننڍڙي": 4469,
      "گذري": 4470,
      "حڪمت": 4471,
      "هزارين": 4472,
      "سري": 4473,
      "ضن": 4474,
      "يا": 4475,
      "یو": 4476,
      "ويئر": 4477,
      "مھراڻ": 4478,
      "جاپان": 4479,
      "آسٽ": 4480,
      "مٽي": 4481,
      "ڊنگ": 4482,
      "ونگ": 4483,
      "ڪيترين": 4484,
      "خيالن": 4485,
      "جرمني": 4486,
      "ig": 4487,
      "آڻڻ": 4488,
      "اپ": 4489,
      "خالي": 4490,
      "پوي": 4491,
      "ماس": 4492,
      "جهد": 4493,
      "لڳايو": 4494,
      "مهينن": 4495,
      "ڳالهائيندڙ": 4496,
      "Re": 4497,
      "جائزو": 4498,
      "حياتياتي": 4499,
      "اٺن": 4500,
      "خل": 4501,
      "گبول": 4502,
      "لوم": 4503,
      "جهڙا": 4504,
      "ڪنن": 4505,
      "عيو": 4506,
      "نثر": 4507,
      "ماپ": 4508,
      "هنڌن": 4509,
      "وڏيون": 4510,
      "رسالن": 4511,
      "مهم": 4512,
      "چونڊون": 4513,
      "رياستون": 4514,
      "بيا": 4515,
      "تپي": 4516,
      "مائي": 4517,
      "وسند": 4518,
      "يار": 4519,
      "ڊر": 4520,
      "ڪشن": 4521,
      "مريد": 4522,
      "تصديق": 4523,
      "ھيٺ": 4524,
      "نامز": 4525,
      "خاتمي": 4526,
      "سی": 4527,
      "جنت": 4528,
      "سرائ": 4529,
      "نظر": 4530,
      "نوي": 4531,
      "سٽس": 4532,
      "مهل": 4533,
      "مهيا": 4534,
      "مٿاڇ": 4535,
      "اجلاس": 4536,
      "لنگ": 4537,
      "پائي": 4538,
      "ڌاتو": 4539,
      "الون": 4540,
      "نڊري": 4541,
      "ڀيڻ": 4542,
      "سنگت": 4543,
      "برسات": 4544,
      "آل": 4545,
      "اک": 4546,
      "بيء": 4547,
      "دد": 4548,
      "ڦر": 4549,
      "گال": 4550,
      "گير": 4551,
      "1999ع": 4552,
      "ent": 4553,
      "ضرور": 4554,
      "راشدي": 4555,
      "36": 4556,
      "بش": 4557,
      "خير": 4558,
      "ڇپايو": 4559,
      "انصاف": 4560,
      "محنت": 4561,
      "حوالا": 4562,
      "نمونو": 4563,
      "جدوجهد": 4564,
      "معمولي": 4565,
      "ديء": 4566,
      "فرو": 4567,
      "ايف": 4568,
      "ابڙو": 4569,
      "درج": 4570,
      "رهندي": 4571,
      "ٽرانس": 4572,
      "ڳاڙهي": 4573,
      "پيدائشون": 4574,
      "the": 4575,
      "الزام": 4576,
      "هيڊ": 4577,
      "ڳالهيون": 4578,
      "هلندڙ": 4579,
      "شمسي": 4580,
      "چئجي": 4581,
      "درخواست": 4582,
      "راڄڌاني": 4583,
      "id": 4584,
      "ره": 4585,
      "ممتا": 4586,
      "ڀارتي": 4587,
      "انجي": 4588,
      "راتي": 4589,
      "ليٽ": 4590,
      "جوڙي": 4591,
      "نسلن": 4592,
      "33": 4593,
      "تار": 4594,
      "شد": 4595,
      "لون": 4596,
      "جناح": 4597,
      "جيستائين": 4598,
      "ڊيشن": 4599,
      "اسٽيٽ": 4600,
      "سئو": 4601,
      "ٽنڊو": 4602,
      "داستان": 4603,
      "سوانح": 4604,
      "hi": 4605,
      "اٽ": 4606,
      "فرض": 4607,
      "گوشت": 4608,
      "پرنٽنگ": 4609,
      "عشق": 4610,
      "زخ": 4611,
      "روشن": 4612,
      "ادري": 4613,
      "اما": 4614,
      "ڊڪشنري": 4615,
      "عبادت": 4616,
      "en": 4617,
      "يڪيو": 4618,
      "ساٿي": 4619,
      "واريء": 4620,
      "مارڪيٽ": 4621,
      "2012": 4622,
      "ممتاز": 4623,
      "90": 4624,
      "iv": 4625,
      "اچ": 4626,
      "عباس": 4627,
      "ياتي": 4628,
      "ڀڃ": 4629,
      "ڪٽ": 4630,
      "واپر": 4631,
      "بحال": 4632,
      "ــــ": 4633,
      "جڳهه": 4634,
      "مذھبي": 4635,
      "24": 4636,
      "رئيس": 4637,
      "ڀڄي": 4638,
      "ڇهه": 4639,
      "ميٽرو": 4640,
      "مولائي": 4641,
      "32": 4642,
      "ter": 4643,
      "ڀريل": 4644,
      "کل": 4645,
      "هوائي": 4646,
      "چوڪ": 4647,
      "رياستي": 4648,
      "روحاني": 4649,
      "آڏ": 4650,
      "سعيد": 4651,
      "فھ": 4652,
      "کول": 4653,
      "ادل": 4654,
      "گهراڻي": 4655,
      "منسو": 4656,
      "هيه": 4657,
      "سمورو": 4658,
      "1960ع": 4659,
      "اچار": 4660,
      "ٺهڻ": 4661,
      "مجبور": 4662,
      "ايٽمي": 4663,
      "خوراڪ": 4664,
      "بادشاهت": 4665,
      "ثبوت": 4666,
      "ڪوڊ": 4667,
      "فيٰ": 4668,
      "سيڪنڊري": 4669,
      "وڪيل": 4670,
      "بابا": 4671,
      "انڊين": 4672,
      "حياتيات": 4673,
      "دشمن": 4674,
      "اديبن": 4675,
      "جاني": 4676,
      "ڪائي": 4677,
      "سياح": 4678,
      "اندروني": 4679,
      "سڏبو": 4680,
      "رھندڙ": 4681,
      "خاتمو": 4682,
      "بيمارين": 4683,
      "آئرلينڊ": 4684,
      "آري": 4685,
      "ٽئين": 4686,
      "ڊين": 4687,
      "ہیں": 4688,
      "شاور": 4689,
      "مٿس": 4690,
      "خريد": 4691,
      "بيڪ": 4692,
      "زوال": 4693,
      "ڳڙهه": 4694,
      "برقي": 4695,
      "2007": 4696,
      "بهرحال": 4697,
      "مدرسي": 4698,
      "دٻاء": 4699,
      "صبح": 4700,
      "پرن": 4701,
      "ڪش": 4702,
      "ڪاس": 4703,
      "ھلي": 4704,
      "اسرائ": 4705,
      "کوٽائي": 4706,
      "پيغام": 4707,
      "گهرن": 4708,
      "سڌو": 4709,
      "هڻي": 4710,
      "پيرو": 4711,
      "نيت": 4712,
      "پرستي": 4713,
      "ناڪ": 4714,
      "سمجهڻ": 4715,
      "خارج": 4716,
      "قريشي": 4717,
      "دعوت": 4718,
      "پرڏيهي": 4719,
      "نباتا": 4720,
      "خبر": 4721,
      "وير": 4722,
      "ڪوٽ": 4723,
      "اصولن": 4724,
      "ماڻهوء": 4725,
      "واقعن": 4726,
      "ڪالم": 4727,
      "مقدس": 4728,
      "اسرائيل": 4729,
      "سے": 4730,
      "فين": 4731,
      "ڀري": 4732,
      "ڌو": 4733,
      "ڪپ": 4734,
      "اندارن": 4735,
      "نما": 4736,
      "1970ع": 4737,
      "اڀرندي": 4738,
      "هدايت": 4739,
      "اڇي": 4740,
      "بغير": 4741,
      "ھار": 4742,
      "ميون": 4743,
      "ساڻس": 4744,
      "سرچ": 4745,
      "علائقائي": 4746,
      "فاق": 4747,
      "نفسي": 4748,
      "ميڊيڪل": 4749,
      "سد": 4750,
      "مک": 4751,
      "کائي": 4752,
      "انء": 4753,
      "انکي": 4754,
      "لوجي": 4755,
      "2006ع": 4756,
      "ائونڊ": 4757,
      "قبيلو": 4758,
      "آغاز": 4759,
      "جيء": 4760,
      "عجائ": 4761,
      "نز": 4762,
      "ميلا": 4763,
      "سرو": 4764,
      "پهري": 4765,
      "2011": 4766,
      "ٻيھر": 4767,
      "حاق": 4768,
      "کاڌو": 4769,
      "ity": 4770,
      "بچاء": 4771,
      "27": 4772,
      "پشاور": 4773,
      "ميرن": 4774,
      "ڪرا": 4775,
      "تعاون": 4776,
      "ساڄي": 4777,
      "منٽ": 4778,
      "شهدادڪوٽ": 4779,
      "سوسي": 4780,
      "tion": 4781,
      "لس": 4782,
      "پڙهي": 4783,
      "ڳائڻ": 4784,
      "واھ": 4785,
      "پين": 4786,
      "منڊل": 4787,
      "ڪنڊ": 4788,
      "وڌڻ": 4789,
      "پوڄا": 4790,
      "نڪاح": 4791,
      "سياحت": 4792,
      "گهرو": 4793,
      "وڌائڻ": 4794,
      "بلدي": 4795,
      "فلڪي": 4796,
      "مصط": 4797,
      "سروس": 4798,
      "ٽيليويزن": 4799,
      "جاندارن": 4800,
      "سار": 4801,
      "چڙه": 4802,
      "ڪمزور": 4803,
      "اشارو": 4804,
      "ڪميٽي": 4805,
      "ڳولا": 4806,
      "ot": 4807,
      "جام": 4808,
      "دني": 4809,
      "معن": 4810,
      "چولي": 4811,
      "اطلا": 4812,
      "آڻي": 4813,
      "جاندار": 4814,
      "قبر": 4815,
      "مڪر": 4816,
      "ساز": 4817,
      "وڌائي": 4818,
      "ٽرل": 4819,
      "جمالي": 4820,
      "آڪسي": 4821,
      "ڊگهو": 4822,
      "ملاقات": 4823,
      "St": 4824,
      "ڍنڍ": 4825,
      "اسد": 4826,
      "ويٰ": 4827,
      "درست": 4828,
      "نايو": 4829,
      "نقل": 4830,
      "ڪهاڻين": 4831,
      "ڪابل": 4832,
      "ٻاهرين": 4833,
      "سرگرمين": 4834,
      "ce": 4835,
      "دهل": 4836,
      "انور": 4837,
      "اهري": 4838,
      "پيئڻ": 4839,
      "ناڊا": 4840,
      "ڪڍيو": 4841,
      "پوليٽن": 4842,
      "خليفو": 4843,
      "پليٽ": 4844,
      "um": 4845,
      "ڪمش": 4846,
      "برف": 4847,
      "سٽنٽ": 4848,
      "ڇڏيا": 4849,
      "بندو": 4850,
      "چڱي": 4851,
      "جوڙجڪ": 4852,
      "هج": 4853,
      "يز": 4854,
      "ڄمڻ": 4855,
      "الحق": 4856,
      "ماڊل": 4857,
      "جيترو": 4858,
      "گرو": 4859,
      "نوڪري": 4860,
      "ڪاٺ": 4861,
      "عرف": 4862,
      "سگهو": 4863,
      "رھيا": 4864,
      "پاسن": 4865,
      "ازن": 4866,
      "دروي": 4867,
      "زير": 4868,
      "سؤ": 4869,
      "وڻ": 4870,
      "ڏا": 4871,
      "يڪي": 4872,
      "1960": 4873,
      "25": 4874,
      "تڪلي": 4875,
      "جل": 4876,
      "غذ": 4877,
      "ڳائ": 4878,
      "واٽ": 4879,
      "سيني": 4880,
      "ناطي": 4881,
      "ساڳيو": 4882,
      "وهڪري": 4883,
      "خطاب": 4884,
      "مفاصلي": 4885,
      "سٽريشن": 4886,
      "آسمان": 4887,
      "پويان": 4888,
      "96": 4889,
      "چش": 4890,
      "ڪڙي": 4891,
      "سيني": 4892,
      "مشر": 4893,
      "مارشل": 4894,
      "اڏاوت": 4895,
      "هداي": 4896,
      "غيبي": 4897,
      "سربراھ": 4898,
      "is": 4899,
      "ضل": 4900,
      "عاش": 4901,
      "پس": 4902,
      "پند": 4903,
      "رياض": 4904,
      "ويل": 4905,
      "جيڪٽ": 4906,
      "جيريا": 4907,
      "واقعا": 4908,
      "گرافي": 4909,
      "آخوند": 4910,
      "علامت": 4911,
      "صحافي": 4912,
      "هيٺيان": 4913,
      "چٽ": 4914,
      "ڏهه": 4915,
      "اهل": 4916,
      "زيد": 4917,
      "حاض": 4918,
      "عبدالل": 4919,
      "وانگي": 4920,
      "ڪميونسٽ": 4921,
      "رڊ": 4922,
      "ضم": 4923,
      "کٽي": 4924,
      "ندين": 4925,
      "الح": 4926,
      "رومي": 4927,
      "ڪنگ": 4928,
      "2013": 4929,
      "خاطر": 4930,
      "ملاز": 4931,
      "مئٽرڪ": 4932,
      "سائنسدان": 4933,
      "اختلاف": 4934,
      "30": 4935,
      "le": 4936,
      "آڏو": 4937,
      "جسماني": 4938,
      "مٺ": 4939,
      "يهو": 4940,
      "ڌي": 4941,
      "ايئن": 4942,
      "مرض": 4943,
      "ڪوريا": 4944,
      "تازو": 4945,
      "جيني": 4946,
      "توھان": 4947,
      "عيسائي": 4948,
      "قبيلا": 4949,
      "چارج": 4950,
      "اعلي": 4951,
      "دفا": 4952,
      "ڪندڙن": 4953,
      "گئ": 4954,
      "پنڌ": 4955,
      "محا": 4956,
      "درٻار": 4957,
      "اتيء": 4958,
      "ڪانه": 4959,
      "يافته": 4960,
      "عيوض": 4961,
      "عيت": 4962,
      "مگ": 4963,
      "ٿان": 4964,
      "ڌن": 4965,
      "گئس": 4966,
      "بادشا": 4967,
      "هيٺان": 4968,
      "نائب": 4969,
      "طبي": 4970,
      "پوسٽ": 4971,
      "سازي": 4972,
      "شرط": 4973,
      "ڪاميابي": 4974,
      "خواجه": 4975,
      "راندين": 4976,
      "اشاع": 4977,
      "حمي": 4978,
      "ذير": 4979,
      "ھٿ": 4980,
      "الف": 4981,
      "ڪرڪيٽ": 4982,
      "شعور": 4983,
      "بنو": 4984,
      "تحرير": 4985,
      "ڪاميٽي": 4986,
      "واڌارو": 4987,
      "بلدياتي": 4988,
      "طالب": 4989,
      "پت": 4990,
      "گزي": 4991,
      "ھزار": 4992,
      "پنن": 4993,
      "183": 4994,
      "2000ع": 4995,
      "ڪلھو": 4996,
      "ڀرپور": 4997,
      "1980ع": 4998,
      "پاليسي": 4999,
      "هاڻوڪي": 5000,
      "پڪ": 5001,
      "ڏن": 5002,
      "ھائي": 5003,
      "یر": 5004,
      "آهيان": 5005,
      "لاڳ": 5006,
      "اوچ": 5007,
      "ملا": 5008,
      "وڏين": 5009,
      "اتن": 5010,
      "صوف": 5011,
      "2008ع": 5012,
      "ary": 5013,
      "سڳ": 5014,
      "طه": 5015,
      "کڻ": 5016,
      "ورهين": 5017,
      "عجائب": 5018,
      "آف": 5019,
      "ڪنديون": 5020,
      "ارو": 5021,
      "ميلن": 5022,
      "اڻين": 5023,
      "2017ع": 5024,
      "2012ع": 5025,
      "98": 5026,
      "Ch": 5027,
      "آسان": 5028,
      "اھر": 5029,
      "سچل": 5030,
      "وز": 5031,
      "چڻ": 5032,
      "ڪتي": 5033,
      "اريون": 5034,
      "بادشاھ": 5035,
      "مٿين": 5036,
      "پورچو": 5037,
      "گذاري": 5038,
      "موضوعن": 5039,
      "نڪتو": 5040,
      "90": 5041,
      "od": 5042,
      "ذهن": 5043,
      "غر": 5044,
      "هت": 5045,
      "ھندي": 5046,
      "رومان": 5047,
      "ستيء": 5048,
      "جيئ": 5049,
      "صول": 5050,
      "ٽرز": 5051,
      "جھڙوڪ": 5052,
      "زئي": 5053,
      "غالب": 5054,
      "وچولي": 5055,
      "صدارتي": 5056,
      "بروهي": 5057,
      "ڇپجي": 5058,
      "ڪوارٽر": 5059,
      "ch": 5060,
      "اڙي": 5061,
      "تاب": 5062,
      "ثو": 5063,
      "جاد": 5064,
      "سٽي": 5065,
      "ڪڙ": 5066,
      "اريا": 5067,
      "گرين": 5068,
      "ٻيلي": 5069,
      "هڪٻئي": 5070,
      "ليڪن": 5071,
      "ايراضيء": 5072,
      "آرام": 5073,
      "جد": 5074,
      "خز": 5075,
      "مپ": 5076,
      "هال": 5077,
      "ڀت": 5078,
      "لياقت": 5079,
      "لاڳاپا": 5080,
      "مغلن": 5081,
      "کاٻي": 5082,
      "ارتقا": 5083,
      "26": 5084,
      "عطا": 5085,
      "يقين": 5086,
      "پڇا": 5087,
      "ڪث": 5088,
      "2016": 5089,
      "اسڪولن": 5090,
      "نصير": 5091,
      "سنڀال": 5092,
      "مٿاڇري": 5093,
      "ميٽروپوليٽن": 5094,
      "لڏ": 5095,
      "ڦو": 5096,
      "گلي": 5097,
      "تيئن": 5098,
      "تحصيل": 5099,
      "2010ع": 5100,
      "گذر": 5101,
      "مسافر": 5102,
      "رفت": 5103,
      "سڪ": 5104,
      "ڀٽ": 5105,
      "ڊپٽي": 5106,
      "ارغ": 5107,
      "الط": 5108,
      "راز": 5109,
      "ليز": 5110,
      "مقناطي": 5111,
      "شيد": 5112,
      "سنگھ": 5113,
      "مستقبل": 5114,
      "رياضي": 5115,
      "ڪلاسيڪل": 5116,
      "صالح": 5117,
      "چڪر": 5118,
      "محتر": 5119,
      "ڪارپو": 5120,
      "ٻڌڻ": 5121,
      "تصنيف": 5122,
      "زبرد": 5123,
      "صاد": 5124,
      "مدي": 5125,
      "نٿا": 5126,
      "کڻڻ": 5127,
      "اهين": 5128,
      "سني": 5129,
      "امداد": 5130,
      "تيمور": 5131,
      "يوزر": 5132,
      "شمس": 5133,
      "dia": 5134,
      "سليمان": 5135,
      "ميلاپ": 5136,
      "45": 5137,
      "Ne": 5138,
      "عار": 5139,
      "نٿي": 5140,
      "هجري": 5141,
      "ڍي": 5142,
      "مردن": 5143,
      "اوائلي": 5144,
      "محبو": 5145,
      "سنڌين": 5146,
      "ڪلچر": 5147,
      "سيڪو": 5148,
      "دريا": 5149,
      "ڪپڙي": 5150,
      "ڪمشنر": 5151,
      "سوي": 5152,
      "سڪي": 5153,
      "ندس": 5154,
      "بات": 5155,
      "مشي": 5156,
      "آبهوا": 5157,
      "بڻائڻ": 5158,
      "تقسيم": 5159,
      "ڪائونٽي": 5160,
      "صنف": 5161,
      "سينٽرل": 5162,
      "دهليء": 5163,
      "An": 5164,
      "بص": 5165,
      "وم": 5166,
      "اسڪال": 5167,
      "ويهه": 5168,
      "ڪيشن": 5169,
      "گرد": 5170,
      "سمون": 5171,
      "180": 5172,
      "1992ع": 5173,
      "اٿن": 5174,
      "مسئلا": 5175,
      "بئنڪ": 5176,
      "97": 5177,
      "bl": 5178,
      "اتر": 5179,
      "تل": 5180,
      "جمال": 5181,
      "زائ": 5182,
      "طري": 5183,
      "غازي": 5184,
      "ڇهن": 5185,
      "اندر": 5186,
      "لاڏ": 5187,
      "مول": 5188,
      "منصوبو": 5189,
      "يوني": 5190,
      "فوجن": 5191,
      "زيب": 5192,
      "پروٽين": 5193,
      "هلائڻ": 5194,
      "هيٺين": 5195,
      "ابتدا": 5196,
      "تارا": 5197,
      "طب": 5198,
      "قد": 5199,
      "مٺي": 5200,
      "ڪمال": 5201,
      "ديت": 5202,
      "ناچ": 5203,
      "ڊرامي": 5204,
      "نرم": 5205,
      "زلز": 5206,
      "فھرست": 5207,
      "رھن": 5208,
      "فاني": 5209,
      "ارام": 5210,
      "سيٺ": 5211,
      "ديهه": 5212,
      "ڏيندڙ": 5213,
      "ٽيڊ": 5214,
      "حڪومتي": 5215,
      "مٽياري": 5216,
      "زباني": 5217,
      "شوري": 5218,
      "نئ": 5219,
      "ناري": 5220,
      "سافٽ": 5221,
      "اصر": 5222,
      "افسان": 5223,
      "ڳالهين": 5224,
      "1991ع": 5225,
      "آرٽس": 5226,
      "ڏيکاريو": 5227,
      "ايوان": 5228,
      "uc": 5229,
      "بطور": 5230,
      "شور": 5231,
      "متون": 5232,
      "ڪچو": 5233,
      "ڪڏھن": 5234,
      "ملندو": 5235,
      "وڌندڙ": 5236,
      "شيدائي": 5237,
      "هايو": 5238,
      "ايڪٽ": 5239,
      "ڪڍڻ": 5240,
      "قطب": 5241,
      "جمع": 5242,
      "حاد": 5243,
      "لھ": 5244,
      "ٺهي": 5245,
      "ڊرو": 5246,
      "مردم": 5247,
      "ملندڙ": 5248,
      "2004ع": 5249,
      "ننڍن": 5250,
      "سينٽي": 5251,
      "صادق": 5252,
      "300": 5253,
      "شاندار": 5254,
      "وڇ": 5255,
      "انڪري": 5256,
      "ڪنگ": 5257,
      "احساس": 5258,
      "مشڪل": 5259,
      "نوبل": 5260,
      "مزاح": 5261,
      "پٺاڻ": 5262,
      "انٽرنيٽ": 5263,
      "باغباني": 5264,
      "im": 5265,
      "خلائي": 5266,
      "سپريم": 5267,
      "وھ": 5268,
      "ڏهين": 5269,
      "پيرن": 5270,
      "پوٽو": 5271,
      "فيلڊ": 5272,
      "جاگير": 5273,
      "گھراڻي": 5274,
      "2023ع": 5275,
      "ڊرامن": 5276,
      "دفعا": 5277,
      "منهنجو": 5278,
      "عنايت": 5279,
      "ڪيريئر": 5280,
      "پخت": 5281,
      "ارڙ": 5282,
      "ادين": 5283,
      "پنهور": 5284,
      "مثلا": 5285,
      "پنجين": 5286,
      "فضل": 5287,
      "نگراني": 5288,
      "روشنيء": 5289,
      "تفري": 5290,
      "جسٽ": 5291,
      "سچ": 5292,
      "ڏيو": 5293,
      "ڙائي": 5294,
      "بيب": 5295,
      "يونان": 5296,
      "بنجي": 5297,
      "طريقا": 5298,
      "طبقي": 5299,
      "رقم": 5300,
      "ph": 5301,
      "آئون": 5302,
      "تار": 5303,
      "ذر": 5304,
      "رضي": 5305,
      "صدي": 5306,
      "غور": 5307,
      "انس": 5308,
      "اوٽ": 5309,
      "جوڳي": 5310,
      "ڏيڍ": 5311,
      "انڊوني": 5312,
      "يونيورسٽيون": 5313,
      "عثماني": 5314,
      "عبداللطيف": 5315,
      "34": 5316,
      "آيت": 5317,
      "سس": 5318,
      "ظاھر": 5319,
      "نيء": 5320,
      "که": 5321,
      "ڪچي": 5322,
      "ھاء": 5323,
      "واڙ": 5324,
      "موهن": 5325,
      "جيان": 5326,
      "ڳوٺ": 5327,
      "2002ع": 5328,
      "زمينن": 5329,
      "ميرزا": 5330,
      "پلاڻ": 5331,
      "آمدني": 5332,
      "ميڪسيڪو": 5333,
      "رمض": 5334,
      "عال": 5335,
      "گري": 5336,
      "اله": 5337,
      "شهز": 5338,
      "شهرت": 5339,
      "ٽيو": 5340,
      "اندازي": 5341,
      "هلائي": 5342,
      "1956ع": 5343,
      "ڪونهي": 5344,
      "ٺاھڻ": 5345,
      "at": 5346,
      "ناس": 5347,
      "گان": 5348,
      "ريسرچ": 5349,
      "ويهي": 5350,
      "گهڻن": 5351,
      "شاد": 5352,
      "شاخون": 5353,
      "رهيون": 5354,
      "هلندو": 5355,
      "دورن": 5356,
      "اشت": 5357,
      "فاط": 5358,
      "مهينا": 5359,
      "عمارتون": 5360,
      "لائبريري": 5361,
      "جج": 5362,
      "سفي": 5363,
      "طلا": 5364,
      "طئي": 5365,
      "پتو": 5366,
      "ڪٽن": 5367,
      "یہ": 5368,
      "الم": 5369,
      "ڪيني": 5370,
      "ساحل": 5371,
      "نوازيو": 5372,
      "فلسفو": 5373,
      "آثارن": 5374,
      "um": 5375,
      "بگ": 5376,
      "جلال": 5377,
      "هون": 5378,
      "القرآن": 5379,
      "ميوز": 5380,
      "پنجون": 5381,
      "جيب": 5382,
      "نوع": 5383,
      "مارڪ": 5384,
      "جملي": 5385,
      "نامور": 5386,
      "ئم": 5387,
      "تتا": 5388,
      "مہ": 5389,
      "پان": 5390,
      "ھنگ": 5391,
      "الاجي": 5392,
      "سول": 5393,
      "تجارتي": 5394,
      "افغان": 5395,
      "رابطا": 5396,
      "دليل": 5397,
      "طاقت": 5398,
      "نع": 5399,
      "ننگ": 5400,
      "الهندي": 5401,
      "مادو": 5402,
      "ايمپ": 5403,
      "1993ع": 5404,
      "درياھ": 5405,
      "1988ع": 5406,
      "ite": 5407,
      "ٽنڊي": 5408,
      "انقلابي": 5409,
      "گھرجي": 5410,
      "اخلاقي": 5411,
      "شهنشاهه": 5412,
      "رمضان": 5413,
      "la": 5414,
      "اه": 5415,
      "خلا": 5416,
      "ذات": 5417,
      "زين": 5418,
      "قن": 5419,
      "نچ": 5420,
      "نويس": 5421,
      "ٿول": 5422,
      "ڊس": 5423,
      "نگا": 5424,
      "ڪجهہ": 5425,
      "تباهه": 5426,
      "دائري": 5427,
      "داخلا": 5428,
      "نامزد": 5429,
      "فائون": 5430,
      "چچ": 5431,
      "ونيا": 5432,
      "واب": 5433,
      "فقار": 5434,
      "بزرگن": 5435,
      "age": 5436,
      "هائوس": 5437,
      "طاقتور": 5438,
      "qu": 5439,
      "اگر": 5440,
      "بون": 5441,
      "تارن": 5442,
      "عملن": 5443,
      "کيو": 5444,
      "2016ع": 5445,
      "and": 5446,
      "مسئلو": 5447,
      "ev": 5448,
      "يتي": 5449,
      "گهي": 5450,
      "بيل": 5451,
      "برٽ": 5452,
      "معصو": 5453,
      "ٽين": 5454,
      "چوي": 5455,
      "والي": 5456,
      "فلسط": 5457,
      "آرڪ": 5458,
      "هئو": 5459,
      "سربراهه": 5460,
      "سدائين": 5461,
      "ov": 5462,
      "رم": 5463,
      "ڇر": 5464,
      "ورهيه": 5465,
      "بيٺل": 5466,
      "وڌايو": 5467,
      "پروگرا": 5468,
      "ذريعن": 5469,
      "آرمي": 5470,
      "رائج": 5471,
      "olog": 5472,
      "رضا": 5473,
      "سپر": 5474,
      "مهر": 5475,
      "پخ": 5476,
      "يڪٽر": 5477,
      "چوٽي": 5478,
      "بدل": 5479,
      "مرڪب": 5480,
      "نشاني": 5481,
      "پٿرن": 5482,
      "اٽي": 5483,
      "نام": 5484,
      "ولي": 5485,
      "ٽڪر": 5486,
      "یل": 5487,
      "فرمايو": 5488,
      "پرنس": 5489,
      "گهربل": 5490,
      "گريجو": 5491,
      "جارج": 5492,
      "منصور": 5493,
      "آڏواڻي": 5494,
      "بجاء": 5495,
      "تسل": 5496,
      "ساس": 5497,
      "وج": 5498,
      "ڏيون": 5499,
      "روڪڻ": 5500,
      "هني": 5501,
      "پهريان": 5502,
      "فرھنگ": 5503,
      "ٻوڏ": 5504,
      "بهار": 5505,
      "ڪلهوڙن": 5506,
      "پابندي": 5507,
      "آڪسيجن": 5508,
      "فلسطين": 5509,
      "صديق": 5510,
      "فطري": 5511,
      "پلو": 5512,
      "الخط": 5513,
      "پوئين": 5514,
      "نظير": 5515,
      "ضلعا": 5516,
      "1997ع": 5517,
      "چارلس": 5518,
      "Al": 5519,
      "آھ": 5520,
      "ڍان": 5521,
      "ڪٿا": 5522,
      "پوڻ": 5523,
      "باتي": 5524,
      "رکيا": 5525,
      "اعترا": 5526,
      "پهچڻ": 5527,
      "حان": 5528,
      "دہ": 5529,
      "لال": 5530,
      "وهي": 5531,
      "ٽون": 5532,
      "چن": 5533,
      "ايسٽ": 5534,
      "ساڻ": 5535,
      "اللہ": 5536,
      "نسر": 5537,
      "تنھن": 5538,
      "نقشو": 5539,
      "عقيدي": 5540,
      "جوڻيجو": 5541,
      "سوسيئيشن": 5542,
      "طلاق": 5543,
      "ربي": 5544,
      "فني": 5545,
      "چالي": 5546,
      "چندر": 5547,
      "ميلو": 5548,
      "سوين": 5549,
      "فرش": 5550,
      "لکن": 5551,
      "عالم": 5552,
      "فارمي": 5553,
      "انڊر": 5554,
      "ناڪام": 5555,
      "گذريل": 5556,
      "ايمپائر": 5557,
      "ڙھي": 5558,
      "ڦير": 5559,
      "انڙ": 5560,
      "انٽر": 5561,
      "ائل": 5562,
      "پيپلز": 5563,
      "دفت": 5564,
      "صلاح": 5565,
      "يھو": 5566,
      "لاڙ": 5567,
      "راڻو": 5568,
      "ساٿين": 5569,
      "شاھي": 5570,
      "اتا": 5571,
      "ناظم": 5572,
      "رسمي": 5573,
      "لڳندو": 5574,
      "خاصخي": 5575,
      "رابطي": 5576,
      "منسوب": 5577,
      "28": 5578,
      "فل": 5579,
      "ڪام": 5580,
      "ويڙهه": 5581,
      "مقصد": 5582,
      "مصري": 5583,
      "ڪئناڊا": 5584,
      "تشدد": 5585,
      "ذوالفقار": 5586,
      "ڏجي": 5587,
      "انفرا": 5588,
      "اتفاق": 5589,
      "ٻوٽا": 5590,
      "2009ع": 5591,
      "کوجن": 5592,
      "راندي": 5593,
      "مسئلي": 5594,
      "رجسٽريشن": 5595,
      "مقصدن": 5596,
      "53": 5597,
      "رهن": 5598,
      "ٽيا": 5599,
      "ڪڙ": 5600,
      "منيء": 5601,
      "پرائي": 5602,
      "تعلقات": 5603,
      "تبلي": 5604,
      "ory": 5605,
      "سھول": 5606,
      "سرشتي": 5607,
      "حلقو": 5608,
      "انصاري": 5609,
      "نين": 5610,
      "هڪجه": 5611,
      "ڊان": 5612,
      "ڪلو": 5613,
      "ايئر": 5614,
      "فيئر": 5615,
      "نوٽ": 5616,
      "سمورا": 5617,
      "پراڻن": 5618,
      "1948ع": 5619,
      "تبديليون": 5620,
      "2021": 5621,
      "وسيلن": 5622,
      "قلات": 5623,
      "فنڪار": 5624,
      "آڳاٽي": 5625,
      "oo": 5626,
      "مئن": 5627,
      "وی": 5628,
      "وش": 5629,
      "سمورن": 5630,
      "2004": 5631,
      "1995ع": 5632,
      "ايڪس": 5633,
      "فيصلي": 5634,
      "فورڊ": 5635,
      "سمجھيو": 5636,
      "زڪوات": 5637,
      "تائي": 5638,
      "صغير": 5639,
      "نري": 5640,
      "يندا": 5641,
      "ڀلي": 5642,
      "چنا": 5643,
      "ڦري": 5644,
      "گون": 5645,
      "پوک": 5646,
      "منڊ": 5647,
      "سورة": 5648,
      "آسپاس": 5649,
      "عنصرن": 5650,
      "اڀري": 5651,
      "هٿان": 5652,
      "ڪولمب": 5653,
      "عملدار": 5654,
      "Ar": 5655,
      "جسٽس": 5656,
      "چند": 5657,
      "ھاري": 5658,
      "اسسٽنٽ": 5659,
      "هيل": 5660,
      "بحر": 5661,
      "فورس": 5662,
      "هريجن": 5663,
      "سوشلسٽ": 5664,
      "درويش": 5665,
      "37": 5666,
      "آڱ": 5667,
      "ڏاهر": 5668,
      "ماڳن": 5669,
      "پيون": 5670,
      "يرآباد": 5671,
      "والا": 5672,
      "لڳن": 5673,
      "سائو": 5674,
      "سرشتو": 5675,
      "ٺاهيندا": 5676,
      "تنظيمن": 5677,
      "En": 5678,
      "ik": 5679,
      "خانن": 5680,
      "خيرو": 5681,
      "شت": 5682,
      "عات": 5683,
      "عجيب": 5684,
      "چوڏ": 5685,
      "گوگل": 5686,
      "1998ع": 5687,
      "گڏجا": 5688,
      "1986ع": 5689,
      "يتيم": 5690,
      "el": 5691,
      "عض": 5692,
      "مڪ": 5693,
      "کائيندا": 5694,
      "لوڻ": 5695,
      "پارٽيون": 5696,
      "ڪارڪر": 5697,
      "ڪلب": 5698,
      "مٿئين": 5699,
      "1973ع": 5700,
      "مڃتا": 5701,
      "ڪميونٽي": 5702,
      "معاهدي": 5703,
      "عبر": 5704,
      "وان": 5705,
      "پذير": 5706,
      "ٿن": 5707,
      "ڊول": 5708,
      "ڪٽ": 5709,
      "ڻڪ": 5710,
      "ھجري": 5711,
      "ورين": 5712,
      "پيچي": 5713,
      "سيل": 5714,
      "ناس": 5715,
      "فارسيء": 5716,
      "1977ع": 5717,
      "شھدادڪوٽ": 5718,
      "اضافي": 5719,
      "نيوڪلي": 5720,
      "خالد": 5721,
      "ئو": 5722,
      "دعا": 5723,
      "هٽ": 5724,
      "جيڪل": 5725,
      "پارٽ": 5726,
      "سما": 5727,
      "1958ع": 5728,
      "ٺاهيا": 5729,
      "نواب": 5730,
      "اکيون": 5731,
      "بنگلا": 5732,
      "آپريشن": 5733,
      "مڪران": 5734,
      "عاشق": 5735,
      "عروج": 5736,
      "مند": 5737,
      "اسحاق": 5738,
      "ايل": 5739,
      "رهاڪو": 5740,
      "فلمي": 5741,
      "ari": 5742,
      "ماهوار": 5743,
      "دعويٰ": 5744,
      "اڄڪل": 5745,
      "IS": 5746,
      "لسان": 5747,
      "ڏڻ": 5748,
      "گلي": 5749,
      "ماتحت": 5750,
      "ڪوئي": 5751,
      "گرميء": 5752,
      "2011ع": 5753,
      "ايڪڙ": 5754,
      "داني": 5755,
      "نئي": 5756,
      "راڙيء": 5757,
      "ويز": 5758,
      "سوار": 5759,
      "2013ع": 5760,
      "شخصيتن": 5761,
      "تجربو": 5762,
      "ob": 5763,
      "th": 5764,
      "تپو": 5765,
      "مٽ": 5766,
      "کھ": 5767,
      "کوٽ": 5768,
      "ويسٽ": 5769,
      "ڊيمو": 5770,
      "tic": 5771,
      "لاڳاپن": 5772,
      "سائيڊ": 5773,
      "ڪوششن": 5774,
      "هيٺيون": 5775,
      "آسٽريا": 5776,
      "محبوب": 5777,
      ".)": 5778,
      "ip": 5779,
      "اڍ": 5780,
      "حبيب": 5781,
      "دی": 5782,
      "قاف": 5783,
      "مڱ": 5784,
      "نھ": 5785,
      "وڙي": 5786,
      "ڏس": 5787,
      "کنيو": 5788,
      "ڪرڻو": 5789,
      "نڊا": 5790,
      "1996ع": 5791,
      "ماليڪي": 5792,
      "رائچند": 5793,
      "سهڻي": 5794,
      "چرچ": 5795,
      "بغداد": 5796,
      "ميونسپل": 5797,
      "وسنديون": 5798,
      "اٺ": 5799,
      "اڇو": 5800,
      "سع": 5801,
      "لباس": 5802,
      "وٽس": 5803,
      "ٽرين": 5804,
      "ڇڏيندا": 5805,
      "ڊگھ": 5806,
      "ائشي": 5807,
      "ڊيز": 5808,
      "2014": 5809,
      "نسب": 5810,
      "جمھو": 5811,
      "گيل": 5812,
      "et": 5813,
      "اما": 5814,
      "سلو": 5815,
      "مة": 5816,
      "مفت": 5817,
      "مترج": 5818,
      "مينهن": 5819,
      "فيس": 5820,
      "بوء": 5821,
      "زيارت": 5822,
      "نسخ": 5823,
      "دائود": 5824,
      "خاصيتون": 5825,
      "مظاه": 5826,
      "انڊونيشيا": 5827,
      "جلا": 5828,
      "پون": 5829,
      "ڪاري": 5830,
      "پاڙي": 5831,
      "ساد": 5832,
      "درگاهه": 5833,
      "ثقل": 5834,
      "ate": 5835,
      "ورهائي": 5836,
      "مدرسو": 5837,
      "ڪيميا": 5838,
      "لڏپلاڻ": 5839,
      "جيون": 5840,
      "ٽاور": 5841,
      "چني": 5842,
      "ھہ": 5843,
      "اسڪر": 5844,
      "سيٰ": 5845,
      "گهڻ": 5846,
      "ڪنڀ": 5847,
      "قيدي": 5848,
      "ing": 5849,
      "عيسيٰ": 5850,
      "جھان": 5851,
      "تناسب": 5852,
      "منتظم": 5853,
      "اٺين": 5854,
      "ٻائي": 5855,
      "گهوٽ": 5856,
      "سنڌوء": 5857,
      "سرحدون": 5858,
      "بلغ": 5859,
      "ناز": 5860,
      "فلمون": 5861,
      "1987ع": 5862,
      "عبدالمجيد": 5863,
      "1962ع": 5864,
      "لاڳاپو": 5865,
      "اسپيڪ": 5866,
      "خواهش": 5867,
      "فائونڊيشن": 5868,
      "مترجم": 5869,
      "36": 5870,
      "ديو": 5871,
      "ڄار": 5872,
      "ڇت": 5873,
      "کاتو": 5874,
      "یم": 5875,
      "اني": 5876,
      "ميڊي": 5877,
      "ماضي": 5878,
      "اوي": 5879,
      "ائيندڙن": 5880,
      "معدي": 5881,
      "مقالا": 5882,
      "مقبري": 5883,
      "انگو": 5884,
      "گرھ": 5885,
      "جلس": 5886,
      "1950ع": 5887,
      "ism": 5888,
      "روزانو": 5889,
      "موسيقيء": 5890,
      "لاھور": 5891,
      "هنر": 5892,
      "منتخ": 5893,
      "ائيڊ": 5894,
      "حيد": 5895,
      "مداد": 5896,
      "ڇوڙ": 5897,
      "قدرت": 5898,
      "تفصي": 5899,
      "گزين": 5900,
      "هينئر": 5901,
      "پهريائين": 5902,
      "فلڪيات": 5903,
      "ڪارپوريشن": 5904,
      "بز": 5905,
      "گت": 5906,
      "استح": 5907,
      "اڪر": 5908,
      "انگل": 5909,
      "مدن": 5910,
      "ang": 5911,
      "اسٽيج": 5912,
      "بھترين": 5913,
      "رستن": 5914,
      "ڀائرن": 5915,
      "بادشاھت": 5916,
      "عارضي": 5917,
      "منتخب": 5918,
      "Un": 5919,
      "بی": 5920,
      "بنايو": 5921,
      "جت": 5922,
      "ڦل": 5923,
      "ھئڻ": 5924,
      "ابي": 5925,
      "پوزيشن": 5926,
      "ديوار": 5927,
      "معز": 5928,
      "نگاري": 5929,
      "2005": 5930,
      "178": 5931,
      "نشين": 5932,
      "ڳالهائي": 5933,
      "حڪمرانن": 5934,
      "خاصيتن": 5935,
      "ميرپور": 5936,
      "برهمڻ": 5937,
      "ملازمت": 5938,
      "ئل": 5939,
      "رشيد": 5940,
      "شاديء": 5941,
      "فٽ": 5942,
      "لعل": 5943,
      "ڌما": 5944,
      "کل": 5945,
      "لاش": 5946,
      "اهڙيون": 5947,
      "ايائين": 5948,
      "جهه": 5949,
      "سومرن": 5950,
      "جيئي": 5951,
      "tion": 5952,
      "هٿن": 5953,
      "رنگن": 5954,
      "بندرگاهه": 5955,
      "معاشري": 5956,
      "تنهنجي": 5957,
      "بست": 5958,
      "رهو": 5959,
      "شئي": 5960,
      "لص": 5961,
      "نھ": 5962,
      "هلا": 5963,
      "ھم": 5964,
      "ارسط": 5965,
      "ويه": 5966,
      "پيرا": 5967,
      "2020ع": 5968,
      "شاب": 5969,
      "سرمائي": 5970,
      "جاين": 5971,
      "ناٿ": 5972,
      "179": 5973,
      "آفريڪي": 5974,
      "بنگال": 5975,
      "ڪامريڊ": 5976,
      "گهٽتائي": 5977,
      "ڪٽنب": 5978,
      "ثن": 5979,
      "دوري": 5980,
      "زهر": 5981,
      "ساهه": 5982,
      "نال": 5983,
      "هڻ": 5984,
      "ٽا": 5985,
      "ڀنڀ": 5986,
      "ايجو": 5987,
      "ڪنوار": 5988,
      "مارڪس": 5989,
      "قومون": 5990,
      "سگهجن": 5991,
      "ڇڏڻ": 5992,
      "آرگن": 5993,
      "ڪوششون": 5994,
      "گنب": 5995,
      "نيوز": 5996,
      "منتقلي": 5997,
      "si": 5998,
      "اماڻي": 5999,
      "ٻھ": 6000,
      "ٻيء": 6001,
      "ٻاھ": 6002,
      "ٽائر": 6003,
      "منفرد": 6004,
      "لڳائڻ": 6005,
      "تشريح": 6006,
      "شخصيتون": 6007,
      "راجپوت": 6008,
      "ed": 6009,
      "تی": 6010,
      "شھي": 6011,
      "ڄاڻي": 6012,
      "ڇهين": 6013,
      "ڌڻي": 6014,
      "ويٽن": 6015,
      "امڪان": 6016,
      "گھٽ": 6017,
      "ڏند": 6018,
      "1994ع": 6019,
      "يعقو": 6020,
      "پلان": 6021,
      "177": 6022,
      "ڪپڙا": 6023,
      "پختون": 6024,
      "35": 6025,
      "تڪار": 6026,
      "ـي": 6027,
      "لٽي": 6028,
      "ٽنگ": 6029,
      "ڊپارٽ": 6030,
      "انيون": 6031,
      "بينظير": 6032,
      "سرد": 6033,
      "دوستن": 6034,
      "2003": 6035,
      "ڙها": 6036,
      "ابتڙ": 6037,
      "هٿيار": 6038,
      "عمرڪوٽ": 6039,
      "ay": 6040,
      "بچي": 6041,
      "وق": 6042,
      "ڊز": 6043,
      "ڦاڪ": 6044,
      "ڪع": 6045,
      "انجڻ": 6046,
      "ورڊ": 6047,
      "موڪلي": 6048,
      "تيزيء": 6049,
      "واري": 6050,
      "ٽيريا": 6051,
      "نوآباد": 6052,
      "اعجاز": 6053,
      "تبص": 6054,
      "زنده": 6055,
      "قديمه": 6056,
      "فرينچ": 6057,
      "گذرڻ": 6058,
      "فاضل": 6059,
      "ٽالپرن": 6060,
      "ٺاھيو": 6061,
      "مقناطيسي": 6062,
      "38": 6063,
      "ow": 6064,
      "آس": 6065,
      "آرين": 6066,
      "ذهني": 6067,
      "وص": 6068,
      "ٺاھي": 6069,
      "ڀائي": 6070,
      "چؤ": 6071,
      "ڏھ": 6072,
      "انيا": 6073,
      "الهه": 6074,
      "ميوو": 6075,
      "ويڙ": 6076,
      "قيادت": 6077,
      "فوت": 6078,
      "اڳواڻن": 6079,
      "ڊرامو": 6080,
      "رحيمداد": 6081,
      "گردش": 6082,
      "ربيع": 6083,
      "پيپلزپارٽي": 6084,
      "خاصخيلي": 6085,
      "بنگلاديش": 6086,
      "رار": 6087,
      "کی": 6088,
      "الف": 6089,
      "ويه": 6090,
      "سيک": 6091,
      "ديبل": 6092,
      "ڪوري": 6093,
      "معدني": 6094,
      "اڻپورا": 6095,
      "واقف": 6096,
      "واقعو": 6097,
      "هندوستان": 6098,
      "1971ع": 6099,
      "بنت": 6100,
      "گاه": 6101,
      "ڊگھي": 6102,
      "استادن": 6103,
      "جماع": 6104,
      "ation": 6105,
      "نظرياتي": 6106,
      "بمبئيء": 6107,
      "پرڳڻي": 6108,
      "بندوبست": 6109,
      "محاذ": 6110,
      "37": 6111,
      "Con": 6112,
      "تم": 6113,
      "زالون": 6114,
      "ممب": 6115,
      "هڙ": 6116,
      "يقي": 6117,
      "ڦي": 6118,
      "ھر": 6119,
      "ميئر": 6120,
      "ميڪان": 6121,
      "تيزي": 6122,
      "زمانو": 6123,
      "صدارت": 6124,
      "حالتون": 6125,
      "2021ع": 6126,
      "بچائڻ": 6127,
      "ڳالهائڻ": 6128,
      "عمارتن": 6129,
      "اخ": 6130,
      "فرن": 6131,
      "اسٽر": 6132,
      "امر": 6133,
      "ڊيگهه": 6134,
      "صوبا": 6135,
      "مارڻ": 6136,
      "ٻول": 6137,
      "چيائين": 6138,
      "مهار": 6139,
      "قانونن": 6140,
      "ويجهي": 6141,
      "آباديون": 6142,
      "سائنسدانن": 6143,
      "خالص": 6144,
      "فيڊريشن": 6145,
      "واپرائيندڙ": 6146,
      "res": 6147,
      "اپن": 6148,
      "حامي": 6149,
      "گني": 6150,
      "لاش": 6151,
      "ورثو": 6152,
      "ڪيئي": 6153,
      "سيمينٽ": 6154,
      "ساخ": 6155,
      "نيڪ": 6156,
      "ائيزيشن": 6157,
      "اتار": 6158,
      "بلا": 6159,
      "مٿان": 6160,
      "گروهن": 6161,
      "ڏيکاريل": 6162,
      "گريڊ": 6163,
      "ٿرپارڪر": 6164,
      "1ھ": 6165,
      "ts": 6166,
      "تصوف": 6167,
      "حده": 6168,
      "شڪي": 6169,
      "ظلم": 6170,
      "عنه": 6171,
      "قار": 6172,
      "وحد": 6173,
      "ٻان": 6174,
      "ڦر": 6175,
      "گد": 6176,
      "۾)": 6177,
      "پاور": 6178,
      "خوشي": 6179,
      "2015ع": 6180,
      "ڪانہ": 6181,
      "ڇوڪرين": 6182,
      "موقعو": 6183,
      "دروازي": 6184,
      "احترام": 6185,
      "حت": 6186,
      "ظر": 6187,
      "قرا": 6188,
      "ٻر": 6189,
      "ٽئ": 6190,
      "ڄي": 6191,
      "ڊز": 6192,
      "ڙيا": 6193,
      "راضي": 6194,
      "روه": 6195,
      "ايئر": 6196,
      "ڪينسر": 6197,
      "افتتا": 6198,
      "بدلي": 6199,
      "2003ع": 6200,
      "ڪمانڊر": 6201,
      "1974ع": 6202,
      "خانداني": 6203,
      "ھندستان": 6204,
      "زميندار": 6205,
      "پکڙجي": 6206,
      "!!": 6207,
      "آبي": 6208,
      "تنگ": 6209,
      "وچين": 6210,
      "ڄائي": 6211,
      "ڊن": 6212,
      "ڊم": 6213,
      "ڪشي": 6214,
      "مخلو": 6215,
      "ٻوٽو": 6216,
      "دوائن": 6217,
      "مريض": 6218,
      "بنيادن": 6219,
      "عبدالرحمان": 6220,
      "ڀيري": 6221,
      "جڳھ": 6222,
      "دروازو": 6223,
      "نائيجيريا": 6224,
      "معدنيات": 6225,
      "bs": 6226,
      "ذائ": 6227,
      "سمي": 6228,
      "هما": 6229,
      "چڙهي": 6230,
      "امان": 6231,
      "ٻوٽي": 6232,
      "ھوائي": 6233,
      "ئيٽ": 6234,
      "ڏاڏي": 6235,
      "ڄاڻايو": 6236,
      "تڪليف": 6237,
      "مگسي": 6238,
      "اترئين": 6239,
      "متب": 6240,
      "نيون": 6241,
      "ڍا": 6242,
      "ڪڻڪ": 6243,
      "گار": 6244,
      "ارادو": 6245,
      "ريس": 6246,
      "ريلو": 6247,
      "ماھر": 6248,
      "موڪلي": 6249,
      "پرديش": 6250,
      "لکڻين": 6251,
      "رسمن": 6252,
      "مست": 6253,
      "قلمي": 6254,
      "وهڪرو": 6255,
      "تقرير": 6256,
      "مڃيو": 6257,
      "اسپيني": 6258,
      "نباتات": 6259,
      "اشاعت": 6260,
      "عالمگير": 6261,
      "تارو": 6262,
      "جئ": 6263,
      "جندڙ": 6264,
      "ساد": 6265,
      "طوف": 6266,
      "ٿڪ": 6267,
      "ید": 6268,
      "لاهي": 6269,
      "منصوبي": 6270,
      "مارو": 6271,
      "1972ع": 6272,
      "رابطو": 6273,
      "لانٽڪ": 6274,
      "آتم": 6275,
      "ڀڳت": 6276,
      "زخمي": 6277,
      "av": 6278,
      "nam": 6279,
      "جيا": 6280,
      "ساري": 6281,
      "سفر": 6282,
      "وليم": 6283,
      "پلو": 6284,
      "پڌر": 6285,
      "ٿڌي": 6286,
      "سيريز": 6287,
      "پاڙي": 6288,
      "ساء": 6289,
      "باڪو": 6290,
      "ملندي": 6291,
      "هوم": 6292,
      "والدين": 6293,
      "دودي": 6294,
      "وٺندو": 6295,
      "قرض": 6296,
      "گيس": 6297,
      "صحافت": 6298,
      "ڪابه": 6299,
      "وقف": 6300,
      "احتجاج": 6301,
      "مصطفيٰ": 6302,
      "تذ": 6303,
      "تم": 6304,
      "شار": 6305,
      "وڪرو": 6306,
      "ھز": 6307,
      "ميسر": 6308,
      "تازي": 6309,
      "بدار": 6310,
      "استعي": 6311,
      "اليٰ": 6312,
      "1967ع": 6313,
      "زمينون": 6314,
      "اداڪاري": 6315,
      "پوئتي": 6316,
      "گلاب": 6317,
      "دفاع": 6318,
      "29": 6319,
      "34": 6320,
      "خر": 6321,
      "سته": 6322,
      "ناف": 6323,
      "وڊ": 6324,
      "گين": 6325,
      "گهڻائي": 6326,
      "2019ع": 6327,
      "گھڻا": 6328,
      "هاشم": 6329,
      "پراڻا": 6330,
      "ڪتابي": 6331,
      "عبدالغ": 6332,
      "1954ع": 6333,
      "سازش": 6334,
      "ڪنڀار": 6335,
      "متبادل": 6336,
      "38": 6337,
      "ut": 6338,
      "ڪند": 6339,
      "ڳڙي": 6340,
      "اوھان": 6341,
      "شاخن": 6342,
      "ولو": 6343,
      "2001ع": 6344,
      "اعتما": 6345,
      "کانئس": 6346,
      "نمائش": 6347,
      "ڪهاڻيڪار": 6348,
      "لنڪا": 6349,
      "مپس": 6350,
      "متحرڪ": 6351,
      "جيوت": 6352,
      "جگر": 6353,
      "هاڪ": 6354,
      "پائي": 6355,
      "ڃاڻ": 6356,
      "ملائي": 6357,
      "لوجسٽ": 6358,
      "قيات": 6359,
      "قوي": 6360,
      "اھڙو": 6361,
      "گاڏي": 6362,
      "ٺهرايو": 6363,
      "فقه": 6364,
      "id": 6365,
      "حر": 6366,
      "طلب": 6367,
      "ٻه": 6368,
      "ڏور": 6369,
      "اله": 6370,
      "اليء": 6371,
      "ويٺل": 6372,
      "منصور": 6373,
      "پنهنجون": 6374,
      "ننڍڙا": 6375,
      "ڏاڏو": 6376,
      "ماليا": 6377,
      "ڪهڙو": 6378,
      "پڙهيو": 6379,
      "جائز": 6380,
      "آئس": 6381,
      "ڏوھ": 6382,
      "هجرت": 6383,
      "حميد": 6384,
      "ڪولمبيا": 6385,
      "لسانيات": 6386,
      "شھيد": 6387,
      "بک": 6388,
      "تمند": 6389,
      "خام": 6390,
      "سه": 6391,
      "شنگ": 6392,
      "پت": 6393,
      "پڪي": 6394,
      "انوي": 6395,
      "راس": 6396,
      "پهه": 6397,
      "اختر": 6398,
      "مهارت": 6399,
      "کولي": 6400,
      "قطر": 6401,
      "دگيء": 6402,
      "زيل": 6403,
      "سمو": 6404,
      "فعال": 6405,
      "لنگ": 6406,
      "ھائ": 6407,
      "تعاليٰ": 6408,
      "ڪارا": 6409,
      "دوا": 6410,
      "مصنو": 6411,
      "1965ع": 6412,
      "ضرور": 6413,
      "سياحن": 6414,
      "ميوزڪ": 6415,
      "اض": 6416,
      "تاري": 6417,
      "وث": 6418,
      "وڏي": 6419,
      "الاول": 6420,
      "ويب": 6421,
      "ويهين": 6422,
      "منھن": 6423,
      "موجودگي": 6424,
      "سيڪنڊ": 6425,
      "جھڙي": 6426,
      "1940ع": 6427,
      "175": 6428,
      "موسيٰ": 6429,
      "انجنيئر": 6430,
      "يونيسڪو": 6431,
      "2ھ": 6432,
      "آيون": 6433,
      "شہ": 6434,
      "فه": 6435,
      "رام": 6436,
      "نالي": 6437,
      "علماء": 6438,
      "قوم": 6439,
      "مداخ": 6440,
      "خيبر": 6441,
      "فارس": 6442,
      "تنھن": 6443,
      "1985ع": 6444,
      "1955ع": 6445,
      "2022ع": 6446,
      "اونهاري": 6447,
      "ڏوهه": 6448,
      "ڪابي": 6449,
      "ايٽم": 6450,
      "لڪي": 6451,
      "رايا": 6452,
      "سنئون": 6453,
      "اوڙ": 6454,
      "ديھون": 6455,
      "نيپ": 6456,
      "سگهندو": 6457,
      "ڳايو": 6458,
      "اميرن": 6459,
      "صحبت": 6460,
      "ڪورونا": 6461,
      "اڏو": 6462,
      "سالار": 6463,
      "اسپيس": 6464,
      "خطرو": 6465,
      "خطرناڪ": 6466,
      "حمل": 6467,
      "خسرو": 6468,
      "دورو": 6469,
      "فاس": 6470,
      "پڙ": 6471,
      "ڀاڻ": 6472,
      "ڊويز": 6473,
      "وازن": 6474,
      "جوش": 6475,
      "انگير": 6476,
      "ننڍيون": 6477,
      "پروسي": 6478,
      "ٽوڙي": 6479,
      "سڏين": 6480,
      "1979ع": 6481,
      "ٽيڪس": 6482,
      "مالا": 6483,
      "روزگار": 6484,
      "جڳهيون": 6485,
      "آنلائين": 6486,
      "مھيني": 6487,
      "ھڪڙو": 6488,
      "مشرقي": 6489,
      "صلاحڪار": 6490,
      "39": 6491,
      "لط": 6492,
      "نادر": 6493,
      "رينج": 6494,
      "سيٽون": 6495,
      "1920ع": 6496,
      "ترجي": 6497,
      "برا": 6498,
      "ٽرس": 6499,
      "وٺندا": 6500,
      "خيز": 6501,
      "کوسو": 6502,
      "Sindhi": 6503,
      "نصيرآباد": 6504,
      "اجتما": 6505,
      "هارون": 6506,
      "ويڪر": 6507,
      "انفرادي": 6508,
      "پاڙيسري": 6509,
      "رٿ": 6510,
      "رٿ": 6511,
      "لکيائين": 6512,
      "ميا": 6513,
      "مشن": 6514,
      "نے": 6515,
      "وں": 6516,
      "وستاني": 6517,
      "ڪجھ": 6518,
      "ھین": 6519,
      "اهوئي": 6520,
      "ميه": 6521,
      "رايل": 6522,
      "ايس": 6523,
      "ويٺا": 6524,
      "مرشد": 6525,
      "گهڙ": 6526,
      "قيمتي": 6527,
      "2002": 6528,
      "ھوا": 6529,
      "ھيٺين": 6530,
      "ڀرپاسي": 6531,
      "ڪامياب": 6532,
      "رجحان": 6533,
      "ٻاهران": 6534,
      "پروگرامن": 6535,
      "ڊپارٽمينٽ": 6536,
      "مداخلت": 6537,
      "00": 6538,
      "On": 6539,
      "cl": 6540,
      "جڳ": 6541,
      "وسي": 6542,
      "لاحي": 6543,
      "راڳ": 6544,
      "اينڊ": 6545,
      "منط": 6546,
      "برصغير": 6547,
      "حڪومتن": 6548,
      "ھيم": 6549,
      "1953ع": 6550,
      "آڪسائيڊ": 6551,
      "ڪمپنيء": 6552,
      "يونيورسٽين": 6553,
      "جمهوريت": 6554,
      "بيماريء": 6555,
      "اخلاق": 6556,
      "زبردست": 6557,
      "ايجوڪيشن": 6558,
      "منصوره": 6559,
      "43": 6560,
      "تی": 6561,
      "عڪ": 6562,
      "مليون": 6563,
      "نڪرڻ": 6564,
      "چائ": 6565,
      "ايجن": 6566,
      "ويچار": 6567,
      "اوبلا": 6568,
      "ھونديون": 6569,
      "ٺاهيل": 6570,
      "بلوچي": 6571,
      "گلشن": 6572,
      "گهٽجي": 6573,
      "ڪيمسٽري": 6574,
      "سهول": 6575,
      "ڪوٺيو": 6576,
      "سولنگي": 6577,
      "آند": 6578,
      "تدري": 6579,
      "تائن": 6580,
      "سکن": 6581,
      "شپ": 6582,
      "عمو": 6583,
      "لهي": 6584,
      "هہ": 6585,
      "هال": 6586,
      "راھ": 6587,
      "اديون": 6588,
      "پاڻ": 6589,
      "منگ": 6590,
      "جهازن": 6591,
      "جوان": 6592,
      "بلڪ": 6593,
      "ڳولي": 6594,
      "نوعيت": 6595,
      "سٽا": 6596,
      "ڪاٺي": 6597,
      "جرمنيء": 6598,
      "نقش": 6599,
      "1989ع": 6600,
      "1961ع": 6601,
      "ers": 6602,
      "اميه": 6603,
      "قبائلي": 6604,
      "عبد": 6605,
      "پيغمبر": 6606,
      "ڏھاڪي": 6607,
      "آزم": 6608,
      "بڪر": 6609,
      "فال": 6610,
      "چاهي": 6611,
      "گور": 6612,
      "ارجن": 6613,
      "لوڪل": 6614,
      "علحده": 6615,
      "ڪنارن": 6616,
      "رهين": 6617,
      "بليو": 6618,
      "مشين": 6619,
      "بدر": 6620,
      "1946ع": 6621,
      "تبديلين": 6622,
      "حقيق": 6623,
      "چڱيء": 6624,
      "نوجوانن": 6625,
      "44": 6626,
      "55": 6627,
      "وت": 6628,
      "گھ": 6629,
      "ونس": 6630,
      "پيشاب": 6631,
      "پناهه": 6632,
      "اصلو": 6633,
      "2010": 6634,
      "چينل": 6635,
      "ڪائونسلر": 6636,
      "1930ع": 6637,
      "رحمت": 6638,
      "فيصل": 6639,
      "ڪپڙو": 6640,
      "جمهوري": 6641,
      "نامياري": 6642,
      "چاهيو": 6643,
      "ٽرانسپورٽ": 6644,
      "لاڏاڻو": 6645,
      "رٽائر": 6646,
      "وائي": 6647,
      "ايم": 6648,
      "ويھين": 6649,
      "موبائ": 6650,
      "اختي": 6651,
      "سگهيا": 6652,
      "صفا": 6653,
      "1976ع": 6654,
      "ـــ": 6655,
      "ملازم": 6656,
      "صلح": 6657,
      "ٻاھر": 6658,
      "متحد": 6659,
      "فروغ": 6660,
      "اعتماد": 6661,
      "جپ": 6662,
      "دلي": 6663,
      "رد": 6664,
      "لارڊ": 6665,
      "نشر": 6666,
      "ڳڻ": 6667,
      "اهون": 6668,
      "سام": 6669,
      "منگ": 6670,
      "معنا": 6671,
      "پهتا": 6672,
      "عرض": 6673,
      "2014ع": 6674,
      "2008": 6675,
      "پروجيڪٽ": 6676,
      "اقلي": 6677,
      "1990": 6678,
      "1982ع": 6679,
      "1945ع": 6680,
      "مطالبو": 6681,
      "گلگت": 6682,
      "تماڪ": 6683,
      "سالياني": 6684,
      "پڇاڙيء": 6685,
      "تبليغ": 6686,
      "شتگر": 6687,
      "ڪارڪردگي": 6688,
      "42": 6689,
      "edia": 6690,
      "اغ": 6691,
      "زمرا": 6692,
      "نی": 6693,
      "پوکي": 6694,
      "درد": 6695,
      "لکين": 6696,
      "بدن": 6697,
      "وٺندڙ": 6698,
      "مڪاني": 6699,
      "تقريب": 6700,
      "حاڪمن": 6701,
      "خواب": 6702,
      "جهنگلي": 6703,
      "دارو": 6704,
      "صديقي": 6705,
      "ملائيشيا": 6706,
      "مرو": 6707,
      "ماري": 6708,
      "ڪستان": 6709,
      "گائ": 6710,
      "پيئي": 6711,
      "امتي": 6712,
      "تيه": 6713,
      "چوندو": 6714,
      "ڀيرو": 6715,
      "مذهبن": 6716,
      "رھڻ": 6717,
      "اوچتو": 6718,
      "52": 6719,
      "65": 6720,
      "بيل": 6721,
      "دڪ": 6722,
      "سی": 6723,
      "متو": 6724,
      "مجلس": 6725,
      "نجي": 6726,
      "نانگ": 6727,
      "ڇھ": 6728,
      "ڌرين": 6729,
      "مرحلي": 6730,
      "سيو": 6731,
      "ستار": 6732,
      "ترخان": 6733,
      "برج": 6734,
      "چوٽيء": 6735,
      "بوليت": 6736,
      "نتيجا": 6737,
      "منظوري": 6738,
      "سونهن": 6739,
      "ترجمي": 6740,
      "لڙائي": 6741,
      "تفصيلي": 6742,
      "سفڪ": 6743,
      "الرحمان": 6744,
      "بيٺ": 6745,
      "بيٺو": 6746,
      "لوهه": 6747,
      "سوڀ": 6748,
      "جيتري": 6749,
      "وڃائي": 6750,
      "نظرين": 6751,
      "زياده": 6752,
      "جلدي": 6753,
      "برازيل": 6754,
      "وٽرن": 6755,
      "دفعي": 6756,
      "لفظي": 6757,
      "اسماعي": 6758,
      "باقاعدي": 6759,
      "محترم": 6760,
      "کوجنا": 6761,
      "رانديگر": 6762,
      "ڊيموڪري": 6763,
      "Is": 6764,
      "جايون": 6765,
      "عدم": 6766,
      "هالا": 6767,
      "يندڙ": 6768,
      "ٻاري": 6769,
      "ڌڪ": 6770,
      "کلي": 6771,
      "انٽرو": 6772,
      "ميڙ": 6773,
      "بيتن": 6774,
      "اصلاح": 6775,
      "نظريا": 6776,
      "عيد": 6777,
      "1983ع": 6778,
      "1000": 6779,
      "رستا": 6780,
      "گھربل": 6781,
      "فضا": 6782,
      "جنگين": 6783,
      "دراصل": 6784,
      "ارغون": 6785,
      "48": 6786,
      "II": 6787,
      "line": 6788,
      "بھ": 6789,
      "تلو": 6790,
      "حب": 6791,
      "رند": 6792,
      "مسو": 6793,
      "ڇڏيندو": 6794,
      "کپي": 6795,
      "پوٽي": 6796,
      "زيڊ": 6797,
      "سڏجڻ": 6798,
      "1975ع": 6799,
      "صحاف": 6800,
      "160": 6801,
      "ليڪچر": 6802,
      "ماستر": 6803,
      "اهن": 6804,
      "حرف": 6805,
      "ذخيرو": 6806,
      "سئي": 6807,
      "نيل": 6808,
      "هل": 6809,
      "يمن": 6810,
      "ٽلينڊ": 6811,
      "ائپ": 6812,
      "واڌاري": 6813,
      "گهري": 6814,
      "رهاڪن": 6815,
      "ڪلڪ": 6816,
      "پھچي": 6817,
      "شنز": 6818,
      "عبدالڪريم": 6819,
      "بنگالي": 6820,
      "جهنگ": 6821,
      "تڪراري": 6822,
      "لاشاري": 6823,
      "ديا": 6824,
      "رع": 6825,
      "سادي": 6826,
      "سفيد": 6827,
      "فساد": 6828,
      "قاتي": 6829,
      "لهه": 6830,
      "وڙ": 6831,
      "۾:": 6832,
      "روپيا": 6833,
      "ايمان": 6834,
      "پيو": 6835,
      "موتي": 6836,
      "گهوٽ": 6837,
      "پناه": 6838,
      "نياڻي": 6839,
      "درجا": 6840,
      "حياتيء": 6841,
      "بلندي": 6842,
      "2006": 6843,
      "سببن": 6844,
      "عبدالرحيم": 6845,
      "ورهاست": 6846,
      "oun": 6847,
      "چمڙي": 6848,
      "جزوي": 6849,
      "مهرچند": 6850,
      "50": 6851,
      "75": 6852,
      "بم": 6853,
      "دڪان": 6854,
      "فيء": 6855,
      "مدي": 6856,
      "وڪال": 6857,
      "ٽڪريء": 6858,
      "پون": 6859,
      "ڪٿ": 6860,
      "ميٽ": 6861,
      "راول": 6862,
      "نيوي": 6863,
      "علمن": 6864,
      "پرور": 6865,
      "زيور": 6866,
      "بنائڻ": 6867,
      "مجاه": 6868,
      "ڀاڱي": 6869,
      "عدد": 6870,
      "ڪلهوڙي": 6871,
      "انسانيت": 6872,
      "ورھايل": 6873,
      "جاپاني": 6874,
      "سرائڪي": 6875,
      "بادشاهن": 6876,
      "مزاحمت": 6877,
      "ology": 6878,
      "ٻھراڙيء": 6879,
      "پختونخو": 6880,
      "BN": 6881,
      "as": 6882,
      "cite": 6883,
      "ib": 6884,
      "آپ": 6885,
      "بيون": 6886,
      "ائنڊ": 6887,
      "اهيء": 6888,
      "گهڻيون": 6889,
      "پاڙ": 6890,
      "سومري": 6891,
      "اھميت": 6892,
      "پروڊيو": 6893,
      "بادشاهي": 6894,
      "فريد": 6895,
      "هلڻ": 6896,
      "ڇوڪري": 6897,
      "خطن": 6898,
      "رانديون": 6899,
      "ضياء": 6900,
      "سڳورن": 6901,
      "وڪالت": 6902,
      "we": 6903,
      "بني": 6904,
      "داريء": 6905,
      "شري": 6906,
      "ناي": 6907,
      "ٽڪري": 6908,
      "ڀٽائي": 6909,
      "روڪ": 6910,
      "جهڙن": 6911,
      "شهادت": 6912,
      "پهتي": 6913,
      "نظاماڻي": 6914,
      "نازل": 6915,
      "آبپا": 6916,
      "قلندر": 6917,
      "برابري": 6918,
      "1949ع": 6919,
      "اٽلي": 6920,
      "تفسير": 6921,
      "بھتر": 6922,
      "موسيقار": 6923,
      "عقيدو": 6924,
      "چاندي": 6925,
      "سمجھي": 6926,
      "طوفان": 6927,
      "ve": 6928,
      "تستان": 6929,
      "رگ": 6930,
      "رائڻ": 6931,
      "پائن": 6932,
      "روضي": 6933,
      "سينگ": 6934,
      "جوهي": 6935,
      "بلڪه": 6936,
      "دوستي": 6937,
      "خوف": 6938,
      "مدد": 6939,
      "انڊس": 6940,
      "1942ع": 6941,
      "رھندو": 6942,
      "ڄاڻخانو": 6943,
      "اڏاو": 6944,
      "مزا": 6945,
      "عقيدن": 6946,
      "سجاول": 6947,
      "لاڳي": 6948,
      "اسڪالر": 6949,
      "چنيسر": 6950,
      "اترين": 6951,
      "دھ": 6952,
      "رپور": 6953,
      "عالي": 6954,
      "مٿيون": 6955,
      "پمينٽ": 6956,
      "ٿاڻو": 6957,
      "ھجن": 6958,
      "یت": 6959,
      "البت": 6960,
      "ريم": 6961,
      "ايسوسيئيشن": 6962,
      "سيل": 6963,
      "سياح": 6964,
      "ابا": 6965,
      "ڏياري": 6966,
      "چوري": 6967,
      "اعتب": 6968,
      "گرامر": 6969,
      "آرٽيڪل": 6970,
      "عبدالعزيز": 6971,
      "عبدالقادر": 6972,
      "انڊو": 6973,
      "1968ع": 6974,
      "حوالن": 6975,
      "طبعي": 6976,
      "نڪرندو": 6977,
      "پشتو": 6978,
      "لساني": 6979,
      "اڍائي": 6980,
      "68": 6981,
      "آصف": 6982,
      "اٿي": 6983,
      "اجر": 6984,
      "اڇا": 6985,
      "تلاء": 6986,
      "تغل": 6987,
      "سپل": 6988,
      "ٽان": 6989,
      "پچ": 6990,
      "چاند": 6991,
      "ڇڪ": 6992,
      "ڦڦ": 6993,
      "راوي": 6994,
      "امرو": 6995,
      "ستر": 6996,
      "اتم": 6997,
      "182": 6998,
      "نسن": 6999,
      "آرمي": 7000,
      "سڀا": 7001,
      "ڀاڄ": 7002,
      "اڪيلو": 7003,
      "ٽائيم": 7004,
      "حاضر": 7005,
      "بشير": 7006,
      "شراب": 7007,
      "مک": 7008,
      "ڍل": 7009,
      "ڏک": 7010,
      "ڦل": 7011,
      "گند": 7012,
      "واٽر": 7013,
      "بيمار": 7014,
      "سردارن": 7015,
      "ڪنڊي": 7016,
      "ڪنڊي": 7017,
      "نوري": 7018,
      "يوري": 7019,
      "تخلص": 7020,
      "پليڪس": 7021,
      "ميرپور": 7022,
      "چانسلر": 7023,
      "سفارتي": 7024,
      "آڻيندا": 7025,
      "ڪينيڊا": 7026,
      "معصوم": 7027,
      "اڄڪلهه": 7028,
      "46": 7029,
      "Sc": 7030,
      "دون": 7031,
      "رٿا": 7032,
      "نفر": 7033,
      "ننڊ": 7034,
      "هارين": 7035,
      "وئ": 7036,
      "ٿام": 7037,
      "ڊا": 7038,
      "ويٽ": 7039,
      "مرمت": 7040,
      "پوکڻ": 7041,
      "ساٿ": 7042,
      "معاھ": 7043,
      "لکو": 7044,
      "فوٽن": 7045,
      "جھڙو": 7046,
      "جرنل": 7047,
      "مصروف": 7048,
      "2024": 7049,
      "سوراخ": 7050,
      "جوڙيو": 7051,
      "گجراتي": 7052,
      "خارجي": 7053,
      "متحده": 7054,
      "ڪلاسيڪي": 7055,
      "الطاف": 7056,
      "ايئرپورٽ": 7057,
      "ردعمل": 7058,
      "اعتبار": 7059,
      "آک": 7060,
      "باه": 7061,
      "صه": 7062,
      "وڊيو": 7063,
      "گرن": 7064,
      "ھد": 7065,
      "ادم": 7066,
      "واء": 7067,
      "واپار": 7068,
      "جوڙ": 7069,
      "برفاني": 7070,
      "سومرا": 7071,
      "فيق": 7072,
      "تعلقن": 7073,
      "فريئر": 7074,
      "ڀرائي": 7075,
      "ڪشان": 7076,
      "مزاج": 7077,
      "سرور": 7078,
      "وفاق": 7079,
      "نڪرندڙ": 7080,
      "ھڪڙي": 7081,
      "منجهس": 7082,
      "ڄيٺ": 7083,
      "افتتاح": 7084,
      "47": 7085,
      "am": 7086,
      "تالي": 7087,
      "دالله": 7088,
      "راهه": 7089,
      "غي": 7090,
      "نائي": 7091,
      "ٿور": 7092,
      "چمڪ": 7093,
      "ڌا": 7094,
      "جيمس": 7095,
      "وڌيو": 7096,
      "پهلو": 7097,
      "بلتستان": 7098,
      "ڪاريء": 7099,
      "بدلائي": 7100,
      "ڪرايا": 7101,
      "ٻيلن": 7102,
      "1978ع": 7103,
      "1984ع": 7104,
      "سائيت": 7105,
      "ent": 7106,
      "بلاڪ": 7107,
      "نمونن": 7108,
      "صلاحيتن": 7109,
      "ڇڏيائين": 7110,
      "بشمول": 7111,
      "لطف": 7112,
      ":-": 7113,
      "Com": 7114,
      "جہ": 7115,
      "رب": 7116,
      "ميٽرڪ": 7117,
      "ميزباني": 7118,
      "سنوار": 7119,
      "ڪيلي": 7120,
      "واڳ": 7121,
      "سيف": 7122,
      "تعمي": 7123,
      "ترن": 7124,
      "يورو": 7125,
      "ڪرام": 7126,
      "ٻڌو": 7127,
      "ليکڪن": 7128,
      "تصويرن": 7129,
      "رويي": 7130,
      "انجمن": 7131,
      "ٻارهن": 7132,
      "تجربن": 7133,
      "نمونا": 7134,
      "طبيعت": 7135,
      "ابوذر": 7136,
      "زڪام": 7137,
      "istan": 7138,
      "ٻرندڙ": 7139,
      "54": 7140,
      "سلوڪ": 7141,
      "ظاهري": 7142,
      "قس": 7143,
      "نث": 7144,
      "ناو": 7145,
      "ٺٽ": 7146,
      "ڪاهه": 7147,
      "لاکو": 7148,
      "بايو": 7149,
      "جهر": 7150,
      "پرت": 7151,
      "يونائي": 7152,
      "ڪاپي": 7153,
      "گوادر": 7154,
      "عيسائيت": 7155,
      "ڀريو": 7156,
      "1966ع": 7157,
      "نامه": 7158,
      "نصاب": 7159,
      "1938ع": 7160,
      "مائڪرو": 7161,
      "قبرون": 7162,
      "بلاول": 7163,
      "اورنگ": 7164,
      "ISBN": 7165,
      "62": 7166,
      "آئن": 7167,
      "حام": 7168,
      "حملن": 7169,
      "خشڪي": 7170,
      "سڪر": 7171,
      "سڪا": 7172,
      "شمي": 7173,
      "صہ": 7174,
      "طاق": 7175,
      "مٺو": 7176,
      "مڊل": 7177,
      "همع": 7178,
      "پسند": 7179,
      "ڊرو": 7180,
      "الق": 7181,
      "اينديون": 7182,
      "جناب": 7183,
      "ديس": 7184,
      "ڪوئي": 7185,
      "شهباز": 7186,
      "رهه": 7187,
      "بلين": 7188,
      "مدت": 7189,
      "گوار": 7190,
      "تباهي": 7191,
      "هلندي": 7192,
      "براعظم": 7193,
      "کوٽ": 7194,
      "وهندو": 7195,
      "خطري": 7196,
      "خودمخ": 7197,
      "ماسٽر": 7198,
      "ولادت": 7199,
      "تنظيمون": 7200,
      "قدامت": 7201,
      "پيروي": 7202,
      "ممبئي": 7203,
      "Online": 7204,
      "ناياب": 7205,
      "Sh": 7206,
      "بول": 7207,
      "بايو": 7208,
      "ٽرس": 7209,
      "پتي": 7210,
      "ڀائر": 7211,
      "ارس": 7212,
      "ساڻي": 7213,
      "محرم": 7214,
      "وارث": 7215,
      "مقبوليت": 7216,
      "ٽيهه": 7217,
      "فرسٽ": 7218,
      "مدو": 7219,
      "شريعت": 7220,
      "ماليڪيو": 7221,
      "اداڪارا": 7222,
      "معاملي": 7223,
      "عثمان": 7224,
      "ٻاڦ": 7225,
      "41": 7226,
      "Pro": 7227,
      "Se": 7228,
      "بک": 7229,
      "جڙي": 7230,
      "رن": 7231,
      "عبي": 7232,
      "نائين": 7233,
      "ٽامي": 7234,
      "ڪبير": 7235,
      "ارڪ": 7236,
      "مادري": 7237,
      "لينڊ": 7238,
      "اولي": 7239,
      "تعين": 7240,
      "سرحدن": 7241,
      "احسان": 7242,
      "گرائونڊ": 7243,
      "ناز": 7244,
      "سمو": 7245,
      "ضلع": 7246,
      "مسعو": 7247,
      "پھچ": 7248,
      "واپسي": 7249,
      "جانشين": 7250,
      "1937ع": 7251,
      "ڪلاڪن": 7252,
      "فائل": 7253,
      "مستحڪم": 7254,
      "سهڪار": 7255,
      "خودڪار": 7256,
      "عقل": 7257,
      "پارليام": 7258,
      "دروازا": 7259,
      "اسڪاٽلينڊ": 7260,
      "نفسياتي": 7261,
      "جادو": 7262,
      "زلزلي": 7263,
      "فارميشن": 7264,
      "پروڊيوسر": 7265,
      "ay": 7266,
      "سپر": 7267,
      "فلو": 7268,
      "قان": 7269,
      "ليو": 7270,
      "گانا": 7271,
      "الج": 7272,
      "ميلي": 7273,
      "اينگ": 7274,
      "ڪردارن": 7275,
      "بيهي": 7276,
      "حياتي": 7277,
      "سٽل": 7278,
      "سٽون": 7279,
      "وغيرہ": 7280,
      "ناما": 7281,
      "ill": 7282,
      "دلچسپ": 7283,
      "ماحوليات": 7284,
      "اطلاع": 7285,
      "غربت": 7286,
      "دارومدار": 7287,
      "ازم": 7288,
      "توازن": 7289,
      "زمان": 7290,
      "شار": 7291,
      "شديد": 7292,
      "وڃ": 7293,
      "گان": 7294,
      "ڳائي": 7295,
      "الين": 7296,
      "ميداني": 7297,
      "روڪي": 7298,
      "ايگز": 7299,
      "پوندا": 7300,
      "رهجي": 7301,
      "ڊيمي": 7302,
      "اولمپ": 7303,
      "1941ع": 7304,
      "1957ع": 7305,
      "شاهجهان": 7306,
      "قصو": 7307,
      "مهرباني": 7308,
      "بليڪ": 7309,
      "فاطمه": 7310,
      "51": 7311,
      "Mar": 7312,
      "to": 7313,
      "تڏھن": 7314,
      "داڻا": 7315,
      "رکيائين": 7316,
      "طار": 7317,
      "فنڊ": 7318,
      "ناصر": 7319,
      "ڍڪيل": 7320,
      "ڙون": 7321,
      "ڪاهي": 7322,
      "ماٿري": 7323,
      "پنڊي": 7324,
      "سوشل": 7325,
      "ٽيئر": 7326,
      "فيه": 7327,
      "فوجين": 7328,
      "لڳاتار": 7329,
      "ڪيترو": 7330,
      "ڪائونسل": 7331,
      "سڀي": 7332,
      "ers": 7333,
      "نارٿ": 7334,
      "گهوڙي": 7335,
      "موسمي": 7336,
      "پرورش": 7337,
      "صدر": 7338,
      "فخر": 7339,
      "ڀائي": 7340,
      "ڏجن": 7341,
      "ڪٽي": 7342,
      "ڳڙھ": 7343,
      "الا": 7344,
      "اديات": 7345,
      "ڪرائ": 7346,
      "مقالو": 7347,
      "تعلقا": 7348,
      "عربيء": 7349,
      "خوشيء": 7350,
      "اڳئين": 7351,
      "1981ع": 7352,
      "گاڏين": 7353,
      "ڀاڱن": 7354,
      "پئسفڪ": 7355,
      "حملا": 7356,
      "اطال": 7357,
      "ٺھڻ": 7358,
      "عدالتي": 7359,
      "فنڪارن": 7360,
      "ڍنڍن": 7361,
      "مددگار": 7362,
      "ميرپورخاص": 7363,
      "اورنگزيب": 7364,
      "اھن": 7365,
      "حدي": 7366,
      "طال": 7367,
      "وول": 7368,
      "ڦٽي": 7369,
      "ائيل": 7370,
      "جنڪشن": 7371,
      "اوند": 7372,
      "پاڙو": 7373,
      "هيس": 7374,
      "نگس": 7375,
      "2009": 7376,
      "کوهه": 7377,
      "1969ع": 7378,
      "دستور": 7379,
      "روايتون": 7380,
      "ical": 7381,
      "پهچائڻ": 7382,
      "ڪاروباري": 7383,
      "تلاش": 7384,
      "ٿولڪ": 7385,
      "عضون": 7386,
      "ويٽنام": 7387,
      "ٺٽوي": 7388,
      "48": 7389,
      "99": 7390,
      "nbs": 7391,
      "ud": 7392,
      "زب": 7393,
      "سامي": 7394,
      "نوي": 7395,
      "ھار": 7396,
      "الت": 7397,
      "ميان": 7398,
      "ماي": 7399,
      "ڪوبہ": 7400,
      "بازي": 7401,
      "تيز": 7402,
      "مشغ": 7403,
      "دوء": 7404,
      "گولي": 7405,
      "ڀرڳڙي": 7406,
      "ڄاڻو": 7407,
      "بچيل": 7408,
      "عهد": 7409,
      "عهدو": 7410,
      "تهذي": 7411,
      "اقتصاديات": 7412,
      "جارجيا": 7413,
      "برداشت": 7414,
      "سفير": 7415,
      "اسپيڪر": 7416,
      "nbsp": 7417,
      "ran": 7418,
      "خمي": 7419,
      "وٿ": 7420,
      "پٽي": 7421,
      "ائنٽ": 7422,
      "ٿيٽر": 7423,
      "اريندا": 7424,
      "گھڻ": 7425,
      "لڳڻ": 7426,
      "صفائي": 7427,
      "ٻڌمت": 7428,
      "1936ع": 7429,
      "لائيء": 7430,
      "iction": 7431,
      "چيئرمئن": 7432,
      "جدول": 7433,
      "باقاعده": 7434,
      "نفسيات": 7435,
      "978": 7436,
      "حادثي": 7437,
      "نسخو": 7438,
      "ويبسائيٽ": 7439,
      "پارلياماني": 7440,
      "56": 7441,
      "Ac": 7442,
      "Am": 7443,
      "آندا": 7444,
      "رح": 7445,
      "سفورڊ": 7446,
      "فور": 7447,
      "نم": 7448,
      "ڀڳو": 7449,
      "چرل": 7450,
      "ڏکيو": 7451,
      "افز": 7452,
      "ناڻي": 7453,
      "ٻيڙي": 7454,
      "1964ع": 7455,
      "2022": 7456,
      "هئائين": 7457,
      "بچڻ": 7458,
      "نيوٽن": 7459,
      "ناميارو": 7460,
      "969": 7461,
      "پيچيده": 7462,
      "واپارين": 7463,
      "()،": 7464,
      "if": 7465,
      "جون": 7466,
      "رليز": 7467,
      "سخي": 7468,
      "علوم": 7469,
      "مـ": 7470,
      "نيڪل": 7471,
      "وڪو": 7472,
      "ٻانهن": 7473,
      "ٽڪرا": 7474,
[...]
