{
  "version": "1.0",
  "truncation": null,
  "padding": null,
  "added_tokens": [
    {
      "id": 0,
      "content": "<UNK>",
      "single_word": false,
      "lstrip": false,
      "rstrip": false,
      "normalized": false,
      "special": true
    },
    {
      "id": 1,
      "content": "<PAD>",
      "single_word": false,
      "lstrip": false,
      "rstrip": false,
      "normalized": false,
      "special": true
    }
  ],
  "normalizer": null,
  "pre_tokenizer": {
    "type": "Whitespace"
  },
  "post_processor": null,
  "decoder": null,
  "model": {
    "type": "BPE",
    "dropout": null,
    "unk_token": "<UNK>",
    "continuing_subword_prefix": null,
    "end_of_word_suffix": null,
    "fuse_unk": false,
    "byte_fallback": false,
    "ignore_merges": false,
    "vocab": {
      "<UNK>": 0,
      "<PAD>": 1,
      "!": 2,
      ".": 3,
      "<": 4,
      ">": 5,
      "L": 6,
      "N": 7,
      "W": 8,
      "؁": 9,
      "؋": 10,
      "،": 11,
      "؎": 12,
      "ؐ": 13,
      "ؑ": 14,
      "ؒ": 15,
      "ؓ": 16,
      "ؕ": 17,
      "؛": 18,
      "؟": 19,
      "ء": 20,
      "آ": 21,
      "أ": 22,
      "ؤ": 23,
      "إ": 24,
      "ئ": 25,
      "ا": 26,
      "ب": 27,
      "ة": 28,
      "ت": 29,
      "ث": 30,
      "ج": 31,
      "ح": 32,
      "خ": 33,
      "د": 34,
      "ذ": 35,
      "ر": 36,
      "ز": 37,
      "س": 38,
      "ش": 39,
      "ص": 40,
      "ض": 41,
      "ط": 42,
      "ظ": 43,
      "ع": 44,
      "غ": 45,
      "ـ": 46,
      "ف": 47,
      "ق": 48,
      "ك": 49,
      "ل": 50,
      "م": 51,
      "ن": 52,
      "ه": 53,
      "و": 54,
      "ي": 55,
      "ً": 56,
      "ٓ": 57,
      "ٔ": 58,
      "ٕ": 59,
      "ٖ": 60,
      "ٗ": 61,
      "ٚ": 62,
      "ٜ": 63,
      "ٟ": 64,
      "٪": 65,
      "٫": 66,
      "٬": 67,
      "٭": 68,
      "ٮ": 69,
      "ٰ": 70,
      "ٱ": 71,
      "ٳ": 72,
      "ٴ": 73,
      "ٹ": 74,
      "ٺ": 75,
      "ٻ": 76,
      "ټ": 77,
      "ٽ": 78,
      "پ": 79,
      "ٿ": 80,
      "ڀ": 81,
      "ځ": 82,
      "ڃ": 83,
      "ڄ": 84,
      "څ": 85,
      "چ": 86,
      "ڇ": 87,
      "ڈ": 88,
      "ډ": 89,
      "ڊ": 90,
      "ڌ": 91,
      "ڍ": 92,
      "ڎ": 93,
      "ڏ": 94,
      "ڑ": 95,
      "ړ": 96,
      "ڕ": 97,
      "ږ": 98,
      "ژ": 99,
      "ڙ": 100,
      "ښ": 101,
      "ڦ": 102,
      "ک": 103,
      "ڪ": 104,
      "ګ": 105,
      "ڭ": 106,
      "گ": 107,
      "ڱ": 108,
      "ڲ": 109,
      "ڳ": 110,
      "ڵ": 111,
      "ں": 112,
      "ڻ": 113,
      "ھ": 114,
      "ہ": 115,
      "ۂ": 116,
      "ۃ": 117,
      "ۄ": 118,
      "ۅ": 119,
      "ۆ": 120,
      "ۇ": 121,
      "ۉ": 122,
      "ۏ": 123,
      "۔": 124,
      "ە": 125,
      "ۖ": 126,
      "ۗ": 127,
      "ۙ": 128,
      "ۚ": 129,
      "ۜ": 130,
      "۠": 131,
      "ۡ": 132,
      "ۢ": 133,
      "ۤ": 134,
      "۫": 135,
      "۬": 136,
      "ۮ": 137,
      "ۯ": 138,
      "۽": 139,
      "۾": 140,
      "ۿ": 141,
      "ݔ": 142,
      "ݣ": 143,
      "ݨ": 144,
      "ݯ": 145,
      "﴾": 146,
      "﴿": 147,
      "﷢": 148,
      "﷥": 149,
      "﷦": 150,
      "ان": 151,
      "جي": 152,
      "ري": 153,
      ".<": 154,
      "،<": 155,
      "يو": 156,
      "NL": 157,
      "۾<": 158,
      "ين": 159,
      "هن": 160,
      "هي": 161,
      "جو": 162,
      "ال": 163,
      "۽<": 164,
      "ائ": 165,
      "ار": 166,
      "تي": 167,
      "ور": 168,
      "ون": 169,
      "يا": 170,
      "آهي": 171,
      "کي": 172,
      "ام": 173,
      "رو": 174,
      "لي": 175,
      "دي": 176,
      "ئي": 177,
      "سن": 178,
      "لا": 179,
      "اس": 180,
      "ڪي": 181,
      "جن": 182,
      "را": 183,
      "مي": 184,
      "سان": 185,
      "هو": 186,
      "اري": 187,
      "ھن": 188,
      "کان": 189,
      "اد": 190,
      "اب": 191,
      "يون": 192,
      "اڻ": 193,
      "دو": 194,
      "ڪو": 195,
      "ائي": 196,
      "سي": 197,
      "جا": 198,
      "بي": 199,
      "اي": 200,
      "ڪن": 201,
      "ھي": 202,
      "ڪري": 203,
      "اه": 204,
      "ٿي": 205,
      "پي": 206,
      "ٽي": 207,
      "ست": 208,
      "هڪ": 209,
      "سنڌ": 210,
      "دا": 211,
      "مان": 212,
      "ڪر": 213,
      "وي": 214,
      "آهن": 215,
      "من": 216,
      "مو": 217,
      "ته": 218,
      "زم": 219,
      "مل": 220,
      "ائين": 221,
      "پن": 222,
      "بر": 223,
      "ات": 224,
      "پو": 225,
      "رن": 226,
      "وا": 227,
      "تع": 228,
      "در": 229,
      "اڪ": 230,
      "ڪيو": 231,
      "قي": 232,
      "به": 233,
      "ول": 234,
      "لاء": 235,
      "هر": 236,
      "لو": 237,
      "ٿو": 238,
      "بن": 239,
      "زمرو": 240,
      "ڪا": 241,
      "ني": 242,
      "ويو": 243,
      "پر": 244,
      "ما": 245,
      "آھي": 246,
      "في": 247,
      "سل": 248,
      "الي": 249,
      "سر": 250,
      "ڏي": 251,
      "ڙي": 252,
      "اص": 253,
      "مد": 254,
      "عي": 255,
      "تن": 256,
      "با": 257,
      "ستان": 258,
      "ٽر": 259,
      "شن": 260,
      "مر": 261,
      "شا": 262,
      "مح": 263,
      "سند": 264,
      "ڪت": 265,
      "گه": 266,
      "جه": 267,
      "جنهن": 268,
      "او": 269,
      "تر": 270,
      "ير": 271,
      "چي": 272,
      "دڙ": 273,
      "عل": 274,
      "سال": 275,
      "سو": 276,
      "ڳو": 277,
      "بل": 278,
      "گر": 279,
      "باد": 280,
      "ڪل": 281,
      "ڊي": 282,
      "اڻي": 283,
      "خان": 284,
      "صو": 285,
      "سنڌي": 286,
      "زي": 287,
      "قت": 288,
      "وين": 289,
      "ڻي": 290,
      "ڪم": 291,
      "پوء": 292,
      "ڪار": 293,
      "نو": 294,
      "چو": 295,
      "سم": 296,
      "طور": 297,
      "واري": 298,
      "ڪرڻ": 299,
      "تو": 300,
      "ڪتاب": 301,
      "قو": 302,
      "رين": 303,
      "اني": 304,
      "ڪئي": 305,
      "سندس": 306,
      "مع": 307,
      "وار": 308,
      "ھر": 309,
      "مش": 310,
      "نه": 311,
      "پنهن": 312,
      "سٽ": 313,
      "مق": 314,
      "گي": 315,
      "ھو": 316,
      "امي": 317,
      "حي": 318,
      "انهن": 319,
      "ڏهن": 320,
      "مت": 321,
      "ٿين": 322,
      "اح": 323,
      "تائين": 324,
      "ٿا": 325,
      "دن": 326,
      "؛<": 327,
      "شي": 328,
      "جيڪو": 329,
      "ڌي": 330,
      "وڃ": 331,
      "ڙو": 332,
      "اف": 333,
      "خت": 334,
      "الو": 335,
      "طر": 336,
      "بو": 337,
      "ماڻ": 338,
      "ئن": 339,
      "پڻ": 340,
      "آباد": 341,
      "هه": 342,
      "پار": 343,
      "ٿيو": 344,
      "ھڪ": 345,
      "اهو": 346,
      "زن": 347,
      "پاڪ": 348,
      "فر": 349,
      "اهه": 350,
      "لن": 351,
      "دار": 352,
      "اڳ": 353,
      "جون": 354,
      "مال": 355,
      "په": 356,
      "ٽن": 357,
      "لف": 358,
      "پنهنجي": 359,
      "تح": 360,
      "نا": 361,
      "ئا": 362,
      "هون": 363,
      "محمد": 364,
      "شام": 365,
      "ائن": 366,
      "عر": 367,
      "پاڪستان": 368,
      "مون": 369,
      "پور": 370,
      "انگ": 371,
      "وڏ": 372,
      "علي": 373,
      "سڀ": 374,
      "هئي": 375,
      "شهر": 376,
      "علائ": 377,
      "دور": 378,
      "وقت": 379,
      "ٽو": 380,
      "شامل": 381,
      "نالو": 382,
      "رس": 383,
      "ڏين": 384,
      "ره": 385,
      "عو": 386,
      "نظ": 387,
      "کڻ": 388,
      "مار": 389,
      "ملڪ": 390,
      "آھن": 391,
      "مبر": 392,
      "هيء": 393,
      "است": 394,
      "تاري": 395,
      "فو": 396,
      "۔<": 397,
      "گڏ": 398,
      "ويندو": 399,
      "وڃي": 400,
      "ٻو": 401,
      "هئا": 402,
      "ڳوٺ": 403,
      "چون": 404,
      "تاريخ": 405,
      "مط": 406,
      "ضل": 407,
      "ٻي": 408,
      "ائون": 409,
      "جود": 410,
      "نڍ": 411,
      "گھ": 412,
      "تہ": 413,
      "تعل": 414,
      "شرو": 415,
      "سا": 416,
      "اصل": 417,
      "جنھن": 418,
      "شروع": 419,
      "زا": 420,
      "ايو": 421,
      "وڌي": 422,
      "ئين": 423,
      "سيا": 424,
      "ريون": 425,
      "واق": 426,
      "مين": 427,
      "کن": 428,
      "مري": 429,
      "حا": 430,
      "دان": 431,
      "جڏهن": 432,
      "اين": 433,
      "الا": 434,
      "ڊيا": 435,
      "صف": 436,
      "شھر": 437,
      "خو": 438,
      "لڳ": 439,
      "حو": 440,
      "بد": 441,
      "ڀر": 442,
      "سين": 443,
      "مس": 444,
      "مير": 445,
      "استع": 446,
      "غير": 447,
      "اھ": 448,
      "اتي": 449,
      "له": 450,
      "اهي": 451,
      "ريل": 452,
      "عد": 453,
      "مه": 454,
      "وئي": 455,
      "واقع": 456,
      "ڻو": 457,
      "ٺي": 458,
      "ئر": 459,
      "وڌيڪ": 460,
      "ارن": 461,
      "تا": 462,
      "فل": 463,
      "ليم": 464,
      "استعمال": 465,
      "جيڪي": 466,
      "ثر": 467,
      "وڪي": 468,
      "ڪرا": 469,
      "ائڻ": 470,
      "عام": 471,
      "موجود": 472,
      "صي": 473,
      "وري": 474,
      "ٻولي": 475,
      "وڏي": 476,
      "وٽ": 477,
      "چن": 478,
      "مخت": 479,
      "آف": 480,
      "ورت": 481,
      "سب": 482,
      "سگ": 483,
      "نالي": 484,
      "جيڪا": 485,
      "شاهه": 486,
      "ديء": 487,
      "طرف": 488,
      "وڏو": 489,
      "اسي": 490,
      "بہ": 491,
      "ديھ": 492,
      "ريا": 493,
      "دين": 494,
      "لک": 495,
      "انا": 496,
      "دنيا": 497,
      "هور": 498,
      "وچ": 499,
      "آبا": 500,
      "حڪو": 501,
      "خاص": 502,
      "اخ": 503,
      "شر": 504,
      "پاڻ": 505,
      "باب": 506,
      "ورن": 507,
      "مض": 508,
      "ملي": 509,
      "مخ": 510,
      "گو": 511,
      "ضي": 512,
      "جهه": 513,
      "اول": 514,
      "لين": 515,
      "تب": 516,
      "۾،<": 517,
      "ڪيت": 518,
      "ڪس": 519,
      "کيس": 520,
      "ذري": 521,
      "الله": 522,
      "خي": 523,
      "اتر": 524,
      "قل": 525,
      "ٻين": 526,
      "تيار": 527,
      "ننڍ": 528,
      "حاصل": 529,
      "رهيو": 530,
      "لام": 531,
      "پيدا": 532,
      "آر": 533,
      "قائ": 534,
      "آبادي": 535,
      "ويا": 536,
      "مختلف": 537,
      "تان": 538,
      "پٽ": 539,
      "انگري": 540,
      "صر": 541,
      "حڪومت": 542,
      "جان": 543,
      "يني": 544,
      "ها": 545,
      "پا": 546,
      "مسل": 547,
      "گا": 548,
      "جر": 549,
      "پرو": 550,
      "وارو": 551,
      "ٿئي": 552,
      "جھ": 553,
      "قا": 554,
      "ارو": 555,
      "تعليم": 556,
      "ڪجهه": 557,
      "بنيا": 558,
      "اچي": 559,
      "ڪنهن": 560,
      "بعد": 561,
      "ڏکڻ": 562,
      "ٻن": 563,
      "تم": 564,
      "ايت": 565,
      "حيدر": 566,
      "لفظ": 567,
      "ڳال": 568,
      "دگي": 569,
      "هين": 570,
      "پيڊيا": 571,
      "ابق": 572,
      "لاح": 573,
      "قن": 574,
      "وف": 575,
      "ديون": 576,
      "ڏنو": 577,
      "عبد": 578,
      "ضلعي": 579,
      "عال": 580,
      "ڏيو": 581,
      "مطابق": 582,
      "پري": 583,
      "قر": 584,
      "مشهور": 585,
      "ورو": 586,
      "قائم": 587,
      "رياست": 588,
      "زمين": 589,
      "ڙا": 590,
      "بڻ": 591,
      "رهي": 592,
      "سانچو": 593,
      "داد": 594,
      "ماني": 595,
      "اهر": 596,
      "گهر": 597,
      "ادبي": 598,
      "برا": 599,
      "آن": 600,
      "فار": 601,
      "وال": 602,
      "قب": 603,
      "يونيو": 604,
      "آمري": 605,
      "ٿيل": 606,
      "اسڪو": 607,
      "اها": 608,
      "پھ": 609,
      "ڳا": 610,
      "حيدرآباد": 611,
      "فن": 612,
      "سمن": 613,
      "ڪاري": 614,
      "ڪيا": 615,
      "حد": 616,
      "صاح": 617,
      "جنگ": 618,
      "لکي": 619,
      "ماڻهو": 620,
      "شه": 621,
      "ڊن": 622,
      "ھيو": 623,
      "حصو": 624,
      "مضمون": 625,
      "پيو": 626,
      "مب": 627,
      "تون": 628,
      "ڪلو": 629,
      "صن": 630,
      "انسان": 631,
      "جل": 632,
      "انهيء": 633,
      "ڀي": 634,
      "ميٽر": 635,
      "ٽا": 636,
      "ضر": 637,
      "پاڻي": 638,
      "قسم": 639,
      "ڪراچي": 640,
      "وڌ": 641,
      "ٻڌ": 642,
      "ڊر": 643,
      "از": 644,
      "ٻئي": 645,
      "جيئن": 646,
      "پنج": 647,
      "ران": 648,
      "شاھ": 649,
      "اوڀر": 650,
      "زار": 651,
      "ھون": 652,
      "ڙن": 653,
      "شاع": 654,
      "چار": 655,
      "رنگ": 656,
      "اسٽي": 657,
      "ڏانهن": 658,
      "وڪيپيڊيا": 659,
      "مرڪ": 660,
      "فت": 661,
      "شري": 662,
      "ٿيڻ": 663,
      "دري": 664,
      "قدي": 665,
      "صاحب": 666,
      "ڏن": 667,
      "هند": 668,
      "ڪيل": 669,
      "سائن": 670,
      "آخ": 671,
      "گل": 672,
      "مذ": 673,
      "صدي": 674,
      "ڪان": 675,
      "طي": 676,
      "..<": 677,
      "ٿيون": 678,
      "زر": 679,
      "يت": 680,
      "علائقي": 681,
      "ڏينهن": 682,
      "ڄام": 683,
      "اسان": 684,
      "ڏا": 685,
      "پنھن": 686,
      "حاظ": 687,
      "ڀا": 688,
      "هيٺ": 689,
      "چا": 690,
      "تمام": 691,
      "بور": 692,
      "ڪڏهن": 693,
      "سائي": 694,
      "وني": 695,
      "ڊيو": 696,
      "بار": 697,
      "حال": 698,
      "رک": 699,
      "انھن": 700,
      "ڪيائين": 701,
      "رسٽي": 702,
      "سبب": 703,
      "يونيورسٽي": 704,
      "پاران": 705,
      "ڇا": 706,
      "هندو": 707,
      "طن": 708,
      "سام": 709,
      "پڙ": 710,
      "طرح": 711,
      "عبدال": 712,
      "سما": 713,
      "پبل": 714,
      "عت": 715,
      "بين": 716,
      "ذريعي": 717,
      "احمد": 718,
      "چيو": 719,
      "صوبي": 720,
      "قديم": 721,
      "عمل": 722,
      "ارا": 723,
      "اسڪول": 724,
      "ٿيندو": 725,
      "آيو": 726,
      "خلا": 727,
      "پهريون": 728,
      "ٽري": 729,
      "ياتي": 730,
      "جتي": 731,
      "ايل": 732,
      "ڪائون": 733,
      "ديو": 734,
      "تص": 735,
      "ڊو": 736,
      "ماڻهن": 737,
      "ڇو": 738,
      "پيش": 739,
      "بخ": 740,
      "سالن": 741,
      "ده": 742,
      "سوا": 743,
      "کو": 744,
      "ماري": 745,
      "مڪ": 746,
      "اثر": 747,
      "بان": 748,
      "هوندو": 749,
      "اٿ": 750,
      "ڄاڻ": 751,
      "راڻي": 752,
      "ائو": 753,
      "ئون": 754,
      "جد": 755,
      "گن": 756,
      "عظ": 757,
      "يور": 758,
      "نق": 759,
      "ٻه": 760,
      "عن": 761,
      "رکن": 762,
      "صفحو": 763,
      "انت": 764,
      "ڇپ": 765,
      "لينڊ": 766,
      "دل": 767,
      "سياسي": 768,
      "ڪٽ": 769,
      "ھئي": 770,
      "زندگي": 771,
      "اندر": 772,
      "ليک": 773,
      "سيد": 774,
      "ڄي": 775,
      "ٻول": 776,
      "وغير": 777,
      "سگه": 778,
      "يات": 779,
      "نہ": 780,
      "هيون": 781,
      "ڊاڪ": 782,
      "ريو": 783,
      "طا": 784,
      "پل": 785,
      "ريء": 786,
      "ــ": 787,
      "رکي": 788,
      "هنڌ": 789,
      "انگريزي": 790,
      "کر": 791,
      "صدر": 792,
      "هيو": 793,
      "سواء": 794,
      "هڻ": 795,
      "وٺي": 796,
      "نظام": 797,
      "ڌر": 798,
      "!<": 799,
      "گهٽ": 800,
      "پيل": 801,
      "ڪندو": 802,
      "گهڻو": 803,
      "جم": 804,
      "طان": 805,
      "تنهن": 806,
      "مسلمان": 807,
      "مث": 808,
      "هندستان": 809,
      "ايم": 810,
      "جمو": 811,
      "ندي": 812,
      "تق": 813,
      "ڪوٽ": 814,
      "اهڙي": 815,
      "مقر": 816,
      "مول": 817,
      "وفات": 818,
      "پنھنجي": 819,
      "يع": 820,
      "ڪه": 821,
      "قان": 822,
      "سندن": 823,
      "طري": 824,
      "ايڊي": 825,
      "گرا": 826,
      "اڳو": 827,
      "قاف": 828,
      "ٻيو": 829,
      "عمر": 830,
      "ٿيا": 831,
      "ڪام": 832,
      "دوران": 833,
      "اهم": 834,
      "ٿر": 835,
      "بح": 836,
      "ڪائونسل": 837,
      "شيا": 838,
      "ميت": 839,
      "پهرين": 840,
      "ڪندا": 841,
      "زاد": 842,
      "ڪندڙ": 843,
      "مٿ": 844,
      "جڻ": 845,
      "وغيره": 846,
      "ضو": 847,
      "ڪندي": 848,
      "فا": 849,
      "تعلق": 850,
      "ريڪ": 851,
      "ڌاري": 852,
      "ترقي": 853,
      "نظر": 854,
      "تعلقي": 855,
      "ڊاڪٽر": 856,
      "گري": 857,
      "ريت": 858,
      "مقرر": 859,
      "شان": 860,
      "طرفان": 861,
      "بورڊ": 862,
      "ارت": 863,
      "ٺو": 864,
      "هان": 865,
      "کا": 866,
      "ڪالي": 867,
      "شو": 868,
      "سائنس": 869,
      "خل": 870,
      "سيڪ": 871,
      "الن": 872,
      "چر": 873,
      "بنياد": 874,
      "ريلوي": 875,
      "معني": 876,
      "ٻار": 877,
      "گرو": 878,
      "مينٽ": 879,
      "يعني": 880,
      "هل": 881,
      "تبدي": 882,
      "ڏني": 883,
      "پير": 884,
      "ادب": 885,
      "ڏو": 886,
      "ميمبر": 887,
      "بابت": 888,
      "ڪيترن": 889,
      "چونڊ": 890,
      "کانپوء": 891,
      "پنجاب": 892,
      "ميل": 893,
      "انو": 894,
      "سمنڊ": 895,
      "دم": 896,
      "الدين": 897,
      "ترائي": 898,
      "يم": 899,
      "رکيو": 900,
      "ثقاف": 901,
      "رهن": 902,
      "وارن": 903,
      "بت": 904,
      "نمبر": 905,
      "ائش": 906,
      "اسلام": 907,
      "بلو": 908,
      "اڄ": 909,
      "ڪيترائي": 910,
      "اسٽيشن": 911,
      "جب": 912,
      "غلام": 913,
      "شاي": 914,
      "مدد": 915,
      "برو": 916,
      "سط": 917,
      "اٽ": 918,
      "ڪش": 919,
      "علم": 920,
      "گذ": 921,
      "قومي": 922,
      "ساڳ": 923,
      "ويندي": 924,
      "شاه": 925,
      "ڪون": 926,
      "ستي": 927,
      "اصط": 928,
      "ٽين": 929,
      "خاندان": 930,
      "خط": 931,
      "زو": 932,
      "اسل": 933,
      "جبل": 934,
      "رات": 935,
      "سنڌيانا": 936,
      "لاڳا": 937,
      "مشت": 938,
      "يل": 939,
      "سلي": 940,
      "هجي": 941,
      "بيان": 942,
      "نيو": 943,
      "ڏھن": 944,
      "مذه": 945,
      "ليکڪ": 946,
      "نسل": 947,
      "عا": 948,
      "ٻيا": 949,
      "نام": 950,
      "وڻ": 951,
      "وان": 952,
      "صورت": 953,
      "اھو": 954,
      "ڪال": 955,
      "پبلشر": 956,
      "يونين": 957,
      "ڪاليج": 958,
      "ڏئي": 959,
      "ملڪن": 960,
      "سيڪڙو": 961,
      "نئين": 962,
      "ترين": 963,
      "لب": 964,
      "شيخ": 965,
      "وارا": 966,
      "ڏيڻ": 967,
      "اڪثر": 968,
      "ڊا": 969,
      "ڪين": 970,
      "سگهي": 971,
      "قبي": 972,
      "مسجد": 973,
      "سون": 974,
      "ابت": 975,
      "شخ": 976,
      "وسي": 977,
      "ڪلوميٽر": 978,
      "ورس": 979,
      "کين": 980,
      "نئون": 981,
      "انس": 982,
      "ائيندڙ": 983,
      "اپ": 984,
      "شاعر": 985,
      "بند": 986,
      "ڪشن": 987,
      "ٻوليء": 988,
      "هوندي": 989,
      "جهڙو": 990,
      "راب": 991,
      "آمريڪا": 992,
      "ڇڏيو": 993,
      "واپ": 994,
      "صح": 995,
      "مشتمل": 996,
      "آزاد": 997,
      "اصطلاح": 998,
      "ٽيون": 999,
      "نگ": 1000,
      "گورن": 1001,
      "ٽيء": 1002,
      "سياست": 1003,
      "ڪرو": 1004,
      "ھين": 1005,
      "ارين": 1006,
      "ذڪر": 1007,
      "ديد": 1008,
      "سور": 1009,
      "شين": 1010,
      "شع": 1011,
      "خلي": 1012,
      "جلد": 1013,
      "ٿيندي": 1014,
      "پاس": 1015,
      "هتي": 1016,
      "بخش": 1017,
      "اردو": 1018,
      "ختم": 1019,
      "علائقو": 1020,
      "اسلامي": 1021,
      "لغ": 1022,
      "چين": 1023,
      "شت": 1024,
      "روز": 1025,
      "حضر": 1026,
      "انتظ": 1027,
      "ادي": 1028,
      "بائي": 1029,
      "ڏيل": 1030,
      "شروعات": 1031,
      "هٿ": 1032,
      "حضرت": 1033,
      "غل": 1034,
      "واز": 1035,
      "امن": 1036,
      "ٽل": 1037,
      "چڻ": 1038,
      "حيث": 1039,
      "وٺ": 1040,
      "مرزا": 1041,
      "فلم": 1042,
      "لکيل": 1043,
      "گرافي": 1044,
      "ميو": 1045,
      "ٺاه": 1046,
      "ھا": 1047,
      "مرڪز": 1048,
      "فري": 1049,
      "شورو": 1050,
      "حيثيت": 1051,
      "راج": 1052,
      "نتي": 1053,
      "راڻ": 1054,
      "بيگ": 1055,
      "ڪردار": 1056,
      "حق": 1057,
      "ڪلا": 1058,
      "لوم": 1059,
      "سڃ": 1060,
      "قدر": 1061,
      "خيال": 1062,
      "سرڪاري": 1063,
      "چان": 1064,
      "سڀني": 1065,
      "خود": 1066,
      "زير": 1067,
      "علائقن": 1068,
      "اختيار": 1069,
      "طب": 1070,
      "ٽس": 1071,
      "مرا": 1072,
      "ڇڏي": 1073,
      "تحقي": 1074,
      "تعلقو": 1075,
      "شڪ": 1076,
      "اندا": 1077,
      "ايڊيشن": 1078,
      "حر": 1079,
      "باني": 1080,
      "ارڊ": 1081,
      "اڀ": 1082,
      "ڪرن": 1083,
      "ڇي": 1084,
      "نم": 1085,
      "عربي": 1086,
      "مڪمل": 1087,
      "منظ": 1088,
      "علا": 1089,
      "باغ": 1090,
      "وره": 1091,
      "ٽرن": 1092,
      "قانون": 1093,
      "دست": 1094,
      "سڏيو": 1095,
      "ورتو": 1096,
      "ڌو": 1097,
      "تاريخي": 1098,
      "جاري": 1099,
      "سوي": 1100,
      "گھر": 1101,
      "مٿي": 1102,
      "راء": 1103,
      "پيا": 1104,
      "بلحاظ": 1105,
      "صرف": 1106,
      "بنيادي": 1107,
      "گڏيل": 1108,
      "اولهه": 1109,
      "سڏ": 1110,
      "پاسي": 1111,
      "هم": 1112,
      "ايس": 1113,
      "ويج": 1114,
      "ماڻھو": 1115,
      "ابو": 1116,
      "جديد": 1117,
      "پين": 1118,
      "حسين": 1119,
      "تحريڪ": 1120,
      "شنل": 1121,
      "ادر": 1122,
      "ملن": 1123,
      "ويندا": 1124,
      "جاء": 1125,
      "ٽڪ": 1126,
      "خلاف": 1127,
      "استاد": 1128,
      "اتو": 1129,
      "بلوچ": 1130,
      "سلطن": 1131,
      "شھ": 1132,
      "آفري": 1133,
      "ڪيم": 1134,
      "عالمي": 1135,
      "شڪار": 1136,
      "عرب": 1137,
      "رل": 1138,
      "جيڪڏهن": 1139,
      "سماجي": 1140,
      ">.<": 1141,
      "موجب": 1142,
      "ليء": 1143,
      "هيل": 1144,
      "ملا": 1145,
      "فتح": 1146,
      "فائ": 1147,
      "چئ": 1148,
      "ؤر": 1149,
      "جين": 1150,
      "ضلعو": 1151,
      "ڪيون": 1152,
      "عظم": 1153,
      "ڪور": 1154,
      "اج": 1155,
      "فقي": 1156,
      "زماني": 1157,
      "ياد": 1158,
      "مثال": 1159,
      "آخر": 1160,
      "آئين": 1161,
      "ڪڍ": 1162,
      "انساني": 1163,
      "فق": 1164,
      "ابن": 1165,
      "شايع": 1166,
      "اٺ": 1167,
      "ڙيل": 1168,
      "سڄي": 1169,
      "ذي": 1170,
      "معا": 1171,
      "ورتن": 1172,
      "اھي": 1173,
      "رون": 1174,
      "ٻيٽ": 1175,
      "ڪوش": 1176,
      "خد": 1177,
      "پوري": 1178,
      "جام": 1179,
      "پکي": 1180,
      "تقري": 1181,
      "مختيار": 1182,
      "سلطنت": 1183,
      "جهڙوڪ": 1184,
      "ائيء": 1185,
      "ٿيندا": 1186,
      "حسن": 1187,
      "ڱي": 1188,
      "هار": 1189,
      "کڻي": 1190,
      "لکيو": 1191,
      "مست": 1192,
      "لحاظ": 1193,
      "آزا": 1194,
      "عورت": 1195,
      "ٽرو": 1196,
      "نمون": 1197,
      "ڪافي": 1198,
      "عالم": 1199,
      "اڃ": 1200,
      "شاعري": 1201,
      "ھور": 1202,
      "جاگرافي": 1203,
      "هوندا": 1204,
      "قرار": 1205,
      "تعمير": 1206,
      "وڃن": 1207,
      "پون": 1208,
      "مٿان": 1209,
      "معنيٰ": 1210,
      "اڻو": 1211,
      "...<": 1212,
      "سرو": 1213,
      "ڪلي": 1214,
      "ڪنھن": 1215,
      "آمريڪي": 1216,
      "جنم": 1217,
      "پلي": 1218,
      "آڪ": 1219,
      "داخل": 1220,
      "منهن": 1221,
      "بڻجي": 1222,
      "زل": 1223,
      "ئس": 1224,
      "فوج": 1225,
      "تنظ": 1226,
      "داري": 1227,
      "چوندا": 1228,
      "جڳ": 1229,
      "فهر": 1230,
      "تبديل": 1231,
      "ڙيء": 1232,
      "فهرست": 1233,
      "ايشيا": 1234,
      "شاگر": 1235,
      "مقام": 1236,
      "حوالي": 1237,
      "معلوم": 1238,
      "اون": 1239,
      "اسٽ": 1240,
      "گاديء": 1241,
      "مطال": 1242,
      "عه": 1243,
      "وانگر": 1244,
      "آگ": 1245,
      "پنهنجو": 1246,
      "اوت": 1247,
      "لاڙ": 1248,
      "مص": 1249,
      "گهڻ": 1250,
      "ميان": 1251,
      "مز": 1252,
      "ظاهر": 1253,
      "ائر": 1254,
      "وه": 1255,
      "تعداد": 1256,
      "آئي": 1257,
      "زبان": 1258,
      "ڊين": 1259,
      "اع": 1260,
      "حڪم": 1261,
      "تڏهن": 1262,
      "وجود": 1263,
      "اسيمب": 1264,
      "ترجمو": 1265,
      "حصي": 1266,
      "صد": 1267,
      "ابل": 1268,
      "سنڌو": 1269,
      "ئڻ": 1270,
      "پال": 1271,
      "گرام": 1272,
      "حقي": 1273,
      "ھيء": 1274,
      "حل": 1275,
      "دؤر": 1276,
      "شڪل": 1277,
      "ڄامشورو": 1278,
      "گهو": 1279,
      "فارسي": 1280,
      "ڀڳ": 1281,
      "لائ": 1282,
      "چند": 1283,
      "سمجه": 1284,
      "برطان": 1285,
      "عورتن": 1286,
      "آفي": 1287,
      "سائ": 1288,
      "مف": 1289,
      "ڏس": 1290,
      "جنوري": 1291,
      "شادي": 1292,
      "ماء": 1293,
      "ٻيون": 1294,
      "گار": 1295,
      "پيء": 1296,
      "مارچ": 1297,
      "ٽيو": 1298,
      "عليه": 1299,
      "اڪي": 1300,
      "هندي": 1301,
      "ڙين": 1302,
      "هوء": 1303,
      "تحقيق": 1304,
      "جنرل": 1305,
      "وزير": 1306,
      "مڻ": 1307,
      "فقير": 1308,
      "قرآن": 1309,
      "آخري": 1310,
      "سگهجي": 1311,
      "مھ": 1312,
      "چورس": 1313,
      "ڪپ": 1314,
      "هنن": 1315,
      "تصوي": 1316,
      "سج": 1317,
      "مطلب": 1318,
      "پھريون": 1319,
      "فوجي": 1320,
      "رڳو": 1321,
      "اولھ": 1322,
      "يورپ": 1323,
      "ڏيک": 1324,
      "حول": 1325,
      "ھتي": 1326,
      "گول": 1327,
      "پارٽي": 1328,
      "پرن": 1329,
      "مسلم": 1330,
      "صنف": 1331,
      "ٺاهي": 1332,
      "ڪوشش": 1333,
      "ماحول": 1334,
      "بري": 1335,
      "لوڪ": 1336,
      "منت": 1337,
      "حڪ": 1338,
      "هاڻي": 1339,
      "ڳاله": 1340,
      "ادا": 1341,
      "ترتي": 1342,
      "وڏا": 1343,
      "فرن": 1344,
      "رح": 1345,
      "لاڳاپيل": 1346,
      "قوامي": 1347,
      "ويزن": 1348,
      "رهيا": 1349,
      "قلي": 1350,
      "عيسوي": 1351,
      "ليا": 1352,
      "ڙهي": 1353,
      "باقي": 1354,
      "ھيا": 1355,
      "سلام": 1356,
      "مکي": 1357,
      "نشان": 1358,
      "موسي": 1359,
      "گهڻي": 1360,
      "الاقوامي": 1361,
      "ڏاڍ": 1362,
      "ڏنل": 1363,
      "سنگ": 1364,
      "خدمت": 1365,
      "لکڻ": 1366,
      "قيد": 1367,
      "؟<": 1368,
      "مور": 1369,
      "ڊل": 1370,
      "مسلمانن": 1371,
      "سفر": 1372,
      "پت": 1373,
      "ترتيب": 1374,
      "پئي": 1375,
      "روڊ": 1376,
      "ٿيندڙ": 1377,
      "سطح": 1378,
      "صلي": 1379,
      "قوم": 1380,
      "ھئا": 1381,
      "بيت": 1382,
      "الڳ": 1383,
      "شاخ": 1384,
      "نوان": 1385,
      "ٽيڪن": 1386,
      "موضو": 1387,
      "گرم": 1388,
      "جهي": 1389,
      "اڳتي": 1390,
      "جهن": 1391,
      "سفي": 1392,
      "ڌار": 1393,
      "تيء": 1394,
      "باري": 1395,
      "ماڳ": 1396,
      "ڳالهه": 1397,
      "جرمن": 1398,
      "لاد": 1399,
      "خبر": 1400,
      "موڪل": 1401,
      "قبر": 1402,
      "مسئ": 1403,
      "طو": 1404,
      "ڍنڍ": 1405,
      "معي": 1406,
      "مرتب": 1407,
      "طاقت": 1408,
      "آيا": 1409,
      "سانچا": 1410,
      "راڄ": 1411,
      "ورا": 1412,
      "ناهي": 1413,
      "امام": 1414,
      "روش": 1415,
      "جڏھن": 1416,
      "ڳنڍ": 1417,
      "اک": 1418,
      "جوان": 1419,
      "انڊيا": 1420,
      "جاز": 1421,
      "توهان": 1422,
      "ليل": 1423,
      "امير": 1424,
      "ٽنگ": 1425,
      "زور": 1426,
      "ذات": 1427,
      "رياس": 1428,
      "قد": 1429,
      "ملاح": 1430,
      "تشري": 1431,
      "صل": 1432,
      "ٻنهي": 1433,
      "بال": 1434,
      "مقامي": 1435,
      "حڪمر": 1436,
      "ذر": 1437,
      "الاجي": 1438,
      "مولانا": 1439,
      "عمار": 1440,
      "يء": 1441,
      "قتل": 1442,
      "لغت": 1443,
      "بھ": 1444,
      "جني": 1445,
      "قلا": 1446,
      "ند": 1447,
      "جما": 1448,
      "ليمي": 1449,
      "افت": 1450,
      "ٻا": 1451,
      "سمبر": 1452,
      "بلا": 1453,
      "ڊويزن": 1454,
      "چوريو": 1455,
      "ھوندو": 1456,
      "ٻولين": 1457,
      "مالي": 1458,
      "تحت": 1459,
      "مشھور": 1460,
      "ڀيرو": 1461,
      "سول": 1462,
      "ڊس": 1463,
      "ٽائي": 1464,
      "ايران": 1465,
      "..": 1466,
      "جسم": 1467,
      "لاڙڪ": 1468,
      "شخصي": 1469,
      "ڏيندا": 1470,
      "ڪٽر": 1471,
      "آگسٽ": 1472,
      "رائي": 1473,
      "تڪ": 1474,
      "دائي": 1475,
      "اٿس": 1476,
      "دف": 1477,
      "سميت": 1478,
      "عب": 1479,
      "ڪمپن": 1480,
      "رام": 1481,
      "مغ": 1482,
      "وس": 1483,
      "ڙيون": 1484,
      "ناول": 1485,
      "ائيندا": 1486,
      "اچڻ": 1487,
      "توڻي": 1488,
      "شل": 1489,
      "پاڻيء": 1490,
      "پرا": 1491,
      "مجمو": 1492,
      "ياري": 1493,
      "رت": 1494,
      "افغ": 1495,
      "علام": 1496,
      "رھيو": 1497,
      "کنڊ": 1498,
      "ننڍي": 1499,
      "ثقافتي": 1500,
      "بول": 1501,
      "اعلي": 1502,
      "گير": 1503,
      "صوبو": 1504,
      "ڪارڊ": 1505,
      "مقصد": 1506,
      "اتح": 1507,
      "اداڪ": 1508,
      "ويون": 1509,
      "ڪتابن": 1510,
      "آفريڪا": 1511,
      "ئو": 1512,
      "خدا": 1513,
      "آس": 1514,
      "ڊسمبر": 1515,
      "ٻوليون": 1516,
      "نور": 1517,
      "توڙي": 1518,
      "نگر": 1519,
      "چڪو": 1520,
      "ڳي": 1521,
      "نالا": 1522,
      "لش": 1523,
      "مڃ": 1524,
      "مقاب": 1525,
      "سگھ": 1526,
      "الب": 1527,
      "اھا": 1528,
      "موجوده": 1529,
      "مائ": 1530,
      "مائي": 1531,
      "انتظامي": 1532,
      "ڪيٽ": 1533,
      "تعليمي": 1534,
      "فوٽ": 1535,
      "رکندڙ": 1536,
      "ٻاهر": 1537,
      "پک": 1538,
      "لڳي": 1539,
      "اڳي": 1540,
      "اصلي": 1541,
      "چيئر": 1542,
      "نتيجي": 1543,
      "هزار": 1544,
      "ڪارو": 1545,
      "مواد": 1546,
      "خير": 1547,
      "سلو": 1548,
      "بندر": 1549,
      "سٽري": 1550,
      ">،<": 1551,
      "داس": 1552,
      "سخت": 1553,
      "روشني": 1554,
      "ڊائ": 1555,
      "ماڻھن": 1556,
      "اخبار": 1557,
      "رھن": 1558,
      "جهان": 1559,
      "توڻيڪ": 1560,
      "جدا": 1561,
      "جيتوڻيڪ": 1562,
      "رض": 1563,
      "درو": 1564,
      "شريف": 1565,
      "پھرين": 1566,
      "پولي": 1567,
      "دريا": 1568,
      "سه": 1569,
      "خوش": 1570,
      "ارف": 1571,
      "سلطان": 1572,
      "مرڪزي": 1573,
      "ڪاميا": 1574,
      "رسال": 1575,
      "پيد": 1576,
      "ونڊي": 1577,
      "اڏ": 1578,
      "ملو": 1579,
      "رواي": 1580,
      "گھٽ": 1581,
      "آڪٽو": 1582,
      "طبي": 1583,
      "مدر": 1584,
      "حياتي": 1585,
      "اپريل": 1586,
      "الف": 1587,
      "سک": 1588,
      "نبي": 1589,
      "مذهبي": 1590,
      "اقت": 1591,
      "نڪت": 1592,
      "بادشاهه": 1593,
      "هيا": 1594,
      "سائين": 1595,
      "حاڪ": 1596,
      "رکڻ": 1597,
      "عث": 1598,
      "آڪٽوبر": 1599,
      "جيت": 1600,
      "پورٽ": 1601,
      "اصطلاحن": 1602,
      "تف": 1603,
      "مرو": 1604,
      "پان": 1605,
      "بيماري": 1606,
      "فتار": 1607,
      "پئ": 1608,
      "جائ": 1609,
      "اش": 1610,
      "سري": 1611,
      "والد": 1612,
      "گاهه": 1613,
      "ھيٺ": 1614,
      "زندگيء": 1615,
      "انداز": 1616,
      "اڃا": 1617,
      "جار": 1618,
      "مسي": 1619,
      "جيو": 1620,
      "ميدان": 1621,
      "خر": 1622,
      "ندو": 1623,
      "آء": 1624,
      "بغ": 1625,
      "چئبو": 1626,
      "ڪنڊ": 1627,
      "ماس": 1628,
      "نما": 1629,
      "ڪمي": 1630,
      "سرحد": 1631,
      "صفحا": 1632,
      "تصور": 1633,
      "افغان": 1634,
      "ليو": 1635,
      "قلعي": 1636,
      "اڌ": 1637,
      "ڇڏ": 1638,
      "فرا": 1639,
      "موت": 1640,
      "آث": 1641,
      "مصنف": 1642,
      "پوي": 1643,
      "سياستدان": 1644,
      "يندڙ": 1645,
      "سردار": 1646,
      "شاعريء": 1647,
      "سار": 1648,
      "تنظيم": 1649,
      "مکيه": 1650,
      "لڳو": 1651,
      "جوڙ": 1652,
      "طيف": 1653,
      "نومبر": 1654,
      "جمهو": 1655,
      "نوجوان": 1656,
      "جع": 1657,
      "شد": 1658,
      "ريگ": 1659,
      "گرمي": 1660,
      "ادو": 1661,
      "پاڪستاني": 1662,
      "ٺيان": 1663,
      "ڪيشن": 1664,
      "ڪناري": 1665,
      "سلم": 1666,
      "آزادي": 1667,
      "قابل": 1668,
      "ڳالھ": 1669,
      "چائي": 1670,
      "راجا": 1671,
      "نيشنل": 1672,
      "جولاء": 1673,
      "آسٽ": 1674,
      "سمو": 1675,
      "هري": 1676,
      "حالت": 1677,
      "رڪارڊ": 1678,
      "سنڀ": 1679,
      "اما": 1680,
      "اوي": 1681,
      "ٻارن": 1682,
      "ڪڻ": 1683,
      "مئ": 1684,
      "مند": 1685,
      "ڪراچيء": 1686,
      "بزر": 1687,
      "پسند": 1688,
      "ضرورت": 1689,
      "راضي": 1690,
      "ثقافت": 1691,
      "ڏيکاري": 1692,
      "پٽي": 1693,
      "عظيم": 1694,
      "شيء": 1695,
      "سامونڊي": 1696,
      "بنگ": 1697,
      "ڀاء": 1698,
      "لڊ": 1699,
      "صحي": 1700,
      "قدرتي": 1701,
      "اسيمبلي": 1702,
      "سکر": 1703,
      "ارڪ": 1704,
      "حن": 1705,
      "ابي": 1706,
      "ڱو": 1707,
      "سيڪري": 1708,
      "قاضي": 1709,
      "اٽڪل": 1710,
      "گهي": 1711,
      "اولاد": 1712,
      "زين": 1713,
      "اڳواڻ": 1714,
      "ڪلام": 1715,
      "قومن": 1716,
      "قبضو": 1717,
      "موضوع": 1718,
      "قيا": 1719,
      "جري": 1720,
      "غا": 1721,
      "ماهر": 1722,
      "هلن": 1723,
      "اسم": 1724,
      "ڪڙ": 1725,
      "تشريحي": 1726,
      "آواز": 1727,
      "چوڻ": 1728,
      "واپس": 1729,
      "فيبرو": 1730,
      "گورنر": 1731,
      ">!<": 1732,
      "لائين": 1733,
      "سيپٽ": 1734,
      "روايت": 1735,
      "واس": 1736,
      "انجني": 1737,
      "بندي": 1738,
      "پريس": 1739,
      "پٿر": 1740,
      "پيدائش": 1741,
      "شمار": 1742,
      "ڇاڪ": 1743,
      "مهين": 1744,
      "سگهن": 1745,
      "لطيف": 1746,
      "برطانوي": 1747,
      "نار": 1748,
      "انهي": 1749,
      "ڇاڪاڻ": 1750,
      "آئ": 1751,
      "سيو": 1752,
      "دوم": 1753,
      "مئي": 1754,
      "انقلا": 1755,
      "آب": 1756,
      "آمد": 1757,
      "سيپٽمبر": 1758,
      "مٽ": 1759,
      "هلي": 1760,
      "ڀارت": 1761,
      "ويل": 1762,
      "مليو": 1763,
      "ھڻ": 1764,
      "نمائن": 1765,
      "انگريزن": 1766,
      "نر": 1767,
      "وڏن": 1768,
      "عوامي": 1769,
      "ماعي": 1770,
      "وائ": 1771,
      "ٻہ": 1772,
      "دوست": 1773,
      "ويجهو": 1774,
      "چل": 1775,
      "صديء": 1776,
      "مذهب": 1777,
      "ساح": 1778,
      "ٽال": 1779,
      "شاهي": 1780,
      "علائقا": 1781,
      "پس": 1782,
      "آڻ": 1783,
      "تجر": 1784,
      "پروفي": 1785,
      "موسم": 1786,
      "صحت": 1787,
      "رست": 1788,
      "پراڻي": 1789,
      "ايوارڊ": 1790,
      "اتان": 1791,
      "مذھ": 1792,
      "حقيقت": 1793,
      "معام": 1794,
      "متاثر": 1795,
      "يوناني": 1796,
      "مراد": 1797,
      "وڃڻ": 1798,
      "اعل": 1799,
      "وزي": 1800,
      "سماج": 1801,
      "سيڪريٽري": 1802,
      "وسلم": 1803,
      "رائ": 1804,
      "ڪرائي": 1805,
      "بلوچستان": 1806,
      "صاف": 1807,
      "ڏسي": 1808,
      "ويب": 1809,
      "پرائ": 1810,
      "ٻيهر": 1811,
      "اٿار": 1812,
      "لس": 1813,
      "ٺٽي": 1814,
      "هاء": 1815,
      "جيڪ": 1816,
      "حاجي": 1817,
      "هيم": 1818,
      "گهه": 1819,
      "ريگستان": 1820,
      "سنڌيء": 1821,
      "فيبروري": 1822,
      "ڇاپو": 1823,
      "بدر": 1824,
      "يندا": 1825,
      "موق": 1826,
      "لت": 1827,
      "ھاڻي": 1828,
      "واپار": 1829,
      "ندڙ": 1830,
      "ابرا": 1831,
      "ليگ": 1832,
      "پورو": 1833,
      "ثي": 1834,
      "ٺا": 1835,
      "صحيح": 1836,
      "ٺهيل": 1837,
      "ٿون": 1838,
      "ورتي": 1839,
      "فوظ": 1840,
      "ايندو": 1841,
      "رڪن": 1842,
      "متن": 1843,
      "ڪرايو": 1844,
      "بلي": 1845,
      "بهترين": 1846,
      "شهرن": 1847,
      "بادشاھ": 1848,
      "نواب": 1849,
      "رياستن": 1850,
      "رد": 1851,
      "اهڙو": 1852,
      "علاوه": 1853,
      "ساز": 1854,
      "مخدوم": 1855,
      "اعلان": 1856,
      "خات": 1857,
      "ڪريو": 1858,
      "زال": 1859,
      "لائي": 1860,
      "پروگرام": 1861,
      "رسالو": 1862,
      "نص": 1863,
      "نموني": 1864,
      "تھ": 1865,
      "ڙهه": 1866,
      "سنه": 1867,
      "ڏينھن": 1868,
      "وفا": 1869,
      "ڌا": 1870,
      "قيمت": 1871,
      "ايا": 1872,
      "تنهنڪري": 1873,
      "ڊمي": 1874,
      "محفوظ": 1875,
      "راڳ": 1876,
      "شخص": 1877,
      "گج": 1878,
      "لشڪر": 1879,
      "پبلڪ": 1880,
      "پروفيسر": 1881,
      "پيداوار": 1882,
      "اصول": 1883,
      "مبئي": 1884,
      "حس": 1885,
      "سربرا": 1886,
      "ڏسڻ": 1887,
      "سڃاڻ": 1888,
      "عيسويء": 1889,
      "انھيء": 1890,
      "فرق": 1891,
      "گيت": 1892,
      "سائنسي": 1893,
      "سلسلي": 1894,
      "سف": 1895,
      "قلعو": 1896,
      "اداري": 1897,
      "تيل": 1898,
      "عرصي": 1899,
      "ندا": 1900,
      "ڪيمي": 1901,
      "جس": 1902,
      "لاحي": 1903,
      "اعليٰ": 1904,
      "امو": 1905,
      "مضبو": 1906,
      "شير": 1907,
      "تيز": 1908,
      "گڏو": 1909,
      "اڻيون": 1910,
      "قبيلي": 1911,
      "پالي": 1912,
      "قليچ": 1913,
      "اڪث": 1914,
      "ھندو": 1915,
      "خا": 1916,
      "مظ": 1917,
      "ائيندو": 1918,
      "سٽن": 1919,
      "هجڻ": 1920,
      "ڏها": 1921,
      "چيئرمين": 1922,
      "هاري": 1923,
      "گئي": 1924,
      "ائيڊ": 1925,
      "ڪرين": 1926,
      "چونڊيو": 1927,
      "سمجهيو": 1928,
      "نيا": 1929,
      "رھي": 1930,
      "ڪميون": 1931,
      "چئن": 1932,
      "يورپي": 1933,
      "وڙ": 1934,
      "خار": 1935,
      "اڻيء": 1936,
      "لفظن": 1937,
      "سٽي": 1938,
      "ابتدائي": 1939,
      "ڪمپيو": 1940,
      ">۾<": 1941,
      "عنوان": 1942,
      "صوص": 1943,
      "اڪيڊمي": 1944,
      "فرانس": 1945,
      "حصن": 1946,
      "سليم": 1947,
      "روح": 1948,
      "قيام": 1949,
      "ٺاھ": 1950,
      "لئن": 1951,
      "ھتان": 1952,
      "ڀرسان": 1953,
      "هد": 1954,
      "محبت": 1955,
      "ٽون": 1956,
      "ڻا": 1957,
      "ريه": 1958,
      "هوا": 1959,
      "صيل": 1960,
      "قبول": 1961,
      "حاڪم": 1962,
      "حدي": 1963,
      "مج": 1964,
      "اجاز": 1965,
      "اٿارٽي": 1966,
      "مصر": 1967,
      "روس": 1968,
      "ايراضي": 1969,
      "اينڊ": 1970,
      "ايندڙ": 1971,
      "انڊ": 1972,
      "حڪمران": 1973,
      "خوا": 1974,
      "ڪاٺ": 1975,
      "نواز": 1976,
      "جيل": 1977,
      "برٽ": 1978,
      "گروپ": 1979,
      "ساڳي": 1980,
      "دش": 1981,
      "ھجي": 1982,
      "ياس": 1983,
      "عيد": 1984,
      "هاڻ": 1985,
      "ڪئ": 1986,
      "اسماعي": 1987,
      "معلومات": 1988,
      "مطالعو": 1989,
      "قبل": 1990,
      "ڄائو": 1991,
      "صوفي": 1992,
      "عقي": 1993,
      "توان": 1994,
      "فيص": 1995,
      "جانورن": 1996,
      "زرعي": 1997,
      "اديب": 1998,
      "ضرو": 1999,
      "مڙ": 2000,
      "انعام": 2001,
      "شڪارپور": 2002,
      "لم": 2003,
      "کوٽ": 2004,
      "شروعاتي": 2005,
      "طريقي": 2006,
      "درجو": 2007,
      "حملو": 2008,
      "دارن": 2009,
      "جز": 2010,
      "ڪيتريون": 2011,
      "جبلن": 2012,
      "اض": 2013,
      "اط": 2014,
      "صور": 2015,
      "واڌ": 2016,
      "نقص": 2017,
      "ساڳئي": 2018,
      "لاڙڪاڻي": 2019,
      "تاب": 2020,
      "ڪمپني": 2021,
      "شهي": 2022,
      "ڪرت": 2023,
      "ڌيء": 2024,
      "گڏجي": 2025,
      "اهميت": 2026,
      "سنڀال": 2027,
      "اڪثريت": 2028,
      "اجازت": 2029,
      "چوٿون": 2030,
      "پکيڙ": 2031,
      "گذري": 2032,
      "فلسفي": 2033,
      "سگھي": 2034,
      "پنجابي": 2035,
      "گڏوگڏ": 2036,
      "آيل": 2037,
      "مهر": 2038,
      "نظري": 2039,
      "سينٽر": 2040,
      "عبدالله": 2041,
      "وزيرا": 2042,
      "تاج": 2043,
      "ٽيڪنالاجي": 2044,
      "ڪنگ": 2045,
      "اظ": 2046,
      "سپ": 2047,
      "فور": 2048,
      "ڪٿي": 2049,
      "لڳا": 2050,
      "شاگرد": 2051,
      "ايڇ": 2052,
      "درياهه": 2053,
      "اور": 2054,
      "ايڊ": 2055,
      "همي": 2056,
      "سنس": 2057,
      "ويت": 2058,
      "سلسلو": 2059,
      "رهندو": 2060,
      "مندر": 2061,
      "مضبوط": 2062,
      "متي": 2063,
      "چم": 2064,
      "اھڙي": 2065,
      "شهري": 2066,
      "ضروري": 2067,
      "پڌ": 2068,
      "نقصان": 2069,
      "ئرنگ": 2070,
      "پلا": 2071,
      "شيون": 2072,
      "قري": 2073,
      "ٺل": 2074,
      "خال": 2075,
      "ترڪي": 2076,
      "موسيقي": 2077,
      "آثار": 2078,
      "ثابت": 2079,
      "ٽائون": 2080,
      "ٺاهڻ": 2081,
      "گورنمينٽ": 2082,
      "نڪري": 2083,
      "سيني": 2084,
      "ڏٺو": 2085,
      "خانو": 2086,
      "آذر": 2087,
      "ڊيٽا": 2088,
      "سرن": 2089,
      "خوب": 2090,
      "هئڻ": 2091,
      "پارڪ": 2092,
      "ٽرني": 2093,
      "ائيو": 2094,
      "انتظام": 2095,
      "ڀو": 2096,
      "روف": 2097,
      "قبضي": 2098,
      "ڪريم": 2099,
      "افغانستان": 2100,
      "ہي": 2101,
      "بير": 2102,
      "صوبائي": 2103,
      "جماعت": 2104,
      "تصوير": 2105,
      "ذيب": 2106,
      "درا": 2107,
      "نسب": 2108,
      "اوهان": 2109,
      "سوس": 2110,
      "حقن": 2111,
      "دس": 2112,
      "ملين": 2113,
      "ڌرتيء": 2114,
      "ترمي": 2115,
      "کير": 2116,
      "بحث": 2117,
      "واپاري": 2118,
      "تخت": 2119,
      "لکن": 2120,
      "بات": 2121,
      "رسم": 2122,
      "ڌن": 2123,
      "بزرگ": 2124,
      "ديش": 2125,
      "مختصر": 2126,
      "گهرجي": 2127,
      "تخلي": 2128,
      "احت": 2129,
      "رهڻ": 2130,
      "لکيا": 2131,
      "وق": 2132,
      "گذاري": 2133,
      "وطن": 2134,
      "ھوندي": 2135,
      "ڄاڻايل": 2136,
      "فقط": 2137,
      "ميون": 2138,
      "ڀٽو": 2139,
      "رسول": 2140,
      "چنڊ": 2141,
      "شهيد": 2142,
      "ھان": 2143,
      "ابراهيم": 2144,
      "شعر": 2145,
      "جواب": 2146,
      "ڪونه": 2147,
      "وو": 2148,
      "ڊگري": 2149,
      "پرائمري": 2150,
      "صلاح": 2151,
      "قاسم": 2152,
      "وائي": 2153,
      "سائيز": 2154,
      "درياء": 2155,
      "جوي": 2156,
      "مادي": 2157,
      "نظم": 2158,
      "آذربائي": 2159,
      "عوام": 2160,
      "مخصوص": 2161,
      "ڪسي": 2162,
      "ادارن": 2163,
      "دستاوي": 2164,
      "پارليا": 2165,
      "شڪست": 2166,
      "ربي": 2167,
      "گاھ": 2168,
      "مقدار": 2169,
      "بڻايو": 2170,
      "ٻڌل": 2171,
      "اتحاد": 2172,
      "ڪيميائي": 2173,
      "انٽرني": 2174,
      "لاس": 2175,
      "علمي": 2176,
      "نماز": 2177,
      "پراڻ": 2178,
      "گئيج": 2179,
      "توانائي": 2180,
      "لال": 2181,
      "ڻن": 2182,
      "رسٽ": 2183,
      "روسي": 2184,
      "ڪلهو": 2185,
      "رستي": 2186,
      "شاگردن": 2187,
      "مڪن": 2188,
      "ھوندا": 2189,
      "قمبر": 2190,
      "ولي": 2191,
      "چيني": 2192,
      "اچن": 2193,
      "ڇپيل": 2194,
      "ڪيئن": 2195,
      "حالتن": 2196,
      "ميٽرن": 2197,
      "ڪول": 2198,
      "وسيع": 2199,
      "سڃاڻپ": 2200,
      "ننڍو": 2201,
      "اريء": 2202,
      "مغل": 2203,
      "جانور": 2204,
      "خلافت": 2205,
      "نائ": 2206,
      "روين": 2207,
      "ڏيندو": 2208,
      "ملائي": 2209,
      "پهتو": 2210,
      "زمروپاڪستان": 2211,
      "وٺڻ": 2212,
      "معاشي": 2213,
      "اداڪار": 2214,
      "سرڪار": 2215,
      "اقتص": 2216,
      "نوي": 2217,
      "چئي": 2218,
      "ميمڻ": 2219,
      "يونيورسٽيء": 2220,
      "رحي": 2221,
      "ايٽ": 2222,
      "ڊڪشن": 2223,
      "وزيراعظم": 2224,
      "ڪهاڻي": 2225,
      "محل": 2226,
      "ننڍپڻ": 2227,
      "يار": 2228,
      "کانسواء": 2229,
      "يونيورسٽ": 2230,
      "دمش": 2231,
      "شماري": 2232,
      "الح": 2233,
      "جاگير": 2234,
      "زند": 2235,
      "شق": 2236,
      "اهڙيء": 2237,
      "ڊيم": 2238,
      "چوڌاري": 2239,
      "لئنگئيج": 2240,
      "قسمن": 2241,
      "بيل": 2242,
      "ڌرم": 2243,
      "ڪالوني": 2244,
      "دلچ": 2245,
      "صنع": 2246,
      "بحري": 2247,
      "نڪتل": 2248,
      "اسب": 2249,
      "ولو": 2250,
      "قوت": 2251,
      "غي": 2252,
      "ريڊيو": 2253,
      "پيپل": 2254,
      "خدمتون": 2255,
      "مود": 2256,
      "ڪانفرن": 2257,
      "اعظم": 2258,
      "اهڙا": 2259,
      "خور": 2260,
      "ڪامياب": 2261,
      "دائ": 2262,
      "انسائي": 2263,
      "چڪا": 2264,
      "هندستاني": 2265,
      "رڻ": 2266,
      "ھيون": 2267,
      "سير": 2268,
      "ترڪ": 2269,
      "پورا": 2270,
      "ايندا": 2271,
      "ڀار": 2272,
      "پکڙيل": 2273,
      "جذ": 2274,
      "کاتي": 2275,
      "هڪڙو": 2276,
      "تعارف": 2277,
      "ويئي": 2278,
      "سياح": 2279,
      "روايتي": 2280,
      "بمبئي": 2281,
      "رايو": 2282,
      ">!": 2283,
      "رق": 2284,
      "نس": 2285,
      "هجن": 2286,
      "دريافت": 2287,
      "گلي": 2288,
      "سڌ": 2289,
      "اسپت": 2290,
      "ڊيل": 2291,
      "انسائيڪلو": 2292,
      "ميڊيا": 2293,
      "مرد": 2294,
      "برابر": 2295,
      "قبرستان": 2296,
      "ادارو": 2297,
      "عالمن": 2298,
      "سڃاتو": 2299,
      "لاش": 2300,
      "جدو": 2301,
      "حم": 2302,
      "لنگ": 2303,
      "راند": 2304,
      "اعزا": 2305,
      "مولي": 2306,
      "تحف": 2307,
      "ڪمپيوٽر": 2308,
      "پيپلز": 2309,
      "حڪيم": 2310,
      "زون": 2311,
      "فٽ": 2312,
      "سرش": 2313,
      "ڇپائيندڙ": 2314,
      "سعو": 2315,
      "لاڳو": 2316,
      "وڌو": 2317,
      "عمارت": 2318,
      "سڪن": 2319,
      "لاهور": 2320,
      "فران": 2321,
      "ڀاڱي": 2322,
      "انقلاب": 2323,
      "نديء": 2324,
      "سٽم": 2325,
      "پيغ": 2326,
      "انجنيئرنگ": 2327,
      "انجام": 2328,
      "ڪڍي": 2329,
      "ھيل": 2330,
      "دود": 2331,
      "سڄ": 2332,
      "منتقل": 2333,
      "ادري": 2334,
      "بدران": 2335,
      "اکر": 2336,
      "سمجھ": 2337,
      "سوويت": 2338,
      "شايد": 2339,
      "ڳڻ": 2340,
      "صديق": 2341,
      "واحد": 2342,
      "سوسائ": 2343,
      "ڊائريڪ": 2344,
      "ساڻ": 2345,
      "عزي": 2346,
      "ڪجي": 2347,
      "ريف": 2348,
      "ريان": 2349,
      "ٽيم": 2350,
      "خانا": 2351,
      "عملي": 2352,
      "ڪتب": 2353,
      "پڙهڻ": 2354,
      "وزن": 2355,
      "يوسف": 2356,
      "اسپي": 2357,
      "ڪشمير": 2358,
      "فرد": 2359,
      "پٺيان": 2360,
      "وينديون": 2361,
      "ساحلي": 2362,
      "گلو": 2363,
      "سندي": 2364,
      "زيم": 2365,
      "جسٽ": 2366,
      "نٿو": 2367,
      "اليڪشن": 2368,
      "مڪي": 2369,
      "شاعرن": 2370,
      "سھ": 2371,
      "اڻين": 2372,
      "ملتان": 2373,
      "تنقيد": 2374,
      "وفاقي": 2375,
      "آڏو": 2376,
      "ڙھ": 2377,
      "روپ": 2378,
      "بهتر": 2379,
      "آندو": 2380,
      "سامهون": 2381,
      "دستاويز": 2382,
      "قين": 2383,
      "مجي": 2384,
      "زمرون": 2385,
      "ننڍا": 2386,
      "ڪامي": 2387,
      "ولد": 2388,
      "بج": 2389,
      "ظم": 2390,
      "قات": 2391,
      "زيشن": 2392,
      "جعفر": 2393,
      "اسماعيل": 2394,
      "بيا": 2395,
      "ائل": 2396,
      "چونڊن": 2397,
      "وسيلي": 2398,
      "منظور": 2399,
      "آزاديء": 2400,
      "ممڪن": 2401,
      "ووٽ": 2402,
      "پهر": 2403,
      "لاط": 2404,
      "ڀيٽ": 2405,
      "سفار": 2406,
      "بلڪل": 2407,
      "ڪيترا": 2408,
      "ديوان": 2409,
      "مقابلي": 2410,
      "خيرپور": 2411,
      "حص": 2412,
      "هڪڙي": 2413,
      "افظ": 2414,
      "دادڪوٽ": 2415,
      "نمائندگي": 2416,
      "آسان": 2417,
      "جاب": 2418,
      "دما": 2419,
      "فز": 2420,
      "لڪ": 2421,
      "رندڙ": 2422,
      "اڪبر": 2423,
      "طريقو": 2424,
      "روينيو": 2425,
      "ٽرول": 2426,
      "آسٽريل": 2427,
      "انسائيڪلوپيڊيا": 2428,
      "رج": 2429,
      "اسين": 2430,
      "تڪر": 2431,
      "ڪٽي": 2432,
      "معيشت": 2433,
      "جھن": 2434,
      "اير": 2435,
      "محمود": 2436,
      "منهنجي": 2437,
      "جنسي": 2438,
      "سڌي": 2439,
      "گور": 2440,
      "انچ": 2441,
      "جتان": 2442,
      "گها": 2443,
      "آغا": 2444,
      "لڏي": 2445,
      "ورھ": 2446,
      "بادشاه": 2447,
      "مهراڻ": 2448,
      "ڪورٽ": 2449,
      "بغاوت": 2450,
      "اسپتال": 2451,
      "سسٽم": 2452,
      "صلاحي": 2453,
      "امين": 2454,
      "حساب": 2455,
      "آذربائيجان": 2456,
      "درجي": 2457,
      "زمرووڪيپيڊيا": 2458,
      "ڪچر": 2459,
      "ارڻ": 2460,
      "نهايت": 2461,
      "تحري": 2462,
      "اخلا": 2463,
      "ڪروڙ": 2464,
      "ڏنا": 2465,
      "راش": 2466,
      "سيل": 2467,
      "ستائين": 2468,
      "زمر": 2469,
      "جھاز": 2470,
      "حدن": 2471,
      "رفتار": 2472,
      "نڪرن": 2473,
      "ٿل": 2474,
      "روي": 2475,
      "ڏيئي": 2476,
      "اخت": 2477,
      "غري": 2478,
      "پيٽ": 2479,
      "ادارا": 2480,
      "هز": 2481,
      "ٽرين": 2482,
      "تهذيب": 2483,
      "ٿوري": 2484,
      "ايڊيٽر": 2485,
      "ساد": 2486,
      "پٺ": 2487,
      "ويد": 2488,
      "ڪيول": 2489,
      "واريون": 2490,
      "شخصيت": 2491,
      "دع": 2492,
      "الت": 2493,
      "رسالي": 2494,
      "مضمونن": 2495,
      "خشڪ": 2496,
      "هتان": 2497,
      "ڊگ": 2498,
      "باوجود": 2499,
      "حديث": 2500,
      "ڊال": 2501,
      "اڪا": 2502,
      "اڳوڻي": 2503,
      "عباسي": 2504,
      "سگھجي": 2505,
      "شم": 2506,
      "گھڻو": 2507,
      "ٻج": 2508,
      "ٻوٽن": 2509,
      "انه": 2510,
      "پوک": 2511,
      "ڀيرا": 2512,
      "ٽڻ": 2513,
      "السلام": 2514,
      "تبديلي": 2515,
      "بڪ": 2516,
      "طاني": 2517,
      "ميڊي": 2518,
      "سومرو": 2519,
      "پڇ": 2520,
      "چڪ": 2521,
      "خاني": 2522,
      "هدايت": 2523,
      "الز": 2524,
      "گادي": 2525,
      "لقب": 2526,
      "فون": 2527,
      "انٽ": 2528,
      "انته": 2529,
      "مايو": 2530,
      "صفحي": 2531,
      "حوالو": 2532,
      "ديوتا": 2533,
      "ڇپيندڙ": 2534,
      "تري": 2535,
      "ڙائي": 2536,
      "دولت": 2537,
      "فيصلو": 2538,
      "منجهان": 2539,
      "ملڪي": 2540,
      "موڪليو": 2541,
      "تش": 2542,
      "ڪاؤ": 2543,
      "غلط": 2544,
      "رخ": 2545,
      "ڪجھ": 2546,
      "سيڪنڊ": 2547,
      "برف": 2548,
      "اليڪٽر": 2549,
      "سوال": 2550,
      "سمجهي": 2551,
      "هال": 2552,
      "ائلي": 2553,
      "نظريو": 2554,
      "سڪ": 2555,
      "دادو": 2556,
      "اڻا": 2557,
      "ٿينديون": 2558,
      "لکت": 2559,
      "سعودي": 2560,
      "سزا": 2561,
      "ڌيان": 2562,
      "تقريبن": 2563,
      "نف": 2564,
      "ٿورو": 2565,
      "ھار": 2566,
      "ديرو": 2567,
      "آرٽ": 2568,
      "آئر": 2569,
      "ٿان": 2570,
      "صوبن": 2571,
      "لنڊن": 2572,
      "تسليم": 2573,
      "ڪارن": 2574,
      "ڪاؤنسل": 2575,
      "ڪانفرنس": 2576,
      "آسٽريليا": 2577,
      "فزڪس": 2578,
      "خري": 2579,
      "ٿري": 2580,
      "وادي": 2581,
      "ڊائريڪٽر": 2582,
      "منع": 2583,
      "شيائي": 2584,
      "آفيسر": 2585,
      "ڏاڍو": 2586,
      "ڳول": 2587,
      "محق": 2588,
      "محسوس": 2589,
      "هٿي": 2590,
      "ايتري": 2591,
      "سيسي": 2592,
      "ڪنٽرول": 2593,
      "رهائش": 2594,
      "سامان": 2595,
      "ڳوٺن": 2596,
      "آدمش": 2597,
      "وض": 2598,
      "پنجن": 2599,
      "مرح": 2600,
      "قانوني": 2601,
      "ٻڌي": 2602,
      "ڪير": 2603,
      "سائيٽ": 2604,
      "دوار": 2605,
      "سنسڪرت": 2606,
      "آدمشماري": 2607,
      "پڪ": 2608,
      "ٽيٽيو": 2609,
      "چوڪ": 2610,
      "انگريز": 2611,
      "سمي": 2612,
      "انگريزيء": 2613,
      "آفيس": 2614,
      "نصير": 2615,
      "تل": 2616,
      "وڄ": 2617,
      "ايج": 2618,
      "گهڻا": 2619,
      "آه": 2620,
      "سپي": 2621,
      "عرا": 2622,
      "گان": 2623,
      "گني": 2624,
      "امر": 2625,
      "هائي": 2626,
      "صوف": 2627,
      "مالڪ": 2628,
      "پراڻو": 2629,
      "تخليق": 2630,
      "يونٽ": 2631,
      "فيروز": 2632,
      "ريپبلڪ": 2633,
      "نگار": 2634,
      "ميوزيم": 2635,
      "چانڊيو": 2636,
      "جمع": 2637,
      "تياري": 2638,
      "صنعت": 2639,
      "ڀاڱو": 2640,
      "قط": 2641,
      "ٺه": 2642,
      "اسرائي": 2643,
      "سائنسدان": 2644,
      "تڪرار": 2645,
      "بلند": 2646,
      "علاج": 2647,
      "سموري": 2648,
      "گجرات": 2649,
      "حملي": 2650,
      "متعلق": 2651,
      "پنهنجن": 2652,
      "پنهنجا": 2653,
      "بس": 2654,
      "زمي": 2655,
      "ساه": 2656,
      "ريڊ": 2657,
      "فاظ": 2658,
      "ميونس": 2659,
      "پهرئين": 2660,
      "مک": 2661,
      "مڇي": 2662,
      "ذيلي": 2663,
      "وائرس": 2664,
      "شور": 2665,
      "گال": 2666,
      "ايان": 2667,
      "وٽان": 2668,
      "صدار": 2669,
      "ائجي": 2670,
      "چڙ": 2671,
      "مدار": 2672,
      "تنظي": 2673,
      "اقتصادي": 2674,
      "اعزاز": 2675,
      "ايئر": 2676,
      "چيف": 2677,
      "ڳاڙ": 2678,
      "جاگرافيائي": 2679,
      "عثمان": 2680,
      "ڀٽي": 2681,
      "ذاتي": 2682,
      "ونا": 2683,
      "بهادر": 2684,
      "سوشل": 2685,
      "ذهن": 2686,
      "ڪيري": 2687,
      "پيماني": 2688,
      "عيسائي": 2689,
      "پهچي": 2690,
      "ناٽڪ": 2691,
      "معيار": 2692,
      "پائي": 2693,
      "رواج": 2694,
      "رندي": 2695,
      "سس": 2696,
      "اسڪا": 2697,
      "مجموعو": 2698,
      "ڪارڪن": 2699,
      "هونديون": 2700,
      "چڪي": 2701,
      "يتي": 2702,
      "بچ": 2703,
      "گلا": 2704,
      "ملڪيت": 2705,
      "قبيلن": 2706,
      "شعبي": 2707,
      "پارليامينٽ": 2708,
      "زميني": 2709,
      "عزيز": 2710,
      "ڪريون": 2711,
      "انسٽيٽيو": 2712,
      "عهدي": 2713,
      "ماه": 2714,
      "نسلي": 2715,
      "ڪاب": 2716,
      "بڻائي": 2717,
      "ڌرتي": 2718,
      "شاد": 2719,
      "ڏسو": 2720,
      "مزار": 2721,
      "ڇپيو": 2722,
      "سروي": 2723,
      "سات": 2724,
      "ڪئن": 2725,
      "اڀياس": 2726,
      "زرا": 2727,
      "دشمن": 2728,
      "اء": 2729,
      "پرست": 2730,
      "ضلعن": 2731,
      "تائي": 2732,
      "داني": 2733,
      "باز": 2734,
      "باھ": 2735,
      "جهڙي": 2736,
      "وارين": 2737,
      "ٺاهيو": 2738,
      "اسيمبليء": 2739,
      "گزي": 2740,
      "روشن": 2741,
      "پرستي": 2742,
      "ايندي": 2743,
      "ڀن": 2744,
      "عورتون": 2745,
      "ميں": 2746,
      "سوان": 2747,
      "اڳيان": 2748,
      "ھل": 2749,
      "سيم": 2750,
      "اوزار": 2751,
      "خاصي": 2752,
      "ٻڌايو": 2753,
      "ڊسٽر": 2754,
      "ڄڻ": 2755,
      "مهيني": 2756,
      "فطر": 2757,
      "نش": 2758,
      "وسند": 2759,
      "ڪلاسي": 2760,
      "ڊسٽرڪٽ": 2761,
      "ڏيندي": 2762,
      "رهندا": 2763,
      "ڳالهائيندڙ": 2764,
      "گرين": 2765,
      "ليت": 2766,
      "ڏاکڻي": 2767,
      "اياز": 2768,
      "انسٽيٽيوٽ": 2769,
      "سرگرم": 2770,
      "جهاز": 2771,
      "ڊنگ": 2772,
      "ساس": 2773,
      "مگر": 2774,
      "چڱي": 2775,
      "ميري": 2776,
      "ديوي": 2777,
      "نن": 2778,
      "پش": 2779,
      "سينٽ": 2780,
      "مسئلن": 2781,
      "سعيد": 2782,
      "ٿن": 2783,
      "معاه": 2784,
      "مخال": 2785,
      "ڪانگري": 2786,
      "مجموعي": 2787,
      "مسيح": 2788,
      "اسپين": 2789,
      "پيار": 2790,
      "ميني": 2791,
      "پوندو": 2792,
      "صفحن": 2793,
      "رکيل": 2794,
      "مولوي": 2795,
      "مذھب": 2796,
      "برطانيا": 2797,
      "روم": 2798,
      "مليا": 2799,
      "ڪلوميٽرن": 2800,
      "سگهيو": 2801,
      "برطاني": 2802,
      "پرڏي": 2803,
      "برادري": 2804,
      "ڪائن": 2805,
      "مستقل": 2806,
      "ڊراما": 2807,
      "ڏهاڪي": 2808,
      "ترج": 2809,
      "بڻيو": 2810,
      "ارب": 2811,
      "ايترو": 2812,
      "مغربي": 2813,
      "حمايت": 2814,
      "زراعت": 2815,
      "آل": 2816,
      "ڄا": 2817,
      "ئيشن": 2818,
      "پارڪر": 2819,
      "مخالف": 2820,
      "جھڙو": 2821,
      "پوليس": 2822,
      "سڏيندا": 2823,
      "ڪهاڻيون": 2824,
      "فرانسيسي": 2825,
      "ازي": 2826,
      "خطي": 2827,
      "پٽن": 2828,
      "ڏانھن": 2829,
      "وند": 2830,
      "عنصر": 2831,
      "ڪڇ": 2832,
      "واض": 2833,
      "گرفتار": 2834,
      "معروف": 2835,
      "انگلينڊ": 2836,
      "جڪ": 2837,
      "جتو": 2838,
      "حافظ": 2839,
      "فاصلي": 2840,
      "کل": 2841,
      "ڻيء": 2842,
      "بئ": 2843,
      "اميد": 2844,
      "افو": 2845,
      "معاملن": 2846,
      "نظريي": 2847,
      "پهچ": 2848,
      "ڏاڍي": 2849,
      "تجوي": 2850,
      "ورها": 2851,
      "نيم": 2852,
      "آدم": 2853,
      "لسان": 2854,
      "رومن": 2855,
      "سگھن": 2856,
      "بيو": 2857,
      "ناڪ": 2858,
      "فرزند": 2859,
      "قبال": 2860,
      "رحمان": 2861,
      "شرح": 2862,
      "حفاظ": 2863,
      "پلو": 2864,
      "اله": 2865,
      "سياري": 2866,
      "فلمن": 2867,
      "ڪائنات": 2868,
      "آڳا": 2869,
      "بئن": 2870,
      "هيڊ": 2871,
      "خواه": 2872,
      "حرڪت": 2873,
      "لات": 2874,
      "عباد": 2875,
      "عربن": 2876,
      "شرڪت": 2877,
      "فائدو": 2878,
      "يونيورسٽيون": 2879,
      "سيء": 2880,
      "ائيندي": 2881,
      "برقرار": 2882,
      "ڪارڻ": 2883,
      "امتح": 2884,
      "جنس": 2885,
      "يوني": 2886,
      "جامع": 2887,
      "حڪمراني": 2888,
      "علامه": 2889,
      "ترميم": 2890,
      "سوسائٽي": 2891,
      "جهو": 2892,
      "پد": 2893,
      "موٽي": 2894,
      "خرچ": 2895,
      "جمهوريه": 2896,
      "ڊان": 2897,
      "اھم": 2898,
      "تقريبا": 2899,
      "ٽالپر": 2900,
      "ايجاد": 2901,
      "ڪانگريس": 2902,
      "عز": 2903,
      "ٻر": 2904,
      "گھڻي": 2905,
      "يادگار": 2906,
      "ذخي": 2907,
      "ڀت": 2908,
      "اهين": 2909,
      "مليل": 2910,
      "اث": 2911,
      "رهندڙ": 2912,
      "قادر": 2913,
      "گين": 2914,
      "ھجڻ": 2915,
      "اريو": 2916,
      "تنھن": 2917,
      "لڳل": 2918,
      "منظر": 2919,
      "ماڻي": 2920,
      "منزل": 2921,
      "واٽ": 2922,
      "رابطا": 2923,
      "رستو": 2924,
      "جتوئي": 2925,
      "آپري": 2926,
      "ڪمن": 2927,
      "بيبي": 2928,
      "ٽيڪ": 2929,
      "پوئ": 2930,
      "چوٿين": 2931,
      "فلسط": 2932,
      "سکيا": 2933,
      "مساف": 2934,
      "امتحان": 2935,
      "بارن": 2936,
      "۾.<": 2937,
      "ريز": 2938,
      "ورڪ": 2939,
      "احوال": 2940,
      "افسان": 2941,
      "تصني": 2942,
      "رحيم": 2943,
      "پارٽيء": 2944,
      "زمان": 2945,
      "مٿا": 2946,
      "الم": 2947,
      "ورثي": 2948,
      "ناھي": 2949,
      "عرف": 2950,
      "فارم": 2951,
      "اڪو": 2952,
      "دفن": 2953,
      "سيٽ": 2954,
      "اميدوار": 2955,
      "استان": 2956,
      "چونڊجي": 2957,
      "تحقيقي": 2958,
      "سلامت": 2959,
      "لاطيني": 2960,
      "ئل": 2961,
      "ساف": 2962,
      "هندڙ": 2963,
      "يونان": 2964,
      "لائق": 2965,
      "ورلڊ": 2966,
      "آباديء": 2967,
      "اضافو": 2968,
      "پخت": 2969,
      "پبلي": 2970,
      "انٽر": 2971,
      "برسات": 2972,
      "قلم": 2973,
      "وڻن": 2974,
      "ماحولياتي": 2975,
      "برٽش": 2976,
      "!!<": 2977,
      "ناري": 2978,
      "ارون": 2979,
      "ايشيائي": 2980,
      "ڪرم": 2981,
      "ٽنڊو": 2982,
      "کوڙ": 2983,
      "آهستي": 2984,
      "اچ": 2985,
      "وزار": 2986,
      "تربيت": 2987,
      "خودمختيار": 2988,
      "مڙس": 2989,
      "دڙي": 2990,
      "سڪو": 2991,
      "الع": 2992,
      "ھنن": 2993,
      "آرڪي": 2994,
      "پڌرو": 2995,
      "غريب": 2996,
      "ذوال": 2997,
      "مٽي": 2998,
      "محدود": 2999,
      "دڙو": 3000,
      "رکندو": 3001,
      "روايتن": 3002,
      "قدم": 3003,
      "لاف": 3004,
      "ھنڌ": 3005,
      "ڪوٺ": 3006,
      "مرحو": 3007,
      "معياري": 3008,
      "شوق": 3009,
      "ڳنڍيل": 3010,
      "فطرت": 3011,
      "خدم": 3012,
      "ملڻ": 3013,
      "پاڙي": 3014,
      "کاڌي": 3015,
      "دماغ": 3016,
      "افي": 3017,
      "اکين": 3018,
      "نامي": 3019,
      "تيزي": 3020,
      "سنگهه": 3021,
      "اڻن": 3022,
      "ڇپائي": 3023,
      "هليو": 3024,
      "تحفظ": 3025,
      "برگ": 3026,
      "خاصيت": 3027,
      "سڄو": 3028,
      "خراب": 3029,
      "ڪرائڻ": 3030,
      "ويٺو": 3031,
      "ويندڙ": 3032,
      "پارٽيون": 3033,
      "ڏنائين": 3034,
      "چش": 3035,
      "ائٽ": 3036,
      "مسٽر": 3037,
      "سڪندر": 3038,
      "ڪمان": 3039,
      "ياف": 3040,
      "ڪيء": 3041,
      "جاپان": 3042,
      "بوت": 3043,
      "ايراني": 3044,
      "اسٽو": 3045,
      "ٽيلي": 3046,
      "پنھنجو": 3047,
      "ورهايل": 3048,
      "تصويرون": 3049,
      "نائي": 3050,
      "جوڻي": 3051,
      "ميلا": 3052,
      "فيض": 3053,
      "فڪ": 3054,
      "ڀٽ": 3055,
      "اوچائي": 3056,
      "بدين": 3057,
      "ملازم": 3058,
      "رضه": 3059,
      "آئرلينڊ": 3060,
      "ڪيائون": 3061,
      "مرڻ": 3062,
      "ائونڊ": 3063,
      "قاع": 3064,
      "جرمني": 3065,
      "دلچسپي": 3066,
      "مرحوم": 3067,
      "عھ": 3068,
      "کائڻ": 3069,
      "انڪ": 3070,
      "سرزمين": 3071,
      "بازار": 3072,
      "مطالعي": 3073,
      "وضاحت": 3074,
      "آڻي": 3075,
      "بکر": 3076,
      "جمال": 3077,
      "ٺھيل": 3078,
      "هندن": 3079,
      "ڪيس": 3080,
      "ائوس": 3081,
      "نمايان": 3082,
      "سؤ": 3083,
      "عڪس": 3084,
      "مديني": 3085,
      "سافٽ": 3086,
      "حج": 3087,
      "رش": 3088,
      "هميشه": 3089,
      "فيد": 3090,
      "بيگم": 3091,
      "خوبصورت": 3092,
      "دعو": 3093,
      "سٽر": 3094,
      "فض": 3095,
      "متعارف": 3096,
      "ولا": 3097,
      "ڊم": 3098,
      "مني": 3099,
      "ميرپور": 3100,
      "چونڊون": 3101,
      "زڪ": 3102,
      "ڪچ": 3103,
      "حده": 3104,
      "حيات": 3105,
      "سهو": 3106,
      "ياء": 3107,
      "آڪس": 3108,
      "نت": 3109,
      "وڪ": 3110,
      "مارجي": 3111,
      "نتيجو": 3112,
      "زخ": 3113,
      "ڪوئي": 3114,
      "نوڪري": 3115,
      "مشين": 3116,
      "چونڊيل": 3117,
      "نقشي": 3118,
      "يتيم": 3119,
      "ماهرن": 3120,
      "نھ": 3121,
      "ڏک": 3122,
      "لازمي": 3123,
      "اسري": 3124,
      "ايسٽ": 3125,
      "اوارڊ": 3126,
      "چيل": 3127,
      "ٻيٽن": 3128,
      "راجپو": 3129,
      "راڄڌ": 3130,
      "مجيد": 3131,
      "مشاه": 3132,
      "رياضي": 3133,
      "اندازو": 3134,
      "حصا": 3135,
      "داستان": 3136,
      "ٽيڪل": 3137,
      "جنهنڪري": 3138,
      "ڊيز": 3139,
      "شھري": 3140,
      "لاڙڪاڻو": 3141,
      "وائيس": 3142,
      "ضاب": 3143,
      "غذ": 3144,
      "قائي": 3145,
      "ڊگهي": 3146,
      "ڪشش": 3147,
      "عثماني": 3148,
      "سيوهڻ": 3149,
      "انٽرنيشنل": 3150,
      "عراق": 3151,
      "سٺي": 3152,
      "گون": 3153,
      "مقبول": 3154,
      "تحصيل": 3155,
      "بخاري": 3156,
      "واسطو": 3157,
      "گذريو": 3158,
      "اظهار": 3159,
      "انتهائي": 3160,
      "درست": 3161,
      "گهوٽ": 3162,
      "ثو": 3163,
      "عرو": 3164,
      "ڦل": 3165,
      "اڻپورا": 3166,
      "ڪوڊ": 3167,
      "ايڪس": 3168,
      "درخو": 3169,
      "طرز": 3170,
      "حوالا": 3171,
      "ننڍڙو": 3172,
      "مخالفت": 3173,
      "فڪر": 3174,
      "پکين": 3175,
      "ڪوار": 3176,
      "سرانجام": 3177,
      "جهڙا": 3178,
      "رياض": 3179,
      "منظم": 3180,
      "سٺو": 3181,
      "ڊري": 3182,
      "گزين": 3183,
      "ڪوبه": 3184,
      "تعريف": 3185,
      "لائبري": 3186,
      "وسنديون": 3187,
      "غزل": 3188,
      "سني": 3189,
      "مناسب": 3190,
      "اڳوڻو": 3191,
      "برطانيه": 3192,
      "بش": 3193,
      "گھو": 3194,
      "صوبا": 3195,
      "روزاني": 3196,
      "ڀارتي": 3197,
      "مفيد": 3198,
      "ريسر": 3199,
      "ورتائين": 3200,
      "ٽرانس": 3201,
      "سڏجي": 3202,
      "جيڪڏھن": 3203,
      "عزت": 3204,
      "رڪ": 3205,
      "نالن": 3206,
      "ٻاه": 3207,
      "ڪاميابي": 3208,
      "دهلي": 3209,
      "ڌاتو": 3210,
      "ميز": 3211,
      "اسٽيٽ": 3212,
      "لغاري": 3213,
      "عباس": 3214,
      "صنعتي": 3215,
      "اقبال": 3216,
      "ڇري": 3217,
      "کار": 3218,
      "اسد": 3219,
      "ايڪ": 3220,
      "پريم": 3221,
      "ثاني": 3222,
      "غر": 3223,
      "شعبن": 3224,
      "جاني": 3225,
      "ڦي": 3226,
      "انڪار": 3227,
      "ڪلاڪ": 3228,
      "سالي": 3229,
      "ڄمار": 3230,
      "يندو": 3231,
      "طريقن": 3232,
      "خدمتن": 3233,
      "سپر": 3234,
      "انص": 3235,
      "ڀيڻ": 3236,
      "ورهاڱي": 3237,
      "ھند": 3238,
      "ٽيليو": 3239,
      "ستاني": 3240,
      "گهرو": 3241,
      "مقبرو": 3242,
      "جمالي": 3243,
      "حفاظت": 3244,
      "پبليڪيشن": 3245,
      "سز": 3246,
      "کليل": 3247,
      "ستين": 3248,
      "گيء": 3249,
      "واقعي": 3250,
      "ڏنيون": 3251,
      "راشدي": 3252,
      "تجويز": 3253,
      "ڳائڻ": 3254,
      "برهم": 3255,
      "خيبر": 3256,
      "ٻنھي": 3257,
      "ٻڌائي": 3258,
      "سنگھ": 3259,
      "مپ": 3260,
      "رکندي": 3261,
      "عبادت": 3262,
      "درخواست": 3263,
      "آنا": 3264,
      "گلن": 3265,
      "درج": 3266,
      "درس": 3267,
      "اخبارن": 3268,
      "چاء": 3269,
      "اکرن": 3270,
      "دعوي": 3271,
      "ڊالر": 3272,
      "محقق": 3273,
      "رپورٽ": 3274,
      "نون": 3275,
      "ويئر": 3276,
      "رياستون": 3277,
      "حقيقي": 3278,
      "منعقد": 3279,
      "وزارت": 3280,
      "جھي": 3281,
      "زد": 3282,
      "انسانن": 3283,
      "اڳواڻي": 3284,
      "ترقيء": 3285,
      "گبول": 3286,
      "الل": 3287,
      "امت": 3288,
      "ميٽرو": 3289,
      "بندو": 3290,
      "مرض": 3291,
      "بگ": 3292,
      "فرين": 3293,
      "ادن": 3294,
      "عرصو": 3295,
      "ورتل": 3296,
      "مبارڪ": 3297,
      "زبر": 3298,
      "ڀائي": 3299,
      "کول": 3300,
      "سنت": 3301,
      "واھ": 3302,
      "روحاني": 3303,
      "ميونسپل": 3304,
      "جڙيل": 3305,
      "وجهي": 3306,
      "دير": 3307,
      "ادت": 3308,
      "اهل": 3309,
      "منصوبو": 3310,
      "خليفي": 3311,
      "آخرڪار": 3312,
      "رئي": 3313,
      "درجه": 3314,
      "ٽرڪ": 3315,
      "ڪلچر": 3316,
      "دفعو": 3317,
      "جعفري": 3318,
      ">۽<": 3319,
      "ڍي": 3320,
      "اچار": 3321,
      "شار": 3322,
      "غز": 3323,
      "لائن": 3324,
      "ڪھ": 3325,
      "اهڙن": 3326,
      "مٽيء": 3327,
      "ڊز": 3328,
      "واپر": 3329,
      "سراسري": 3330,
      "سڀئي": 3331,
      "سنگت": 3332,
      "جيڪب": 3333,
      "بجلي": 3334,
      "آغ": 3335,
      "سڌو": 3336,
      "شهن": 3337,
      "ابوال": 3338,
      "ماضي": 3339,
      "ايوب": 3340,
      "شريڪ": 3341,
      "پاسو": 3342,
      "حياتيات": 3343,
      "جابلو": 3344,
      "ئم": 3345,
      "اڇ": 3346,
      "باهه": 3347,
      "سجا": 3348,
      "ڪوريا": 3349,
      "شھرن": 3350,
      "مذھبي": 3351,
      "صورتح": 3352,
      "بادشاهت": 3353,
      "اسرائيل": 3354,
      "صدين": 3355,
      "عيو": 3356,
      "نبات": 3357,
      "ذريعو": 3358,
      "مقابلو": 3359,
      "حياتياتي": 3360,
      "تفصيل": 3361,
      "پيغام": 3362,
      "سوانح": 3363,
      "طفي": 3364,
      "اتا": 3365,
      "فلس": 3366,
      "ڪلاس": 3367,
      "ڪاروبار": 3368,
      "صورتحال": 3369,
      "ايف": 3370,
      "موري": 3371,
      "بنا": 3372,
      "واقعا": 3373,
      "ڪوارٽر": 3374,
      "زوال": 3375,
      "عض": 3376,
      "ڙڻ": 3377,
      "پرڳ": 3378,
      "سوچ": 3379,
      "سازي": 3380,
      "پختون": 3381,
      "ضم": 3382,
      "انگي": 3383,
      "ڪرڪيٽ": 3384,
      "پوسٽ": 3385,
      "نيٽ": 3386,
      "گهرن": 3387,
      "ويجھو": 3388,
      "ڪميشن": 3389,
      "ڏھا": 3390,
      "ونگ": 3391,
      "نيٺ": 3392,
      "ڊيشن": 3393,
      "مهم": 3394,
      "پڙهي": 3395,
      "گروهه": 3396,
      "ورهايو": 3397,
      "اقتدار": 3398,
      "سائو": 3399,
      "چور": 3400,
      "روانو": 3401,
      "انگن": 3402,
      "بون": 3403,
      "چڱو": 3404,
      "ھزار": 3405,
      "جنگي": 3406,
      "جڳهيون": 3407,
      "اعت": 3408,
      "خن": 3409,
      "جاج": 3410,
      "ماپ": 3411,
      "سوم": 3412,
      "ساٿي": 3413,
      "ميمبرن": 3414,
      "ازن": 3415,
      "قول": 3416,
      "ٽيا": 3417,
      "ڀري": 3418,
      "ڙيو": 3419,
      "گرن": 3420,
      "ميٽ": 3421,
      "فيت": 3422,
      "بايو": 3423,
      "انيء": 3424,
      "مريد": 3425,
      "حڪمت": 3426,
      "خالي": 3427,
      "ٽيڪس": 3428,
      "دھ": 3429,
      "ڳاڙهي": 3430,
      "آئيني": 3431,
      "بک": 3432,
      "مزا": 3433,
      "ڀائ": 3434,
      "ايڪٽ": 3435,
      "عيت": 3436,
      "اڃان": 3437,
      "اسڪاٽ": 3438,
      "ذميو": 3439,
      "ڪرائون": 3440,
      "مسلسل": 3441,
      "قبيلو": 3442,
      "ڳڙهه": 3443,
      "رومي": 3444,
      "راتي": 3445,
      "موقعي": 3446,
      "فصل": 3447,
      "ممت": 3448,
      "واهه": 3449,
      "اتل": 3450,
      "مارڪيٽ": 3451,
      "خيالن": 3452,
      "رکندا": 3453,
      "پليٽ": 3454,
      "رٿ": 3455,
      "شمسي": 3456,
      "گرمين": 3457,
      "پوندي": 3458,
      "واضح": 3459,
      "ملاقات": 3460,
      "پئجي": 3461,
      "ٽائر": 3462,
      "پٿ": 3463,
      "انڊين": 3464,
      "جنت": 3465,
      "بهر": 3466,
      "مشر": 3467,
      "لڳائي": 3468,
      "ــــ": 3469,
      "رھندڙ": 3470,
      "صلاحيت": 3471,
      "راڄڌاني": 3472,
      "اڊا": 3473,
      "صرن": 3474,
      "ڪتي": 3475,
      "ننڍڙي": 3476,
      "حدون": 3477,
      "خاتمي": 3478,
      "قريشي": 3479,
      "ايٽمي": 3480,
      "نثر": 3481,
      "انور": 3482,
      "انصاف": 3483,
      "ابڙو": 3484,
      "منٽ": 3485,
      "آرام": 3486,
      "جائزو": 3487,
      "رپيا": 3488,
      "ائپ": 3489,
      "بادل": 3490,
      "ھرست": 3491,
      "جهد": 3492,
      "شاهن": 3493,
      "شاور": 3494,
      "وڏيون": 3495,
      "مھراڻ": 3496,
      "رياستي": 3497,
      "ممتاز": 3498,
      "آهيون": 3499,
      "ٽڪري": 3500,
      "وير": 3501,
      "مارشل": 3502,
      "مهل": 3503,
      "ڊڪشنري": 3504,
      "يقين": 3505,
      "شاھي": 3506,
      "بابا": 3507,
      "اٺن": 3508,
      "بحال": 3509,
      "خصو": 3510,
      "ذير": 3511,
      "فھرست": 3512,
      "ڏھ": 3513,
      "جناح": 3514,
      "اصلو": 3515,
      "هزارين": 3516,
      "رضي": 3517,
      "ـي": 3518,
      "پتو": 3519,
      "اسپ": 3520,
      "معمولي": 3521,
      "آسمان": 3522,
      "سئو": 3523,
      "مدي": 3524,
      "ڪانگ": 3525,
      "جوڙي": 3526,
      "آباديون": 3527,
      "فرض": 3528,
      "حاق": 3529,
      "لڳايو": 3530,
      "درياھ": 3531,
      "يزن": 3532,
      "برقي": 3533,
      "ڇت": 3534,
      "سگهو": 3535,
      "مهينن": 3536,
      "خريد": 3537,
      "اڙ": 3538,
      "دٻا": 3539,
      "ٽڪر": 3540,
      "منھن": 3541,
      "منڊل": 3542,
      "آڻڻ": 3543,
      "نسبت": 3544,
      "آغاز": 3545,
      "عجائ": 3546,
      "ڍا": 3547,
      "اند": 3548,
      "جيڪٽ": 3549,
      "ستن": 3550,
      "مله": 3551,
      "ڪيترين": 3552,
      "جدوجهد": 3553,
      "عشق": 3554,
      "مھين": 3555,
      "ڦير": 3556,
      "راول": 3557,
      "هوائي": 3558,
      "اصر": 3559,
      "جهہ": 3560,
      "سوسي": 3561,
      "مقد": 3562,
      "ايوان": 3563,
      "اندروني": 3564,
      "هنڌن": 3565,
      "اجلاس": 3566,
      "رئيس": 3567,
      "تصديق": 3568,
      "سد": 3569,
      "کٽي": 3570,
      "ويسٽ": 3571,
      "ماڊل": 3572,
      "جمھو": 3573,
      "حلقو": 3574,
      "پشاور": 3575,
      "ياڻي": 3576,
      "اهيو": 3577,
      "ڪائونٽي": 3578,
      "ڪيني": 3579,
      "ليز": 3580,
      "موڪلي": 3581,
      "زيد": 3582,
      "ضرور": 3583,
      "ونيشيا": 3584,
      "مزاح": 3585,
      "خارج": 3586,
      "خوراڪ": 3587,
      "ٽيليويزن": 3588,
      "خصوصي": 3589,
      "اگر": 3590,
      "رسالن": 3591,
      "پڇا": 3592,
      "ھٿ": 3593,
      "رهندي": 3594,
      "سڏبو": 3595,
      "فراهم": 3596,
      "صحا": 3597,
      "ڇپايو": 3598,
      "ارتقا": 3599,
      "نامو": 3600,
      "چئجي": 3601,
      "نمونو": 3602,
      "سربراھ": 3603,
      "بهرحال": 3604,
      "ميڪسي": 3605,
      "فرش": 3606,
      "ٻيھر": 3607,
      "ڳالهيون": 3608,
      "خاتمو": 3609,
      "سيڪنڊري": 3610,
      "صحافي": 3611,
      "عطا": 3612,
      "محنت": 3613,
      "پورچو": 3614,
      "فلڪيا": 3615,
      "دٻاء": 3616,
      "تخ": 3617,
      "جمن": 3618,
      "جرن": 3619,
      "ڀڃ": 3620,
      "باتي": 3621,
      "علائقائي": 3622,
      "کوٽائي": 3623,
      "تارا": 3624,
      "هت": 3625,
      "انجي": 3626,
      "راز": 3627,
      "ھندي": 3628,
      "بني": 3629,
      "مقدس": 3630,
      "پرڏيهي": 3631,
      "يافته": 3632,
      "ڀڄي": 3633,
      "که": 3634,
      "ليٽ": 3635,
      "بنو": 3636,
      "بلد": 3637,
      "چندر": 3638,
      "نسلن": 3639,
      "جڳهه": 3640,
      "هلندڙ": 3641,
      "مجبور": 3642,
      "الزام": 3643,
      "رشي": 3644,
      "ڪابل": 3645,
      "جيستائين": 3646,
      "ارڙ": 3647,
      "ارجن": 3648,
      "عيسي": 3649,
      "ڳولا": 3650,
      "مها": 3651,
      "واقعن": 3652,
      "جاندار": 3653,
      "هڻي": 3654,
      "جيا": 3655,
      "تعاون": 3656,
      "گيل": 3657,
      "ساڄي": 3658,
      "گوگل": 3659,
      "آخوند": 3660,
      "اديبن": 3661,
      "بست": 3662,
      "ڀلي": 3663,
      "گهري": 3664,
      "گهراڻي": 3665,
      "ناچ": 3666,
      "گوشت": 3667,
      "هيٺين": 3668,
      "ڪالم": 3669,
      "پرنٽنگ": 3670,
      "زئي": 3671,
      "مڪر": 3672,
      "مهيا": 3673,
      "کائي": 3674,
      "جيريا": 3675,
      "يوزر": 3676,
      "ديني": 3677,
      "مدرسي": 3678,
      "بيمارين": 3679,
      "اشارو": 3680,
      "اڇي": 3681,
      "اقلي": 3682,
      "هيه": 3683,
      "پوڄا": 3684,
      "جاندارن": 3685,
      "جرت": 3686,
      "مولائي": 3687,
      "آڪسي": 3688,
      "پکڙ": 3689,
      "واپرائيندڙ": 3690,
      "سلا": 3691,
      "قاب": 3692,
      "ٽئين": 3693,
      "ڇهه": 3694,
      "سياحت": 3695,
      "ميڊيڪل": 3696,
      "رب": 3697,
      "قص": 3698,
      "مٺي": 3699,
      "ڀريل": 3700,
      "ڏهين": 3701,
      "يوار": 3702,
      "سيٺ": 3703,
      "مريض": 3704,
      "مٿس": 3705,
      "دلي": 3706,
      "دائو": 3707,
      "ڦر": 3708,
      "پيرا": 3709,
      "سرمائي": 3710,
      "سمورو": 3711,
      "لاڳاپا": 3712,
      "مفاصلي": 3713,
      "عمارتون": 3714,
      "دعوت": 3715,
      "صبح": 3716,
      "ٺهڻ": 3717,
      "اهري": 3718,
      "نوبل": 3719,
      "ناطي": 3720,
      "اڀرندي": 3721,
      "سٽنٽ": 3722,
      "بغير": 3723,
      "بدل": 3724,
      "جلال": 3725,
      "پرنس": 3726,
      "علامت": 3727,
      "بچاء": 3728,
      "خش": 3729,
      "يهو": 3730,
      "منسو": 3731,
      "چولي": 3732,
      "هيٺان": 3733,
      "عجائب": 3734,
      "حمي": 3735,
      "رھ": 3736,
      "عبي": 3737,
      "هڙ": 3738,
      "بيب": 3739,
      "راندي": 3740,
      "خطاب": 3741,
      "سمجهڻ": 3742,
      "غازي": 3743,
      "اطلا": 3744,
      "ميڪسيڪو": 3745,
      "رھيا": 3746,
      "نصر": 3747,
      "تيمور": 3748,
      "نفسيا": 3749,
      "ڪمزور": 3750,
      "ساڳيو": 3751,
      "قبيلا": 3752,
      "پاليسي": 3753,
      "خاطر": 3754,
      "تحرير": 3755,
      "سڪي": 3756,
      "ڇر": 3757,
      "ھرا": 3758,
      "الحق": 3759,
      "شهدادڪوٽ": 3760,
      "ٽريٽ": 3761,
      "تما": 3762,
      "نقل": 3763,
      "پائر": 3764,
      "محا": 3765,
      "ڏيندڙ": 3766,
      "تقسيم": 3767,
      "خليفو": 3768,
      "اصولن": 3769,
      "فلسطين": 3770,
      "جادو": 3771,
      "حان": 3772,
      "شوري": 3773,
      "فرو": 3774,
      "نال": 3775,
      "شرط": 3776,
      "ماڻهوء": 3777,
      "دروي": 3778,
      "ساڻس": 3779,
      "طالب": 3780,
      "هئ": 3781,
      "ميرن": 3782,
      "ائيل": 3783,
      "اتن": 3784,
      "مارڪ": 3785,
      "وڌڻ": 3786,
      "ڏند": 3787,
      "مصطفي": 3788,
      "پوليٽن": 3789,
      "ٻاهرين": 3790,
      "لڏ": 3791,
      "بلغ": 3792,
      "پاڙ": 3793,
      "پاسن": 3794,
      "ڪيميا": 3795,
      "رحم": 3796,
      "طه": 3797,
      "مٺ": 3798,
      "ائشي": 3799,
      "ڪلھو": 3800,
      "وڌائڻ": 3801,
      "ڇڏيا": 3802,
      "جوڙجڪ": 3803,
      "سينٽرل": 3804,
      "سچ": 3805,
      "ڊگهو": 3806,
      "امل": 3807,
      "درٻار": 3808,
      "سرگرمين": 3809,
      "وڪيل": 3810,
      "سليمان": 3811,
      "اڏاوت": 3812,
      "بنگلا": 3813,
      "آئن": 3814,
      "اڪن": 3815,
      "اھر": 3816,
      "دفا": 3817,
      "پاني": 3818,
      "گس": 3819,
      "هوار": 3820,
      "پول": 3821,
      "گھڻ": 3822,
      "کاڌو": 3823,
      "شعور": 3824,
      "ڪڍيو": 3825,
      "سروس": 3826,
      "لياقت": 3827,
      "ڪميٽي": 3828,
      "آي": 3829,
      "تپي": 3830,
      "مٿين": 3831,
      "ڄمڻ": 3832,
      "ڪچو": 3833,
      "گاه": 3834,
      "ابندي": 3835,
      "ڪهاڻين": 3836,
      "صاد": 3837,
      "ديهه": 3838,
      "ايئن": 3839,
      "منص": 3840,
      "نيل": 3841,
      "اوچ": 3842,
      "نقش": 3843,
      "واڌارو": 3844,
      "عيوض": 3845,
      "صالح": 3846,
      "ٺٽ": 3847,
      "حڪومتي": 3848,
      "هجري": 3849,
      "هندا": 3850,
      "هيٺيان": 3851,
      "گھراڻي": 3852,
      "زادي": 3853,
      "اق": 3854,
      "فين": 3855,
      "قطب": 3856,
      "پنڌ": 3857,
      "پوٽو": 3858,
      "ڪتابادبي": 3859,
      "ڪانه": 3860,
      "ڪندڙن": 3861,
      "ھاء": 3862,
      "آمدني": 3863,
      "ڪاميٽي": 3864,
      "تڪلي": 3865,
      "هما": 3866,
      "ٻائي": 3867,
      "ڏور": 3868,
      "امداد": 3869,
      "ويڙ": 3870,
      "سينٽي": 3871,
      "وهڪري": 3872,
      "تصنيف": 3873,
      "غالب": 3874,
      "نڪا": 3875,
      "ڪاس": 3876,
      "گئس": 3877,
      "ائيٽ": 3878,
      "محبو": 3879,
      "وڌائي": 3880,
      "ڪهڙي": 3881,
      "وانگي": 3882,
      "ابتدا": 3883,
      "ماليڪيول": 3884,
      "ڪميونسٽ": 3885,
      "اختلاف": 3886,
      "صدارتي": 3887,
      "دستي": 3888,
      "فورس": 3889,
      "چارج": 3890,
      "فاق": 3891,
      "پويان": 3892,
      "ثبوت": 3893,
      "چڪر": 3894,
      "پيرو": 3895,
      "مردم": 3896,
      "اوبلا": 3897,
      "جيترو": 3898,
      "خواجه": 3899,
      "بئنڪ": 3900,
      "شمس": 3901,
      "اريون": 3902,
      "ٽيڊ": 3903,
      "پنهور": 3904,
      "ڪمشن": 3905,
      "تازو": 3906,
      "سولن": 3907,
      "لائبريري": 3908,
      "سچل": 3909,
      "منڊ": 3910,
      "پنن": 3911,
      "مردن": 3912,
      "وڏين": 3913,
      "دورن": 3914,
      "ايمپائر": 3915,
      "زلز": 3916,
      "جھڙوڪ": 3917,
      "صادق": 3918,
      "ڊول": 3919,
      "ڏهه": 3920,
      "اسڪال": 3921,
      "لوڻ": 3922,
      "بروهي": 3923,
      "مهينو": 3924,
      "هاڻوڪي": 3925,
      "نائب": 3926,
      "مجا": 3927,
      "وچولي": 3928,
      "ڦو": 3929,
      "مقناطي": 3930,
      "جسماني": 3931,
      "ميلاپ": 3932,
      "فلسفو": 3933,
      "پيون": 3934,
      "ڊپٽي": 3935,
      "ريٽ": 3936,
      "پيئڻ": 3937,
      "پرت": 3938,
      "ڪارا": 3939,
      "توھان": 3940,
      "ڀرپور": 3941,
      "پروٽين": 3942,
      "فاط": 3943,
      "ايراضيء": 3944,
      "نڪ": 3945,
      "ورهين": 3946,
      "ٻيلي": 3947,
      "مئٽرڪ": 3948,
      "مٿاڇري": 3949,
      "بطور": 3950,
      "عيات": 3951,
      "نئي": 3952,
      "انفرا": 3953,
      "واريء": 3954,
      "آسٽريا": 3955,
      "ريسرچ": 3956,
      "آري": 3957,
      "تپو": 3958,
      "غون": 3959,
      "ٺاھي": 3960,
      "ڪائي": 3961,
      "انڊي": 3962,
      "ڪنديون": 3963,
      "راندين": 3964,
      "موضوعن": 3965,
      "رٽائر": 3966,
      "برن": 3967,
      "احساس": 3968,
      "شخصيتون": 3969,
      "ڪلاسيڪل": 3970,
      "بلدياتي": 3971,
      "غو": 3972,
      "آهيان": 3973,
      "موهن": 3974,
      "مستقبل": 3975,
      "مغلن": 3976,
      "ميٽروپوليٽن": 3977,
      "دائود": 3978,
      "اشاع": 3979,
      "تيون": 3980,
      "صول": 3981,
      "جوڳي": 3982,
      "ليف": 3983,
      "فيلڊ": 3984,
      "خلائي": 3985,
      "نامزد": 3986,
      "ڪچي": 3987,
      "اسڪر": 3988,
      "اسڪولن": 3989,
      "ٻڌڻ": 3990,
      "ڇپجي": 3991,
      "شاخون": 3992,
      "نڪتو": 3993,
      "هٿيار": 3994,
      "تفري": 3995,
      "دون": 3996,
      "رفت": 3997,
      "وع": 3998,
      "ڪٽن": 3999,
      "انجڻ": 4000,
      "ريائين": 4001,
      "لاڏ": 4002,
      "ميلو": 4003,
      "زمروايشيا": 4004,
      "ڪمال": 4005,
      "ضلعا": 4006,
      "عنايت": 4007,
      "سٽريشن": 4008,
      "پٺاڻ": 4009,
      "غور": 4010,
      "راڻو": 4011,
      "زمرا": 4012,
      "فنڪار": 4013,
      "کاٻي": 4014,
      "دليل": 4015,
      "ظاھر": 4016,
      "ميلن": 4017,
      "پيرن": 4018,
      "ڊرامي": 4019,
      "ملندڙ": 4020,
      "انجنيئر": 4021,
      "ھم": 4022,
      "وازن": 4023,
      "ڀاڱ": 4024,
      "اندازي": 4025,
      "خوشبو": 4026,
      "ڏيکاريو": 4027,
      "آبهوا": 4028,
      "ٻوڏ": 4029,
      "ڇن": 4030,
      "هڪٻئي": 4031,
      "پنجين": 4032,
      "تعالي": 4033,
      "ڪاٺي": 4034,
      "آثارن": 4035,
      "نرم": 4036,
      "انٽرنيٽ": 4037,
      "خز": 4038,
      "سڳ": 4039,
      "مگ": 4040,
      "چنا": 4041,
      "انڙ": 4042,
      "ادار": 4043,
      "لڳن": 4044,
      "آرٽس": 4045,
      "مبيا": 4046,
      "مائڪرو": 4047,
      "جارج": 4048,
      "گرميء": 4049,
      "مٽياري": 4050,
      "مسافر": 4051,
      "وهڪ": 4052,
      "وات": 4053,
      "ليڪن": 4054,
      "سنڌين": 4055,
      "اليء": 4056,
      "اوائلي": 4057,
      "مسئلا": 4058,
      "مفت": 4059,
      "پذير": 4060,
      "تيئن": 4061,
      "سلسل": 4062,
      "چوٽي": 4063,
      "عدالت": 4064,
      "نقشو": 4065,
      "باغباني": 4066,
      "جوڻيجو": 4067,
      "ڪمشنر": 4068,
      "طني": 4069,
      "فوت": 4070,
      "تقلي": 4071,
      "ڪيريئر": 4072,
      "هف": 4073,
      "هاڪ": 4074,
      "يھو": 4075,
      "ڇهن": 4076,
      "ايڪو": 4077,
      "محتر": 4078,
      "عبداللطيف": 4079,
      "دهليء": 4080,
      "راجپوت": 4081,
      "نٿا": 4082,
      "ٿول": 4083,
      "کڻڻ": 4084,
      "اٿن": 4085,
      "ٽيڪني": 4086,
      "خواهش": 4087,
      "تار": 4088,
      "سئ": 4089,
      "ڪڏھن": 4090,
      "القرآن": 4091,
      "بهار": 4092,
      "رضا": 4093,
      "تجار": 4094,
      "ناس": 4095,
      "ٽائ": 4096,
      "ياب": 4097,
      "رومان": 4098,
      "بنجي": 4099,
      "فوجن": 4100,
      "وڌندڙ": 4101,
      "ڄاڻخانو": 4102,
      "ڪپڙي": 4103,
      "نٿي": 4104,
      "هائوس": 4105,
      "ھد": 4106,
      "هنر": 4107,
      "ارغون": 4108,
      "ڪوري": 4109,
      "اتم": 4110,
      "گرد": 4111,
      "ملندو": 4112,
      "فقار": 4113,
      "منهنجو": 4114,
      "آيت": 4115,
      "ساري": 4116,
      "نان": 4117,
      "جيب": 4118,
      "روا": 4119,
      "پندر": 4120,
      "مشڪل": 4121,
      "شيدائي": 4122,
      "ننڍن": 4123,
      "گنج": 4124,
      "بحر": 4125,
      "شھدادڪوٽ": 4126,
      "جماع": 4127,
      "آپريشن": 4128,
      "تبا": 4129,
      "جج": 4130,
      "فائون": 4131,
      "مادو": 4132,
      "چچ": 4133,
      "ڪنڊي": 4134,
      "بڻائڻ": 4135,
      "پوريشن": 4136,
      "ٻاھر": 4137,
      "ساحل": 4138,
      "سفارت": 4139,
      "تجارتي": 4140,
      "بدن": 4141,
      "تال": 4142,
      "فلا": 4143,
      "هائيڊ": 4144,
      "پوئين": 4145,
      "پارٽ": 4146,
      "ڊرامن": 4147,
      "مصري": 4148,
      "ٺاھڻ": 4149,
      "نوازيو": 4150,
      "سرشتو": 4151,
      "شمي": 4152,
      "فساد": 4153,
      "ٽڪرا": 4154,
      "چالي": 4155,
      "جيان": 4156,
      "يورو": 4157,
      "منصور": 4158,
      "مرت": 4159,
      "ڊيمو": 4160,
      "مالا": 4161,
      "طريقا": 4162,
      "روزانو": 4163,
      "شدد": 4164,
      "اخلاق": 4165,
      "اخلاقي": 4166,
      "نڪاح": 4167,
      "عار": 4168,
      "مڇ": 4169,
      "ٺهي": 4170,
      "سرائي": 4171,
      "ڏيڍ": 4172,
      "وڌايو": 4173,
      "چاڙ": 4174,
      "نامور": 4175,
      "ڪڍڻ": 4176,
      "پلاڻ": 4177,
      "آڏواڻي": 4178,
      "باڪ": 4179,
      "جملي": 4180,
      "ديا": 4181,
      "ڪٿا": 4182,
      "انڪري": 4183,
      "ھنگ": 4184,
      "ويء": 4185,
      "پنجون": 4186,
      "معصو": 4187,
      "خاصخي": 4188,
      "گهربل": 4189,
      "شاندار": 4190,
      "دفعا": 4191,
      "روشنيء": 4192,
      "هلندو": 4193,
      "دائري": 4194,
      "آئون": 4195,
      "لھ": 4196,
      "الخط": 4197,
      "ڪوئ": 4198,
      "ويه": 4199,
      "ڳالهين": 4200,
      "سمجھيو": 4201,
      "نشاني": 4202,
      "بص": 4203,
      "وجه": 4204,
      "ڍان": 4205,
      "طبقي": 4206,
      "طاقتور": 4207,
      "رقم": 4208,
      "،،<": 4209,
      "جلا": 4210,
      "فطري": 4211,
      "ھاري": 4212,
      "ارام": 4213,
      "ئيٽ": 4214,
      "فيڊري": 4215,
      "مثلا": 4216,
      "ڪونهي": 4217,
      "انڊونيشيا": 4218,
      "حب": 4219,
      "چوي": 4220,
      "ڊبل": 4221,
      "ھجري": 4222,
      "اسحاق": 4223,
      "ميرزا": 4224,
      "جھان": 4225,
      "زمينن": 4226,
      "انصاري": 4227,
      "دعويٰ": 4228,
      "شهنشاهه": 4229,
      "اڇو": 4230,
      "لڙ": 4231,
      "شهرت": 4232,
      "انقلابي": 4233,
      "بادشاھت": 4234,
      "اورن": 4235,
      "ذمي": 4236,
      "فني": 4237,
      "واب": 4238,
      "پابن": 4239,
      "ڀرو": 4240,
      "ڏجي": 4241,
      "يوي": 4242,
      "دوري": 4243,
      "داخلا": 4244,
      "ڪرام": 4245,
      "حيد": 4246,
      "ناظم": 4247,
      "فلمون": 4248,
      "ذريعن": 4249,
      "چارلس": 4250,
      "گريجو": 4251,
      "مهينا": 4252,
      "سربراهه": 4253,
      "ناڪام": 4254,
      "زيارت": 4255,
      "نوٽ": 4256,
      "رهيون": 4257,
      "مرڪب": 4258,
      "خطرن": 4259,
      "گھرجي": 4260,
      "گهڻن": 4261,
      "اضافي": 4262,
      "ذوالفقار": 4263,
      "اللہ": 4264,
      "حت": 4265,
      "اسو": 4266,
      "تباهه": 4267,
      "بينظ": 4268,
      "هلائڻ": 4269,
      "فورڊ": 4270,
      "مڱ": 4271,
      "گت": 4272,
      "سانچ": 4273,
      "ايمان": 4274,
      "ويهي": 4275,
      "قرض": 4276,
      "پڙه": 4277,
      "آڪسيجن": 4278,
      "وش": 4279,
      "چتر": 4280,
      "ڪجهہ": 4281,
      "الهندي": 4282,
      "مارڪس": 4283,
      "هلائي": 4284,
      "عاشق": 4285,
      "سورة": 4286,
      "منتظم": 4287,
      "ماڳن": 4288,
      "سوشلسٽ": 4289,
      "سوسيئيشن": 4290,
      "حير": 4291,
      "طئي": 4292,
      "ڻيون": 4293,
      "ديت": 4294,
      "کوجن": 4295,
      "قلات": 4296,
      "ماسٽر": 4297,
      "پٿرن": 4298,
      "جزي": 4299,
      "منگول": 4300,
      "فرمايو": 4301,
      "گڏج": 4302,
      "ٻوٽا": 4303,
      "عملن": 4304,
      "جڳھ": 4305,
      "مسئلو": 4306,
      "نويس": 4307,
      "مقناطيسي": 4308,
      "بينظير": 4309,
      "رهو": 4310,
      "ھائي": 4311,
      "ٽنڊي": 4312,
      "وٽس": 4313,
      "تعلقات": 4314,
      "چرچ": 4315,
      "عيسيٰ": 4316,
      "بجاء": 4317,
      "زهر": 4318,
      "لعل": 4319,
      "منصو": 4320,
      "پوڻ": 4321,
      "فلمي": 4322,
      "پبلشرسنڌ": 4323,
      "نگراني": 4324,
      "جت": 4325,
      "دال": 4326,
      "مشن": 4327,
      "ماتح": 4328,
      "ڏيون": 4329,
      "ورڊ": 4330,
      "داشت": 4331,
      "پوکي": 4332,
      "سوين": 4333,
      "خانن": 4334,
      "سمورا": 4335,
      "مقبري": 4336,
      "رسمي": 4337,
      "عقيدي": 4338,
      "محبوب": 4339,
      "جهر": 4340,
      "فضل": 4341,
      "مئن": 4342,
      "يارڪ": 4343,
      "ڊگھ": 4344,
      "ڪھاڻي": 4345,
      "ائٽل": 4346,
      "ورهيه": 4347,
      "بيٺل": 4348,
      "ستار": 4349,
      "زمروڏکڻ": 4350,
      "عدال": 4351,
      "رائج": 4352,
      "سرشتي": 4353,
      "اليڪٽران": 4354,
      "تنظيمن": 4355,
      "ڪئناڊا": 4356,
      "سدائين": 4357,
      "لز": 4358,
      "متر": 4359,
      "هئو": 4360,
      "گز": 4361,
      "ينا": 4362,
      "ٽران": 4363,
      "گيس": 4364,
      "شرف": 4365,
      "ٽاور": 4366,
      "رابطي": 4367,
      "بزرگن": 4368,
      "خب": 4369,
      "ڏڻ": 4370,
      "الط": 4371,
      "پهريان": 4372,
      "حرڪ": 4373,
      "عبر": 4374,
      "نز": 4375,
      "نع": 4376,
      "ويٽن": 4377,
      "فرھنگ": 4378,
      "جلس": 4379,
      "رکيا": 4380,
      "فلڪيات": 4381,
      "درويش": 4382,
      "ڀون": 4383,
      "ويڙهه": 4384,
      "زمروسنڌ": 4385,
      "مضان": 4386,
      "تبلي": 4387,
      "گذريل": 4388,
      "ڪلهوڙن": 4389,
      "ڏيا": 4390,
      "امڪ": 4391,
      "سرور": 4392,
      "بلڪ": 4393,
      "مقص": 4394,
      "آرڪ": 4395,
      "آفريڪي": 4396,
      "آئس": 4397,
      "اڏي": 4398,
      "بدو": 4399,
      "حبيب": 4400,
      "سپريم": 4401,
      "ننگر": 4402,
      "وليم": 4403,
      "ڀڄ": 4404,
      "رافي": 4405,
      "ڪرشن": 4406,
      "پهچڻ": 4407,
      "ڪورونا": 4408,
      "منسوب": 4409,
      "مقصدن": 4410,
      "صغير": 4411,
      "متو": 4412,
      "والي": 4413,
      "ڳائ": 4414,
      "ونيا": 4415,
      "لاھور": 4416,
      "ستر": 4417,
      "اتفاق": 4418,
      "رني": 4419,
      "فيس": 4420,
      "ساٿين": 4421,
      "لباس": 4422,
      "جسٽس": 4423,
      "سھول": 4424,
      "دڪان": 4425,
      "زڪو": 4426,
      "قصي": 4427,
      "لق": 4428,
      "روڪڻ": 4429,
      "ميشن": 4430,
      "سيک": 4431,
      "گهڙ": 4432,
      "آرگن": 4433,
      "تبديليون": 4434,
      "موسيٰ": 4435,
      "پراڻن": 4436,
      "وابست": 4437,
      "تشدد": 4438,
      "خون": 4439,
      "دعا": 4440,
      "پابندي": 4441,
      "يوري": 4442,
      "تير": 4443,
      "ليڪچر": 4444,
      "دوا": 4445,
      "ايڪڙ": 4446,
      "اتار": 4447,
      "اميء": 4448,
      "لندر": 4449,
      "وسيلن": 4450,
      "بغداد": 4451,
      "ہيں": 4452,
      "آڳاٽي": 4453,
      "رمضان": 4454,
      "ڦاڪ": 4455,
      "ائڊ": 4456,
      "ڪردگي": 4457,
      "ڳوڙ": 4458,
      "اسٽيج": 4459,
      "اکيون": 4460,
      "غيبي": 4461,
      "نباتات": 4462,
      "ھلن": 4463,
      "ڪوه": 4464,
      "پيچي": 4465,
      "گرھ": 4466,
      "مقالا": 4467,
      "ازو": 4468,
      "اڀري": 4469,
      "يادت": 4470,
      "آپ": 4471,
      "تارن": 4472,
      "اسسٽنٽ": 4473,
      "منتقلي": 4474,
      "ڪارپوريشن": 4475,
      "سمورن": 4476,
      "لڳندو": 4477,
      "نيوز": 4478,
      "مسئلي": 4479,
      "آسپاس": 4480,
      "معاهدي": 4481,
      "حاد": 4482,
      "عجيب": 4483,
      "ڏاهر": 4484,
      "ائيزيشن": 4485,
      "درد": 4486,
      "ڪلب": 4487,
      "زيل": 4488,
      "سٽا": 4489,
      "کولي": 4490,
      "ڪميونٽي": 4491,
      "رشيد": 4492,
      "آتم": 4493,
      "رم": 4494,
      "وڇ": 4495,
      "ڪشي": 4496,
      "ريجن": 4497,
      "ايائين": 4498,
      "ٽيل": 4499,
      "پوزيشن": 4500,
      "قيدي": 4501,
      "بنايو": 4502,
      "سوار": 4503,
      "هيٺيون": 4504,
      "عنصرن": 4505,
      "مڃتا": 4506,
      "بنگال": 4507,
      "خالد": 4508,
      "خالص": 4509,
      "شھي": 4510,
      "وهي": 4511,
      "ٿائي": 4512,
      "ڦري": 4513,
      "عملدار": 4514,
      "مٿئين": 4515,
      "ٺاهيندا": 4516,
      "جمهوري": 4517,
      "مڪران": 4518,
      "ڄاڻي": 4519,
      "کاتو": 4520,
      "ھلي": 4521,
      "هٿان": 4522,
      "اعجاز": 4523,
      "ڻين": 4524,
      "اڄڪل": 4525,
      "نمائش": 4526,
      "اٺين": 4527,
      "هريجن": 4528,
      "اعترا": 4529,
      "بنگلاديش": 4530,
      "ماتحت": 4531,
      "قطر": 4532,
      "ھع": 4533,
      "البان": 4534,
      "امتي": 4535,
      "ايجو": 4536,
      "ويس": 4537,
      "پرائي": 4538,
      "معز": 4539,
      "رنگن": 4540,
      "صديقي": 4541,
      "فارسيء": 4542,
      "منتخب": 4543,
      "شخصيتن": 4544,
      "رجحان": 4545,
      "حميد": 4546,
      "اٽي": 4547,
      "بڪر": 4548,
      "عنه": 4549,
      "گم": 4550,
      "گاري": 4551,
      "جيء": 4552,
      "امڪان": 4553,
      "راھ": 4554,
      "نيڪ": 4555,
      "ماهوار": 4556,
      "پهلو": 4557,
      "رهاڪو": 4558,
      "کنيو": 4559,
      "ڇوڙ": 4560,
      "لاڳاپن": 4561,
      "داريء": 4562,
      "وڊيو": 4563,
      "امان": 4564,
      "ترام": 4565,
      "لنڪا": 4566,
      "ڪوششن": 4567,
      "پيغمبر": 4568,
      "عروج": 4569,
      "نديون": 4570,
      "يائين": 4571,
      "کائيندا": 4572,
      "ہو": 4573,
      "هيرو": 4574,
      "ميئر": 4575,
      "اوڙ": 4576,
      "فرم": 4577,
      "ڇوڪري": 4578,
      "لاڳاپو": 4579,
      "فائل": 4580,
      "تشريح": 4581,
      "خاصخيلي": 4582,
      "ٽان": 4583,
      "لوجي": 4584,
      "ڪارڪردگي": 4585,
      "پاور": 4586,
      "ديوار": 4587,
      "تجربو": 4588,
      "يونيسڪو": 4589,
      "مترجم": 4590,
      "ؤن": 4591,
      "قتن": 4592,
      "ڄار": 4593,
      "اسر": 4594,
      "ھوائي": 4595,
      "بوٽ": 4596,
      "خيل": 4597,
      "ڀڳت": 4598,
      "ٺاهيا": 4599,
      "مدرسو": 4600,
      "خاصيتن": 4601,
      "ڪٽنب": 4602,
      "فائونڊيشن": 4603,
      "هہ": 4604,
      "يندي": 4605,
      "ڪنوار": 4606,
      "منڊي": 4607,
      "قومون": 4608,
      "سرحدون": 4609,
      "سيف": 4610,
      "عبدالمجيد": 4611,
      "ورهائي": 4612,
      "بھترين": 4613,
      "سهڻي": 4614,
      "ڪولمبيا": 4615,
      "خاصيتون": 4616,
      "فرينچ": 4617,
      "لڏپلاڻ": 4618,
      "اڏو": 4619,
      "شپ": 4620,
      "هٽ": 4621,
      "کٽ": 4622,
      "ڳڙ": 4623,
      "ورثو": 4624,
      "پرديش": 4625,
      "يعقو": 4626,
      "مظاه": 4627,
      "برهمڻ": 4628,
      "عارضي": 4629,
      "آرين": 4630,
      "زيا": 4631,
      "لڪي": 4632,
      "هلا": 4633,
      "ٻھرا": 4634,
      "ماھر": 4635,
      "فيصل": 4636,
      "متحرڪ": 4637,
      "مينهن": 4638,
      "قاعد": 4639,
      "ڳالهائي": 4640,
      "مگسي": 4641,
      ">...<": 4642,
      "ضياء": 4643,
      "نج": 4644,
      "ڀاڻ": 4645,
      "دوستي": 4646,
      "سرد": 4647,
      "چيائين": 4648,
      "زنده": 4649,
      "ڊرامو": 4650,
      "عمرڪوٽ": 4651,
      "ڪامريڊ": 4652,
      "فاضل": 4653,
      "ڏوھ": 4654,
      "سنڌوء": 4655,
      "محاذ": 4656,
      "سولنگي": 4657,
      "ثقل": 4658,
      "سخ": 4659,
      "ٿڪ": 4660,
      "ھئڻ": 4661,
      "جاين": 4662,
      "وارث": 4663,
      "ڏاڏي": 4664,
      "رائچند": 4665,
      "ڀائرن": 4666,
      "اسپيني": 4667,
      "زڪوات": 4668,
      "مدا": 4669,
      "نين": 4670,
      "نانگ": 4671,
      "ڇڏيندا": 4672,
      "ڌڻي": 4673,
      "ڳن": 4674,
      "انکي": 4675,
      "پنجا": 4676,
      "درگاهه": 4677,
      "لوھ": 4678,
      "تنگ": 4679,
      "باڪو": 4680,
      "ڪرڻو": 4681,
      "ڪٽڪ": 4682,
      "اٽلي": 4683,
      "....": 4684,
      "بندرگاهه": 4685,
      "اڙي": 4686,
      "حامي": 4687,
      "شئي": 4688,
      "ڏسن": 4689,
      "جيئي": 4690,
      "بلين": 4691,
      "ماليا": 4692,
      "اختر": 4693,
      "تفصي": 4694,
      "مظفر": 4695,
      "ٺاھيو": 4696,
      "موسيقيء": 4697,
      "رجسٽريشن": 4698,
      "آڱ": 4699,
      "زائي": 4700,
      "نادر": 4701,
      "وحد": 4702,
      "چاهي": 4703,
      "الهه": 4704,
      "بنت": 4705,
      "هينئر": 4706,
      "هٿن": 4707,
      "ميوو": 4708,
      "ھندستان": 4709,
      "مصطفيٰ": 4710,
      "بچي": 4711,
      "قيادت": 4712,
      "ڊپارٽ": 4713,
      "اصلاح": 4714,
      "سوئي": 4715,
      "معدي": 4716,
      "پهريائين": 4717,
      "دانن": 4718,
      "هندوستان": 4719,
      "عبدالرحمان": 4720,
      "نگاري": 4721,
      "قدرت": 4722,
      "ولوجي": 4723,
      "آبي": 4724,
      "سبي": 4725,
      "قار": 4726,
      "چڙهي": 4727,
      "ڪڙي": 4728,
      "ابا": 4729,
      "اهڙيون": 4730,
      "پوٽي": 4731,
      "مداد": 4732,
      "فائدي": 4733,
      "حڪمرانن": 4734,
      "ملازمت": 4735,
      "عالي": 4736,
      "لئ": 4737,
      "لسٽ": 4738,
      "يڪ": 4739,
      "جيئ": 4740,
      "ميرو": 4741,
      "سيريز": 4742,
      "ڪنڀار": 4743,
      "لوڪل": 4744,
      "زمروڪو": 4745,
      "تازي": 4746,
      "وچين": 4747,
      "ڊنٽ": 4748,
      "ٿرپارڪر": 4749,
      "سطو": 4750,
      "ڪهاڻيڪار": 4751,
      "سومرن": 4752,
      "شھيد": 4753,
      "اپن": 4754,
      "بيون": 4755,
      "تلا": 4756,
      "سکن": 4757,
      "مھر": 4758,
      "ڇهين": 4759,
      "گوري": 4760,
      "ھيم": 4761,
      "منفرد": 4762,
      "نوآباد": 4763,
      "رينج": 4764,
      "گلگت": 4765,
      "تنهنجي": 4766,
      "ورهاست": 4767,
      "نشين": 4768,
      "ارض": 4769,
      "اسٽر": 4770,
      "شاديء": 4771,
      "قديمه": 4772,
      "وٺندڙ": 4773,
      "معاشري": 4774,
      "ڇڏڻ": 4775,
      "ڊگھي": 4776,
      "نائيجيريا": 4777,
      "ڏھاڪي": 4778,
      "بجي": 4779,
      "تجز": 4780,
      "ٻان": 4781,
      "چني": 4782,
      "ڇھ": 4783,
      "ائڪي": 4784,
      "منجه": 4785,
      "ملھ": 4786,
      "زمروپاڪستاني": 4787,
      "معدنيا": 4788,
      "عليہ": 4789,
      "لڳائڻ": 4790,
      "فريد": 4791,
      "عالمگير": 4792,
      "ڪوششون": 4793,
      "عمارتن": 4794,
      "دوستن": 4795,
      "لسانيات": 4796,
      "اوبلاسٽ": 4797,
      "قرا": 4798,
      "ارسطو": 4799,
      "ويچار": 4800,
      "منگ": 4801,
      "رندو": 4802,
      "سمجهن": 4803,
      "ٻوٽي": 4804,
      "ٻوٽو": 4805,
      "واقف": 4806,
      "خوشي": 4807,
      "آرمي": 4808,
      "بنيادن": 4809,
      "فارس": 4810,
      "بلوچي": 4811,
      "ڪينسر": 4812,
      "ڏيکاريل": 4813,
      "اڳواڻن": 4814,
      "ملائيشيا": 4815,
      "قاعدي": 4816,
      "فيڊريشن": 4817,
      "شيو": 4818,
      "عات": 4819,
      "انٽڪ": 4820,
      "روه": 4821,
      "ديبل": 4822,
      "استح": 4823,
      "ٻيء": 4824,
      "واقعو": 4825,
      "پروجيڪٽ": 4826,
      "ڇوڪرين": 4827,
      "گهٽتائي": 4828,
      "گذرڻ": 4829,
      "اسپيس": 4830,
      "ڪمانڊر": 4831,
      "آزم": 4832,
      "سفرن": 4833,
      "مورو": 4834,
      "بازي": 4835,
      "متبادل": 4836,
      "دورو": 4837,
      "ساء": 4838,
      "گاڏي": 4839,
      "ويجهي": 4840,
      "ٽالپرن": 4841,
      "زالون": 4842,
      "نظرياتي": 4843,
      "زمانو": 4844,
      "تصوف": 4845,
      "وصف": 4846,
      "اسٽا": 4847,
      "جندڙ": 4848,
      "مارڻ": 4849,
      "مخلو": 4850,
      "گريڊ": 4851,
      "ابتڙ": 4852,
      "سوراخ": 4853,
      "ڪپڙا": 4854,
      "ڳالهائڻ": 4855,
      "اداڪاري": 4856,
      "گلاب": 4857,
      "تيزيء": 4858,
      "فلو": 4859,
      "قبو": 4860,
      "هاڻو": 4861,
      "وڪرو": 4862,
      "ڪبو": 4863,
      "ھري": 4864,
      "ويڙھ": 4865,
      "منصوبي": 4866,
      "برج": 4867,
      "رند": 4868,
      "ماکي": 4869,
      "گردش": 4870,
      "متحد": 4871,
      "هاشم": 4872,
      "ڪانہ": 4873,
      "کوسو": 4874,
      "دروازو": 4875,
      "رحيمداد": 4876,
      "صدارت": 4877,
      "حمل": 4878,
      "سهڪ": 4879,
      "قال": 4880,
      "ٿام": 4881,
      "ڳڙي": 4882,
      "لاهي": 4883,
      "هوم": 4884,
      "سيمينٽ": 4885,
      "ويهه": 4886,
      "زميندار": 4887,
      "ڀيري": 4888,
      "عبدالغ": 4889,
      "استادن": 4890,
      "لکڻين": 4891,
      "دروازي": 4892,
      "تنظيمون": 4893,
      "معدنيات": 4894,
      "جہ": 4895,
      "خسرو": 4896,
      "ناف": 4897,
      "دوائن": 4898,
      "ترجي": 4899,
      "خانداني": 4900,
      "عرس": 4901,
      "اھڙو": 4902,
      "برازيل": 4903,
      "پڙهندڙ": 4904,
      "جيوت": 4905,
      "پيپلزپارٽي": 4906,
      "ذهني": 4907,
      "آڪسائيڊ": 4908,
      "جئ": 4909,
      "طلب": 4910,
      "مسو": 4911,
      "هارين": 4912,
      "وت": 4913,
      "ڀڳو": 4914,
      "فيصلي": 4915,
      "ڊيگهه": 4916,
      "رسمن": 4917,
      "پروڊيو": 4918,
      "حالتون": 4919,
      "بمبئيء": 4920,
      "سائنسدانن": 4921,
      "بندوبست": 4922,
      "دفاع": 4923,
      "ڊيموڪري": 4924,
      "اڍ": 4925,
      "تاح": 4926,
      "سٺ": 4927,
      "طار": 4928,
      "نصي": 4929,
      "پائن": 4930,
      "پتا": 4931,
      "ڇانو": 4932,
      "ڌام": 4933,
      "ڪرسٽ": 4934,
      "پناه": 4935,
      "انگير": 4936,
      "بدلي": 4937,
      "سگهجن": 4938,
      "صحافت": 4939,
      "مڃيو": 4940,
      "سازش": 4941,
      "مشرقي": 4942,
      "ازم": 4943,
      "طوف": 4944,
      "قم": 4945,
      "ممبئي": 4946,
      "ڊور": 4947,
      "ورتا": 4948,
      "ميسر": 4949,
      "واڙ": 4950,
      "بلت": 4951,
      "اترئين": 4952,
      "والدين": 4953,
      "گلشن": 4954,
      "ڄاڻايو": 4955,
      "موقعو": 4956,
      "جسٽر": 4957,
      "وقف": 4958,
      "يونيورسٽين": 4959,
      "نصيرآباد": 4960,
      "پرڳڻي": 4961,
      "ترا": 4962,
      "عقيد": 4963,
      "واد": 4964,
      "ڪيئي": 4965,
      "دودي": 4966,
      "سيال": 4967,
      "پنو": 4968,
      "فيئر": 4969,
      "قلمي": 4970,
      "گروهن": 4971,
      "تقرير": 4972,
      "احتجاج": 4973,
      "بچائڻ": 4974,
      "ايجوڪيشن": 4975,
      "بالا": 4976,
      "رف": 4977,
      "ظلم": 4978,
      "ارادو": 4979,
      "امه": 4980,
      "ملندي": 4981,
      "چينل": 4982,
      "ميوزڪ": 4983,
      "مصنو": 4984,
      "حيو": 4985,
      "وشن": 4986,
      "ٻاري": 4987,
      "ڌما": 4988,
      "روڪ": 4989,
      "ڪني": 4990,
      "مدن": 4991,
      "سوڀ": 4992,
      "ڪتابي": 4993,
      "سياحن": 4994,
      "پيشو": 4995,
      "ـــ": 4996,
      "صحبت": 4997,
      "فقه": 4998,
      "ڪڻڪ": 4999,
      "ٺهرايو": 5000,
      "تڪليف": 5001,
      "ذائ": 5002,
      "رگ": 5003,
      "رڪا": 5004,
      "شڪر": 5005,
      "اسٽريٽ": 5006,
      "اوھان": 5007,
      "ديھون": 5008,
      "ھيٺين": 5009,
      "پراڻا": 5010,
      "پکڙجي": 5011,
      "رجسٽر": 5012,
      "زيور": 5013,
      "فعال": 5014,
      "ٿڌي": 5015,
      "ينه": 5016,
      "جايون": 5017,
      "پوش": 5018,
      "گرامن": 5019,
      "مشي": 5020,
      "متحده": 5021,
      "استعي": 5022,
      "حرف": 5023,
      "ڪيمسٽري": 5024,
      "شاخن": 5025,
      "پوئتي": 5026,
      "زخمي": 5027,
      "تعاليٰ": 5028,
      "هائيڊرو": 5029,
      "ڊپارٽمينٽ": 5030,
      "سڏين": 5031,
      "مجلس": 5032,
      "ڃاڻ": 5033,
      "سيٽون": 5034,
      "جهڙائي": 5035,
      "گھڻا": 5036,
      "زمينون": 5037,
      "نيوڪلي": 5038,
      "موڪلون": 5039,
      "جرنل": 5040,
      "جگر": 5041,
      "لط": 5042,
      "لاجي": 5043,
      "ميڙ": 5044,
      "ويڪر": 5045,
      "منط": 5046,
      "پنگ": 5047,
      "برق": 5048,
      "تعين": 5049,
      "چيء": 5050,
      "ڳولي": 5051,
      "زاق": 5052,
      "ڏاڏو": 5053,
      "وٺندو": 5054,
      "گهڻائي": 5055,
      "رحمت": 5056,
      "جارجيا": 5057,
      "اشاعت": 5058,
      "فه": 5059,
      "چؤ": 5060,
      "ائينديون": 5061,
      "زمروع": 5062,
      "ڪاش": 5063,
      "سالار": 5064,
      "عرض": 5065,
      "عدد": 5066,
      "ننڍڙا": 5067,
      "مڪاني": 5068,
      "ڊڪشنريون": 5069,
      "ڪٽيريا": 5070,
      "ڪابه": 5071,
      "اسڪاٽلينڊ": 5072,
      "وهڪرو": 5073,
      "آلو": 5074,
      "تارو": 5075,
      "رتو": 5076,
      "هجرت": 5077,
      "ڳايو": 5078,
      "جاپاني": 5079,
      "پيٽر": 5080,
      "فيق": 5081,
      "ھڪڙو": 5082,
      "خيز": 5083,
      "قبائلي": 5084,
      "ڏاڙ": 5085,
      "منظوري": 5086,
      "هارون": 5087,
      "ٻھراڙيء": 5088,
      "اگ": 5089,
      "جامي": 5090,
      "پچ": 5091,
      "پڪي": 5092,
      "ڌري": 5093,
      "کلي": 5094,
      "فيل": 5095,
      "فرمان": 5096,
      "دانش": 5097,
      "موجودگي": 5098,
      "پروسي": 5099,
      "پڙهيو": 5100,
      "پيشاب": 5101,
      "اڏاو": 5102,
      "طبيعيات": 5103,
      "ڪينيڊا": 5104,
      "آيون": 5105,
      "جبر": 5106,
      "عم": 5107,
      "عين": 5108,
      "عقل": 5109,
      "ليون": 5110,
      "کانئس": 5111,
      "موتي": 5112,
      "صفائي": 5113,
      "خواب": 5114,
      "مهارت": 5115,
      "جھڙي": 5116,
      "دهشت": 5117,
      "عقيدت": 5118,
      "بم": 5119,
      "دني": 5120,
      "ساهه": 5121,
      "ڀان": 5122,
      "چاري": 5123,
      "سنئون": 5124,
      "رايا": 5125,
      "تناسب": 5126,
      "نظريا": 5127,
      "خاندانن": 5128,
      "سولو": 5129,
      "ننڊ": 5130,
      "ڪوٺيو": 5131,
      "بلتستان": 5132,
      ">.": 5133,
      "بڻي": 5134,
      "عمو": 5135,
      "ناصر": 5136,
      "يمن": 5137,
      "پيئر": 5138,
      "ويٺل": 5139,
      "پنڊي": 5140,
      "واڳ": 5141,
      "اميرن": 5142,
      "ٽوڙي": 5143,
      "حڪومتن": 5144,
      "ٺاهيل": 5145,
      "جمهوريت": 5146,
      "سجاول": 5147,
      "انفرادي": 5148,
      "آصف": 5149,
      "٪<": 5150,
      "ڇڏين": 5151,
      "جوش": 5152,
      "ليلي": 5153,
      "اسڪ": 5154,
      "درجا": 5155,
      "بلندي": 5156,
      "ميران": 5157,
      "ننڍيون": 5158,
      "گروھ": 5159,
      "ايٽم": 5160,
      "لاشاري": 5161,
      "پشتو": 5162,
      "پاڙيسري": 5163,
      "زبردست": 5164,
      "سڪا": 5165,
      "نيون": 5166,
      "جيون": 5167,
      "ادم": 5168,
      "باقاعد": 5169,
      "ترخان": 5170,
      "پنهنجون": 5171,
      "ائنڊ": 5172,
      "عيسائيت": 5173,
      "آرڪيالاجي": 5174,
      "رانديگر": 5175,
      "خطرناڪ": 5176,
      "سڱ": 5177,
      "قصو": 5178,
      "پڪو": 5179,
      "کھ": 5180,
      "برصغير": 5181,
      "مدني": 5182,
      "علماء": 5183,
      "سوڊان": 5184,
      "ناز": 5185,
      "ڀرپاسي": 5186,
      "مهمان": 5187,
      "گولي": 5188,
      "مذهبن": 5189,
      "اونهاري": 5190,
      "عهدن": 5191,
      "مھيني": 5192,
      "ٻاهران": 5193,
      "بيماريء": 5194,
      "بنگالي": 5195,
      "صلاحڪار": 5196,
      "ٽرانسپورٽ": 5197,
      "فروغ": 5198,
      "اسڪالر": 5199,
      "صارف": 5200,
      "قلندر": 5201,
      "نڪرڻ": 5202,
      "ٺهر": 5203,
      "ڏياري": 5204,
      "گئ": 5205,
      "ڪنارن": 5206,
      "مرشد": 5207,
      "ساھ": 5208,
      "ڪراري": 5209,
      "تبص": 5210,
      "خطرو": 5211,
      "باغي": 5212,
      "ڪپڙو": 5213,
      "جهنگلي": 5214,
      "ورھايل": 5215,
      "ايئرپورٽ": 5216,
      "عھدي": 5217,
      "سالياني": 5218,
      "طوفان": 5219,
      "بٽ": 5220,
      "تڪراري": 5221,
      "لارڊ": 5222,
      "ڍو": 5223,
      "الھ": 5224,
      "الوي": 5225,
      "رايل": 5226,
      "ويهين": 5227,
      "ويھين": 5228,
      "ويٺا": 5229,
      "بوري": 5230,
      "لنڊ": 5231,
      "آنلائين": 5232,
      "لکيائين": 5233,
      "سسئي": 5234,
      "فضا": 5235,
      "لاڏاڻو": 5236,
      "کوجنا": 5237,
      "اجا": 5238,
      "سخي": 5239,
      "ڌڪ": 5240,
      "ڪوھ": 5241,
      "موٽ": 5242,
      "واٽر": 5243,
      "پهچن": 5244,
      "سگهندو": 5245,
      "پروگرامن": 5246,
      "روزگار": 5247,
      "وٺندا": 5248,
      "جائز": 5249,
      "واسطي": 5250,
      "ترجمي": 5251,
      "لساني": 5252,
      "منصوره": 5253,
      "طلا": 5254,
      "ڀٽائي": 5255,
      "امرو": 5256,
      "سانچي": 5257,
      "قيمتي": 5258,
      "زمروگ": 5259,
      "شنگ": 5260,
      "علحده": 5261,
      "احسان": 5262,
      "حوالن": 5263,
      "ھونديون": 5264,
      "عبدالڪريم": 5265,
      "ڄيٺ": 5266,
      "گهٽجي": 5267,
      "حاڪمن": 5268,
      "محترم": 5269,
      "تبليغ": 5270,
      "نٽ": 5271,
      "راه": 5272,
      "نوح": 5273,
      "عبدالرحيم": 5274,
      "جرمنيء": 5275,
      "فاتح": 5276,
      "نارن": 5277,
      "وول": 5278,
      "انٽرو": 5279,
      "ديس": 5280,
      "هوت": 5281,
      "ھندڙ": 5282,
      "اترين": 5283,
      "زمروسنڌي": 5284,
      "گھرو": 5285,
      "تماڪ": 5286,
      "لفظي": 5287,
      "برابري": 5288,
      "تبديلين": 5289,
      "گھربل": 5290,
      "تقريب": 5291,
      "گرامر": 5292,
      "ڪمپنيء": 5293,
      "اخبارون": 5294,
      "نوجوانن": 5295,
      "عقيدو": 5296,
      "زمرورو": 5297,
      "ويٽنام": 5298,
      "بشير": 5299,
      "فص": 5300,
      "فال": 5301,
      "لڙائي": 5302,
      "مٿيون": 5303,
      "پائ": 5304,
      "گالي": 5305,
      "الرحمان": 5306,
      "جنڪشن": 5307,
      "الاول": 5308,
      "لکين": 5309,
      "رانديون": 5310,
      "زادو": 5311,
      "کاڌا": 5312,
      "مطالبو": 5313,
      "موسيقار": 5314,
      "صلح": 5315,
      "تجربي": 5316,
      "ساهتي": 5317,
      "آرڪائيو": 5318,
      "لهي": 5319,
      "نشر": 5320,
      "واه": 5321,
      "ٻڙ": 5322,
      "ڊڪ": 5323,
      "ڊون": 5324,
      "ڍل": 5325,
      "ھٿي": 5326,
      "تماد": 5327,
      "نظاماڻي": 5328,
      "نامياري": 5329,
      "سفيد": 5330,
      "پڇاڙيء": 5331,
      "تفصيلي": 5332,
      "رھڻ": 5333,
      "عڪ": 5334,
      "پسندي": 5335,
      "چاهيو": 5336,
      "جيمس": 5337,
      "لاڳي": 5338,
      "بيتن": 5339,
      "برون": 5340,
      "ڪيوٽو": 5341,
      "جهل": 5342,
      "معنا": 5343,
      "الوجي": 5344,
      "ڀرڻ": 5345,
      "اختي": 5346,
      "آرٽيڪل": 5347,
      "بخار": 5348,
      "ڪائونسلر": 5349,
      "جيتري": 5350,
      "نارٿ": 5351,
      "گجراتي": 5352,
      "زمروني": 5353,
      "چڱيء": 5354,
      "اوچتو": 5355,
      "معصوم": 5356,
      "آتش": 5357,
      "جھو": 5358,
      "مداخل": 5359,
      "پمينٽ": 5360,
      "جيم": 5361,
      "راوي": 5362,
      "بيريا": 5363,
      "نظرين": 5364,
      "صفا": 5365,
      "سگهيا": 5366,
      "طبعي": 5367,
      "جزوي": 5368,
      "مرحلي": 5369,
      "تدري": 5370,
      "تغل": 5371,
      "مؤر": 5372,
      "پرين": 5373,
      "ڪاڪ": 5374,
      "ميلي": 5375,
      "ميڪان": 5376,
      "جهڙن": 5377,
      "نوعيت": 5378,
      "معاھ": 5379,
      "مقالو": 5380,
      "پهتا": 5381,
      "تعلقن": 5382,
      "اھميت": 5383,
      "عدم": 5384,
      "لکو": 5385,
      "پھچي": 5386,
      "انسانيت": 5387,
      "ڪهڙو": 5388,
      "جهنگ": 5389,
      "رستا": 5390,
      "الطاف": 5391,
      "زياده": 5392,
      ".،<": 5393,
      "تلو": 5394,
      "شہ": 5395,
      "ـن": 5396,
      "ڀين": 5397,
      "انڊس": 5398,
      "بيٺ": 5399,
      "بيڪ": 5400,
      "پيئي": 5401,
      "پرور": 5402,
      "احترام": 5403,
      "ساخت": 5404,
      "وغيرہ": 5405,
      "سونهن": 5406,
      "اعتماد": 5407,
      "زه": 5408,
      "شراب": 5409,
      "مام": 5410,
      "نب": 5411,
      "انجمن": 5412,
      "هير": 5413,
      "هول": 5414,
      "بيمار": 5415,
      "بيٺو": 5416,
      "ايسوسيئيشن": 5417,
      "پنڊ": 5418,
      "بهاول": 5419,
      "ڪاپي": 5420,
      "سلر": 5421,
      "چوٽيء": 5422,
      "چوندو": 5423,
      "خوان": 5424,
      "فارميشن": 5425,
      "جلدي": 5426,
      "عبدالعزيز": 5427,
      "عبدالقادر": 5428,
      "بھتر": 5429,
      "تفسير": 5430,
      "ماستر": 5431,
      "اطالوي": 5432,
      "دراصل": 5433,
      "سفارتي": 5434,
      "بصري": 5435,
      "خطن": 5436,
      "رٿا": 5437,
      "مٺو": 5438,
      "مڊل": 5439,
      "نئ": 5440,
      "نفر": 5441,
      "وم": 5442,
      "يتا": 5443,
      "ٿڌ": 5444,
      "ڊرن": 5445,
      "ڦٽن": 5446,
      "کہ": 5447,
      "ڪبير": 5448,
      "گھي": 5449,
      "جوهي": 5450,
      "سرائڪي": 5451,
      "باقاعدي": 5452,
      "مرضي": 5453,
      "خودڪار": 5454,
      "رستن": 5455,
      "مهرباني": 5456,
      "مزاحمت": 5457,
      "چنيسر": 5458,
      "تڙ": 5459,
      "جرا": 5460,
      "حام": 5461,
      "وجهن": 5462,
      "ٹي": 5463,
      "ڌرين": 5464,
      "کپي": 5465,
      "ڳڙھ": 5466,
      "البت": 5467,
      "روپيا": 5468,
      "ماھ": 5469,
      "علمن": 5470,
      "بادشاهي": 5471,
      "وڃائي": 5472,
      "گهڻيون": 5473,
      "دفعي": 5474,
      "آبپا": 5475,
      "ڪلاسيڪي": 5476,
      "مداخلت": 5477,
      "آک": 5478,
      "زائ": 5479,
      "سامي": 5480,
      "لهر": 5481,
      "ڇڏيندو": 5482,
      "يوم": 5483,
      "روان": 5484,
      "داغ": 5485,
      "پناهه": 5486,
      "واء": 5487,
      "جهازن": 5488,
      "ڪلڪ": 5489,
      "سمجھي": 5490,
      "قوميت": 5491,
      "رهاڪن": 5492,
      "فوٽو": 5493,
      "ضلع": 5494,
      "ساٿ": 5495,
      "جنگين": 5496,
      "طبع": 5497,
      "قانونن": 5498,
      "سڏجڻ": 5499,
      "قدامت": 5500,
      "نياڻي": 5501,
      "خارجي": 5502,
      "مهرچند": 5503,
      "حملا": 5504,
      "سڪون": 5505,
      "صال": 5506,
      "ٽئ": 5507,
      "پئس": 5508,
      "ڄاتل": 5509,
      "هيري": 5510,
      "راهه": 5511,
      "لوهه": 5512,
      "فيڪل": 5513,
      "بلڪه": 5514,
      "بادشاهن": 5515,
      "ٻيلن": 5516,
      "سادي": 5517,
      "ڀرائي": 5518,
      "سانچوڄاڻخانو": 5519,
      "ڪاريء": 5520,
      "هلڻ": 5521,
      "بالغ": 5522,
      "چمڙي": 5523,
      "ذخيرو": 5524,
      "ضا": 5525,
      "لپي": 5526,
      "پتي": 5527,
      "ڀل": 5528,
      "ليڪ": 5529,
      "ايجن": 5530,
      "بنائي": 5531,
      "رابطو": 5532,
      "چاندي": 5533,
      "رھندو": 5534,
      "عقيدن": 5535,
      "برفاني": 5536,
      "باه": 5537,
      "بائيو": 5538,
      "تائن": 5539,
      "ٻرندڙ": 5540,
      "ٽڪي": 5541,
      "هنگ": 5542,
      "ائز": 5543,
      "اردن": 5544,
      "واڌاري": 5545,
      "بنائڻ": 5546,
      "اصح": 5547,
      "دارو": 5548,
      "ائنٽ": 5549,
      "مينيا": 5550,
      "سببن": 5551,
      "جانشين": 5552,
      "خلص": 5553,
      "اڪيلو": 5554,
      "تصويرن": 5555,
      "ٽائيم": 5556,
      "حياتيء": 5557,
      "جوڙيو": 5558,
      "جدول": 5559,
      "پختونخوا": 5560,
      "ٽڪريء": 5561,
      "....<": 5562,
      "اڇا": 5563,
      "فخر": 5564,
      "وڊ": 5565,
      "ڀور": 5566,
      "ھمي": 5567,
      "اوڀ": 5568,
      "سومري": 5569,
      "نوري": 5570,
      "نازل": 5571,
      "خوف": 5572,
      "مهارا": 5573,
      "گوادر": 5574,
      "شهادت": 5575,
      "ليکڪن": 5576,
      "چانسلر": 5577,
      "اڍائي": 5578,
      "ثير": 5579,
      "ٿاڻو": 5580,
      "انيا": 5581,
      "ائتي": 5582,
      "ميڪ": 5583,
      "تعمي": 5584,
      "ھڪڙي": 5585,
      "سڀا": 5586,
      "فوٽن": 5587,
      "حاضر": 5588,
      "اخذ": 5589,
      "نمونا": 5590,
      "ماحوليات": 5591,
      "ڪاروباري": 5592,
      "ڪلهوڙي": 5593,
      "ٺٽوي": 5594,
      "سڳورن": 5595,
      "باڪس": 5596,
      "طلاق": 5597,
      "حض": 5598,
      "فزي": 5599,
      "وڪال": 5600,
      "ٽرا": 5601,
      "ڳر": 5602,
      "ماٿري": 5603,
      "سومرا": 5604,
      "مقبو": 5605,
      "پليڪس": 5606,
      "بلاول": 5607,
      "سهول": 5608,
      "پورچوگي": 5609,
      "ناليو": 5610,
      "زلزلي": 5611,
      "فاطمه": 5612,
      "ٿولڪ": 5613,
      "وڪالت": 5614,
      "جڙي": 5615,
      "دٻ": 5616,
      "زوري": 5617,
      "صه": 5618,
      "ظر": 5619,
      "مادري": 5620,
      "نارا": 5621,
      "ڀائر": 5622,
      "ھجن": 5623,
      "ارباب": 5624,
      "لاکو": 5625,
      "پيس": 5626,
      "ڊيگھ": 5627,
      "ڪارل": 5628,
      "پهتي": 5629,
      "تبار": 5630,
      "ٻڌمت": 5631,
      "واپسي": 5632,
      "اريندا": 5633,
      "نتيجا": 5634,
      "خودمخ": 5635,
      "دستور": 5636,
      "اڏام": 5637,
      "ميزباني": 5638,
      "لطف": 5639,
      "حملن": 5640,
      "سهڻ": 5641,
      "فيا": 5642,
      "فارو": 5643,
      "ميا": 5644,
      "ڦڦ": 5645,
      "ڪثر": 5646,
      "ھز": 5647,
      "امار": 5648,
      "ٽيسٽ": 5649,
      "موٽر": 5650,
      "ملير": 5651,
      "مصروف": 5652,
      "افتتاح": 5653,
      "بلاڪ": 5654,
      "اداڪارا": 5655,
      "نڪرندو": 5656,
      "بشمول": 5657,
      "اڄڪلهه": 5658,
      "دب": 5659,
      "نث": 5660,
      "ولاد": 5661,
      "چٽ": 5662,
      "ڪٿ": 5663,
      "گهن": 5664,
      "گوا": 5665,
      "ايري": 5666,
      "ماڙي": 5667,
      "الاهي": 5668,
      "سبز": 5669,
      "فريئر": 5670,
      "ڇڏيائين": 5671,
      "اسٽار": 5672,
      "سردارن": 5673,
      "ردعمل": 5674,
      "وفاق": 5675,
      "اٿي": 5676,
      "تلاء": 5677,
      "تخلص": 5678,
      "زڪام": 5679,
      "ڳائي": 5680,
      "ڪنڊن": 5681,
      "اليه": 5682,
      "مرمت": 5683,
      "اوز": 5684,
      "ناياب": 5685,
      "ٻيلو": 5686,
      "ڀرڳڙي": 5687,
      "براعظم": 5688,
      "فنڊ": 5689,
      "شهباز": 5690,
      "وڌيو": 5691,
      "لينڊز": 5692,
      "نمونن": 5693,
      "سنڀالي": 5694,
      "آڻيندا": 5695,
      "نڪرندڙ": 5696,
      "ڪيولر": 5697,
      "گزيب": 5698,
      "ٽيڪسٽ": 5699,
      "يهودي": 5700,
      "باس": 5701,
      "تلاش": 5702,
      "نائين": 5703,
      "هالا": 5704,
      "يق": 5705,
      "ڍن": 5706,
      "ڪاهه": 5707,
      "ڱڻ": 5708,
      "راشد": 5709,
      "زمرووڪي": 5710,
      "ناٿ": 5711,
      "تعلقا": 5712,
      "اختياري": 5713,
      "فارمن": 5714,
      "گنڊا": 5715,
      "ابوبڪر": 5716,
      "اعتبار": 5717,
      "سفير": 5718,
      "تجربن": 5719,
      "صلاحيتن": 5720,
      "ناميارو": 5721,
      "پئسفڪ": 5722,
      "ازا": 5723,
      "بدار": 5724,
      "سلوڪ": 5725,
      "ظاهري": 5726,
      "چڱ": 5727,
      "راڳي": 5728,
      "ميداني": 5729,
      "پوکڻ": 5730,
      "نيپ": 5731,
      "گهڙي": 5732,
      "ڊيمي": 5733,
      "صفح": 5734,
      "ڪرايا": 5735,
      "ميٽرڪ": 5736,
      "دستخط": 5737,
      "ابوذر": 5738,
      "ڊينمارڪ": 5739,
      "گهوڙي": 5740,
      "نشانيون": 5741,
      "ڊائري": 5742,
      "ڳاڙهو": 5743,
      "ملهايو": 5744,
      "اورنگزيب": 5745,
      "سهڪار": 5746,
      "زيو": 5747,
      "ماڪ": 5748,
      "ٿور": 5749,
      "سنوار": 5750,
      "جات": 5751,
      "اترا": 5752,
      "ڪاغذ": 5753,
      "فرسٽ": 5754,
      "مسعو": 5755,
      "قائد": 5756,
      "قاز": 5757,
      "جينياتي": 5758,
      "معاش": 5759,
      "عهدو": 5760,
      "روايتون": 5761,
      "نصاب": 5762,
      "غربت": 5763,
      "خشڪي": 5764,
      "نفسيات": 5765,
      "پروڊيوسر": 5766,
      "رڪاوٽ": 5767,
      "بقا": 5768,
      "خطري": 5769,
      "طل": 5770,
      "فعل": 5771,
      "لان": 5772,
      "همع": 5773,
      "ڀريو": 5774,
      "ڦاٽ": 5775,
      "کري": 5776,
      "گد": 5777,
      "ميسو": 5778,
      "بيري": 5779,
      "ايما": 5780,
      "موسمي": 5781,
      "مليون": 5782,
      "نيرو": 5783,
      "چونڊي": 5784,
      "قرباني": 5785,
      "ٻڌو": 5786,
      "خاتون": 5787,
      "دلچسپ": 5788,
      "رويي": 5789,
      "منجهس": 5790,
      "مقبوليت": 5791,
      "آھ": 5792,
      "توازن": 5793,
      "سچي": 5794,
      "شديد": 5795,
      "صہ": 5796,
      "عون": 5797,
      "غار": 5798,
      "ڍڪيل": 5799,
      "کيو": 5800,
      "ڪئين": 5801,
      "هيس": 5802,
      "ليڊر": 5803,
      "ڪيٿولڪ": 5804,
      "ٽيئر": 5805,
      "نيء": 5806,
      "سرحدن": 5807,
      "مدت": 5808,
      "حيدري": 5809,
      "قربان": 5810,
      "ٻارهن": 5811,
      "شاهجهان": 5812,
      "مستحڪم": 5813,
      "عهد": 5814,
      "قبرون": 5815,
      "ڍنڍون": 5816,
      "طبيعت": 5817,
      "هلندي": 5818,
      "معاملي": 5819,
      "ربيع": 5820,
      "اسپيڪر": 5821,
      "مزاج": 5822,
      "ڪانگو": 5823,
      "تباهي": 5824,
      "شمش": 5825,
      "ندين": 5826,
      "وهندو": 5827,
      "ڏٺ": 5828,
      "ڪهڪ": 5829,
      "انفارميشن": 5830,
      "ليس": 5831,
      "جناب": 5832,
      "هوس": 5833,
      "بيهڪ": 5834,
      "ڪاوش": 5835,
      "اليگزين": 5836,
      "چوري": 5837,
      "فوجين": 5838,
      "ٻيلا": 5839,
      "گاهن": 5840,
      "گاپور": 5841,
      "ڀاڄ": 5842,
      "خبرون": 5843,
      "ڍنڍن": 5844,
      "ورھاست": 5845,
      "امتياز": 5846,
      "يعقوب": 5847,
      "ولادت": 5848,
      "بع": 5849,
      "تباھ": 5850,
      "سڻ": 5851,
      "سست": 5852,
      "ٽامي": 5853,
      "يول": 5854,
      "ارس": 5855,
      "بيهي": 5856,
      "محرم": 5857,
      "گرائونڊ": 5858,
      "گھرن": 5859,
      "بدلائي": 5860,
      "وڪيپيڊياچونڊ": 5861,
      "صحاف": 5862,
      "شعبا": 5863,
      "ڪردارن": 5864,
      "اجت": 5865,
      "سجاد": 5866,
      "ٻاڦ": 5867,
      "طبيعي": 5868,
      "سينيٽ": 5869,
      "ميرپورخاص": 5870,
      "بائ": 5871,
      "راس": 5872,
      "چال": 5873,
      "اديات": 5874,
      "يونائي": 5875,
      "خانه": 5876,
      "اڳئين": 5877,
      "اينديون": 5878,
      "مساو": 5879,
      "ڄاڻو": 5880,
      "پلان": 5881,
      "ڪامل": 5882,
      "ڪلاڪن": 5883,
      "آڪسفورڊ": 5884,
      "اجتماعي": 5885,
      "تڏھن": 5886,
      "جلو": 5887,
      "خذ": 5888,
      "سڌار": 5889,
      "وبا": 5890,
      "يز": 5891,
      "ڀاڳ": 5892,
      "ڊائي": 5893,
      "کاڻ": 5894,
      "رابرٽ": 5895,
      "ايگزي": 5896,
      "ٿيٽر": 5897,
      "پيروي": 5898,
      "ٽيهه": 5899,
      "پارسي": 5900,
      "ٻيڙي": 5901,
      "مينار": 5902,
      "لينڊر": 5903,
      "ڇاپا": 5904,
      "مددگار": 5905,
      "نيوٽن": 5906,
      "دروازا": 5907,
      "نياز": 5908,
      "پارلياماني": 5909,
      "اقتصاديات": 5910,
      "قطار": 5911,
      "عضون": 5912,
      "راولپنڊي": 5913,
      "همايون": 5914,
      "يونائيٽيڊ": 5915,
      "رز": 5916,
      "غزن": 5917,
      "چرا": 5918,
      "ڊرا": 5919,
      "ڪڇي": 5920,
      "سانگي": 5921,
      "ڪاف": 5922,
      "ڪاهي": 5923,
      "رهجي": 5924,
      "آرمينيا": 5925,
      "پاڙو": 5926,
      "پھريان": 5927,
      "ٻهرا": 5928,
      "رکيائين": 5929,
      "غلطي": 5930,
      "ڪنگڊم": 5931,
      "ذميداري": 5932,
      "نوآبادياتي": 5933,
      "ٿامس": 5934,
      "قادري": 5935,
      "همت": 5936,
      "ڏجن": 5937,
      "ڦٽي": 5938,
      "گيون": 5939,
      "گڏي": 5940,
      "ديسي": 5941,
      "ڪيپ": 5942,
      "ڪنڌ": 5943,
      "ملت": 5944,
      "ائينا": 5945,
      "پولينڊ": 5946,
      "بنان": 5947,
      "خوشيء": 5948,
      "وڪيپي": 5949,
      "ڪيترو": 5950,
      "فنڪارن": 5951,
      "سگهڙ": 5952,
      "عربيء": 5953,
      "اسٽالن": 5954,
      "بليڪ": 5955,
      "گانڌي": 5956,
      "نفسياتي": 5957,
      "گريجوئيشن": 5958,
      "انٽرويو": 5959,
      "آچر": 5960,
      "سڊ": 5961,
      "ٺھڻ": 5962,
      "پائونڊ": 5963,
      "ھال": 5964,
      "ريج": 5965,
      "الاسلام": 5966,
      "ائتا": 5967,
      "رول": 5968,
      "جنسون": 5969,
      "ويڪرائي": 5970,
      "سرحدي": 5971,
      "مارئي": 5972,
      "گھري": 5973,
      "پنھنجا": 5974,
      "ڊوڙ": 5975,
      "اسماعيلي": 5976,
      "تخليقي": 5977,
      "ڳولڻ": 5978,
      "وڪٽو": 5979,
      "ڪوئيٽا": 5980,
      "کوليو": 5981,
      "ڀاڱن": 5982,
      "رومانوي": 5983,
      "چترال": 5984,
      "ڊيموڪريٽڪ": 5985,
      "مصنوعي": 5986,
      "باقاعده": 5987,
      "تغلق": 5988,
      "پرورش": 5989,
      "تالي": 5990,
      "خادم": 5991,
      "داڻا": 5992,
      "نائون": 5993,
      "ڊائن": 5994,
      "گدو": 5995,
      "ايک": 5996,
      "مره": 5997,
      "زيب": 5998,
      "وارھ": 5999,
      "مشغ": 6000,
      "گيٽ": 6001,
      "لڳاتار": 6002,
      "وٽامن": 6003,
      "لينن": 6004,
      "کوهه": 6005,
      "بروھي": 6006,
      "تجرباتي": 6007,
      "ويبسائيٽ": 6008,
      "رسمون": 6009,
      "ڪئنال": 6010,
      "پيچيده": 6011,
      "اشرف": 6012,
      "بچيل": 6013,
      "رليز": 6014,
      "ساو": 6015,
      "علوم": 6016,
      "عمرو": 6017,
      "ڪڪڙ": 6018,
      "انوي": 6019,
      "روڪي": 6020,
      "اريا": 6021,
      "بيء": 6022,
      "ايريا": 6023,
      "منڇر": 6024,
      "مولو": 6025,
      "زرخيز": 6026,
      "ديوتائن": 6027,
      "مسجدون": 6028,
      "بندش": 6029,
      "انٽم": 6030,
      "عبيد": 6031,
      "حيوان": 6032,
      "حامد": 6033,
      "دفت": 6034,
      "ضاد": 6035,
      "لٿو": 6036,
      "ٰي": 6037,
      "ٻانهن": 6038,
      "ايجنسي": 6039,
      "ماهي": 6040,
      "اصلات": 6041,
      "گردي": 6042,
      "خانگي": 6043,
      "گيتا": 6044,
      "رسائي": 6045,
      "ڀرتي": 6046,
      "مهاڀ": 6047,
      "اسٽاڪ": 6048,
      "ذاتين": 6049,
      "طبيب": 6050,
      "آساني": 6051,
      "اطلاع": 6052,
      "هئائين": 6053,
      "سھولت": 6054,
      "ترجيح": 6055,
      "تور": 6056,
      "حجاز": 6057,
      "درين": 6058,
      "سڪل": 6059,
      "لالو": 6060,
      "ٺٽو": 6061,
      "گوئي": 6062,
      "پيرس": 6063,
      "برداشت": 6064,
      "پوٽا": 6065,
      "باق": 6066,
      "مردان": 6067,
      "جهانگير": 6068,
      "ترت": 6069,
      "ترق": 6070,
      "ڪمار": 6071,
      "فرقي": 6072,
      "لڳڻ": 6073,
      "آندا": 6074,
      "رھندا": 6075,
      "ڏکيو": 6076,
      "تفريح": 6077,
      "ھدايت": 6078,
      "ڪثرت": 6079,
      "بارو": 6080,
      "خامو": 6081,
      "عارف": 6082,
      "مھا": 6083,
      "واڻي": 6084,
      "پاري": 6085,
      "پاڳ": 6086,
      "ينڊ": 6087,
      "جوڙيل": 6088,
      "ابڙي": 6089,
      "زمري": 6090,
      "بناو": 6091,
      "تنقيدي": 6092,
      "اوچو": 6093,
      "ڊيٽ": 6094,
      "اناج": 6095,
      "اروڙ": 6096,
      "آندي": 6097,
      "پھتو": 6098,
      "صنفن": 6099,
      "گنگا": 6100,
      "هليا": 6101,
      "شعبو": 6102,
      "چيئرمئن": 6103,
      "ڊيزائن": 6104,
      "رھائش": 6105,
      "مظاهرو": 6106,
      "جزا": 6107,
      "ذه": 6108,
      "سکي": 6109,
      "صاب": 6110,
      "لٽ": 6111,
      "وهن": 6112,
      "ٻير": 6113,
      "ڪعبي": 6114,
      "گوار": 6115,
      "ھوا": 6116,
      "جيٽل": 6117,
      "روضي": 6118,
      "ڪوانٽم": 6119,
      "ائيز": 6120,
      "مولا": 6121,
      "زمرومال": 6122,
      "زمرويورپ": 6123,
      "سلط": 6124,
      "بازن": 6125,
      "رنگين": 6126,
      "ڪيمپس": 6127,
      "پوندا": 6128,
      "معاملا": 6129,
      "رسالومهراڻ": 6130,
      "گلوبل": 6131,
      "معاهدو": 6132,
      "هفتي": 6133,
      "ڊگھائي": 6134,
      "بچڻ": 6135,
      "جرو": 6136,
      "عاد": 6137,
      "ٽڪرن": 6138,
      "ڏسندي": 6139,
      "گانا": 6140,
      "سنگيت": 6141,
      "ميجر": 6142,
      "اباڻي": 6143,
      "باگو": 6144,
      "سوٽو": 6145,
      "معت": 6146,
      "ناهن": 6147,
      "ٺيڪ": 6148,
      "گذر": 6149,
      "ڪرنڊ": 6150,
      "هيلٿ": 6151,
      "مائل": 6152,
      "خالق": 6153,
      "زمرور": 6154,
      "ٿلهي": 6155,
      "پهچائڻ": 6156,
      "مشاهدو": 6157,
      "مزاحي": 6158,
      "ائٽلانٽڪ": 6159,
      "آبپاشي": 6160,
      "يقيني": 6161,
      "جزو": 6162,
      "فائن": 6163,
      "السنڌ": 6164,
      "ابد": 6165,
      "ڪوبہ": 6166,
      "ويڪ": 6167,
      "زمرواتر": 6168,
      "ماٿ": 6169,
      "جهلي": 6170,
      "دانشور": 6171,
      "آفتاب": 6172,
      "شريعت": 6173,
      "پڙهيل": 6174,
      "بحالي": 6175,
      "النساء": 6176,
      "گروپن": 6177,
      "واپارين": 6178,
      "خليل": 6179,
      "چانهه": 6180,
      "مزدور": 6181,
      "اڪيلي": 6182,
      "اثرن": 6183,
      "ئرن": 6184,
      "جھر": 6185,
      "سٿ": 6186,
      "سورت": 6187,
      "سڪرنڊ": 6188,
      "قاتي": 6189,
      "مڪان": 6190,
      "ڙڪ": 6191,
      "جوهر": 6192,
      "سانگهڙ": 6193,
      "اهڃاڻ": 6194,
      "پولين": 6195,
      "ڪتا": 6196,
      "ڪاربن": 6197,
      "توکي": 6198,
      "ٺيء": 6199,
      "گراف": 6200,
      "چانديء": 6201,
      "لائبر": 6202,
      "تھذيب": 6203,
      "سپاهي": 6204,
      "مجيب": 6205,
      "پندرهن": 6206,
      "گنجائش": 6207,
      "آرا": 6208,
      "آله": 6209,
      "آريا": 6210,
      "ئت": 6211,
      "اڪري": 6212,
      "بط": 6213,
      "دهي": 6214,
      "هئس": 6215,
      "ٻڪري": 6216,
      "پايو": 6217,
      "ڪورس": 6218,
      "لاڻي": 6219,
      "منگي": 6220,
      "لوب": 6221,
      "ڪاوڙ": 6222,
      "نيڪال": 6223,
      "چوڌري": 6224,
      "ازبڪ": 6225,
      "آفيسرن": 6226,
      "نگران": 6227,
      "جوڙڻ": 6228,
      "شدت": 6229,
      "اليڪٽرڪ": 6230,
      "نفرت": 6231,
      "خودمختياري": 6232,
      "اهن": 6233,
      "اپر": 6234,
      "جشن": 6235,
      "ضن": 6236,
      "لاڙو": 6237,
      "خانبهادر": 6238,
      "ذريعا": 6239,
      "يورپين": 6240,
      "ڪرنسي": 6241,
      "ڀيرومل": 6242,
      "صنعتن": 6243,
      "ڪاميٽيء": 6244,
      "آني": 6245,
      "اھن": 6246,
      "جئين": 6247,
      "حالي": 6248,
      "عادت": 6249,
      "ٺار": 6250,
      "ٽڪن": 6251,
      "چلي": 6252,
      "جاکوڙ": 6253,
      "ڪنوين": 6254,
      "ٽرز": 6255,
      "ترجما": 6256,
      "اھڙا": 6257,
      "بابر": 6258,
      "قائدا": 6259,
      "گاڏين": 6260,
      "پريفي": 6261,
      "دريائن": 6262,
      "زرداري": 6263,
      "ڏاکڻ": 6264,
      "عمران": 6265,
      "چرپر": 6266,
      "ساڳيء": 6267,
      "مفادن": 6268,
      "مڃڻ": 6269,
      "رائل": 6270,
      "دراو": 6271,
      "موليت": 6272,
      "سهولت": 6273,
      "جمھوري": 6274,
      "اسڪرپٽ": 6275,
      "وحدت": 6276,
      "جڙ": 6277,
      "خطا": 6278,
      "ضمير": 6279,
      "ٺاهه": 6280,
      "چادر": 6281,
      "کسي": 6282,
      "ائتو": 6283,
      "ائنا": 6284,
      "سنواري": 6285,
      "اهڙين": 6286,
      "ستارن": 6287,
      "پرچار": 6288,
      "سرمست": 6289,
      "جهاد": 6290,
      "سمج": 6291,
      "پريشان": 6292,
      "سگهون": 6293,
      "کاڌ": 6294,
      "نامياتي": 6295,
      "مائٽن": 6296,
      "ناروي": 6297,
      "محققن": 6298,
      "ڊبليو": 6299,
      "فصلن": 6300,
      "آهين": 6301,
      "شموليت": 6302,
      "وہ": 6303,
      "چپ": 6304,
      "ڊچ": 6305,
      "هيار": 6306,
      "الأ": 6307,
      "ميڊل": 6308,
      "سيڙ": 6309,
      "ايپلي": 6310,
      "ڪريٽ": 6311,
      "پنا": 6312,
      "مرون": 6313,
      "والده": 6314,
      "پھچ": 6315,
      "شهزادي": 6316,
      "گذارڻ": 6317,
      "شعري": 6318,
      "حرارت": 6319,
      "باغن": 6320,
      "ٽيوب": 6321,
      "بندرگاھ": 6322,
      "ڪميوني": 6323,
      "لکندو": 6324,
      "ولوجسٽ": 6325,
      "سياحتي": 6326,
      "جائي": 6327,
      "خرا": 6328,
      "رزاق": 6329,
      "مؤ": 6330,
      "ائب": 6331,
      "ديه": 6332,
      "ويهاري": 6333,
      "گهار": 6334,
      "مشورو": 6335,
      "گيري": 6336,
      "فتيوار": 6337,
      "جمعي": 6338,
      "مثالي": 6339,
      "خطو": 6340,
      "لغوي": 6341,
      "ميوي": 6342,
      "حرام": 6343,
      "جهنڊو": 6344,
      "تجربا": 6345,
      "نسخو": 6346,
      "ساهت": 6347,
      "ترجمان": 6348,
      "ماضيء": 6349,
      "شاهنواز": 6350,
      "پورچوگال": 6351,
      "گيلري": 6352,
      "پرنسپال": 6353,
      "آرگنائيزيشن": 6354,
      "نافذ": 6355,
      "تسلط": 6356,
      "سٺا": 6357,
      "صفر": 6358,
      "نجي": 6359,
      "يزيد": 6360,
      "ٻاھ": 6361,
      "چه": 6362,
      "ڌڻ": 6363,
      "کڏ": 6364,
      "الملڪ": 6365,
      "امري": 6366,
      "ميرا": 6367,
      "ايلي": 6368,
      "ڪرڻي": 6369,
      "زمرول": 6370,
      "چيڪ": 6371,
      "دنگ": 6372,
      "اهوئي": 6373,
      "حاض": 6374,
      "سائنسز": 6375,
      "نتيجن": 6376,
      "گولڊ": 6377,
      "ڪمپنين": 6378,
      "تھھ": 6379,
      "انڊسٽري": 6380,
      "ساليانو": 6381,
      "حيرت": 6382,
      "عڪاسي": 6383,
      "آڇ": 6384,
      "اجر": 6385,
      "وسندي": 6386,
      "ڄائي": 6387,
      "ونڊ": 6388,
      "روپي": 6389,
      "ميٽڪ": 6390,
      "ڪنن": 6391,
      "ويھ": 6392,
      "مناف": 6393,
      "سرڪل": 6394,
      "ڪيتري": 6395,
      "پاٽ": 6396,
      "شهرين": 6397,
      "ڀيل": 6398,
      "ڪوٽڙي": 6399,
      "اولھه": 6400,
      "وائس": 6401,
      "پاليسين": 6402,
      "هزارن": 6403,
      "ٻرڙو": 6404,
      "مشاهدي": 6405,
      "ڳائڻي": 6406,
      "اسرار": 6407,
      "آھستي": 6408,
      "ايگزيڪيوٽو": 6409,
      "بالي": 6410,
      "حسام": 6411,
      "دہ": 6412,
      "فيو": 6413,
      "يہ": 6414,
      "يحي": 6415,
      "ٻٻر": 6416,
      "پائڻ": 6417,
      "انب": 6418,
      "هيئن": 6419,
      "جور": 6420,
      "سنيا": 6421,
      "راڪ": 6422,
      "ايٿو": 6423,
      "پيشي": 6424,
      "محب": 6425,
      "سٽون": 6426,
      "شيئر": 6427,
      "گھاٽ": 6428,
      "ساڍا": 6429,
      "سگھو": 6430,
      "ورنگي": 6431,
      "پريزي": 6432,
      "فنگس": 6433,
      "شاھه": 6434,
      "هيٺئين": 6435,
      "مثنوي": 6436,
      "ثقافتن": 6437,
      "وڻندڙ": 6438,
      "ڪينيا": 6439,
      "طبقاتي": 6440,
      "فائز": 6441,
      "نشانو": 6442,
      "وراث": 6443,
      "مرحلن": 6444,
      "ميونسپال": 6445,
      "ڊولپمينٽ": 6446,
      "اليگزينڊر": 6447,
      "ايپليڪيشن": 6448,
      "جزن": 6449,
      "سرا": 6450,
      "گفت": 6451,
      "جوز": 6452,
      "ارتق": 6453,
      "روڊن": 6454,
      "لاگ": 6455,
      "رازي": 6456,
      "ڪوڙي": 6457,
      "برآمد": 6458,
      "ڏيهي": 6459,
      "باگ": 6460,
      "محراب": 6461,
      "ائونٽ": 6462,
      "پيداواري": 6463,
      "ڀاڄي": 6464,
      "فريم": 6465,
      "مرادو": 6466,
      "ڪليڪٽر": 6467,
      "منتظ": 6468,
      "ميدانن": 6469,
      "مٽاسٽا": 6470,
      "مھينو": 6471,
      "اقليت": 6472,
      "ٽيڪنيڪل": 6473,
      "پنجاهه": 6474,
      "ذائقي": 6475,
      "دارومدار": 6476,
      "پريفيڪچر": 6477,
      "تمدن": 6478,
      "زالن": 6479,
      "سارن": 6480,
      "ضمي": 6481,
      "يادگي": 6482,
      "اسپيش": 6483,
      "هوري": 6484,
      "منجھان": 6485,
      "تهذي": 6486,
      "برڪت": 6487,
      "ماخذ": 6488,
      "گهہ": 6489,
      "سوڄ": 6490,
      "گيرن": 6491,
      "بوڪ": 6492,
      "زنس": 6493,
      "ٻيڙين": 6494,
      "شوڪت": 6495,
      "رهنمائي": 6496,
      "آفريقي": 6497,
      "مغي": 6498,
      "دائرو": 6499,
      "جذب": 6500,
      "ڪارڪنن": 6501,
      "جادوگر": 6502,
      "تلوار": 6503,
      "حضور": 6504,
      "همعصر": 6505,
      "بمطابق": 6506,
      "تج": 6507,
      "تائيو": 6508,
      "رٽي": 6509,
      "رتن": 6510,
      "شھن": 6511,
      "والا": 6512,
      "پھر": 6513,
      "پسمن": 6514,
      "ڀريا": 6515,
      "کيا": 6516,
      "الغ": 6517,
      "اسٽين": 6518,
      "ايي": 6519,
      "ويلي": 6520,
      "منصوبا": 6521,
      "ماڇي": 6522,
      "فيع": 6523,
      "ٿيوري": 6524,
      "اڳڪٿي": 6525,
      "ننڍين": 6526,
      "آرميني": 6527,
      "سڏبا": 6528,
      "ڏسجي": 6529,
      "ويلز": 6530,
      "اظھار": 6531,
      "وڄائڻ": 6532,
      "سرگرميون": 6533,
      "رهواسي": 6534,
      "ارتقائي": 6535,
      "آهيو": 6536,
      "آڌار": 6537,
      "ثنا": 6538,
      "شف": 6539,
      "طالبان": 6540,
      "فڪري": 6541,
      "مدو": 6542,
      "مات": 6543,
      "مومن": 6544,
      "درآمد": 6545,
      "درگاھ": 6546,
      "سالع": 6547,
      "پورهي": 6548,
      "ٽولي": 6549,
      "ساک": 6550,
      "سبق": 6551,
      "پاء": 6552,
      "شهداد": 6553,
      "اسٽيل": 6554,
      "بينڪ": 6555,
      "ديوارن": 6556,
      "گنب": 6557,
      "نقوي": 6558,
      "معاويه": 6559,
      "ڏاڍا": 6560,
      "خوشحال": 6561,
      "ملوڪ": 6562,
      "تاجڪ": 6563,
      "ڳڻپ": 6564,
      "سوسائٽيء": 6565,
      "هٿيارن": 6566,
      "پرستيء": 6567,
      "بئراج": 6568,
      "افسانوي": 6569,
      "چشتي": 6570,
      "انڊيڪس": 6571,
      "اغ": 6572,
      "سيون": 6573,
      "طول": 6574,
      "کڙ": 6575,
      "ڪٽو": 6576,
      "گارن": 6577,
      "جنسن": 6578,
      "ويلا": 6579,
      "ويجه": 6580,
      "نيپال": 6581,
      "باح": 6582,
      "ڪلين": 6583,
      "زيه": 6584,
      "زيلينڊ": 6585,
      "لنڪ": 6586,
      "اينٽي": 6587,
      "حڪومتون": 6588,
      "ماريو": 6589,
      "نقاد": 6590,
      "وسيلا": 6591,
      "مراڪش": 6592,
      "مفتي": 6593,
      "نشاندهي": 6594,
      "داسين": 6595,
      "سپاهين": 6596,
      "وقتن": 6597,
      "ماليڪيولر": 6598,
      "لاڳيتو": 6599,
      "ڦڦڙن": 6600,
      "دفتري": 6601,
      "شڪاري": 6602,
      "لئي": 6603,
      "لانگ": 6604,
      "ماتا": 6605,
      "هاس": 6606,
      "وڍ": 6607,
      "پڳ": 6608,
      "ڏکي": 6609,
      "جيني": 6610,
      "ميگزين": 6611,
      "هوش": 6612,
      "ستون": 6613,
      "هڪجهڙائي": 6614,
      "موڙ": 6615,
      "پني": 6616,
      "ڪيورٽي": 6617,
      "فيٰ": 6618,
      "تنتي": 6619,
      "ڪتاڻ": 6620,
      "آرڊر": 6621,
      "قافي": 6622,
      "گهرائي": 6623,
      "ميانمار": 6624,
      "جمهوريا": 6625,
      "آئوٽ": 6626,
      "سڌارا": 6627,
      "ڀنڀور": 6628,
      "فلسطيني": 6629,
      "سائوٿ": 6630,
      "قابليت": 6631,
      "سرائيڪي": 6632,
      "معزز": 6633,
      "تائيوان": 6634,
      "پسمنظر": 6635,
      "آکي": 6636,
      "ترن": 6637,
      "حدگي": 6638,
      "كي": 6639,
      "وصي": 6640,
      "ٻڪريون": 6641,
      "ڄم": 6642,
      "ڇاڻ": 6643,
      "ڊجيٽل": 6644,
      "ڦٽ": 6645,
      "ڦٽل": 6646,
      "ڪٽري": 6647,
      "ريس": 6648,
      "الڪ": 6649,
      "ميزبان": 6650,
      "ڊيرا": 6651,
      "ملڪاڻي": 6652,
      "گوبند": 6653,
      "گهرجن": 6654,
      "وڌندو": 6655,
      "چارڻ": 6656,
      "گذريا": 6657,
      "اسلم": 6658,
      "سڃاتل": 6659,
      "اڀرندڙ": 6660,
      "ڪپڙن": 6661,
      "سگھيو": 6662,
      "شمارو": 6663,
      "مظهر": 6664,
      "خصوصيت": 6665,
      "مهاجر": 6666,
      "قابض": 6667,
      "ڍانچي": 6668,
      "رچنا": 6669,
      "ظفر": 6670,
      "قبا": 6671,
      "ٽڪرين": 6672,
      "پڄ": 6673,
      "ڪپور": 6674,
      "ھڙ": 6675,
      "لاڳ": 6676,
      "اهون": 6677,
      "زمرولي": 6678,
      "اوور": 6679,
      "ڪلر": 6680,
      "صومالي": 6681,
      "توسي": 6682,
      "فردن": 6683,
      "مسڪين": 6684,
      "مخزن": 6685,
      "ڊرل": 6686,
      "ڪٽس": 6687,
      "بحران": 6688,
      "اريندو": 6689,
      "اردوء": 6690,
      "سويڊن": 6691,
      "فقيرن": 6692,
      "فهرستون": 6693,
      "خاڪو": 6694,
      "ذميوار": 6695,
      "يھودين": 6696,
      "جسمن": 6697,
      "رپور": 6698,
      "غم": 6699,
      "نڀ": 6700,
      "وج": 6701,
      "وتي": 6702,
      "پخ": 6703,
      "چڪيون": 6704,
      "ڇڪتاڻ": 6705,
      "ائيون": 6706,
      "رويو": 6707,
      "ليه": 6708,
      "سيدن": 6709,
      "ٿيس": 6710,
      "درسي": 6711,
      "ولن": 6712,
      "حادي": 6713,
      "قنڌار": 6714,
      "سامھون": 6715,
      "انوالا": 6716,
      "بلوچن": 6717,
      "مکيہ": 6718,
      "پراڪرت": 6719,
      "مروج": 6720,
      "سنڀاليو": 6721,
      "اسرائيلي": 6722,
      "رواجي": 6723,
      "عبرت": 6724,
      "طارق": 6725,
      "سيڙپ": 6726,
      "آم": 6727,
      "ئٽ": 6728,
      "حجاج": 6729,
      "دؤ": 6730,
      "سعد": 6731,
      "سراج": 6732,
      "عمان": 6733,
      "فاس": 6734,
      "لون": 6735,
      "٬<": 6736,
      "ٿڌو": 6737,
      "ڀوري": 6738,
      "ڄمون": 6739,
      "اسڪرين": 6740,
      "ڪيفيت": 6741,
      "سانگ": 6742,
      "پيٽرو": 6743,
      "ڪمبو": 6744,
      "توحيد": 6745,
      "معرفت": 6746,
      "متفق": 6747,
      "ٻيڙيء": 6748,
      "چنگ": 6749,
      "بابل": 6750,
      "براء": 6751,
      "زرلينڊ": 6752,
      "ڊوميني": 6753,
      "انتخ": 6754,
      "ايسڊ": 6755,
      "ڳنڍي": 6756,
      "آسماني": 6757,
      "ترڪمان": 6758,
      "سفارش": 6759,
      "ڳالهائيندڙن": 6760,
      "گهريلو": 6761,
      "وابسته": 6762,
      "جاميٽري": 6763,
      "جبار": 6764,
      "سمر": 6765,
      "قس": 6766,
      "نک": 6767,
      "نڪي": 6768,
      "وڇو": 6769,
      "ڳري": 6770,
      "اسڪين": 6771,
      "سيٽل": 6772,
      "ڪرنگ": 6773,
      "ملهه": 6774,
      "وازي": 6775,
      "ڪلن": 6776,
      "مشاب": 6777,
      "شيم": 6778,
      "افلاط": 6779,
      "مونو": 6780,
      "تاريخن": 6781,
      "خواهه": 6782,
      "آرڪٽڪ": 6783,
      "آمريڪن": 6784,
      "نقطي": 6785,
      "راجستان": 6786,
      "مائٽ": 6787,
      "ٽريننگ": 6788,
      "ذخيرا": 6789,
      "تنھنڪري": 6790,
      "تجزيو": 6791,
      "فائيل": 6792,
      "مٿو": 6793,
      "مٺا": 6794,
      "ٺڪر": 6795,
      "ڊگه": 6796,
      "ڏڪار": 6797,
      "ڦه": 6798,
      "انہ": 6799,
      "الور": 6800,
      "ديھن": 6801,
      "پيري": 6802,
      "منڍ": 6803,
      "محروم": 6804,
      "محصول": 6805,
      "سٽڪ": 6806,
      "پارٽين": 6807,
      "مونٽ": 6808,
      "فوجون": 6809,
      "لڳندي": 6810,
      "سينگار": 6811,
      "قند": 6812,
      "مثبت": 6813,
      "نشانين": 6814,
      "پئسا": 6815,
      "ڳالھائيندڙ": 6816,
      "وڙهڻ": 6817,
      "ايڪسپريس": 6818,
      "پابند": 6819,
      "عدالتي": 6820,
      "ڪميونيڪيشن": 6821,
      "ئجي": 6822,
      "بچائي": 6823,
      "تين": 6824,
      "تامل": 6825,
      "جاس": 6826,
      "حفي": 6827,
      "سکڻ": 6828,
      "ايائون": 6829,
      "ڪنور": 6830,
      "پيج": 6831,
      "ويدن": 6832,
      "موزون": 6833,
      "انيڪ": 6834,
      "زنجي": 6835,
      "مالياتي": 6836,
      "سڀيتا": 6837,
      "کنيا": 6838,
      "اولم": 6839,
      "هينري": 6840,
      "اسڪوائر": 6841,
      "جنگيون": 6842,
      "گذرندڙ": 6843,
      "نيوي": 6844,
      "پئماني": 6845,
      "مئني": 6846,
      "ريگستاني": 6847,
      "ايڊورڊ": 6848,
      "ووڊ": 6849,
      "آذربائيجاني": 6850,
      "ڪلهوڙو": 6851,
      "بيلجيم": 6852,
      "آسانيء": 6853,
      "مسافرن": 6854,
      "ميونسپلٽي": 6855,
      "اندرين": 6856,
      "وشنو": 6857,
      "ايٿوپيا": 6858,
      "تس": 6859,
      "صديون": 6860,
      "هرن": 6861,
      "چاچي": 6862,
      "ريتي": 6863,
      "يوڪري": 6864,
      "ڪيٽي": 6865,
      "ميسي": 6866,
      "سيريل": 6867,
      "پيئن": 6868,
      "هڪدم": 6869,
      "برھ": 6870,
      "زمروڪر": 6871,
      "مايا": 6872,
      "سرون": 6873,
      "تاق": 6874,
      "سامت": 6875,
      "ڌرمي": 6876,
      "ڏوهه": 6877,
      "غلامن": 6878,
      "عاقل": 6879,
      "ڊاء": 6880,
      "طبقو": 6881,
      "ڪميٽيء": 6882,
      "نوابشاهه": 6883,
      "فيصلا": 6884,
      "لکندڙ": 6885,
      "سڌارن": 6886,
      "ٺهراء": 6887,
      "العلوم": 6888,
      "نباتاتي": 6889,
      "ذميواري": 6890,
      "ڀڳوان": 6891,
      "رجسٽرڊ": 6892,
      "روپيه": 6893,
      "وراثت": 6894,
      "توسيع": 6895,
      "شاني": 6896,
      "ٽپال": 6897,
      "پشن": 6898,
      "چيا": 6899,
      "امرت": 6900,
      "ڪوسٽ": 6901,
      "بيحد": 6902,
      "ٽيڪا": 6903,
      "ولين": 6904,
      "اوڻ": 6905,
      "تاريخدان": 6906,
      "عامر": 6907,
      "جھڙا": 6908,
      "تبديليء": 6909,
      "معاون": 6910,
      "زبانن": 6911,
      "قومپرست": 6912,
      "بالٽڪ": 6913,
      "افغاني": 6914,
      "پڌرن": 6915,
      "گلوڪار": 6916,
      "ويدڪ": 6917,
      "مرحلو": 6918,
      "بيورو": 6919,
      "ارضيات": 6920,
      "منطق": 6921,
      "ٺهرائي": 6922,
      "جلي": 6923,
      "جمي": 6924,
      "غني": 6925,
      "ـو": 6926,
      "ڊرو": 6927,
      "ڊپلو": 6928,
      "ونو": 6929,
      "ٽيج": 6930,
      "ويهن": 6931,
      "اتحادي": 6932,
      "زمروگڏيل": 6933,
      "اصف": 6934,
      "محفل": 6935,
      "بليو": 6936,
      "بادشا": 6937,
      "ڊيء": 6938,
      "مريم": 6939,
      "ورنيا": 6940,
      "گاجي": 6941,
      "پڙهائي": 6942,
      "گذار": 6943,
      "ڪرنل": 6944,
      "دستن": 6945,
      "عربستان": 6946,
      "نڪتا": 6947,
      "ايڊمن": 6948,
      "پهچايو": 6949,
      "يهودين": 6950,
      "امڪاني": 6951,
      "بهاولپور": 6952,
      "آرمينيائي": 6953,
      "اڪرم": 6954,
      "تسلسل": 6955,
      "دکن": 6956,
      "رھو": 6957,
      "سڏي": 6958,
      "شال": 6959,
      "ٺھي": 6960,
      "ڊٽ": 6961,
      "ڏر": 6962,
      "ڪڪر": 6963,
      "انچن": 6964,
      "الياس": 6965,
      "سيارو": 6966,
      "ٽيف": 6967,
      "واجب": 6968,
      "لوئر": 6969,
      "زمروآذربائيجان": 6970,
      "پرفارمن": 6971,
      "ڏيارڻ": 6972,
      "قوتن": 6973,
      "مشق": 6974,
      "احتي": 6975,
      "ٽوريل": 6976,
      "فوري": 6977,
      "ساگر": 6978,
      "لڳيون": 6979,
      "اھري": 6980,
      "فلسف": 6981,
      "ضرورتن": 6982,
      "مرڪزن": 6983,
      "راڻيء": 6984,
      "قرارداد": 6985,
      "مفاد": 6986,
      "ڳنڍڻو": 6987,
      "مدرسه": 6988,
      "ڏهاڪن": 6989,
      "پلاٽ": 6990,
      "وجهڻ": 6991,
      "گڏجاڻي": 6992,
      "اوزارن": 6993,
      "گفتگو": 6994,
      "مغيري": 6995,
      ">۾،<": 6996,
      "سهي": 6997,
      "فتو": 6998,
      "ماسڪو": 6999,
      "هفتيوار": 7000,
      "وحي": 7001,
      "هنگري": 7002,
      "ورڇ": 7003,
      "سانوڻ": 7004,
      "پيلي": 7005,
      "ٽيشن": 7006,
      "بناوت": 7007,
      "مشتاق": 7008,
      "مونکي": 7009,
      "انگلش": 7010,
      "رهين": 7011,
      "مسج": 7012,
      "چندو": 7013,
      "پروٽو": 7014,
      "نقطو": 7015,
      "هڻڻ": 7016,
      "شينهن": 7017,
      "مزدورن": 7018,
      "مڃي": 7019,
      "پاناما": 7020,
      "جذبي": 7021,
      "مڇيء": 7022,
      "ائٽمي": 7023,
      "ولايت": 7024,
      "مرتضي": 7025,
      "ھلندڙ": 7026,
      "ڌامرا": 7027,
      "مسعود": 7028,
      "قائداعظم": 7029,
      "حفيظ": 7030,
      "پرفارمنس": 7031,
      "آسو": 7032,
      "بھي": 7033,
      "عمري": 7034,
      "قف": 7035,
      "ٽار": 7036,
      "ڀلائي": 7037,
      "المن": 7038,
      "ديپ": 7039,
      "تهه": 7040,
      "واڙي": 7041,
      "قيدين": 7042,
      "تنز": 7043,
      "باضاب": 7044,
      "خانق": 7045,
      "ڪاررو": 7046,
      "ڪارنام": 7047,
      "افسوس": 7048,
      "نازڪ": 7049,
      "گھڙ": 7050,
      "سانچوملڪ": 7051,
      "وڪيپيڊياوڪي": 7052,
      "رکو": 7053,
      "دهل": 7054,
      "بانو": 7055,
      "بانڊ": 7056,
      "پلانٽ": 7057,
      "مثاني": 7058,
      "ٻارڻ": 7059,
      "ڪيمسٽ": 7060,
      "فائر": 7061,
      "معاشر": 7062,
      "ڪپهه": 7063,
      "جنيد": 7064,
      "خراسان": 7065,
      "گهيرو": 7066,
      "قريش": 7067,
      "انتظاميا": 7068,
      "دمشق": 7069,
      "بجليء": 7070,
      "بچايو": 7071,
      "غذائي": 7072,
      "غوث": 7073,
      "مساوات": 7074,
      "جوزف": 7075,
      "اسپيشل": 7076,
      "افلاطون": 7077,
      "ايون": 7078,
      "جمشي": 7079,
      "وجھ": 7080,
      "ڀير": 7081,
      "ڀٽن": 7082,
      "جوڙين": 7083,
      "منصوبن": 7084,
      "اتراول": 7085,
      "زمروسياسي": 7086,
      "نيما": 7087,
      "شاهو": 7088,
      "مشرو": 7089,
      "مينھن": 7090,
      "لکيون": 7091,
      "وفد": 7092,
      "ارادي": 7093,
      "اڄوڪي": 7094,
      "راجائن": 7095,
      "چانڊ": 7096,
      "هماليه": 7097,
      "ٽروجن": 7098,
      "سنگم": 7099,
      "فورم": 7100,
      "قريب": 7101,
      "ڪلهوڙا": 7102,
      "چاليهه": 7103,
      "زباني": 7104,
      "سارو": 7105,
      "شده": 7106,
      "وڙهي": 7107,
      "پات": 7108,
      "ڊار": 7109,
      "ڊارون": 7110,
      "امڪس": 7111,
      "رواني": 7112,
      "ڪوفي": 7113,
      "سيارن": 7114,
      "جاچ": 7115,
      "بيس": 7116,
      "ڪريا": 7117,
      "داز": 7118,
      "برعڪس": 7119,
      "ڪمري": 7120,
      "شيعه": 7121,
      "گاڏيون": 7122,
      "صاحبه": 7123,
      "وڌندي": 7124,
      "ميوا": 7125,
      "ويجھي": 7126,
      "پالڻ": 7127,
      "سائرس": 7128,
      "دفتر": 7129,
      "ناولن": 7130,
      "تيزاب": 7131,
      "راجپوتن": 7132,
      "ڊزائين": 7133,
      "ڪنوينشن": 7134,
      "جمشيد": 7135,
      "اته": 7136,
      "اٿين": 7137,
      "اشو": 7138,
      "تذ": 7139,
      "ربا": 7140,
      "زبي": 7141,
      "زياد": 7142,
      "ٽائن": 7143,
      "ڇاتي": 7144,
      "گائ": 7145,
      "ريم": 7146,
      "يويا": 7147,
      "ائبو": 7148,
      "جنون": 7149,
      "ڪريان": 7150,
      "منجھ": 7151,
      "اتين": 7152,
      "زمرويو": 7153,
      "اصلاحي": 7154,
      "محلات": 7155,
      "سوز": 7156,
      "چوڻي": 7157,
      "خيالي": 7158,
      "چاڪر": 7159,
      "تصورن": 7160,
      "ڊوائي": 7161,
      "معافي": 7162,
      "پوليٽيڪل": 7163,
      "سگهندا": 7164,
      "معاملو": 7165,
      "ھندوستان": 7166,
      "ھندوستاني": 7167,
      "ڪاٺيا": 7168,
      "يونانين": 7169,
      "عثمانيه": 7170,
      "عاليشان": 7171,
      "نصيب": 7172,
      "امارات": 7173,
      "سچو": 7174,
      "سڌاري": 7175,
      "سٿان": 7176,
      "لڪش": 7177,
      "ڊگها": 7178,
      "ڏاه": 7179,
      "ڦاسي": 7180,
      "گيا": 7181,
      "ڳچيء": 7182,
      "جيسين": 7183,
      "جوڳ": 7184,
      "پيلو": 7185,
      "ويهڻ": 7186,
      "پوڄ": 7187,
      "ڪاڇي": 7188,
      "سرخ": 7189,
      "ڏيڻو": 7190,
      "اوري": 7191,
      "اولي": 7192,
      "اوسر": 7193,
      "سوانا": 7194,
      "گرف": 7195,
      "مهاڳ": 7196,
      "شرم": 7197,
      "گولا": 7198,
      "گاج": 7199,
      "ڏوڪري": 7200,
      "شڪليون": 7201,
      "قدرن": 7202,
      "تڪميل": 7203,
      "موقف": 7204,
      "ٿلهو": 7205,
      "ڀتين": 7206,
      "فضائي": 7207,
      "ليفورنيا": 7208,
      "ھزارين": 7209,
      "مسجدن": 7210,
      "تتر": 7211,
      "ثانوي": 7212,
      "جريء": 7213,
      "دخل": 7214,
      "سهر": 7215,
      "سرين": 7216,
      "سچائي": 7217,
      "لل": 7218,
      "ماتر": 7219,
      "مبني": 7220,
      "وصول": 7221,
      "وآله": 7222,
      "چري": 7223,
      "چٽو": 7224,
      "چاھ": 7225,
      "ڪاڻي": 7226,
      "ڪيمرون": 7227,
      "سيٽن": 7228,
      "سيرت": 7229,
      "پيپر": 7230,
      "پولو": 7231,
      "تنوير": 7232,
      "باٽ": 7233,
      "محسن": 7234,
      "ڪتو": 7235,
      "بوء": 7236,
      "عليء": 7237,
      "پرويز": 7238,
      "جلدن": 7239,
      "ڪامن": 7240,
      "ورهائجي": 7241,
      "پياري": 7242,
      "موقعن": 7243,
      "متنوع": 7244,
      "جزائر": 7245,
      "ڪجھه": 7246,
      "ابوالحسن": 7247,
      "ڀاڱا": 7248,
      "ٽڪراء": 7249,
      "ڏاڙھون": 7250,
      "تعميراتي": 7251,
      "وصيت": 7252,
      "بخت": 7253,
      "خام": 7254,
      "رڌ": 7255,
      "رڍ": 7256,
      "رجب": 7257,
      "عہ": 7258,
      "مـ": 7259,
      "وھ": 7260,
      "وڪڻ": 7261,
      "ڊپ": 7262,
      "الق": 7263,
      "ادريء": 7264,
      "بيعت": 7265,
      "داخلي": 7266,
      "ملائڻ": 7267,
      "وايو": 7268,
      "ماتي": 7269,
      "محلو": 7270,
      "اوج": 7271,
      "سوچي": 7272,
      "شيشي": 7273,
      "ناگ": 7274,
      "دورا": 7275,
      "لڳندا": 7276,
      "ننڍڙن": 7277,
      "عبدالرزاق": 7278,
      "طاقتن": 7279,
      "مقرري": 7280,
      "بھادر": 7281,
      "سنڀالڻ": 7282,
      "ڇپيندڙسنڌي": 7283,
      "غذا": 7284,
      "ڪھاڻيون": 7285,
      "دھلي": 7286,
      "خوشبوء": 7287,
      "حادثي": 7288,
      "ڪهڪشان": 7289,
      "وڪٽوريا": 7290,
      ">..<": 7291,
      "آستان": 7292,
      "اشت": 7293,
      "بدي": 7294,
      "تڏ": 7295,
      "جدي": 7296,
      "هٽي": 7297,
      "وح": 7298,
      "کلن": 7299,
      "ريشن": 7300,
      "ارد": 7301,
      "سندر": 7302,
      "دوسي": 7303,
      "بيڪٽيريا": 7304,
      "پيلا": 7305,
      "ڪرائ": 7306,
      "ويڪرو": 7307,
      "واع": 7308,
      "واشنگ": 7309,
      "زمروماڻھو": 7310,
      "پردي": 7311,
      "اصغر": 7312,
      "مدين": 7313,
      "جهڙيون": 7314,
      "اوپن": 7315,
      "سوالن": 7316,
      "خانہ": 7317,
      "ڪمپليڪس": 7318,
      "مارو": 7319,
      "گهرڙن": 7320,
      "ڊومين": 7321,
      "مٿن": 7322,
      "چرڊ": 7323,
      "بيماريون": 7324,
      "جيلاني": 7325,
      "جماعتن": 7326,
      "اعتراف": 7327,
      "ڏسندا": 7328,
      "مخلوق": 7329,
      "استعيفيٰ": 7330,
      "ترقياتي": 7331,
      "بناوٽ": 7332,
      "ماٿريء": 7333,
      "اغوا": 7334,
      "بستي": 7335,
      "رپيو": 7336,
      "رفيق": 7337,
      "وھندڙ": 7338,
      "ڀڙ": 7339,
      "ڊيني": 7340,
      "ڪمر": 7341,
      "وندر": 7342,
      "ياڻ": 7343,
      "هوٽل": 7344,
      "ويلن": 7345,
      "منٺار": 7346,
      "مواف": 7347,
      "پنهون": 7348,
      "زمروڪراچي": 7349,
      "عيسائين": 7350,
      "سنڌيڪا": 7351,
      "انيس": 7352,
      "نهين": 7353,
      "افزائي": 7354,
      "لنگهي": 7355,
      "نقشن": 7356,
      "نظامن": 7357,
      "ڪشميري": 7358,
      "وٺن": 7359,
      "سائٽ": 7360,
      "رضوي": 7361,
      "پرائيوي": 7362,
      "ڪئلينڊر": 7363,
      "ڊگھو": 7364,
      "ڪابينا": 7365,
      "اسٽوڊن": 7366,
      "ساهتيه": 7367,
      "گنبذ": 7368,
      "قسطن": 7369,
      "خاڪ": 7370,
      "رع": 7371,
      "سدا": 7372,
      "غائب": 7373,
      "ناسي": 7374,
      "وديا": 7375,
      "ٿانو": 7376,
      "ٿورا": 7377,
      "ڇان": 7378,
      "ڦار": 7379,
      "کني": 7380,
      "گانو": 7381,
      "ڳڙهي": 7382,
      "سنجي": 7383,
      "سنگاپور": 7384,
      "سيشن": 7385,
      "درگاه": 7386,
      "زمروسي": 7387,
      "ٽرمپ": 7388,
      "ڪلڪتي": 7389,
      "سنڌيڪار": 7390,
      "مشوري": 7391,
      "ٽوپي": 7392,
      "ڪرايائين": 7393,
      "تبت": 7394,
      "بڻجن": 7395,
      "ڇوڪرن": 7396,
      "سيڪشن": 7397,
      "نارائڻ": 7398,
      "تابڪاري": 7399,
      "وومين": 7400,
      "سمجھڻ": 7401,
      "برادريء": 7402,
      "واضع": 7403,
      "يھودي": 7404,
      "ٽرانز": 7405,
      "تدريس": 7406,
      "اسٽوڊنٽس": 7407,
      "اٽو": 7408,
      "اگني": 7409,
      "بجار": 7410,
      "شعا": 7411,
      "عع": 7412,
      "مڌ": 7413,
      "ڄاتو": 7414,
      "چهن": 7415,
      "کاري": 7416,
      "يوز": 7417,
      "المع": 7418,
      "ليکي": 7419,
      "استن": 7420,
      "ڪيوبا": 7421,
      "گرامي": 7422,
      "گيان": 7423,
      "برادرين": 7424,
      "ڳايا": 7425,
      "سمنڊن": 7426,
      "حسيني": 7427,
      "مصال": 7428,
      "مشرف": 7429,
      "پاڙون": 7430,
      "ڪلھوڙو": 7431,
      "ڄيٺمل": 7432,
      "ڊائريڪٽ": 7433,
      "صلا": 7434,
      "ضد": 7435,
      "پسن": 7436,
      "ٿرا": 7437,
      "ڪثير": 7438,
      "ھليو": 7439,
      "انڊو": 7440,
      "لاڙي": 7441,
      "قيصر": 7442,
      "زمروبر": 7443,
      "فيسٽ": 7444,
      "مرمر": 7445,
      "سومار": 7446,
      "احسن": 7447,
      "شيراز": 7448,
      "مريخ": 7449,
      "فلپائن": 7450,
      "گوتم": 7451,
      "هاٿي": 7452,
      "پڙھي": 7453,
      "اڳوڻا": 7454,
      "گريٽر": 7455,
      "بنيادون": 7456,
      "نيويارڪ": 7457,
      "غلاميء": 7458,
      "راجسٿان": 7459,
      "پينٽنگ": 7460,
      "اسٽاف": 7461,
      "فرنٽ": 7462,
      "رسالا": 7463,
      "فراز": 7464,
      "نسبتا": 7465,
      "دائمي": 7466,
      "پوئلڳ": 7467,
      "رياضياتي": 7468,
      "عبراني": 7469,
      "فيڪلٽي": 7470,
      "ڪافيون": 7471,
      "معاشرتي": 7472,
      "جسامت": 7473,
      "زهري": 7474,
      "شبير": 7475,
      "ٽه": 7476,
      "ٿڙ": 7477,
      "انٽي": 7478,
      "يوال": 7479,
      "الڪرام": 7480,
      "ميس": 7481,
      "ميگا": 7482,
      "سيتا": 7483,
      "ستا": 7484,
      "ويم": 7485,
      "موار": 7486,
      "گرلس": 7487,
      "ناٿن": 7488,
      "مطلق": 7489,
      "صفت": 7490,
      "اسٽيڊيم": 7491,
      "نقطه": 7492,
      "شوقين": 7493,
      "هلڪي": 7494,
      "منظوم": 7495,
      "اونھاري": 7496,
      "بھار": 7497,
      "مدرسن": 7498,
      "رقص": 7499,
      "گلابي": 7500,
      "مھينا": 7501,
      "سئنيما": 7502,
      "فائديمند": 7503,
      "ماھرن": 7504,
      "فاروق": 7505,
      "ئه": 7506,
      "ئڪ": 7507,
      "جتن": 7508,
      "شرا": 7509,
      "شفيع": 7510,
      "عش": 7511,
      "ڀرن": 7512,
      "ھاڻ": 7513,
      "انڊا": 7514,
      "ينگ": 7515,
      "اموي": 7516,
      "ليپ": 7517,
      "ڪيچ": 7518,
      "ادائ": 7519,
      "ڪوڙ": 7520,
      "ٽيبل": 7521,
      "منج": 7522,
      "پوريء": 7523,
      "قيم": 7524,
      "ٽرسٽ": 7525,
      "گهم": 7526,
      "اوچي": 7527,
      "سوتي": 7528,
      "ڪارخانا": 7529,
      "فنلينڊ": 7530,
      "قسمت": 7531,
      "مڪلي": 7532,
      "هلڪو": 7533,
      "وٺندي": 7534,
      "سگھجن": 7535,
      "اصليت": 7536,
      "سهڻو": 7537,
      "سکيو": 7538,
      "ليول": 7539,
      "ڇڏيون": 7540,
      "مندرن": 7541,
      "سڪائي": 7542,
      "سرمائيداري": 7543,
      "رحمة": 7544,
      "ليڪچرار": 7545,
      "سمجهندا": 7546,
      "مشغول": 7547,
      "خاموش": 7548,
      "پرائيويٽ": 7549,
      "سادو": 7550,
      "نل": 7551,
      "ڀرين": 7552,
      "جيسل": 7553,
      "جوڳو": 7554,
      "ياسين": 7555,
      "ليبر": 7556,
      "اسپور": 7557,
      "ميچ": 7558,
      "دودو": 7559,
      "ڪوڙو": 7560,
      "ڪوئن": 7561,
      "ايتن": 7562,
      "ويران": 7563,
      "منٽن": 7564,
      "اتما": 7565,
      "درسگ": 7566,
      "سرگرمي": 7567,
      "محافظ": 7568,
      "معاف": 7569,
      "متان": 7570,
      "نازي": 7571,
      "پورٽل": 7572,
      "مهدي": 7573,
      "ورتيون": 7574,
      "پاڻمرادو": 7575,
      "گوجر": 7576,
      "هلچل": 7577,
      "سورج": 7578,
      "ٺاهيندو": 7579,
      "حقيقتن": 7580,
      "لکڻيون": 7581,
      "ڇڏجي": 7582,
      "آئسوٽو": 7583,
      "آبشار": 7584,
      "چلر": 7585,
      "مجسمو": 7586,
      "غيب": 7587,
      "غلطيون": 7588,
      "ڳولها": 7589,
      "ساساني": 7590,
      "منصب": 7591,
      "اعتراض": 7592,
      "سهولتون": 7593,
      "ازبڪستان": 7594,
      "آد": 7595,
      "تام": 7596,
      "حرن": 7597,
      "حاصلات": 7598,
      "رجي": 7599,
      "رچرڊ": 7600,
      "شفا": 7601,
      "نڪو": 7602,
      "ٻٽي": 7603,
      "ڌڙ": 7604,
      "ڌارا": 7605,
      "ڏھين": 7606,
      "گائي": 7607,
      "ڳجه": 7608,
      "روڪيو": 7609,
      "اسير": 7610,
      "ميم": 7611,
      "مودودي": 7612,
      "بندين": 7613,
      "سربيا": 7614,
      "شنڪان": 7615,
      "اوڏ": 7616,
      "چاڙهي": 7617,
      "ڇاپي": 7618,
      "ٻولهه": 7619,
      "طاق": 7620,
      "بحرين": 7621,
      "ڌارين": 7622,
      "ساڳيا": 7623,
      "صحاب": 7624,
      "ذاتيون": 7625,
      "وساري": 7626,
      "انتظاميه": 7627,
      "تفھيم": 7628,
      "نمائندو": 7629,
      "سڄڻ": 7630,
      "انتها": 7631,
      "صوفين": 7632,
      "ٽيڪساس": 7633,
      "کهاوڙ": 7634,
      "نقشبندي": 7635,
      "لھجو": 7636,
      "عبيدالله": 7637,
      "آريسر": 7638,
      "اجل": 7639,
      "حصر": 7640,
      "نارو": 7641,
      "وطني": 7642,
      "ڏٺا": 7643,
      "العلماء": 7644,
      "ليلا": 7645,
      "ليبار": 7646,
      "موب": 7647,
      "موو": 7648,
      "اڪار": 7649,
      "اڪرو": 7650,
      "لوڪن": 7651,
      "زمروزمرا": 7652,
      "ڪايو": 7653,
      "پرڻ": 7654,
      "سومر": 7655,
      "سمجھن": 7656,
      "معين": 7657,
      "شيل": 7658,
      "ٺاهيون": 7659,
      "طبقن": 7660,
      "شڪتي": 7661,
      "مورخ": 7662,
      "وسطي": 7663,
      "ھيٺيون": 7664,
      "کيرٿر": 7665,
      "گهاٽي": 7666,
      "شاديون": 7667,
      "مقدمو": 7668,
      "نصرپور": 7669,
      "ڪلھوڙن": 7670,
      "نئشنل": 7671,
      "بزنس": 7672,
      "تت": 7673,
      "جلن": 7674,
      "جپان": 7675,
      "حني": 7676,
      "شجا": 7677,
      "لڌ": 7678,
      "مهي": 7679,
      "وسن": 7680,
      "چاه": 7681,
      "کون": 7682,
      "ريڊي": 7683,
      "البا": 7684,
      "روزي": 7685,
      "لاکا": 7686,
      "ميراڻي": 7687,
      "ايڊو": 7688,
      "ڪرپشن": 7689,
      "منفي": 7690,
      "برانچ": 7691,
      "ڪاربان": 7692,
      "اميه": 7693,
      "ساڙي": 7694,
      "گوس": 7695,
      "پاڙن": 7696,
      "جھد": 7697,
      "دادا": 7698,
      "حالات": 7699,
      "کوکر": 7700,
      "ٺاهين": 7701,
      "ملندا": 7702,
      "ڪمپنيون": 7703,
      "مئگزين": 7704,
      "جذبن": 7705,
      "ووٽرن": 7706,
      "آئرش": 7707,
      "تائيد": 7708,
      "ڪاميابيء": 7709,
      "حيران": 7710,
      "منگوليا": 7711,
      "عبدالغفور": 7712,
      "عرساڻي": 7713,
      "گرفتاري": 7714,
      "واشنگٽن": 7715,
      "ثافت": 7716,
      "رسو": 7717,
      "صب": 7718,
      "وٿي": 7719,
      "چمڪ": 7720,
      "ڪڪ": 7721,
      "انھي": 7722,
      "ريزي": 7723,
      "ليڪا": 7724,
      "لاهين": 7725,
      "ميڊ": 7726,
      "ڪوز": 7727,
      "سيه": 7728,
      "ايع": 7729,
      "ڪرندي": 7730,
      "موٽيو": 7731,
      "ڊيلي": 7732,
      "سمون": 7733,
      "گيتن": 7734,
      "قائل": 7735,
      "جلاله": 7736,
      "درياه": 7737,
      "ڏندن": 7738,
      "چاڊ": 7739,
      "ڊيوڊ": 7740,
      "بينن": 7741,
      "ٽريڊ": 7742,
      "گرافڪ": 7743,
      "ٽيننٽ": 7744,
      "مشتري": 7745,
      "وسيلو": 7746,
      "شعبان": 7747,
      "سڏجن": 7748,
      "جامعه": 7749,
      "مھتاب": 7750,
      "البم": 7751,
      "رڪنن": 7752,
      "تحريڪن": 7753,
      "بدلجي": 7754,
      "تفريحي": 7755,
      "لڙائيء": 7756,
      "هلايو": 7757,
      "مؤرخ": 7758,
      "ماڪڙ": 7759,
      "دراوڙي": 7760,
      "اولمپڪ": 7761,
      "سوني": 7762,
      "صار": 7763,
      "فاري": 7764,
      "ناڻي": 7765,
      "ٺهيو": 7766,
      "ٻٽ": 7767,
      "گجر": 7768,
      "يوڪرين": 7769,
      "هيرا": 7770,
      "روئي": 7771,
      "اسلوب": 7772,
      "راهي": 7773,
      "ويکي": 7774,
      "منز": 7775,
      "منحصر": 7776,
      "پناھ": 7777,
      "اليڪٽ": 7778,
      "بوسنيا": 7779,
      "عددي": 7780,
      "بابوي": 7781,
      "براهو": 7782,
      "شريات": 7783,
      "عبدالمطلب": 7784,
      "پيرامي": 7785,
      "شاهڪار": 7786,
      "اسلاميه": 7787,
      "انتظار": 7788,
      "غلامي": 7789,
      "گھرڙي": 7790,
      "ڪيمپ": 7791,
      "تقريبون": 7792,
      "نصب": 7793,
      "جاگيردار": 7794,
      "بيلٽ": 7795,
      "فٽبال": 7796,
      "غريبن": 7797,
      "دفاعي": 7798,
      "منڊلي": 7799,
      "پرتگال": 7800,
      "آريائي": 7801,
      "روهڙي": 7802,
      "ناراض": 7803,
      "سهڻا": 7804,
      "اجرڪ": 7805,
      "انتخاب": 7806,
      ">۔<": 7807,
      "بڊو": 7808,
      "خراج": 7809,
      "قمر": 7810,
      "ماب": 7811,
      "نفيس": 7812,
      "وهڻ": 7813,
      "پڪڙ": 7814,
      "چٽس": 7815,
      "ڍڪي": 7816,
      "انن": 7817,
      "الج": 7818,
      "روانا": 7819,
      "ليٽر": 7820,
      "ڪيليفورنيا": 7821,
      "جاوا": 7822,
      "بيشمار": 7823,
      "منا": 7824,
      "زمبابوي": 7825,
      "ڪاٽ": 7826,
      "پرسن": 7827,
      "دڙن": 7828,
      "سوٽ": 7829,
      "سوات": 7830,
      "مشڪلا": 7831,
      "پهچائي": 7832,
      "ايني": 7833,
      "لهڻ": 7834,
      "لينا": 7835,
      "قلعا": 7836,
      "آنڊن": 7837,
      "فارغ": 7838,
      "ڄامشوري": 7839,
      "صوبيدار": 7840,
      "هلال": 7841,
      "اٽڪ": 7842,
      "ڪورون": 7843,
      "سربراهي": 7844,
      "ڪيميڪل": 7845,
      "اختلا": 7846,
      "ڊگريون": 7847,
      "عھدو": 7848,
      "مقدمي": 7849,
      "ارڙهين": 7850,
      "ڪوئلي": 7851,
      "ڌماڪي": 7852,
      "واڳون": 7853,
      "ھٿيار": 7854,
      "شھنشاھ": 7855,
      "آٽو": 7856,
      "بٺ": 7857,
      "رسي": 7858,
      "رطو": 7859,
      "سئي": 7860,
      "صدا": 7861,
      "لبر": 7862,
      "ماد": 7863,
      "نرو": 7864,
      "ٻئين": 7865,
      "ٻڍل": 7866,
      "اسڪن": 7867,
      "ميء": 7868,
      "سيڪيولر": 7869,
      "ايڊن": 7870,
      "ويٺي": 7871,
      "مومل": 7872,
      "برائي": 7873,
      "بردار": 7874,
      "لوڊ": 7875,
      "زمروپنجاب": 7876,
      "نيرون": 7877,
      "محد": 7878,
      "سوري": 7879,
      "نوڪ": 7880,
      "نايو": 7881,
      "ڳوٺاڻن": 7882,
      "گھڙي": 7883,
      "ساوا": 7884,
      "ڊرئ": 7885,
      "ڏنهن": 7886,
      "عبدالملڪ": 7887,
      "بخارا": 7888,
      "ٿرمو": 7889,
      "نامه": 7890,
      "ڪينال": 7891,
      "اٺون": 7892,
      "مصور": 7893,
      "ڳنڍڻا": 7894,
      "خوشحالي": 7895,
      "ڳالھائي": 7896,
      "موسمياتي": 7897,
      "سينيئر": 7898,
      "ڌنڌو": 7899,
      "اداڪاره": 7900,
      "نڪرندا": 7901,
      "پڇڙ": 7902,
      "اليڪٽرانڪ": 7903,
      "ڳاڙها": 7904,
      "قصا": 7905,
      "رتوديرو": 7906,
      "پروسيسنگ": 7907,
      "تجارت": 7908,
      "اچو": 7909,
      "اقو": 7910,
      "بز": 7911,
      "رباني": 7912,
      "طيني": 7913,
      "عتون": 7914,
      "لہ": 7915,
      "لڪل": 7916,
      "مباح": 7917,
      "هٽائي": 7918,
      "ٺھ": 7919,
      "ٽم": 7920,
      "ٽڪيٽ": 7921,
      "چاهه": 7922,
      "کڙي": 7923,
      "ڳچ": 7924,
      "اسٽري": 7925,
      "سيڪيورٽي": 7926,
      "سنڌون": 7927,
      "منجهن": 7928,
      "اوڙي": 7929,
      "ڪارون": 7930,
      "شيت": 7931,
      "براعظ": 7932,
      "اسٽيٽس": 7933,
      "گهٽائڻ": 7934,
      "ڇيڙي": 7935,
      "گھرڙن": 7936,
      "پليجو": 7937,
      "اوندا": 7938,
      "اوتار": 7939,
      "علامتن": 7940,
      "سٽريٽ": 7941,
      "سمورين": 7942,
      "وزيرن": 7943,
      "بيروني": 7944,
      "گذاريو": 7945,
      "جدوجھد": 7946,
      "ذخيرن": 7947,
      "آرڪيٽي": 7948,
      "غزه": 7949,
      "پرڳڻو": 7950,
      "جلاوطن": 7951,
      "تبصرو": 7952,
      "غزنوي": 7953,
      "ڪمبوڊيا": 7954,
      "آور": 7955,
      "ثا": 7956,
      "شڪا": 7957,
      "ضبط": 7958,
      "قسط": 7959,
      "قابو": 7960,
      "پانگ": 7961,
      "ڍاڪا": 7962,
      "ڪبي": 7963,
      "ڳئون": 7964,
      "تيستائين": 7965,
      "روسو": 7966,
      "روزو": 7967,
      "لاڻ": 7968,
      "لايو": 7969,
      "ابخا": 7970,
      "پيڙ": 7971,
      "بنارس": 7972,
      "زمروسو": 7973,
      "پرامن": 7974,
      "سلجه": 7975,
      "ٽرام": 7976,
      "اوس": 7977,
      "رينا": 7978,
      "دارا": 7979,
      "شهرو": 7980,
      "ڇپيا": 7981,
      "شاهد": 7982,
      "حرم": 7983,
      "مٿانهين": 7984,
      "وسعت": 7985,
      "مقابلا": 7986,
      "مائيڪل": 7987,
      "ائٽم": 7988,
      "نھايت": 7989,
      "ڀڃي": 7990,
      "پرنسپل": 7991,
      "نانء": 7992,
      "شمشير": 7993,
      "ٻاھرين": 7994,
      "ڀرنش": 7995,
      "آرو": 7996,
      "اپيل": 7997,
      "حش": 7998,
      "حوا": 7999,
      "دڪ": 8000,
      "رھا": 8001,
      "سڪري": 8002,
      "عقلي": 8003,
      "قاد": 8004,
      "مهن": 8005,
      "هائو": 8006,
      "ڇل": 8007,
      "ڏهر": 8008,
      "ڪات": 8009,
      "ڪورنگي": 8010,
      "ارشاد": 8011,
      "ليي": 8012,
      "دوز": 8013,
      "ڪولا": 8014,
      "ڪنارو": 8015,
      "ڪرداس": 8016,
      "درجن": 8017,
      "زمروڊوميني": 8018,
      "فيٽ": 8019,
      "فيلو": 8020,
      "سرفراز": 8021,
      "معاو": 8022,
      "شيعن": 8023,
      "بود": 8024,
      "تحليل": 8025,
      "ٽوڙڻ": 8026,
      "تاريخدانن": 8027,
      "گھڻن": 8028,
      "کنڀ": 8029,
      "طرفن": 8030,
      "اندران": 8031,
      "ڪرنٽ": 8032,
      "گهوڙن": 8033,
      "مجموعا": 8034,
      "سيوستان": 8035,
      "صنعتون": 8036,
      "چڙهڻ": 8037,
      "پشتون": 8038,
      "سافٽويئر": 8039,
      "ايڪڙن": 8040,
      "منھنجي": 8041,
      "ڍانچو": 8042,
      "پڙهائڻ": 8043,
      "ائڊرو": 8044,
      "نارنگي": 8045,
      "مزاحيه": 8046,
      "فائنل": 8047,
      "لائبرري": 8048,
      "منتظمين": 8049,
      "موبائل": 8050,
      "ڊرئميٽڪ": 8051,
      "آسٽري": 8052,
      "اگھ": 8053,
      "تجزي": 8054,
      "قه": 8055,
      "لتا": 8056,
      "مائونٽ": 8057,
      "وب": 8058,
      "ڦا": 8059,
      "گائينا": 8060,
      "جوم": 8061,
      "جويو": 8062,
      "روفيت": 8063,
      "ملائ": 8064,
      "زمروسري": 8065,
      "سرمد": 8066,
      "ڪلياڻ": 8067,
      "گيشن": 8068,
      "ماڻڪ": 8069,
      "آبادين": 8070,
      "ائنس": 8071,
      "انگو": 8072,
      "ڪرايون": 8073,
      "شرطن": 8074,
      "جانبدار": 8075,
      "بڻجڻ": 8076,
      "ضرب": 8077,
      "شاھراھ": 8078,
      "پڙهندو": 8079,
      "پڙھڻ": 8080,
      "عظمت": 8081,
      "اريندڙ": 8082,
      "ڪڍندا": 8083,
      "سڄيء": 8084,
      "مفهوم": 8085,
      "موڪلڻ": 8086,
      "دفنايو": 8087,
      "مغرب": 8088,
      "سلووا": 8089,
      "صحتمند": 8090,
      "پڇيو": 8091,
      "رشپ": 8092,
      "ڪوهستان": 8093,
      "پناهگيرن": 8094,
      "پوشاڪ": 8095,
      "اجاگر": 8096,
      "اختيارن": 8097,
      "تاليف": 8098,
      "بصر": 8099,
      "بطو": 8100,
      "تذڪر": 8101,
      "جغ": 8102,
      "خوار": 8103,
      "مکڻ": 8104,
      "وهان": 8105,
      "وجھي": 8106,
      "ٻچا": 8107,
      "ڄڻا": 8108,
      "ڊاٽ": 8109,
      "ڏاهري": 8110,
      "ريشمي": 8111,
      "اروي": 8112,
      "ڪولي": 8113,
      "ٽيڪسي": 8114,
      "دادي": 8115,
      "ويجھ": 8116,
      "منه": 8117,
      "موزم": 8118,
      "هرهڪ": 8119,
      "نيئر": 8120,
      "وينا": 8121,
      "سٽو": 8122,
      "مقالي": 8123,
      "شيار": 8124,
      "ناھن": 8125,
      "گوئ": 8126,
      "اولهندي": 8127,
      "ڪانهي": 8128,
      "ڪانڪريٽ": 8129,
      "مڪين": 8130,
      "انتقال": 8131,
      "ڇپائيء": 8132,
      "ليکڪا": 8133,
      "تنهنجو": 8134,
      "ڪائونسلون": 8135,
      "اپت": 8136,
      "رھندي": 8137,
      "الفابي": 8138,
      "قيامت": 8139,
      "تابع": 8140,
      "وقتي": 8141,
      "هدايتڪار": 8142,
      "تشڪيل": 8143,
      "مريضن": 8144,
      "تماچي": 8145,
      "کھاوڙ": 8146,
      "هاسٽل": 8147,
      "شنڪانسين": 8148,
      "اٻ": 8149,
      "بٽڻ": 8150,
      "تپ": 8151,
      "رجو": 8152,
      "فاصلو": 8153,
      "لڪير": 8154,
      "ٽورن": 8155,
      "ٿرو": 8156,
      "ڀلو": 8157,
      "ڦلي": 8158,
      "ڦرل": 8159,
      "کٽيو": 8160,
      "کائيندو": 8161,
      "ڪاسٽ": 8162,
      "ڱور": 8163,
      "ديري": 8164,
      "اسا": 8165,
      "ڪوچ": 8166,
      "بيق": 8167,
      "بيھڪ": 8168,
      "زمروتاريخ": 8169,
      "وينز": 8170,
      "مشتر": 8171,
      "وڃو": 8172,
      "زنگ": 8173,
      "هونئن": 8174,
      "عليٰ": 8175,
      "مريدن": 8176,
      "سينا": 8177,
      "مهاج": 8178,
      "زميندارن": 8179,
      "بڻيا": 8180,
      "ڇوڪريون": 8181,
      "صحارا": 8182,
      "چانور": 8183,
      "چانورن": 8184,
      "مفڪر": 8185,
      "رحه": 8186,
      "علامہ": 8187,
      "علامتون": 8188,
      "اشته": 8189,
      "ويبسرزمين": 8190,
      "چمڪندڙ": 8191,
      "نسبتي": 8192,
      "ڊالرن": 8193,
      "زبردستي": 8194,
      "ڊزائن": 8195,
      "مجاهد": 8196,
      "ائٽلس": 8197,
      "استحڪام": 8198,
      "بڻيل": 8199,
      "نيپئر": 8200,
      "بازنطيني": 8201,
      "پريزيڊنٽ": 8202,
      "تاجڪستان": 8203,
      "آوازن": 8204,
      "اڀرڻ": 8205,
      "جاڻي": 8206,
      "طويل": 8207,
      "عبار": 8208,
      "پسي": 8209,
      "ھجرت": 8210,
      "انجو": 8211,
      "الانا": 8212,
      "الحسن": 8213,
      "وردي": 8214,
      "اسڪيم": 8215,
      "ھندا": 8216,
      "ايڪي": 8217,
      "ملٽي": 8218,
      "پوائنٽ": 8219,
      "سرپرستي": 8220,
      "علحدگي": 8221,
      "بلڊنگ": 8222,
      "سمجهه": 8223,
      "گيانا": 8224,
      "ھوء": 8225,
      "ساقي": 8226,
      "تاثر": 8227,
      "موجودگيء": 8228,
      "وٽا": 8229,
      "گاڏ": 8230,
      "آنند": 8231,
      "کوٽي": 8232,
      "انتھائي": 8233,
      "ٻاراڻي": 8234,
      "ڪينٽ": 8235,
      "بائيبل": 8236,
      "پليٽيو": 8237,
      "سلامتي": 8238,
      "خبرن": 8239,
      "بھاول": 8240,
      "سينيگال": 8241,
      "ترميمي": 8242,
      "دستاويزي": 8243,
      "جھنگلي": 8244,
      "گهاٽو": 8245,
      "شادين": 8246,
      "افسانا": 8247,
      "مھينن": 8248,
      "ليفٽيننٽ": 8249,
      "خزانو": 8250,
      "اداره": 8251,
      "اخلاقيات": 8252,
      "مڇين": 8253,
      "گريجوئيٽ": 8254,
      "ننگرپارڪر": 8255,
      "پھرئين": 8256,
      "جيسلمير": 8257,
      "الفابيٽ": 8258,
      "ڦرلٽ": 8259,
      "آڳ": 8260,
      "بزم": 8261,
      "بچل": 8262,
      "حشو": 8263,
      "ذرا": 8264,
      "رور": 8265,
      "سڳو": 8266,
      "ضمان": 8267,
      "فهمي": 8268,
      "مائن": 8269,
      "نندي": 8270,
      "هجريء": 8271,
      "وسا": 8272,
      "وکر": 8273,
      "وهندڙ": 8274,
      "پڙي": 8275,
      "انفر": 8276,
      "روٽ": 8277,
      "ھيٺيان": 8278,
      "پيچ": 8279,
      "ڪربلا": 8280,
      "موٽو": 8281,
      "پوريون": 8282,
      "تعصب": 8283,
      "زمروجاپان": 8284,
      "مدان": 8285,
      "بااثر": 8286,
      "محور": 8287,
      "گهراڻو": 8288,
      "جهلم": 8289,
      "گرھن": 8290,
      "گرلز": 8291,
      "نوشهرو": 8292,
      "گيز": 8293,
      "اڳواٽ": 8294,
      "اسيم": 8295,
      "براڊ": 8296,
      "پھتا": 8297,
      "ڊرڊ": 8298,
      "سائيڪل": 8299,
      "عبدالحق": 8300,
      "ڇوجو": 8301,
      "اٿل": 8302,
      "قانع": 8303,
      "ستيء": 8304,
      "بائيل": 8305,
      "علاي": 8306,
      "پکيء": 8307,
      "گهوڙا": 8308,
      "گارڊن": 8309,
      "ذرڙن": 8310,
      "علامتي": 8311,
      "نياپو": 8312,
      "ترڪيء": 8313,
      "بيلارو": 8314,
      "اعزازي": 8315,
      "تحفة": 8316,
      "گورک": 8317,
      "هدايتون": 8318,
      "چشمو": 8319,
      "اسٽوڊيو": 8320,
      "ڪلچرل": 8321,
      "تيونس": 8322,
      "ڇنڊ": 8323,
      "ارغونن": 8324,
      "وڪيپيڊي": 8325,
      "مشترڪه": 8326,
      "اذ": 8327,
      "بتي": 8328,
      "درن": 8329,
      "زبير": 8330,
      "سقرا": 8331,
      "فلي": 8332,
      "ناب": 8333,
      "وٽن": 8334,
      "ٻڏي": 8335,
      "ڈيا": 8336,
      "ڌات": 8337,
      "ڙهو": 8338,
      "کرا": 8339,
      "ڪپھ": 8340,
      "جيڏو": 8341,
      "الان": 8342,
      "تيا": 8343,
      "راغ": 8344,
      "سانو": 8345,
      "ڪوڪ": 8346,
      "سيارا": 8347,
      "ڪراس": 8348,
      "نيري": 8349,
      "اوپيرا": 8350,
      "علوي": 8351,
      "شيعا": 8352,
      "دارال": 8353,
      "ٽوڪيو": 8354,
      "نظارو": 8355,
      "اھڙن": 8356,
      "مبتلا": 8357,
      "ڊرڪ": 8358,
      "اسانجي": 8359,
      "ڪامرس": 8360,
      "ڪونج": 8361,
      "اپٻيٽ": 8362,
      "اپڀرنش": 8363,
      "جڳهن": 8364,
      "ڏيکارڻ": 8365,
      "قبرن": 8366,
      "اٿارٽيء": 8367,
      "خارش": 8368,
      "ايڊٽ": 8369,
      "جھنگ": 8370,
      "چڪاس": 8371,
      "ڪاؤنسلون": 8372,
      "ذوالحج": 8373,
      "ٽيليفون": 8374,
      "رشتي": 8375,
      "نوڪريء": 8376,
      "ضابطي": 8377,
      "نصرت": 8378,
      "ڪاٺيء": 8379,
      "خزاني": 8380,
      "محترمه": 8381,
      "مهاراجا": 8382,
      "ترڪمانستان": 8383,
      "ليبارٽري": 8384,
      "حليم": 8385,
      "شگر": 8386,
      "عدي": 8387,
      "قدوسي": 8388,
      "لڌو": 8389,
      "مادن": 8390,
      "نقا": 8391,
      "نانڪ": 8392,
      "پٿري": 8393,
      "پگهار": 8394,
      "چالو": 8395,
      "کڙو": 8396,
      "ھه": 8397,
      "انجيل": 8398,
      "الہ": 8399,
      "ونسي": 8400,
      "استو": 8401,
      "رادو": 8402,
      "دوائون": 8403,
      "جاويد": 8404,
      "ستارا": 8405,
      "منو": 8406,
      "موبائيل": 8407,
      "واف": 8408,
      "سرسوتي": 8409,
      "ڪمپو": 8410,
      "فرمائي": 8411,
      "استري": 8412,
      "ڳوٺاڻي": 8413,
      "لهرن": 8414,
      "مهاتما": 8415,
      "ٽاپ": 8416,
      "عبدالستار": 8417,
      "طاعت": 8418,
      "اصطلاحي": 8419,
      "ڪالون": 8420,
      "سڃاتي": 8421,
      "طبعيات": 8422,
      "هارمون": 8423,
      "اسٽڊيز": 8424,
      "ماليڪيو": 8425,
      "سائينء": 8426,
      "سريلنڪا": 8427,
      "ھيٺان": 8428,
      "مئل": 8429,
      "آئل": 8430,
      "وقفي": 8431,
      "نائٽروجن": 8432,
      "ساڻن": 8433,
      "دعوا": 8434,
      "صارفين": 8435,
      "آرڪائيوز": 8436,
      "مهاڀاري": 8437,
      "تهذيبن": 8438,
      "پڌرنامو": 8439,
      "فيسٽيول": 8440,
      "آهر": 8441,
      "بڙ": 8442,
      "بريء": 8443,
      "دٻي": 8444,
      "رلي": 8445,
      "رائو": 8446,
      "فاني": 8447,
      "قع": 8448,
      "مٽائي": 8449,
      "مماليا": 8450,
      "هالي": 8451,
      "وڀر": 8452,
      "ٻور": 8453,
      "ٽٽي": 8454,
      "پدم": 8455,
      "ڇهون": 8456,
      "ڍورو": 8457,
      "کائين": 8458,
      "کتري": 8459,
      "کرني": 8460,
      "ميهڙ": 8461,
      "ھني": 8462,
      "ابر": 8463,
      "ڪوي": 8464,
      "ايستائين": 8465,
      "ڪنڊا": 8466,
      "سنڌالاجي": 8467,
      "برلن": 8468,
      "پوڪرداس": 8469,
      "تنوع": 8470,
      "گهاٽ": 8471,
      "سواري": 8472,
      "چوڏهن": 8473,
      "مشرق": 8474,
      "متضاد": 8475,
      "ٻوڙ": 8476,
      "قنبر": 8477,
      "جنگجو": 8478,
      "گريٽ": 8479,
      "خلق": 8480,
      "النبي": 8481,
      "ٻارهين": 8482,
      "ڏوهن": 8483,
      "ڪونہ": 8484,
      "چينج": 8485,
      "سڃاڻي": 8486,
      "دستا": 8487,
      "فائلم": 8488,
      "سهائتا": 8489,
      "بئڪٽيريا": 8490,
      "آڳاٽن": 8491,
      "گھوڙي": 8492,
      "انگيز": 8493,
      "جمھوريه": 8494,
      "آيتون": 8495,
      "دستياب": 8496,
      "پرتگالي": 8497,
      "سوئيڊن": 8498,
      "پڙهندڙن": 8499,
      "معاشيات": 8500,
      "حاضري": 8501,
      "ڪرنگھي": 8502,
      "لڪشمي": 8503,
      "بوني": 8504,
      "زمن": 8505,
      "سارا": 8506,
      "ماسي": 8507,
      "وز": 8508,
      "ٽٽڻ": 8509,
      "پگھ": 8510,
      "پڇي": 8511,
      "ھالا": 8512,
      "الين": 8513,
      "ائف": 8514,
      "ائني": 8515,
      "ارث": 8516,
      "ڪيلي": 8517,
      "سانچن": 8518,
      "ڪوٽا": 8519,
      "ملٽري": 8520,
      "برما": 8521,
      "زمرولا": 8522,
      "زمروچين": 8523,
      "مرث": 8524,
      "محي": 8525,
      "سودا": 8526,
      "گره": 8527,
      "اڳين": 8528,
      "گھائي": 8529,
      "تاز": 8530,
      "سگريٽ": 8531,
      "هاشمي": 8532,
      "آندل": 8533,
      "قدير": 8534,
      "ڊيول": 8535,
      "سگهه": 8536,
      "بحاليء": 8537,
      "رهنديون": 8538,
      "اٽليء": 8539,
      "چئني": 8540,
      "ڊويزنن": 8541,
      "سياستدانن": 8542,
      "آڻين": 8543,
      "ٺاھيا": 8544,
      "ڪئم": 8545,
      "زونا": 8546,
      "آرٽسٽ": 8547,
      "دشمنن": 8548,
      "بکري": 8549,
      "ڀڃڪڙي": 8550,
      "البانيا": 8551,
      "جلوس": 8552,
      "وائسراء": 8553,
      "سيٽلائيٽ": 8554,
      "مشابهت": 8555,
      "ڏاهپ": 8556,
      "چٽسالي": 8557,
      "محدث": 8558,
      "موزمبيق": 8559,
      "وينزويلا": 8560,
      "راغب": 8561,
      "جزير": 8562,
      "داڻي": 8563,
      "سپرن": 8564,
      "مصي": 8565,
      "همرا": 8566,
      "ٽام": 8567,
      "ڀوٽان": 8568,
      "ڇڪي": 8569,
      "ڇوٽ": 8570,
      "ڳان": 8571,
      "ميرس": 8572,
      "ڪوٺي": 8573,
      "ڪنز": 8574,
      "پنجو": 8575,
      "واڌو": 8576,
      "نيڪالي": 8577,
      "آھيان": 8578,
      "باشن": 8579,
      "انيت": 8580,
      "شيطان": 8581,
      "افضل": 8582,
      "ماڻهون": 8583,
      "رهائشي": 8584,
      "ساتي": 8585,
      "اينگلو": 8586,
      "جانچ": 8587,
      "ايترا": 8588,
      "ڪاريگر": 8589,
      "گلزار": 8590,
      "ايليا": 8591,
      "گنبد": 8592,
      "ڪشمور": 8593,
      "خليج": 8594,
      "چنداڻي": 8595,
      "مڃيل": 8596,
      "ڪاروائي": 8597,
      "چمڙيء": 8598,
      "نويسي": 8599,
      "جذبو": 8600,
      "سمجهيا": 8601,
      "گزيٽيئر": 8602,
      "تختو": 8603,
      "جماعتون": 8604,
      "فلاسا": 8605,
      "مڇيون": 8606,
      "منصوباب": 8607,
      "ٿائيلينڊ": 8608,
      "اسٽرڪچر": 8609,
      "ويهاريو": 8610,
      "مرتضيٰ": 8611,
      "آدر": 8612,
      "اڪيل": 8613,
      "اطاعت": 8614,
      "بسم": 8615,
      "حدود": 8616,
      "صورتي": 8617,
      "غالبا": 8618,
      "وون": 8619,
      "وھي": 8620,
      "پڻي": 8621,
      "چاهين": 8622,
      "ڇڄ": 8623,
      "ڇلي": 8624,
      "ڇڏيل": 8625,
      "ڏون": 8626,
      "ريفرن": 8627,
      "هنديء": 8628,
      "الائي": 8629,
      "المعروف": 8630,
      "الثاني": 8631,
      "ليزر": 8632,
      "ڪيٽر": 8633,
      "راهو": 8634,
      "يونٽن": 8635,
      "ڪوال": 8636,
      "جاڳ": 8637,
      "ويانا": 8638,
      "درميان": 8639,
      "زمرومضمون": 8640,
      "زمروآفريڪا": 8641,
      "پرک": 8642,
      "گهمڻ": 8643,
      "اوسي": 8644,
      "بلبل": 8645,
      "ڊيسي": 8646,
      "شيرازي": 8647,
      "ٽنهي": 8648,
      "فنون": 8649,
      "شاھہ": 8650,
      "ڇوتہ": 8651,
      "گنگ": 8652,
      "شيام": 8653,
      "اسلامڪ": 8654,
      "رابطن": 8655,
      "ٽلر": 8656,
      "تحريڪون": 8657,
      "خدائي": 8658,
      "ٽيڪنڪ": 8659,
      "موڪليا": 8660,
      "ڳنڍڻ": 8661,
      "نورمحمد": 8662,
      "سوشلزم": 8663,
      "رياضيات": 8664,
      "اقليتن": 8665,
      "سانچوا": 8666,
      "جيئرو": 8667,
      "هاڻوڪو": 8668,
      "دانشورن": 8669,
      "پڄاڻيء": 8670,
      "ڪمرشل": 8671,
      ".٪<": 8672,
      "جست": 8673,
      "جليل": 8674,
      "جسٽريٽ": 8675,
      "طاهر": 8676,
      "واڻ": 8677,
      "ٽڪرو": 8678,
      "پوني": 8679,
      "چٽا": 8680,
      "ڇڪ": 8681,
      "گام": 8682,
      "جواهر": 8683,
      "جوانيء": 8684,
      "ارتي": 8685,
      "ورز": 8686,
      "ميڪس": 8687,
      "بيدل": 8688,
      "ڪنواري": 8689,
      "پوشي": 8690,
      "دراني": 8691,
      "فيشن": 8692,
      "فيڊرل": 8693,
      "ڏيپل": 8694,
      "ترانو": 8695,
      "چيري": 8696,
      "سٽائين": 8697,
      "بوائز": 8698,
      "چندن": 8699,
      "ڏنڊ": 8700,
      "چاچو": 8701,
      "ماريا": 8702,
      "نقشا": 8703,
      "ٽينا": 8704,
      "ڪالمن": 8705,
      "پاسا": 8706,
      "اکري": 8707,
      "بوليويا": 8708,
      "دروازن": 8709,
      "فراهمي": 8710,
      "زينب": 8711,
      "ابراھيم": 8712,
      "راڳڻي": 8713,
      "ورھايو": 8714,
      "اسٽوپا": 8715,
      "گهوٽڪي": 8716,
      "بگٽي": 8717,
      "ڪھڙي": 8718,
      "نيٽورڪ": 8719,
      "جمھوريت": 8720,
      "فلڪياتي": 8721,
      "بجيٽ": 8722,
      "مدنيت": 8723,
      "پنڊت": 8724,
      "اتراوڀر": 8725,
      "اڪريل": 8726,
      "قفقاز": 8727,
      "تلفظ": 8728,
      "ذهين": 8729,
      "سـ": 8730,
      "شامي": 8731,
      "صبر": 8732,
      "عابد": 8733,
      "لڻ": 8734,
      "لڌا": 8735,
      "ممل": 8736,
      "ڊائون": 8737,
      "کس": 8738,
      "ڪھڪ": 8739,
      "اندرا": 8740,
      "ريلي": 8741,
      "الهند": 8742,
      "لاڪ": 8743,
      "راض": 8744,
      "ويرا": 8745,
      "منشي": 8746,
      "موريا": 8747,
      "وايون": 8748,
      "اڪائي": 8749,
      "بهادري": 8750,
      "لوجسٽ": 8751,
      "ڪافر": 8752,
      "پرس": 8753,
      "گرهه": 8754,
      "ڪمزوري": 8755,
      "مطاب": 8756,
      "مينٽري": 8757,
      "ٺيڪي": 8758,
      "وچان": 8759,
      "پروٽ": 8760,
      "سانچوپاڪستان": 8761,
      "گهرج": 8762,
      "وڌا": 8763,
      "مذمت": 8764,
      "ڄاڻائي": 8765,
      "مثل": 8766,
      "پيرون": 8767,
      "اڀريو": 8768,
      "منظرن": 8769,
      "ورهائڻ": 8770,
      "اونڌو": 8771,
      "شڪلن": 8772,
      "شڪلين": 8773,
      "راڄپر": 8774,
      "حاڪميت": 8775,
      "تصوراتي": 8776,
      "رڪنيت": 8777,
      "ڪئپٽن": 8778,
      "خوبصورتي": 8779,
      "شماريات": 8780,
      "ميڊيٽرين": 8781,
      "دادوء": 8782,
      "نئيگ": 8783,
      "فسادن": 8784,
      "استعيفا": 8785,
      "ايجنٽ": 8786,
      "صحافتي": 8787,
      "ڦهليل": 8788,
      "اسپورٽس": 8789,
      "سلجهائپ": 8790,
      "رجوع": 8791,
      "منصوبابندي": 8792,
      "رپين": 8793,
      "زاه": 8794,
      "شب": 8795,
      "عائ": 8796,
      "عبور": 8797,
      "عبوري": 8798,
      "لونگ": 8799,
      "مشاھ": 8800,
      "مڪتب": 8801,
      "نعت": 8802,
      "نارين": 8803,
      "ٻني": 8804,
      "پادري": 8805,
      "پڄاڻي": 8806,
      "ڃي": 8807,
      "چارو": 8808,
      "ڍڪ": 8809,
      "ڍول": 8810,
      "ڏٺي": 8811,
      "ڦريون": 8812,
      "گمان": 8813,
      "انند": 8814,
      "ليڊي": 8815,
      "سانڍ": 8816,
      "اهره": 8817,
      "پيڈيا": 8818,
      "قيمتن": 8819,
      "نيپولين": 8820,
      "فيملي": 8821,
      "جهاني": 8822,
      "وينس": 8823,
      "معدني": 8824,
      "وارڊ": 8825,
      "شيدي": 8826,
      "پارو": 8827,
      "ناقابل": 8828,
      "لهجو": 8829,
      "فنڪشن": 8830,
      "مرڪبن": 8831,
      "پنھنجن": 8832,
      "عبدالواحد": 8833,
      "اڳواڻيء": 8834,
      "نامعلوم": 8835,
      "سونهري": 8836,
      "ايڊيشنع": 8837,
      "فائدا": 8838,
      "چئو": 8839,
      "خداب": 8840,
      "تقريرون": 8841,
      "اوترو": 8842,
      "تفاوت": 8843,
      "حنفي": 8844,
      "قاضيء": 8845,
      "نمائندن": 8846,
      "مضبوطي": 8847,
      "وليد": 8848,
      "التمش": 8849,
      "ڪيريبين": 8850,
      "قاعدن": 8851,
      "بندوق": 8852,
      "هاڻوڪا": 8853,
      "اڏاوتون": 8854,
      "ذهانت": 8855,
      "خرابي": 8856,
      "پيٽروليم": 8857,
      "رطوبت": 8858,
      "جغرافي": 8859,
      "اڏيل": 8860,
      "تيو": 8861,
      "خض": 8862,
      "خصوص": 8863,
      "شس": 8864,
      "فان": 8865,
      "مزي": 8866,
      "مجد": 8867,
      "نعي": 8868,
      "وک": 8869,
      "وڍي": 8870,
      "پست": 8871,
      "ڍڪڻ": 8872,
      "کٽڻ": 8873,
      "ڳجھ": 8874,
      "ڪيڙا": 8875,
      "راف": 8876,
      "دول": 8877,
      "بيه": 8878,
      "بيٺا": 8879,
      "بيچلر": 8880,
      "ڪنڊو": 8881,
      "منصف": 8882,
      "پنجوي": 8883,
      "پوتر": 8884,
      "وليون": 8885,
      "سرتيون": 8886,
      "جهلين": 8887,
      "سوف": 8888,
      "ڪمائي": 8889,
      "سٽاء": 8890,
      "حيض": 8891,
      "مينو": 8892,
      "کنڊر": 8893,
      "ڀرت": 8894,
      "آرڊين": 8895,
      "پھچڻ": 8896,
      "ڏاڏن": 8897,
      "عملدارن": 8898,
      "ليکيو": 8899,
      "مثالن": 8900,
      "مھل": 8901,
      "مائع": 8902,
      "خواھ": 8903,
      "ڪئمپ": 8904,
      "جويي": 8905,
      "سعود": 8906,
      "ارڙھين": 8907,
      "ڦوٽو": 8908,
      "ٻاھران": 8909,
      "آڱر": 8910,
      "استحصال": 8911,
      "معاھدي": 8912,
      "بعضي": 8913,
      "سارنگ": 8914,
      "اتهاس": 8915,
      "جلندڙ": 8916,
      "مهاجرن": 8917,
      "مطابقت": 8918,
      "جمينٽ": 8919,
      "حمد": 8920,
      "سڙي": 8921,
      "سورن": 8922,
      "سابق": 8923,
      "صبغ": 8924,
      "ضايع": 8925,
      "مہ": 8926,
      "نغ": 8927,
      "نبوت": 8928,
      "نڪرندي": 8929,
      "وڪري": 8930,
      "يں": 8931,
      "چمن": 8932,
      "ڌرا": 8933,
      "ڏاڪ": 8934,
      "کرو": 8935,
      "جولائي": 8936,
      "ائسوسيئيشن": 8937,
      "ورڪس": 8938,
      "لازم": 8939,
      "ڪيپي": 8940,
      "جنازي": 8941,
      "ھنڌن": 8942,
      "ڪوهه": 8943,
      "ٽيگ": 8944,
      "ستاوي": 8945,
      "برساتي": 8946,
      "پوٽر": 8947,
      "پولنگ": 8948,
      "واديء": 8949,
      "تعلي": 8950,
      "محاص": 8951,
      "گربخش": 8952,
      "سمين": 8953,
      "شيد": 8954,
      "بوقت": 8955,
      "مارڪي": 8956,
      "فوسل": 8957,
      "وڪيميڊيا": 8958,
      "آرٿو": 8959,
      "جرم": 8960,
      "پروٽان": 8961,
      "پريت": 8962,
      "رانداز": 8963,
      "ڏنائون": 8964,
      "رکجي": 8965,
      "ديويء": 8966,
      "شاهاڻي": 8967,
      "باغين": 8968,
      "فوٽان": 8969,
      "سلووين": 8970,
      "ملوث": 8971,
      "هلندا": 8972,
      "ڪمپيوٽرن": 8973,
      "پڌرا": 8974,
      "يارهين": 8975,
      "خوردب": 8976,
      "جذباتي": 8977,
      "آڳاٽو": 8978,
      "کولڻ": 8979,
      "مجاه": 8980,
      "رهواسين": 8981,
      "بدوش": 8982,
      "اپني": 8983,
      "لالواڻي": 8984,
      "باقيات": 8985,
      "موومينٽ": 8986,
      "اختلافن": 8987,
      "ضمانت": 8988,
      "خوردبيني": 8989,
      "اڊ": 8990,
      "جٽ": 8991,
      "ججن": 8992,
      "دام": 8993,
      "رئ": 8994,
      "رڌي": 8995,
      "عتي": 8996,
      "فلاس": 8997,
      "لع": 8998,
      "مڪت": 8999,
      "نسيم": 9000,
      "همٿ": 9001,
      "وصال": 9002,
      "پڃ": 9003,
      "ڊش": 9004,
      "ريشم": 9005,
      "ريڊائريڪٽ": 9006,
      "ڪوس": 9007,
      "مانيا": 9008,
      "مندي": 9009,
      "موٽڻ": 9010,
      "رنگي": 9011,
      "زمروايران": 9012,
      "سرت": 9013,
      "بادي": 9014,
      "ٽرس": 9015,
      "شاف": 9016,
      "گهرايو": 9017,
      "سوامي": 9018,
      "سوچڻ": 9019,
      "مقبرا": 9020,
      "افري": 9021,
      "فرشن": 9022,
      "ٽويا": 9023,
      "مبرج": 9024,
      "سينگاري": 9025,
      "فلڪي": 9026,
      "لينج": 9027,
      "ليند": 9028,
      "تعليمات": 9029,
      "ڪلوگرام": 9030,
      "سماٽ": 9031,
      "رهنما": 9032,
      "ڪينا": 9033,
      "سويت": 9034,
      "ملايو": 9035,
      "پتڻ": 9036,
      "گھٽجي": 9037,
      "هالٽ": 9038,
      "بگڙيل": 9039,
      "ڦيرائي": 9040,
      "آزمائي": 9041,
      "عادل": 9042,
      "احتياط": 9043,
      "ڪاٺياواڙ": 9044,
      "اقوام": 9045,
      "وهانء": 9046,
      "ڳانڍا": 9047,
      "جره": 9048,
      "خدي": 9049,
      "شٽر": 9050,
      "صورتن": 9051,
      "طاس": 9052,
      "ظالم": 9053,
      "غزو": 9054,
      "فجي": 9055,
      "هانگ": 9056,
      "هسٽري": 9057,
      "هضم": 9058,
      "ٿورن": 9059,
      "ڀڄڻ": 9060,
      "چٽي": 9061,
      "چئون": 9062,
      "ڇڏيندي": 9063,
      "ڪمل": 9064,
      "گڻ": 9065,
      "گپت": 9066,
      "ھڙي": 9067,
      "ڪيرو": 9068,
      "پيارو": 9069,
      "بهتري": 9070,
      "بنهه": 9071,
      "فيمين": 9072,
      "اصلا": 9073,
      "مدينه": 9074,
      "ترڪن": 9075,
      "بلقان": 9076,
      "شيلا": 9077,
      "افرا": 9078,
      "پورن": 9079,
      "انگلنڊ": 9080,
      "خوبي": 9081,
      "لڳايا": 9082,
      "سگھندو": 9083,
      "گويا": 9084,
      "گوپانگ": 9085,
      "خيص": 9086,
      "عبدالو": 9087,
      "بارا": 9088,
      "گهٽائي": 9089,
      "جمالو": 9090,
      "ڪهاڻيء": 9091,
      "چانڊيا": 9092,
      "آفريقا": 9093,
      "مستند": 9094,
      "ڳالهائين": 9095,
      "اڏامن": 9096,
      "مسيحي": 9097,
      "مجسما": 9098,
      "فيصلن": 9099,
      "ڳڻپيو": 9100,
      "قاتل": 9101,
      "حصار": 9102,
      "نفس": 9103,
      "پرڏيھي": 9104,
      "ذميواريون": 9105,
      "پڇاڙي": 9106,
      "اوبلاست": 9107,
      "اسڪالرشپ": 9108,
      "خوشبودار": 9109,
      "ميروخان": 9110,
      "ڪرسٽل": 9111,
      "سجاده": 9112,
      "پختو": 9113,
      "باضابطه": 9114,
      "ڇاتيء": 9115,
      "ڊوائيسز": 9116,
      "مملڪت": 9117,
      "باڻي": 9118,
      "حجم": 9119,
      "لڀ": 9120,
      "مصو": 9121,
      "نجات": 9122,
      "هائ": 9123,
      "وجهه": 9124,
      "يارن": 9125,
      "پائل": 9126,
      "ڄو": 9127,
      "ڪچا": 9128,
      "گھن": 9129,
      "ھٽ": 9130,
      "انکانپوء": 9131,
      "ريڪا": 9132,
      "ريسٽ": 9133,
      "الجي": 9134,
      "ساند": 9135,
      "دوين": 9136,
      "سيستان": 9137,
      "ويٽ": 9138,
      "زمروترڪي": 9139,
      "تناز": 9140,
      "محلي": 9141,
      "اوطاق": 9142,
      "چيٽ": 9143,
      "سوچيو": 9144,
      "ڪارخانن": 9145,
      "چوپائي": 9146,
      "معروفيت": 9147,
      "ڌيئر": 9148,
      "فرقن": 9149,
      "مخل": 9150,
      "پٽين": 9151,
      "هاضمي": 9152,
      "پاڙا": 9153,
      "زمينداري": 9154,
      "فارميٽ": 9155,
      "چارٽر": 9156,
      "وڪيپيڊياباب": 9157,
      "دريائي": 9158,
      "رکيون": 9159,
      "هندوستاني": 9160,
      "ڇوڪرا": 9161,
      "گند": 9162,
      "نہيں": 9163,
      "ٺاهيندڙ": 9164,
      "آگاهي": 9165,
      "حلقي": 9166,
      "حلقن": 9167,
      "گولڊن": 9168,
      "پرنٽ": 9169,
      "جمادي": 9170,
      "خوشگوار": 9171,
      "پيدائشون": 9172,
      "اظر": 9173,
      "لکندا": 9174,
      "مخالفن": 9175,
      "پوئلڳن": 9176,
      "مشينري": 9177,
      "ايڪسچينج": 9178,
      "ڦيرڦار": 9179,
      "منگولن": 9180,
      "روهڙيء": 9181,
      "آرڪيالاجيڪل": 9182,
      "فزيڪل": 9183,
      "ٽرانزسٽر": 9184,
      "فلاسافي": 9185,
      "آسا": 9186,
      "بچو": 9187,
      "عص": 9188,
      "عضو": 9189,
      "فارن": 9190,
      "ناني": 9191,
      "ٹر": 9192,
      "ٺارو": 9193,
      "ڇاڻي": 9194,
      "کٽيا": 9195,
      "ڪٿان": 9196,
      "جيري": 9197,
      "ريپبل": 9198,
      "هيز": 9199,
      "ورھا": 9200,
      "رومين": 9201,
      "اسڪي": 9202,
      "جنڊ": 9203,
      "هوشيار": 9204,
      "جاتي": 9205,
      "بيلي": 9206,
      "ايمر": 9207,
      "ڪنول": 9208,
      "ھير": 9209,
      "پيتي": 9210,
      "ٽيري": 9211,
      "ٽيريا": 9212,
      "ستو": 9213,
      "موج": 9214,
      "موڙي": 9215,
      "نير": 9216,
      "نيدر": 9217,
      "سرگو": 9218,
      "تند": 9219,
      "اوشي": 9220,
      "بادام": 9221,
      "مشيني": 9222,
      "ٽوڙ": 9223,
      "ڪسپيئر": 9224,
      "پاپ": 9225,
      "پاک": 9226,
      "پريان": 9227,
      "پريميئر": 9228,
      "شهاب": 9229,
      "مبار": 9230,
      "اسٽيفن": 9231,
      "پڙھ": 9232,
      "کوڙي": 9233,
      "جدت": 9234,
      "ڪائونسلن": 9235,
      "آفريڪن": 9236,
      "ڳالهائيندا": 9237,
      "جهنڊي": 9238,
      "پراجيڪٽ": 9239,
      "رضاڪار": 9240,
      "مدرس": 9241,
      "فورٽ": 9242,
      "ترڪيب": 9243,
      "دلچس": 9244,
      "جھنڊو": 9245,
      "هالينڊ": 9246,
      "منزلون": 9247,
      "قاعدا": 9248,
      "ضابطو": 9249,
      "مزاحمتي": 9250,
      "سرمائيدار": 9251,
      "زلزلو": 9252,
      "سفارتڪاري": 9253,
      "سختي": 9254,
      "مخلوط": 9255,
      "عموما": 9256,
      "خواندگي": 9257,
      "جمھوريہ": 9258,
      "عبارت": 9259,
      "خدابخش": 9260,
      "آڏ": 9261,
      "آڊيو": 9262,
      "آريه": 9263,
      "ئان": 9264,
      "اگري": 9265,
      "جهڪ": 9266,
      "حجر": 9267,
      "خميس": 9268,
      "رائڻ": 9269,
      "زحل": 9270,
      "شوال": 9271,
      "فوني": 9272,
      "پٽيء": 9273,
      "ڀاتي": 9274,
      "چاڪ": 9275,
      "ڌاتن": 9276,
      "ڦھل": 9277,
      "الحاق": 9278,
      "تيرهن": 9279,
      "اساس": 9280,
      "ميٿ": 9281,
      "ڪرس": 9282,
      "ويري": 9283,
      "پنچ": 9284,
      "قيه": 9285,
      "زمروافغانستان": 9286,
      "سلون": 9287,
      "سلمان": 9288,
      "سلها": 9289,
      "سرام": 9290,
      "باعث": 9291,
      "اوائ": 9292,
      "نوش": 9293,
      "سمايل": 9294,
      "طرفي": 9295,
      "مبرڪ": 9296,
      "کنڊن": 9297,
      "ڀرجي": 9298,
      "اھل": 9299,
      "فلپ": 9300,
      "اولمپ": 9301,
      "خيرو": 9302,
      "ڏکڻاوڀر": 9303,
      "وڌائين": 9304,
      "ڪانء": 9305,
      "صدرمقام": 9306,
      "انوالي": 9307,
      "نگاهه": 9308,
      "علاوہ": 9309,
      "سرواڻ": 9310,
      "ڊسڪ": 9311,
      "جيترا": 9312,
      "ڏيکاريا": 9313,
      "گذاريائين": 9314,
      "ڊيلٽا": 9315,
      "انٽار": 9316,
      "بيوس": 9317,
      "ڀٽائيء": 9318,
      "ايڪھين": 9319,
      "بلغاريا": 9320,
      "مائڪروسافٽ": 9321,
      "ملھايو": 9322,
      "ماکيء": 9323,
      "ميڪانيات": 9324,
      "مرضيء": 9325,
      "نثري": 9326,
      "گدلاڻ": 9327,
      "سمجهندو": 9328,
      "قسطنطني": 9329,
      "سقراط": 9330,
      "آشرم": 9331,
      "حماس": 9332,
      "دشت": 9333,
      "رڪار": 9334,
      "عط": 9335,
      "عطر": 9336,
      "غسل": 9337,
      "فٽن": 9338,
      "ٺاٺ": 9339,
      "ٽارين": 9340,
      "پاتو": 9341,
      "ڀنگ": 9342,
      "ڄن": 9343,
      "ڇڻ": 9344,
      "ڇھن": 9345,
      "ڍڳ": 9346,
      "گئل": 9347,
      "ھائوس": 9348,
      "يوٽ": 9349,
      "تياريء": 9350,
      "روزا": 9351,
      "ليج": 9352,
      "سنان": 9353,
      "راجن": 9354,
      "ادائي": 9355,
      "اڻڄاتل": 9356,
      "بيڪار": 9357,
      "بيهاري": 9358,
      "ايه": 9359,
      "ايلو": 9360,
      "ايڊيو": 9361,
      "ويز": 9362,
      "منش": 9363,
      "برک": 9364,
      "لوگو": 9365,
      "پرهيز": 9366,
      "سلسلا": 9367,
      "سرجري": 9368,
      "مرک": 9369,
      "اوڍ": 9370,
      "بلال": 9371,
      "گرجا": 9372,
      "گردن": 9373,
      "نوشهري": 9374,
      "نهرو": 9375,
      "پارا": 9376,
      "مالدار": 9377,
      "تاريخون": 9378,
      "ٻيڙيون": 9379,
      "تاش": 9380,
      "لکڻي": 9381,
      "گوء": 9382,
      "ڇاڇري": 9383,
      "زاده": 9384,
      "ٻارڙن": 9385,
      "نيوڪل": 9386,
      "نيوزيلينڊ": 9387,
      "ھاشم": 9388,
      "پينل": 9389,
      "ملازمن": 9390,
      "سروسز": 9391,
      "مھم": 9392,
      "پٽيل": 9393,
      "ڪڙڇ": 9394,
      "وڙهندي": 9395,
      "ڪاٺيون": 9396,
      "مڙني": 9397,
      "نائجر": 9398,
      "تشبي": 9399,
      "ٿانون": 9400,
      "تصنيفون": 9401,
      "زخم": 9402,
      "ڦيرو": 9403,
      "اصلوڪن": 9404,
      "بلغم": 9405,
      "پابنديون": 9406,
      "فرمايائون": 9407,
      "نيوڪليئر": 9408,
      "مؤرخن": 9409,
      "وجهندا": 9410,
      "پورچوگيزي": 9411,
      "گھريلو": 9412,
      "جاسوسي": 9413,
      "ڌامراھا": 9414,
      "جزيره": 9415,
      "فلاساف": 9416,
      "اولمپڪس": 9417,
      "اپاء": 9418,
      "تـ": 9419,
      "تخري": 9420,
      "جملو": 9421,
      "زدگي": 9422,
      "طواف": 9423,
      "فول": 9424,
      "فضي": 9425,
      "مسند": 9426,
      "نڙ": 9427,
      "واسي": 9428,
      "ٽپي": 9429,
      "ٽڪا": 9430,
      "پٽو": 9431,
      "چھ": 9432,
      "چول": 9433,
      "ڌڻيء": 9434,
      "ڪڙو": 9435,
      "گورا": 9436,
      "جواني": 9437,
      "ورائي": 9438,
      "اماس": 9439,
      "اماڻي": 9440,
      "ايڪشن": 9441,
      "ھيرو": 9442,
      "ويٰ": 9443,
      "ويھي": 9444,
      "تعبير": 9445,
      "لوئي": 9446,
      "زمروسعودي": 9447,
      "پرٿ": 9448,
      "دڙا": 9449,
      "انيه": 9450,
      "معنائون": 9451,
      "ھوري": 9452,
      "شيڪسپيئر": 9453,
      "اڳڀرائي": 9454,
      "ٽنڊ": 9455,
      "انگور": 9456,
      "واقفيت": 9457,
      "غيرمعروف": 9458,
      "وڏيء": 9459,
      "سگهندي": 9460,
      "شرعي": 9461,
      "مليس": 9462,
      "خلاصو": 9463,
      "طريقت": 9464,
      "چرٻي": 9465,
      "گورنري": 9466,
      "سورھين": 9467,
      "خليفن": 9468,
      "روزانه": 9469,
      "راڻا": 9470,
      "راڻن": 9471,
      "مورتي": 9472,
      "ٽائيٽل": 9473,
      "سموريون": 9474,
      "زينت": 9475,
      "رستم": 9476,
      "ڏهاڙو": 9477,
      "گذاريا": 9478,
      "نسخا": 9479,
      "سڌارو": 9480,
      "ڀاڱيداري": 9481,
      "دماغي": 9482,
      "هالائي": 9483,
      "پلوٽو": 9484,
      "ڪھاڻين": 9485,
      "رھائشي": 9486,
      "هٿياربند": 9487,
      "ٿولھ": 9488,
      "هٽايو": 9489,
      "سفرنامو": 9490,
      "هائيڊروجن": 9491,
      "اسڪائ": 9492,
      "ڀلائيء": 9493,
      "رھواسي": 9494,
      "اتراولهه": 9495,
      "شاهوڪار": 9496,
      "لبرل": 9497,
      "تجزيي": 9498,
      "بيلاروس": 9499,
      "صبغت": 9500,
      "ڳڻپيوڪر": 9501,
      "اجو": 9502,
      "بھر": 9503,
      "حاتم": 9504,
      "زھر": 9505,
      "شجرو": 9506,
      "صفي": 9507,
      "عسڪري": 9508,
      "فائي": 9509,
      "قصور": 9510,
      "لھر": 9511,
      "لپيء": 9512,
      "مجنون": 9513,
      "پٺي": 9514,
      "پچائي": 9515,
      "ڄاول": 9516,
      "چير": 9517,
      "ڇٽ": 9518,
      "ڪجن": 9519,
      "ڪالا": 9520,
      "ڪمند": 9521,
      "ڳائيندو": 9522,
      "ھائر": 9523,
      "انين": 9524,
      "انار": 9525,
      "وران": 9526,
      "کيڏي": 9527,
      "جنب": 9528,
      "ادرن": 9529,
      "ڪووڊ": 9530,
      "ايڏو": 9531,
      "ٽيس": 9532,
      "ٽيهن": 9533,
      "ستل": 9534,
      "ستارو": 9535,
      "سنڌن": 9536,
      "منگه": 9537,
      "برطرف": 9538,
      "پوکين": 9539,
      "لوپ": 9540,
      "ڪاپيون": 9541,
      "سرسبز": 9542,
      "بااختيار": 9543,
      "شنز": 9544,
      "گهرا": 9545,
      "اولا": 9546,
      "صوتي": 9547,
      "مقالن": 9548,
      "پنهنجيء": 9549,
      "کنگھ": 9550,
      "جھازن": 9551,
      "ٻنڌ": 9552,
      "وفاداري": 9553,
      "تونيو": 9554,
      "ٻڌندڙ": 9555,
      "ڪانو": 9556,
      "عبدالحميد": 9557,
      "ٽريڪ": 9558,
      "ڄاڻڻ": 9559,
      "ڪوٽڙيء": 9560,
      "گراڊ": 9561,
      "لاڳاپي": 9562,
      "ناممڪن": 9563,
      "وڻج": 9564,
      "گورنرن": 9565,
      "خليفه": 9566,
      "حقدار": 9567,
      "سڏبي": 9568,
      "ٻاهرئين": 9569,
      "هزاره": 9570,
      "ثيق": 9571,
      "عنوانن": 9572,
      "سپهه": 9573,
      "گذاريم": 9574,
      "جذبات": 9575,
      "سيلز": 9576,
      "سادات": 9577,
      "تشخيص": 9578,
      "گانڌيء": 9579,
      "جوڻيجي": 9580,
      "پندرهين": 9581,
      "وابستگي": 9582,
      "پناهگير": 9583,
      "آلودگي": 9584,
      "ليليٰ": 9585,
      "چڱا": 9586,
      "صحافين": 9587,
      "شجاع": 9588,
      "آئو": 9589,
      "باي": 9590,
      "تدوين": 9591,
      "دامن": 9592,
      "ذاب": 9593,
      "رتي": 9594,
      "شائ": 9595,
      "ظهور": 9596,
      "غت": 9597,
      "نهر": 9598,
      "هڏ": 9599,
      "وڳڻ": 9600,
      "چاڳ": 9601,
      "ڈي": 9602,
      "ڍوري": 9603,
      "ڏاھري": 9604,
      "ھہ": 9605,
      "جوڙو": 9606,
      "الجيريا": 9607,
      "ارني": 9608,
      "لاکي": 9609,
      "لاهڻ": 9610,
      "ڪيپٽن": 9611,
      "جندي": 9612,
      "ساني": 9613,
      "دوزخ": 9614,
      "بيليز": 9615,
      "پيسا": 9616,
      "سته": 9617,
      "داؤ": 9618,
      "دات": 9619,
      "ويدان": 9620,
      "منين": 9621,
      "رنج": 9622,
      "زمرواسلامي": 9623,
      "فيڪشن": 9624,
      "مقال": 9625,
      "احد": 9626,
      "بوس": 9627,
      "پهاڙي": 9628,
      "نظرانداز": 9629,
      "چونڊيا": 9630,
      "ٻيڙو": 9631,
      "صفوي": 9632,
      "آرائين": 9633,
      "پايا": 9634,
      "وڪيپيڊيامضمون": 9635,
      "پنھنجون": 9636,
      "سامراج": 9637,
      "پبلشرز": 9638,
      "ڪينجهر": 9639,
      "سونو": 9640,
      "فريڊ": 9641,
      "فريڊرڪ": 9642,
      "شڪايت": 9643,
      "ابوالا": 9644,
      "سلطنتن": 9645,
      "آخرت": 9646,
      "ڊائنو": 9647,
      "لالچ": 9648,
      "گليشيئر": 9649,
      "عراقي": 9650,
      "ڪابينه": 9651,
      "خواهشن": 9652,
      "قلمبند": 9653,
      "اسڪاٽش": 9654,
      "خصوصيتن": 9655,
      "ڪلھوڙا": 9656,
      "آيتن": 9657,
      "نيلسن": 9658,
      "جزيري": 9659,
      "نعمت": 9660,
      "شيوا": 9661,
      "پتافي": 9662,
      "پسنديده": 9663,
      "ناليواري": 9664,
      "فياض": 9665,
      "صفحہ": 9666,
      "بارود": 9667,
      "براعظمي": 9668,
      "رھاڪو": 9669,
      "ميڊيٽرينين": 9670,
      "آشا": 9671,
      "آڪاش": 9672,
      "اقي": 9673,
      "بگا": 9674,
      "تاڪ": 9675,
      "جگ": 9676,
      "حذ": 9677,
      "دريون": 9678,
      "طہ": 9679,
      "ظه": 9680,
      "فنا": 9681,
      "لٽر": 9682,
      "نندو": 9683,
      "ٽئي": 9684,
      "ٽاريون": 9685,
      "ڇرو": 9686,
      "ڍاٽ": 9687,
      "ڦڙ": 9688,
      "گڙ": 9689,
      "انچارج": 9690,
      "جينو": 9691,
      "هنيو": 9692,
      "راڪي": 9693,
      "ميهار": 9694,
      "کانئن": 9695,
      "ڪوپن": 9696,
      "سيزن": 9697,
      "ايڏي": 9698,
      "ٿيڻو": 9699,
      "سترهين": 9700,
      "ڪرائين": 9701,
      "موکي": 9702,
      "پنهجي": 9703,
      "برهما": 9704,
      "سرٽيف": 9705,
      "جهمر": 9706,
      "ڪلارڪ": 9707,
      "توثيق": 9708,
      "معلو": 9709,
      "احسا": 9710,
      "رهبر": 9711,
      "شرما": 9712,
      "هادي": 9713,
      "وفادار": 9714,
      "برادرس": 9715,
      "ازسيد": 9716,
      "اندرئين": 9717,
      "نامزدگي": 9718,
      "صورتخطي": 9719,
      "انسپي": 9720,
      "ڪرومو": 9721,
      "سماجيات": 9722,
      "جاگرافيدان": 9723,
      "مٿانهون": 9724,
      "سائبيريا": 9725,
      "مفرو": 9726,
      "ايرانين": 9727,
      "نوراني": 9728,
      "مائڪر": 9729,
      "پاليسيون": 9730,
      "وڙهيو": 9731,
      "طريقيڪار": 9732,
      "ڪنگراڻي": 9733,
      "پڌري": 9734,
      "ترميمون": 9735,
      "يارهن": 9736,
      "سڌريل": 9737,
      "وڄائي": 9738,
      "ڪابہ": 9739,
      "يافتہ": 9740,
      "رڪعتون": 9741,
      "عضوا": 9742,
      "گرنٿ": 9743,
      "ـيـ": 9744,
      "واپرائيندڙن": 9745,
      "بوٽسوانا": 9746,
      "لئمبرڪ": 9747,
      "معاھدو": 9748,
      "نيپچون": 9749,
      "قازق": 9750,
      "برھمڻ": 9751,
      "ڪارروائي": 9752,
      "چهنب": 9753,
      "استنبول": 9754,
      "ڪوروناوائ": 9755,
      "سلوواڪيا": 9756,
      "ڪرنگھيدار": 9757,
      "ڪيپيٽل": 9758,
      "اڙن": 9759,
      "بتن": 9760,
      "تد": 9761,
      "جملن": 9762,
      "حويلي": 9763,
      "حارث": 9764,
      "ذب": 9765,
      "زان": 9766,
      "شفيق": 9767,
      "فظ": 9768,
      "لذ": 9769,
      "لبنان": 9770,
      "مسا": 9771,
      "نمي": 9772,
      "هارڊ": 9773,
      "ٺري": 9774,
      "ٽڪريون": 9775,
      "پتن": 9776,
      "پائو": 9777,
      "پسندن": 9778,
      "ڏه": 9779,
      "ڦھ": 9780,
      "ڦٽا": 9781,
      "ڳتيل": 9782,
      "ھڏ": 9783,
      "جيسي": 9784,
      "ينو": 9785,
      "الك": 9786,
      "امڙ": 9787,
      "روماني": 9788,
      "سنئين": 9789,
      "ابتي": 9790,
      "ابدي": 9791,
      "اڻيو": 9792,
      "ڪورين": 9793,
      "بيرو": 9794,
      "ھيڊ": 9795,
      "برباد": 9796,
      "پولس": 9797,
      "درجاب": 9798,
      "ولر": 9799,
      "پردو": 9800,
      "ماڊرن": 9801,
      "محمدي": 9802,
      "سوٽي": 9803,
      "وارياسي": 9804,
      "توهين": 9805,
      "ڪتابت": 9806,
      "سٽس": 9807,
      "ھڪٻئي": 9808,
      "گوهر": 9809,
      "ينيم": 9810,
      "سانچوباب": 9811,
      "هيٺاهين": 9812,
      "بخشي": 9813,
      "کاڌن": 9814,
      "ڪاليجن": 9815,
      "اڀرندو": 9816,
      "علاؤ": 9817,
      "سڏائي": 9818,
      "شھاب": 9819,
      "جينيا": 9820,
      "منهنجا": 9821,
      "گهوٽي": 9822,
      "ڙيندڙ": 9823,
      "حڪمن": 9824,
      "ڪانفرنسن": 9825,
      "ٽيمپل": 9826,
      "حديثن": 9827,
      "ڇتين": 9828,
      "کهڙو": 9829,
      "پرائيمري": 9830,
      "يعقوبي": 9831,
      "مامون": 9832,
      "نبوي": 9833,
      "سڌارڪ": 9834,
      "مولود": 9835,
      "اوڻويھين": 9836,
      "اصفھان": 9837,
      "واعدو": 9838,
      "انفراسٽرڪچر": 9839,
      "پائلٽ": 9840,
      "دلچسپيء": 9841,
      "درجابندي": 9842,
      "!!": 9843,
      "آج": 9844,
      "آنو": 9845,
      "آسام": 9846,
      "اڪر": 9847,
      "حسي": 9848,
      "حمز": 9849,
      "حامل": 9850,
      "زري": 9851,
      "فف": 9852,
      "مياڻي": 9853,
      "نئن": 9854,
      "هام": 9855,
      "هڙا": 9856,
      "وهندي": 9857,
      "چانگ": 9858,
      "ڇٽي": 9859,
      "ڇھين": 9860,
      "ڏات": 9861,
      "کائ": 9862,
      "کجور": 9863,
      "انکان": 9864,
      "الاسڪا": 9865,
      "الهيار": 9866,
      "ورفت": 9867,
      "ميگني": 9868,
      "ائيزر": 9869,
      "ايسوسي": 9870,
      "ڪنو": 9871,
      "پيشه": 9872,
      "منگو": 9873,
      "پنھور": 9874,
      "برنس": 9875,
      "پويون": 9876,
      "واڱڻ": 9877,
      "نيت": 9878,
      "نيس": 9879,
      "سرڪي": 9880,
      "ڏيپلي": 9881,
      "زيتون": 9882,
      "ڪمرا": 9883,
      "معمار": 9884,
      "مشهوري": 9885,
      "مقصو": 9886,
      "گيج": 9887,
      "بوط": 9888,
      "مالهي": 9889,
      "استثنا": 9890,
      "ساڃ": 9891,
      "ايواني": 9892,
      "خوبين": 9893,
      "مختار": 9894,
      "آرڊيني": 9895,
      "جھلم": 9896,
      "عبدالنبي": 9897,
      "ــي": 9898,
      "رکيائون": 9899,
      "عاجز": 9900,
      "وسير": 9901,
      "لغات": 9902,
      "غلبو": 9903,
      "ڌوئڻ": 9904,
      "پالتو": 9905,
      "آفيسون": 9906,
      "تصويري": 9907,
      "خبردار": 9908,
      ".....<": 9909,
      "نياڻين": 9910,
      "لئنڊ": 9911,
      "سعيدآباد": 9912,
      "حفاظتي": 9913,
      "ڪچهري": 9914,
      "داستانن": 9915,
      "اللٰ": 9916,
      "پکڙجڻ": 9917,
      "اسڪردو": 9918,
      "آئسوٽوپ": 9919,
      "ويکيپيڈيا": 9920,
      "منزلن": 9921,
      "نروار": 9922,
      "آرڪيٽيڪچر": 9923,
      "جغرافيائي": 9924,
      "ڪوروناوائرس": 9925,
      "بورن": 9926,
      "خفي": 9927,
      "رڪو": 9928,
[...]
