{
  "version": "1.0",
  "truncation": null,
  "padding": null,
  "added_tokens": [
    {
      "id": 0,
      "content": "<UNK>",
      "single_word": false,
      "lstrip": false,
      "rstrip": false,
      "normalized": false,
      "special": true
    },
    {
      "id": 1,
      "content": "<PAD>",
      "single_word": false,
      "lstrip": false,
      "rstrip": false,
      "normalized": false,
      "special": true
    },
    {
      "id": 2,
      "content": "<BOS>",
      "single_word": false,
      "lstrip": false,
      "rstrip": false,
      "normalized": false,
      "special": true
    },
    {
      "id": 3,
      "content": "<EOS>",
      "single_word": false,
      "lstrip": false,
      "rstrip": false,
      "normalized": false,
      "special": true
    },
    {
      "id": 4,
      "content": "<SEP>",
      "single_word": false,
      "lstrip": false,
      "rstrip": false,
      "normalized": false,
      "special": true
    },
    {
      "id": 5,
      "content": "<MASK>",
      "single_word": false,
      "lstrip": false,
      "rstrip": false,
      "normalized": false,
      "special": true
    }
  ],
  "normalizer": null,
  "pre_tokenizer": {
    "type": "Whitespace"
  },
  "post_processor": null,
  "decoder": null,
  "model": {
    "type": "BPE",
    "dropout": null,
    "unk_token": "<UNK>",
    "continuing_subword_prefix": null,
    "end_of_word_suffix": null,
    "fuse_unk": false,
    "byte_fallback": false,
    "ignore_merges": false,
    "vocab": {
      "<UNK>": 0,
      "<PAD>": 1,
      "<BOS>": 2,
      "<EOS>": 3,
      "<SEP>": 4,
      "<MASK>": 5,
      "!": 6,
      ".": 7,
      "E": 8,
      "L": 9,
      "N": 10,
      "W": 11,
      "؁": 12,
      "؋": 13,
      "،": 14,
      "؎": 15,
      "ؐ": 16,
      "ؑ": 17,
      "ؒ": 18,
      "ؓ": 19,
      "ؕ": 20,
      "؛": 21,
      "؟": 22,
      "ء": 23,
      "آ": 24,
      "أ": 25,
      "ؤ": 26,
      "إ": 27,
      "ئ": 28,
      "ا": 29,
      "ب": 30,
      "ة": 31,
      "ت": 32,
      "ث": 33,
      "ج": 34,
      "ح": 35,
      "خ": 36,
      "د": 37,
      "ذ": 38,
      "ر": 39,
      "ز": 40,
      "س": 41,
      "ش": 42,
      "ص": 43,
      "ض": 44,
      "ط": 45,
      "ظ": 46,
      "ع": 47,
      "غ": 48,
      "ـ": 49,
      "ف": 50,
      "ق": 51,
      "ك": 52,
      "ل": 53,
      "م": 54,
      "ن": 55,
      "ه": 56,
      "و": 57,
      "ي": 58,
      "ً": 59,
      "ٓ": 60,
      "ٔ": 61,
      "ٕ": 62,
      "ٖ": 63,
      "ٗ": 64,
      "ٚ": 65,
      "ٜ": 66,
      "ٟ": 67,
      "٪": 68,
      "٫": 69,
      "٬": 70,
      "٭": 71,
      "ٮ": 72,
      "ٰ": 73,
      "ٱ": 74,
      "ٳ": 75,
      "ٴ": 76,
      "ٹ": 77,
      "ٺ": 78,
      "ٻ": 79,
      "ټ": 80,
      "ٽ": 81,
      "پ": 82,
      "ٿ": 83,
      "ڀ": 84,
      "ځ": 85,
      "ڃ": 86,
      "ڄ": 87,
      "څ": 88,
      "چ": 89,
      "ڇ": 90,
      "ڈ": 91,
      "ډ": 92,
      "ڊ": 93,
      "ڌ": 94,
      "ڍ": 95,
      "ڎ": 96,
      "ڏ": 97,
      "ڑ": 98,
      "ړ": 99,
      "ڕ": 100,
      "ږ": 101,
      "ژ": 102,
      "ڙ": 103,
      "ښ": 104,
      "ڦ": 105,
      "ک": 106,
      "ڪ": 107,
      "ګ": 108,
      "ڭ": 109,
      "گ": 110,
      "ڱ": 111,
      "ڲ": 112,
      "ڳ": 113,
      "ڵ": 114,
      "ں": 115,
      "ڻ": 116,
      "ھ": 117,
      "ہ": 118,
      "ۂ": 119,
      "ۃ": 120,
      "ۄ": 121,
      "ۅ": 122,
      "ۆ": 123,
      "ۇ": 124,
      "ۉ": 125,
      "ۏ": 126,
      "۔": 127,
      "ە": 128,
      "ۖ": 129,
      "ۗ": 130,
      "ۙ": 131,
      "ۚ": 132,
      "ۜ": 133,
      "۠": 134,
      "ۡ": 135,
      "ۢ": 136,
      "ۤ": 137,
      "۫": 138,
      "۬": 139,
      "ۮ": 140,
      "ۯ": 141,
      "۽": 142,
      "۾": 143,
      "ۿ": 144,
      "ݔ": 145,
      "ݣ": 146,
      "ݨ": 147,
      "ݯ": 148,
      "﴾": 149,
      "﴿": 150,
      "﷢": 151,
      "﷥": 152,
      "﷦": 153,
      "EW": 154,
      "يEW": 155,
      "نEW": 156,
      "وEW": 157,
      "جيEW": 158,
      "رEW": 159,
      "انEW": 160,
      "اEW": 161,
      "NL": 162,
      "لEW": 163,
      "ان": 164,
      "ار": 165,
      "ائ": 166,
      "يو": 167,
      "ند": 168,
      "هEW": 169,
      "آه": 170,
      "تEW": 171,
      "مEW": 172,
      "ءEW": 173,
      "جوEW": 174,
      "ال": 175,
      "ري": 176,
      "هنEW": 177,
      "ينEW": 178,
      "ڪEW": 179,
      "تيEW": 180,
      "دEW": 181,
      "ڻEW": 182,
      "رو": 183,
      "اس": 184,
      "يوEW": 185,
      "کيEW": 186,
      "لا": 187,
      "ريEW": 188,
      "آهي": 189,
      "اه": 190,
      "را": 191,
      "سEW": 192,
      "مي": 193,
      "ياEW": 194,
      "بEW": 195,
      "يءEW": 196,
      "يڪ": 197,
      "اد": 198,
      "عEW": 199,
      "ور": 200,
      "ما": 201,
      "کانEW": 202,
      "ارEW": 203,
      "ين": 204,
      "سن": 205,
      "ونEW": 206,
      "ئيEW": 207,
      "ٽEW": 208,
      "ورEW": 209,
      "سانEW": 210,
      "جن": 211,
      "عل": 212,
      "وي": 213,
      "اي": 214,
      "مو": 215,
      "هو": 216,
      "وا": 217,
      "ھنEW": 218,
      "ڪي": 219,
      "اريEW": 220,
      "سنڌ": 221,
      "يونEW": 222,
      "هڪEW": 223,
      "پي": 224,
      "ول": 225,
      "زم": 226,
      "ام": 227,
      "جاEW": 228,
      "اب": 229,
      "ڪريEW": 230,
      "تهEW": 231,
      "فEW": 232,
      "ست": 233,
      "ٿي": 234,
      "ڪر": 235,
      "مل": 236,
      "ائيEW": 237,
      "ون": 238,
      "آھ": 239,
      "سي": 240,
      "ندوEW": 241,
      "جيڪ": 242,
      "پن": 243,
      "آهن": 244,
      "اڪ": 245,
      "گه": 246,
      "يا": 247,
      "مانEW": 248,
      "ہEW": 249,
      "پو": 250,
      "ئي": 251,
      "زEW": 252,
      "هن": 253,
      "يون": 254,
      "سا": 255,
      "ڊEW": 256,
      "لاءEW": 257,
      "آهيEW": 258,
      "NLزم": 259,
      "NLزمرو": 260,
      "ڪو": 261,
      "من": 262,
      "لي": 263,
      "دي": 264,
      "اڻ": 265,
      "بهEW": 266,
      "ڙEW": 267,
      "او": 268,
      "بي": 269,
      "تر": 270,
      "ٿيEW": 271,
      "ھEW": 272,
      "با": 273,
      "جه": 274,
      "ليEW": 275,
      "اص": 276,
      "بيEW": 277,
      "سند": 278,
      "تا": 279,
      "ائي": 280,
      "لو": 281,
      "جي": 282,
      "مح": 283,
      "قEW": 284,
      "انيEW": 285,
      "ميEW": 286,
      "تي": 287,
      "جو": 288,
      "گEW": 289,
      "شه": 290,
      "نديEW": 291,
      "جEW": 292,
      "نداEW": 293,
      "ائينEW": 294,
      "نال": 295,
      "هيEW": 296,
      "شا": 297,
      "ٽيEW": 298,
      "مر": 299,
      "جنهنEW": 300,
      "ڪيوEW": 301,
      "بر": 302,
      "امEW": 303,
      "سنڌEW": 304,
      "يلEW": 305,
      "سر": 306,
      "شEW": 307,
      "در": 308,
      "وڏ": 309,
      "سو": 310,
      "سل": 311,
      "ٿو": 312,
      "قيEW": 313,
      "ڪن": 314,
      "ستانEW": 315,
      "جنEW": 316,
      "هوEW": 317,
      "ات": 318,
      "ڙيEW": 319,
      "ٽي": 320,
      "آھي": 321,
      "حEW": 322,
      "ره": 323,
      "ني": 324,
      "تعل": 325,
      "باد": 326,
      "طورEW": 327,
      "مدEW": 328,
      "چو": 329,
      "نيEW": 330,
      "سندسEW": 331,
      "في": 332,
      "پوءEW": 333,
      "ندڙEW": 334,
      "وٺ": 335,
      "وار": 336,
      "پرEW": 337,
      "مق": 338,
      "بل": 339,
      "پنهن": 340,
      "سيEW": 341,
      "برEW": 342,
      "عيEW": 343,
      "تع": 344,
      "ڪرڻEW": 345,
      "چEW": 346,
      "انهنEW": 347,
      "ڻيEW": 348,
      "ڏهنEW": 349,
      "اري": 350,
      "مع": 351,
      "ڪيEW": 352,
      "ويو": 353,
      "ٽرEW": 354,
      "جا": 355,
      "اف": 356,
      "واريEW": 357,
      "جيڪوEW": 358,
      "رس": 359,
      "وڌ": 360,
      "وڃ": 361,
      "اح": 362,
      "ماڻ": 363,
      "نهEW": 364,
      "گھ": 365,
      "رينEW": 366,
      "مخ": 367,
      "قتEW": 368,
      "اھ": 369,
      "کي": 370,
      "ڏي": 371,
      "رنEW": 372,
      "په": 373,
      "پا": 374,
      "سان": 375,
      "طر": 376,
      "تنEW": 377,
      "تابEW": 378,
      "تائينEW": 379,
      "قي": 380,
      "صو": 381,
      "اند": 382,
      "اڳ": 383,
      "سنڌيEW": 384,
      "شنEW": 385,
      "شھ": 386,
      "حي": 387,
      "اهوEW": 388,
      "اههEW": 389,
      "ڪتابEW": 390,
      "انگ": 391,
      "پڻEW": 392,
      "گڏ": 393,
      "نظ": 394,
      "نو": 395,
      "تو": 396,
      "ديEW": 397,
      "پنهنجيEW": 398,
      "ڪنEW": 399,
      "ھڪEW": 400,
      "منEW": 401,
      "جونEW": 402,
      "ڊي": 403,
      "پاڪ": 404,
      "فر": 405,
      "لک": 406,
      "گر": 407,
      "سالEW": 408,
      "هئ": 409,
      "پار": 410,
      "هي": 411,
      "چيEW": 412,
      "تح": 413,
      "محمدEW": 414,
      "ويوEW": 415,
      "ڪار": 416,
      "سڀ": 417,
      "خEW": 418,
      "اتEW": 419,
      "املEW": 420,
      "آباد": 421,
      "يرEW": 422,
      "ظEW": 423,
      "ههEW": 424,
      "علائ": 425,
      "متEW": 426,
      "اڻيEW": 427,
      "ٻول": 428,
      "وقتEW": 429,
      "شاملEW": 430,
      "ھو": 431,
      "ڪيو": 432,
      "پر": 433,
      "نگ": 434,
      "ڙوEW": 435,
      "قو": 436,
      "ير": 437,
      "ملEW": 438,
      "ٿوEW": 439,
      "پEW": 440,
      "سم": 441,
      "يمEW": 442,
      "ھيEW": 443,
      "نالوEW": 444,
      "رک": 445,
      "بنEW": 446,
      "ٿا": 447,
      "اخ": 448,
      "اهيEW": 449,
      "هيءEW": 450,
      "سٽ": 451,
      "ڳوٺ": 452,
      "ڪمEW": 453,
      "يڪEW": 454,
      "تاري": 455,
      "مط": 456,
      "لڳ": 457,
      "شن": 458,
      "نڍ": 459,
      "مالEW": 460,
      "پاڪستانEW": 461,
      "نا": 462,
      "شرو": 463,
      "ندEW": 464,
      "مار": 465,
      "ئنEW": 466,
      "اديEW": 467,
      "حا": 468,
      "بد": 469,
      "خانEW": 470,
      "داEW": 471,
      "فو": 472,
      "ڪل": 473,
      "ويندوEW": 474,
      "ڪا": 475,
      "اصلEW": 476,
      "جنھنEW": 477,
      "تہEW": 478,
      "آھيEW": 479,
      "بو": 480,
      "شهرEW": 481,
      "اسEW": 482,
      "واق": 483,
      "ائين": 484,
      "بادEW": 485,
      "ضل": 486,
      "عر": 487,
      "دو": 488,
      "خو": 489,
      "ملڪEW": 490,
      "ڪئيEW": 491,
      "آبادEW": 492,
      "جڏهنEW": 493,
      "هئي": 494,
      "شي": 495,
      "ڪاEW": 496,
      "ادEW": 497,
      "حص": 498,
      "مه": 499,
      "مد": 500,
      "مبرEW": 501,
      "وال": 502,
      "زيEW": 503,
      "ٿيو": 504,
      "..": 505,
      "ڳوٺEW": 506,
      "مش": 507,
      "نگEW": 508,
      "استع": 509,
      "صف": 510,
      "آهنEW": 511,
      "سائ": 512,
      "ارنEW": 513,
      "شھرEW": 514,
      "وڃيEW": 515,
      "ڪرا": 516,
      "ڪيتر": 517,
      "ٽر": 518,
      "ڻوEW": 519,
      "ڏن": 520,
      "هئا": 521,
      "فل": 522,
      "يتEW": 523,
      "ٽنEW": 524,
      "جيڪيEW": 525,
      "موجو": 526,
      "وڌيڪEW": 527,
      "سڀEW": 528,
      "دارEW": 529,
      "اسيEW": 530,
      "الي": 531,
      "ميرEW": 532,
      "اتيEW": 533,
      "ئينEW": 534,
      "سگه": 535,
      "ڪئي": 536,
      "زي": 537,
      "استعمالEW": 538,
      "تل": 539,
      "دن": 540,
      "الل": 541,
      "ڪوEW": 542,
      "لامEW": 543,
      "تن": 544,
      "عليEW": 545,
      "جيڪاEW": 546,
      "ھن": 547,
      "اNL": 548,
      "آھن": 549,
      "عامEW": 550,
      "ناليEW": 551,
      "ٺEW": 552,
      "ڪم": 553,
      "ڪرEW": 554,
      "يNL": 555,
      "بن": 556,
      "وڏيEW": 557,
      "ثرEW": 558,
      "نس": 559,
      "ائڻEW": 560,
      "رياس": 561,
      "گڏEW": 562,
      "ڪلEW": 563,
      "الEW": 564,
      "وڏوEW": 565,
      "ڪت": 566,
      "واقعEW": 567,
      "مري": 568,
      "مس": 569,
      "ائون": 570,
      "بہEW": 571,
      "نڊ": 572,
      "حڪو": 573,
      "ڪري": 574,
      "هرEW": 575,
      "سمEW": 576,
      "خاص": 577,
      "ٽو": 578,
      "شاع": 579,
      "ڌEW": 580,
      "ٻي": 581,
      "مين": 582,
      "پيEW": 583,
      "وريEW": 584,
      "شاههEW": 585,
      "بع": 586,
      "جھ": 587,
      "ڪجه": 588,
      "رتEW": 589,
      "مض": 590,
      "دنياEW": 591,
      "صد": 592,
      "پور": 593,
      "۾،": 594,
      "ڏک": 595,
      "ديھEW": 596,
      "کيسEW": 597,
      "ننڍ": 598,
      "تص": 599,
      "ٻينEW": 600,
      "گو": 601,
      "چون": 602,
      "مونEW": 603,
      "علائق": 604,
      "حاصلEW": 605,
      "پاڻEW": 606,
      "تانEW": 607,
      "دورEW": 608,
      "صفح": 609,
      "لنEW": 610,
      "تونEW": 611,
      "قائ": 612,
      "ذري": 613,
      "مختل": 614,
      "سيڪ": 615,
      "پرو": 616,
      "مختلفEW": 617,
      "تيارEW": 618,
      "سرEW": 619,
      "انگري": 620,
      "لوEW": 621,
      "اللهEW": 622,
      "ڊياEW": 623,
      "بوEW": 624,
      "روEW": 625,
      "مسل": 626,
      "لف": 627,
      "مامEW": 628,
      "آباديEW": 629,
      "ڳEW": 630,
      "ها": 631,
      "سال": 632,
      "چي": 633,
      "ڏين": 634,
      "ڪجههEW": 635,
      "وڪي": 636,
      "وچEW": 637,
      "جم": 638,
      "ريونEW": 639,
      "فيEW": 640,
      "ڪنهنEW": 641,
      "واروEW": 642,
      "پري": 643,
      "تاريخEW": 644,
      "ڇڏ": 645,
      "زنEW": 646,
      "شروعEW": 647,
      "ڪارEW": 648,
      "ڳال": 649,
      "موجودEW": 650,
      "اق": 651,
      "اترEW": 652,
      "هند": 653,
      "سب": 654,
      "مطاب": 655,
      "وNL": 656,
      "گرا": 657,
      "ڙنEW": 658,
      "حڪومتEW": 659,
      "سنEW": 660,
      "بعدEW": 661,
      "ٰEW": 662,
      "باب": 663,
      "گيEW": 664,
      "اول": 665,
      "بڻ": 666,
      "مشه": 667,
      "طEW": 668,
      "وف": 669,
      "ضلعيEW": 670,
      "ويEW": 671,
      "ڏکڻEW": 672,
      "قائمEW": 673,
      "مشهورEW": 674,
      "عي": 675,
      "ينيEW": 676,
      "تق": 677,
      "عبد": 678,
      "اچيEW": 679,
      "عال": 680,
      "ڀرEW": 681,
      "حيدر": 682,
      "سٽEW": 683,
      "لاEW": 684,
      "آر": 685,
      "ادبيEW": 686,
      "پھ": 687,
      "يونيو": 688,
      "ڳا": 689,
      "يونيورس": 690,
      "اهاEW": 691,
      "آمري": 692,
      "انس": 693,
      "اليEW": 694,
      "اننEW": 695,
      "صاح": 696,
      "خاصEW": 697,
      "تب": 698,
      "اڻEW": 699,
      "پورEW": 700,
      "ٿEW": 701,
      "سڏ": 702,
      "ازEW": 703,
      "دوEW": 704,
      "فار": 705,
      "عوEW": 706,
      "ٿاEW": 707,
      "آز": 708,
      "تعليمEW": 709,
      "پيداEW": 710,
      "بلEW": 711,
      "دري": 712,
      "ٻڌ": 713,
      "فري": 714,
      "اميEW": 715,
      "ضيEW": 716,
      "انهيءEW": 717,
      "وڪيپي": 718,
      "جل": 719,
      "مطابقEW": 720,
      "لين": 721,
      "ٻئيEW": 722,
      "ٿيلEW": 723,
      "به": 724,
      "ٿئيEW": 725,
      "حصوEW": 726,
      "اش": 727,
      "دنEW": 728,
      "فت": 729,
      "اع": 730,
      "ٿيوEW": 731,
      "NLسان": 732,
      "ندو": 733,
      "جيئنEW": 734,
      "جر": 735,
      "پبل": 736,
      "اوڀرEW": 737,
      "مليEW": 738,
      "مب": 739,
      "دور": 740,
      "ئر": 741,
      "مرڪ": 742,
      "ڏانهنEW": 743,
      "توEW": 744,
      "گي": 745,
      "NLن": 746,
      "سين": 747,
      "مذ": 748,
      "اسٽي": 749,
      "رياستEW": 750,
      "اڳEW": 751,
      "قدي": 752,
      "پڙ": 753,
      "هينEW": 754,
      "مص": 755,
      "وٽEW": 756,
      "ھوEW": 757,
      "آفEW": 758,
      "اهرEW": 759,
      "خان": 760,
      "ميٽرEW": 761,
      "ٿيڻEW": 762,
      "ئرEW": 763,
      "پنھن": 764,
      "علائقيEW": 765,
      "حاظEW": 766,
      "رھ": 767,
      "اءEW": 768,
      "دينEW": 769,
      "نديونEW": 770,
      "زاEW": 771,
      "تمامEW": 772,
      "زند": 773,
      "انڊ": 774,
      "هل": 775,
      "انھنEW": 776,
      "صاحبEW": 777,
      "ورتEW": 778,
      "ڙاEW": 779,
      "مون": 780,
      "بخ": 781,
      "قل": 782,
      "قسمEW": 783,
      "نق": 784,
      "آخ": 785,
      "کان": 786,
      "ٽوEW": 787,
      "مڪ": 788,
      "برا": 789,
      "اروEW": 790,
      "ڀر": 791,
      "لفظEW": 792,
      "پارانEW": 793,
      "شري": 794,
      "ڪاريEW": 795,
      "ڪتاب": 796,
      "اسانEW": 797,
      "NLا": 798,
      "ماڻهوEW": 799,
      "ڏنوEW": 800,
      "شو": 801,
      "وئيEW": 802,
      "وئي": 803,
      "ڪيلEW": 804,
      "تاريخ": 805,
      "ڪائون": 806,
      "انت": 807,
      "زمينEW": 808,
      "ڏينهنEW": 809,
      "جتيEW": 810,
      "مرEW": 811,
      "سما": 812,
      "طرحEW": 813,
      "قديمEW": 814,
      "NLم": 815,
      "سببEW": 816,
      "ڏا": 817,
      "جنگEW": 818,
      "ڊيEW": 819,
      "ستEW": 820,
      "ماڻهنEW": 821,
      "بور": 822,
      "يادEW": 823,
      "علا": 824,
      "ٻوليEW": 825,
      "علي": 826,
      "اٿ": 827,
      "پرا": 828,
      "غيرEW": 829,
      "احمدEW": 830,
      "ذريعيEW": 831,
      "عبدال": 832,
      "لويEW": 833,
      "شيEW": 834,
      "اهمEW": 835,
      "تاEW": 836,
      "صوبيEW": 837,
      "سوا": 838,
      "ضEW": 839,
      "ريءEW": 840,
      "ايEW": 841,
      "مٿ": 842,
      "ڪلو": 843,
      "ٽيڪ": 844,
      "چيوEW": 845,
      "يور": 846,
      "زر": 847,
      "پهريونEW": 848,
      "اچ": 849,
      "دهEW": 850,
      "چونڊ": 851,
      "ليک": 852,
      "نسEW": 853,
      "طرف": 854,
      "لاح": 855,
      "سلط": 856,
      "وغ": 857,
      "سلEW": 858,
      "تNL": 859,
      "صEW": 860,
      "ئونEW": 861,
      "ڊاڪ": 862,
      "اناEW": 863,
      "ڄEW": 864,
      "ــ": 865,
      "ديو": 866,
      "کو": 867,
      "شر": 868,
      "شروع": 869,
      "ايو": 870,
      "مائ": 871,
      "واپ": 872,
      "مال": 873,
      "ڪيائين": 874,
      "شع": 875,
      "پٽEW": 876,
      "نہEW": 877,
      "صفحوEW": 878,
      "حوال": 879,
      "ماEW": 880,
      "اسڪو": 881,
      "سياسيEW": 882,
      "سالنEW": 883,
      "گهڻوEW": 884,
      "NLآ": 885,
      "ٿيندوEW": 886,
      "ٽيءEW": 887,
      "رياEW": 888,
      "ٻهEW": 889,
      "يع": 890,
      "خت": 891,
      "قر": 892,
      "NLس": 893,
      "ٺاه": 894,
      "هوندوEW": 895,
      "مقر": 896,
      "ائنEW": 897,
      "سندنEW": 898,
      "ايڊي": 899,
      "مث": 900,
      "زارEW": 901,
      "سنڌي": 902,
      "رهيو": 903,
      "ڙو": 904,
      "پنھنجيEW": 905,
      "خلا": 906,
      "سمن": 907,
      "يانEW": 908,
      "اسٽ": 909,
      "ثق": 910,
      "ياتEW": 911,
      "نڊEW": 912,
      "سيدEW": 913,
      "پل": 914,
      "گور": 915,
      "طرفEW": 916,
      "وفاتEW": 917,
      "کEW": 918,
      "ايوEW": 919,
      "ڌر": 920,
      "قان": 921,
      "است": 922,
      "ٻيوEW": 923,
      "گا": 924,
      "پهرينEW": 925,
      "ڪان": 926,
      "ارتEW": 927,
      "ھي": 928,
      "ولEW": 929,
      "تعلقيEW": 930,
      "مقررEW": 931,
      "ترينEW": 932,
      "اديءEW": 933,
      "ٻنEW": 934,
      "ڪه": 935,
      "برو": 936,
      "ڊاڪٽرEW": 937,
      "پيلEW": 938,
      "NLسانچو": 939,
      "ظمEW": 940,
      "آھنEW": 941,
      "حال": 942,
      "دادEW": 943,
      "مضمونEW": 944,
      "صديEW": 945,
      "خاند": 946,
      "ندي": 947,
      "صدرEW": 948,
      "ڄيEW": 949,
      "ڀي": 950,
      "ٿيون": 951,
      "پيو": 952,
      "ڪياEW": 953,
      "رNL": 954,
      "پاڻيEW": 955,
      "اسڪولEW": 956,
      "ڪندوEW": 957,
      "طرفانEW": 958,
      "شاھEW": 959,
      "سط": 960,
      "تبدي": 961,
      "ٽاEW": 962,
      "ڪنداEW": 963,
      "وياEW": 964,
      "ريلويEW": 965,
      "جان": 966,
      "ڏيEW": 967,
      "تخ": 968,
      "ڪيترنEW": 969,
      "ريتEW": 970,
      "ميتEW": 971,
      "ياتيEW": 972,
      "اNLزمرو": 973,
      "يعنيEW": 974,
      "وٺيEW": 975,
      "تحري": 976,
      "جڻEW": 977,
      "بتEW": 978,
      "فنEW": 979,
      "سمجه": 980,
      "صح": 981,
      "عتEW": 982,
      "اسلا": 983,
      "ايلEW": 984,
      "ثقاف": 985,
      "وارنEW": 986,
      "سينEW": 987,
      "بابتEW": 988,
      "حدEW": 989,
      "ڪالي": 990,
      "ويا": 991,
      "نش": 992,
      "اني": 993,
      "شاه": 994,
      "ڪيترائيEW": 995,
      "غEW": 996,
      "گذ": 997,
      "شاي": 998,
      "يونNLزمرو": 999,
      "مسج": 1000,
      "قب": 1001,
      "بنيادEW": 1002,
      "عملEW": 1003,
      "پيشEW": 1004,
      "ندرEW": 1005,
      "اندرEW": 1006,
      "ڳوEW": 1007,
      "رفEW": 1008,
      "اراEW": 1009,
      "واميEW": 1010,
      "دورانEW": 1011,
      "هر": 1012,
      "مج": 1013,
      "اصط": 1014,
      "افيEW": 1015,
      "سگھ": 1016,
      "ايتEW": 1017,
      "بني": 1018,
      "از": 1019,
      "رهيوEW": 1020,
      "ريوEW": 1021,
      "مشت": 1022,
      "بلو": 1023,
      "ساڳ": 1024,
      "لاڳا": 1025,
      "خد": 1026,
      "مذه": 1027,
      "شخ": 1028,
      "قوميEW": 1029,
      "ضرو": 1030,
      "فرEW": 1031,
      "ڀا": 1032,
      "ڪراچيEW": 1033,
      "ڪش": 1034,
      "دانEW": 1035,
      "يونيورسٽيEW": 1036,
      "ڪسEW": 1037,
      "ٿينEW": 1038,
      "طري": 1039,
      "مينٽEW": 1040,
      "الدينEW": 1041,
      "نظامEW": 1042,
      "لينڊEW": 1043,
      "ڏھنEW": 1044,
      "نظرEW": 1045,
      "بح": 1046,
      "وغير": 1047,
      "باEW": 1048,
      "اھوEW": 1049,
      "ائونEW": 1050,
      "حض": 1051,
      "دائ": 1052,
      "مNL": 1053,
      "هيٺEW": 1054,
      "ڙيءEW": 1055,
      "ڻنEW": 1056,
      "اڪثرEW": 1057,
      "عمرEW": 1058,
      "هڻEW": 1059,
      "سائي": 1060,
      "گرو": 1061,
      "تعلقEW": 1062,
      "کانپوءEW": 1063,
      "راEW": 1064,
      "ٻياEW": 1065,
      "حيدرآبادEW": 1066,
      "آئ": 1067,
      "غلامEW": 1068,
      "ملڪنEW": 1069,
      "ٻيEW": 1070,
      "اسي": 1071,
      "هانEW": 1072,
      "خي": 1073,
      "وڪيپيڊياEW": 1074,
      "ڌاريEW": 1075,
      "وز": 1076,
      "انگريزيEW": 1077,
      "ڪائونسلEW": 1078,
      "نص": 1079,
      "ٻوليءEW": 1080,
      "نمبرEW": 1081,
      "شياEW": 1082,
      "ڄاڻ": 1083,
      "پٽ": 1084,
      "ستانيEW": 1085,
      "ڪال": 1086,
      "گرEW": 1087,
      "مشتملEW": 1088,
      "گهر": 1089,
      "بورڊEW": 1090,
      "فا": 1091,
      "يونينEW": 1092,
      "ايڪ": 1093,
      "سيڪڙوEW": 1094,
      "قبي": 1095,
      "نئينEW": 1096,
      "هئيEW": 1097,
      "گورن": 1098,
      "واراEW": 1099,
      "ڪنديEW": 1100,
      "ادبEW": 1101,
      "سمنڊEW": 1102,
      "اک": 1103,
      "علمEW": 1104,
      "چوEW": 1105,
      "اٽ": 1106,
      "صورتEW": 1107,
      "ٻن": 1108,
      "ڪول": 1109,
      "سوEW": 1110,
      "مينEW": 1111,
      "ابEW": 1112,
      "هڪ": 1113,
      "ڇا": 1114,
      "پول": 1115,
      "ترقيEW": 1116,
      "چارEW": 1117,
      "امي": 1118,
      "گلEW": 1119,
      "ترEW": 1120,
      "يالEW": 1121,
      "بينEW": 1122,
      "اسلامEW": 1123,
      "اهڙيEW": 1124,
      "ورنEW": 1125,
      "ميلEW": 1126,
      "عور": 1127,
      "بيانEW": 1128,
      "نام": 1129,
      "مارEW": 1130,
      "ختمEW": 1131,
      "وينديEW": 1132,
      "ڪلوميٽرEW": 1133,
      "انتظ": 1134,
      "هتيEW": 1135,
      "شرEW": 1136,
      "ديدEW": 1137,
      "رنگEW": 1138,
      "سک": 1139,
      "ڇپ": 1140,
      "لغ": 1141,
      "سنڌيان": 1142,
      "انوEW": 1143,
      "ڏيڻEW": 1144,
      "ثEW": 1145,
      "قوEW": 1146,
      "آزادEW": 1147,
      "وسي": 1148,
      "رانEW": 1149,
      "حضرتEW": 1150,
      "مھ": 1151,
      "بانEW": 1152,
      "حيث": 1153,
      "رهيEW": 1154,
      "ڏئيEW": 1155,
      "هنڌEW": 1156,
      "اولEW": 1157,
      "تعلي": 1158,
      "وغيرهEW": 1159,
      "ناEW": 1160,
      "شيخEW": 1161,
      "بارEW": 1162,
      "سواءEW": 1163,
      "مددEW": 1164,
      "ڪندڙEW": 1165,
      "مغ": 1166,
      "لکيلEW": 1167,
      "راتEW": 1168,
      "برط": 1169,
      "ٿرEW": 1170,
      "مول": 1171,
      "علو": 1172,
      "گهٽEW": 1173,
      "ذڪرEW": 1174,
      "آمريڪاEW": 1175,
      "حيثيتEW": 1176,
      "سڀنيEW": 1177,
      "شروعاتEW": 1178,
      "وروEW": 1179,
      "پيرEW": 1180,
      "هندستانEW": 1181,
      "رلEW": 1182,
      "قنEW": 1183,
      "نوا": 1184,
      "هونديEW": 1185,
      "ڪوٽEW": 1186,
      "رارEW": 1187,
      "تحقي": 1188,
      "جلدEW": 1189,
      "خاندانEW": 1190,
      "ڪاليجEW": 1191,
      "نتي": 1192,
      "سرڪاريEW": 1193,
      "ڪون": 1194,
      "فائ": 1195,
      "ٽسEW": 1196,
      "نتEW": 1197,
      "علائقنEW": 1198,
      "حيدرآباد": 1199,
      "اين": 1200,
      "گهرEW": 1201,
      "ةEW": 1202,
      "ميو": 1203,
      "رکيEW": 1204,
      "انNL": 1205,
      "اسلاميEW": 1206,
      "ڌيEW": 1207,
      "ورسEW": 1208,
      "آڪ": 1209,
      "سڃ": 1210,
      "ڙوڪEW": 1211,
      "دمEW": 1212,
      "ميمبرEW": 1213,
      "اختيارEW": 1214,
      "مڪملEW": 1215,
      "مرزاEW": 1216,
      "ھرEW": 1217,
      "ته": 1218,
      "عو": 1219,
      "مرڪزEW": 1220,
      "فتEW": 1221,
      "وانگ": 1222,
      "NLج": 1223,
      "ميٽ": 1224,
      "پنج": 1225,
      "عنEW": 1226,
      "خيالEW": 1227,
      "بلحاظEW": 1228,
      "کا": 1229,
      "ٻو": 1230,
      "چئ": 1231,
      "بنياديEW": 1232,
      "تلEW": 1233,
      "موج": 1234,
      "لائ": 1235,
      "گڏيلEW": 1236,
      "داخ": 1237,
      "ٿينديEW": 1238,
      "شنلEW": 1239,
      "وليEW": 1240,
      "تاريخيEW": 1241,
      "سام": 1242,
      "جاريEW": 1243,
      "صرفEW": 1244,
      "سڏيوEW": 1245,
      "ليکڪEW": 1246,
      "اسپ": 1247,
      "آنEW": 1248,
      "رکيوEW": 1249,
      "راءEW": 1250,
      "اولههEW": 1251,
      "خط": 1252,
      "بخشEW": 1253,
      "رامEW": 1254,
      "ڻاEW": 1255,
      "علائقوEW": 1256,
      "صن": 1257,
      "اڄEW": 1258,
      "حڪ": 1259,
      "مت": 1260,
      "ڻي": 1261,
      "ھئي": 1262,
      "پبلشرEW": 1263,
      "عالميEW": 1264,
      "پک": 1265,
      "معي": 1266,
      "ڪين": 1267,
      "جيڪڏهنEW": 1268,
      "هيو": 1269,
      "NLب": 1270,
      "اثرEW": 1271,
      "فلمEW": 1272,
      "ڄامEW": 1273,
      "ڄام": 1274,
      "هوءEW": 1275,
      "طي": 1276,
      "مان": 1277,
      "ڇو": 1278,
      "اھيEW": 1279,
      "مسجدEW": 1280,
      "ڏنيEW": 1281,
      "پوEW": 1282,
      "پاسيEW": 1283,
      "مريEW": 1284,
      "فقي": 1285,
      "پاڻ": 1286,
      "يروEW": 1287,
      "خلافEW": 1288,
      "ٺوEW": 1289,
      "ڪڍ": 1290,
      "درEW": 1291,
      "زمانيEW": 1292,
      "شايعEW": 1293,
      "جاءEW": 1294,
      "هندوEW": 1295,
      "انسانيEW": 1296,
      "دست": 1297,
      "ڪردارEW": 1298,
      "راڻيEW": 1299,
      "لڳEW": 1300,
      "ڪڏهنEW": 1301,
      "لاحEW": 1302,
      "ڪوش": 1303,
      "ھئ": 1304,
      "بندEW": 1305,
      "نسلEW": 1306,
      "گري": 1307,
      "مٿيEW": 1308,
      "تقري": 1309,
      "فق": 1310,
      "آفري": 1311,
      "ٽڪEW": 1312,
      "ڙيلEW": 1313,
      "جديدEW": 1314,
      "داد": 1315,
      "لبEW": 1316,
      "ڪامي": 1317,
      "معني": 1318,
      "ٽري": 1319,
      "ڳاله": 1320,
      "زندگيEW": 1321,
      "لحاظEW": 1322,
      "يات": 1323,
      "نيو": 1324,
      "جاگرا": 1325,
      "سنڌياناNL": 1326,
      "لکيEW": 1327,
      "ريلEW": 1328,
      "ذي": 1329,
      "ترجم": 1330,
      "هئاEW": 1331,
      "جانEW": 1332,
      "شاعرEW": 1333,
      "مز": 1334,
      "مرا": 1335,
      "گل": 1336,
      "NLهنEW": 1337,
      "آيو": 1338,
      "وينداEW": 1339,
      "ٺه": 1340,
      "ڙي": 1341,
      "ماريEW": 1342,
      "معلو": 1343,
      "ڊو": 1344,
      "شورو": 1345,
      "اڃ": 1346,
      "دؤ": 1347,
      "اردوEW": 1348,
      "ڪنھنEW": 1349,
      "مختيارEW": 1350,
      "سپ": 1351,
      "جهڙوڪEW": 1352,
      "گن": 1353,
      "آيوEW": 1354,
      "ابيEW": 1355,
      "اض": 1356,
      "سرو": 1357,
      "ادي": 1358,
      "حقEW": 1359,
      "سڄيEW": 1360,
      "تحريڪEW": 1361,
      "مثالEW": 1362,
      "اڳوا": 1363,
      "ارينEW": 1364,
      "تنظ": 1365,
      "حيEW": 1366,
      "اڏ": 1367,
      "پنEW": 1368,
      "ادرEW": 1369,
      "سماجيEW": 1370,
      "جنمEW": 1371,
      "چونداEW": 1372,
      "آمريڪيEW": 1373,
      "معنيٰEW": 1374,
      "کڻيEW": 1375,
      "ونNL": 1376,
      "مرت": 1377,
      "بولEW": 1378,
      "وڃي": 1379,
      "فتحEW": 1380,
      "وڪيEW": 1381,
      "شاگر": 1382,
      "بڻجيEW": 1383,
      "ٿيا": 1384,
      "حواليEW": 1385,
      "دان": 1386,
      "ڪافيEW": 1387,
      "ڇEW": 1388,
      "مطال": 1389,
      "هونEW": 1390,
      "گاديءEW": 1391,
      "ٻارEW": 1392,
      "ضو": 1393,
      "ٿينداEW": 1394,
      "عربEW": 1395,
      "نڊيEW": 1396,
      "ايمEW": 1397,
      "استEW": 1398,
      "پنهنجوEW": 1399,
      "ونيEW": 1400,
      "انسانEW": 1401,
      "تنهنEW": 1402,
      "گيءEW": 1403,
      "چينEW": 1404,
      "ڪرو": 1405,
      "رڪ": 1406,
      "تعميرEW": 1407,
      "سائنسEW": 1408,
      "عربيEW": 1409,
      "تڏهنEW": 1410,
      "ظاهرEW": 1411,
      "مبر": 1412,
      "ڇوEW": 1413,
      "ڊرا": 1414,
      "هيٺ": 1415,
      "لNL": 1416,
      "...": 1417,
      "ٺيEW": 1418,
      "اسٽيشن": 1419,
      "النEW": 1420,
      "وه": 1421,
      "منظ": 1422,
      "استا": 1423,
      "فوجEW": 1424,
      "صي": 1425,
      "عب": 1426,
      "ٽيونEW": 1427,
      "ھيو": 1428,
      "رسEW": 1429,
      "سلطنتEW": 1430,
      "برطان": 1431,
      "حقي": 1432,
      "ھيءEW": 1433,
      "هونداEW": 1434,
      "استادEW": 1435,
      "حسينEW": 1436,
      "رائ": 1437,
      "سگهيEW": 1438,
      "ڀاڱ": 1439,
      "سخ": 1440,
      "مف": 1441,
      "ٽينEW": 1442,
      "سانچ": 1443,
      "عورتنEW": 1444,
      "دلEW": 1445,
      "قدر": 1446,
      "ارڊEW": 1447,
      "روز": 1448,
      "تعدادEW": 1449,
      "قاب": 1450,
      "آفي": 1451,
      "موجبEW": 1452,
      "بچ": 1453,
      "ندڙ": 1454,
      "اج": 1455,
      "تصوي": 1456,
      "ٽريEW": 1457,
      "ران": 1458,
      "پنجا": 1459,
      "مست": 1460,
      "هٿEW": 1461,
      "انگEW": 1462,
      "هننEW": 1463,
      "حسنEW": 1464,
      "عاEW": 1465,
      "ائيندڙEW": 1466,
      "عليهEW": 1467,
      "آخريEW": 1468,
      "قرارEW": 1469,
      "شينEW": 1470,
      "ماح": 1471,
      "اڪي": 1472,
      "رڳوEW": 1473,
      "مانيEW": 1474,
      "دؤرEW": 1475,
      "آگ": 1476,
      "ابت": 1477,
      "دار": 1478,
      "اليڪ": 1479,
      "نيشنلEW": 1480,
      "تحتEW": 1481,
      "بار": 1482,
      "ويجه": 1483,
      "متا": 1484,
      "پيوEW": 1485,
      "چورسEW": 1486,
      "اداEW": 1487,
      "مڻEW": 1488,
      "ماننEW": 1489,
      "سه": 1490,
      "ترتي": 1491,
      "فوجيEW": 1492,
      "ائو": 1493,
      "اتوEW": 1494,
      "اصطلاح": 1495,
      "رونEW": 1496,
      "ھتيEW": 1497,
      "وانگرEW": 1498,
      "شاديEW": 1499,
      "رب": 1500,
      "سلي": 1501,
      "الاق": 1502,
      "ٽNL": 1503,
      "افEW": 1504,
      "حصيEW": 1505,
      "سٽري": 1506,
      "جودEW": 1507,
      "ڪئ": 1508,
      "مقامEW": 1509,
      "قانونEW": 1510,
      "جڳ": 1511,
      "تريEW": 1512,
      "مسلمEW": 1513,
      "شاھ": 1514,
      "تج": 1515,
      "نه": 1516,
      "ماءEW": 1517,
      "جنرلEW": 1518,
      "پنجابEW": 1519,
      "داخلEW": 1520,
      "مسلمانEW": 1521,
      "ڏاڍ": 1522,
      "وڻEW": 1523,
      "مضمون": 1524,
      "لاڳاپيلEW": 1525,
      "مهEW": 1526,
      "ترجموEW": 1527,
      "ڏس": 1528,
      "مٿانEW": 1529,
      "ڏيک": 1530,
      "ڙڪ": 1531,
      "سور": 1532,
      "هاڻيEW": 1533,
      "ملا": 1534,
      "ڊائ": 1535,
      "مير": 1536,
      "لن": 1537,
      "عظ": 1538,
      "دل": 1539,
      "ايشياEW": 1540,
      "وڏاEW": 1541,
      "ائيءEW": 1542,
      "مارچEW": 1543,
      "ٻيونEW": 1544,
      "ڏنلEW": 1545,
      "ميانEW": 1546,
      "تائين": 1547,
      "ھينEW": 1548,
      "ڊوي": 1549,
      "گهڻيEW": 1550,
      "رواي": 1551,
      "مسلماننEW": 1552,
      "عيسو": 1553,
      "الاقواميEW": 1554,
      "ڌوEW": 1555,
      "ايم": 1556,
      "ڪراچ": 1557,
      "موضو": 1558,
      "باقيEW": 1559,
      "ساEW": 1560,
      "رستEW": 1561,
      "لکيوEW": 1562,
      "اينEW": 1563,
      "ٽرو": 1564,
      "ڇڏي": 1565,
      "پسند": 1566,
      "ڊيا": 1567,
      "اڳتيEW": 1568,
      "مطلبEW": 1569,
      "NLعEW": 1570,
      "الڳEW": 1571,
      "سياست": 1572,
      "مسئ": 1573,
      "يورپEW": 1574,
      "ستيEW": 1575,
      "ڍنڍ": 1576,
      "چار": 1577,
      "يڪلEW": 1578,
      "بند": 1579,
      "سNL": 1580,
      "پيءEW": 1581,
      "شاعريEW": 1582,
      "ڳالههEW": 1583,
      "تبديلEW": 1584,
      "هنڪريEW": 1585,
      "رح": 1586,
      "نٽEW": 1587,
      "ڳنڍ": 1588,
      "ٿيندڙEW": 1589,
      "اط": 1590,
      "لوڪEW": 1591,
      "وڃنEW": 1592,
      "اوي": 1593,
      "مشھ": 1594,
      "فيص": 1595,
      "فقيرEW": 1596,
      "تشري": 1597,
      "فران": 1598,
      "قرآنEW": 1599,
      "حڪمر": 1600,
      "ندا": 1601,
      "مرتبEW": 1602,
      "ملنEW": 1603,
      "يونNL": 1604,
      "ٻنهيEW": 1605,
      "راب": 1606,
      "پئ": 1607,
      "جنوريEW": 1608,
      "مولاناEW": 1609,
      "بلوچ": 1610,
      "ملڪ": 1611,
      "امنEW": 1612,
      "جائ": 1613,
      "زبانEW": 1614,
      "وٽ": 1615,
      "ايسEW": 1616,
      "ليلEW": 1617,
      "ڄامشورو": 1618,
      "ڇاEW": 1619,
      "قلا": 1620,
      "ھيوEW": 1621,
      "ڇڏيو": 1622,
      "موسي": 1623,
      "مقاميEW": 1624,
      "پارٽيEW": 1625,
      "ڪور": 1626,
      "ماڻھوEW": 1627,
      "عمار": 1628,
      "پٺ": 1629,
      "صيEW": 1630,
      "ںEW": 1631,
      "سطحEW": 1632,
      "چندEW": 1633,
      "تحقيقEW": 1634,
      "پوريEW": 1635,
      "لکEW": 1636,
      "شهر": 1637,
      "ابنEW": 1638,
      "فلس": 1639,
      "وزيرEW": 1640,
      "لاڙڪ": 1641,
      "زن": 1642,
      "چوريوEW": 1643,
      "چونڊEW": 1644,
      "وره": 1645,
      "شتEW": 1646,
      "آخرEW": 1647,
      "جڏھنEW": 1648,
      "ڪيونEW": 1649,
      "ڪمپن": 1650,
      "نمائ": 1651,
      "عNL": 1652,
      "هيون": 1653,
      "نار": 1654,
      "جني": 1655,
      "توهانEW": 1656,
      "اولھEW": 1657,
      "پنجEW": 1658,
      "چر": 1659,
      "روا": 1660,
      "انڊياEW": 1661,
      "ٻولينEW": 1662,
      "جاگرافي": 1663,
      "پاڻيءEW": 1664,
      "نما": 1665,
      "گهو": 1666,
      "مشھورEW": 1667,
      "افغ": 1668,
      "مقاب": 1669,
      "راج": 1670,
      "ڇڏيEW": 1671,
      "ڪهاڻ": 1672,
      "ستان": 1673,
      "ڊسم": 1674,
      "شڪ": 1675,
      "هجي": 1676,
      "ڏنو": 1677,
      "ھئيEW": 1678,
      "بيتEW": 1679,
      "سمنEW": 1680,
      "قتلEW": 1681,
      "مکي": 1682,
      "لاء": 1683,
      "کينEW": 1684,
      "لفظ": 1685,
      "سفرEW": 1686,
      "NLھنEW": 1687,
      "اڳو": 1688,
      "سنڌوEW": 1689,
      "ٽن": 1690,
      "اداڪ": 1691,
      "ننڍيEW": 1692,
      "مجمو": 1693,
      "هليEW": 1694,
      "سنگ": 1695,
      "زورEW": 1696,
      "ڪيمي": 1697,
      "بال": 1698,
      "صدEW": 1699,
      "ھوندوEW": 1700,
      "باريEW": 1701,
      "زتEW": 1702,
      "ترتيبEW": 1703,
      "قا": 1704,
      "وارEW": 1705,
      "توڙيEW": 1706,
      "ائينداEW": 1707,
      "وڙ": 1708,
      "اچڻEW": 1709,
      "ڪلي": 1710,
      "معاش": 1711,
      "ڪوششEW": 1712,
      "پوء": 1713,
      "هار": 1714,
      "اھاEW": 1715,
      "ڪتابنEW": 1716,
      "پاسEW": 1717,
      "الوEW": 1718,
      "طب": 1719,
      "مڃ": 1720,
      "توڻ": 1721,
      "جبلEW": 1722,
      "سامو": 1723,
      "فن": 1724,
      "جيتوڻ": 1725,
      "نتيجيEW": 1726,
      "ٻار": 1727,
      "ٽيو": 1728,
      "حد": 1729,
      "موجودهEW": 1730,
      "رض": 1731,
      "ضوEW": 1732,
      "متنEW": 1733,
      "سميتEW": 1734,
      "عه": 1735,
      "ماڻھنEW": 1736,
      "رڪار": 1737,
      "مئ": 1738,
      "پياEW": 1739,
      "تيءEW": 1740,
      "شڪلEW": 1741,
      "مقصدEW": 1742,
      "بين": 1743,
      "سولEW": 1744,
      "ملاح": 1745,
      "تعليميEW": 1746,
      "دائيEW": 1747,
      "فارسيEW": 1748,
      "سائنس": 1749,
      "هجيEW": 1750,
      "ڙيونEW": 1751,
      "سگهجيEW": 1752,
      "اوتEW": 1753,
      "NLنئونEW": 1754,
      "اندازEW": 1755,
      "ثقافتيEW": 1756,
      "لئ": 1757,
      "سگ": 1758,
      "اسڪول": 1759,
      "والEW": 1760,
      "نوانEW": 1761,
      "پھرينEW": 1762,
      "مصن": 1763,
      "گرمEW": 1764,
      "سڪ": 1765,
      "ائرEW": 1766,
      "اهي": 1767,
      "اسٽيشنNL": 1768,
      "رست": 1769,
      "مدر": 1770,
      "وط": 1771,
      "حڪمEW": 1772,
      "عالمEW": 1773,
      "آوا": 1774,
      "بھ": 1775,
      "جبل": 1776,
      "تف": 1777,
      "جداEW": 1778,
      "جيتوڻيڪEW": 1779,
      "حاڪ": 1780,
      "خلي": 1781,
      "ڇيEW": 1782,
      "دف": 1783,
      "طا": 1784,
      "ڊنEW": 1785,
      "ڪلا": 1786,
      "اصطلاحنEW": 1787,
      "سختEW": 1788,
      "جسمEW": 1789,
      "سون": 1790,
      "چڪوEW": 1791,
      "چيئر": 1792,
      "ريگ": 1793,
      "اولا": 1794,
      "بغ": 1795,
      "قط": 1796,
      "نسيEW": 1797,
      "پروگرا": 1798,
      "داو": 1799,
      "انج": 1800,
      "موڪل": 1801,
      "گريEW": 1802,
      "زندگيءEW": 1803,
      "زمEW": 1804,
      "رکندڙEW": 1805,
      "مذهبيEW": 1806,
      "ورتو": 1807,
      "مرڪزيEW": 1808,
      "غل": 1809,
      "گارEW": 1810,
      "ارتيEW": 1811,
      "قومEW": 1812,
      "ڄاڻEW": 1813,
      "ايڊيشنEW": 1814,
      "بيگ": 1815,
      "عورتEW": 1816,
      "شم": 1817,
      "پئيEW": 1818,
      "خداEW": 1819,
      "ذEW": 1820,
      "وائ": 1821,
      "ٻيٽEW": 1822,
      "ليا": 1823,
      "يدEW": 1824,
      "اڃاEW": 1825,
      "نوجو": 1826,
      "قلعيEW": 1827,
      "نئونEW": 1828,
      "ٽين": 1829,
      "پولي": 1830,
      "اون": 1831,
      "ٽلEW": 1832,
      "الاEW": 1833,
      "پيدائ": 1834,
      "پھريونEW": 1835,
      "فتارEW": 1836,
      "واس": 1837,
      "پريEW": 1838,
      "ڀڳEW": 1839,
      "لالEW": 1840,
      "ڙهيEW": 1841,
      "اصليEW": 1842,
      "هنديEW": 1843,
      "پريلEW": 1844,
      "سلا": 1845,
      "ادنEW": 1846,
      "هNL": 1847,
      "خود": 1848,
      "بانيEW": 1849,
      "چڱ": 1850,
      "حالEW": 1851,
      "شاعريءEW": 1852,
      "جمهو": 1853,
      "ڀيروEW": 1854,
      "ڻNL": 1855,
      "ڊسمبرEW": 1856,
      "ونNLزمرو": 1857,
      "امامEW": 1858,
      "چئبوEW": 1859,
      "اميرEW": 1860,
      "ڙينEW": 1861,
      "آڪٽو": 1862,
      "جما": 1863,
      "لغت": 1864,
      "آث": 1865,
      "والدEW": 1866,
      "رابط": 1867,
      "سار": 1868,
      "هزارEW": 1869,
      "ايرانEW": 1870,
      "صليEW": 1871,
      "ريNL": 1872,
      "عد": 1873,
      "چرEW": 1874,
      "ائن": 1875,
      "موادEW": 1876,
      "لش": 1877,
      "ڌارEW": 1878,
      "سنڀ": 1879,
      "ڪNL": 1880,
      "انتظاميEW": 1881,
      "قابلEW": 1882,
      "ليڪ": 1883,
      "وق": 1884,
      "پاس": 1885,
      "ڪيا": 1886,
      "ٿياEW": 1887,
      "پيداو": 1888,
      "ڪناريEW": 1889,
      "پاڪستانيEW": 1890,
      "شوEW": 1891,
      "ڊاEW": 1892,
      "سجEW": 1893,
      "اسيمب": 1894,
      "ڪراچيءEW": 1895,
      "رکڻEW": 1896,
      "حمل": 1897,
      "خطEW": 1898,
      "داريEW": 1899,
      "بزر": 1900,
      "ڊڪ": 1901,
      "گاههEW": 1902,
      "بادشاههEW": 1903,
      "مکيهEW": 1904,
      "وجه": 1905,
      "رستيEW": 1906,
      "زمي": 1907,
      "ٽا": 1908,
      "ڊيوEW": 1909,
      "حيات": 1910,
      "وڪيپيڊيا": 1911,
      "خوا": 1912,
      "مرح": 1913,
      "عظيمEW": 1914,
      "ماه": 1915,
      "پاEW": 1916,
      "سامونڊيEW": 1917,
      "تعلقو": 1918,
      "راجاEW": 1919,
      "قدرتيEW": 1920,
      "منهن": 1921,
      "نالاEW": 1922,
      "وڌيEW": 1923,
      "گھر": 1924,
      "بنگ": 1925,
      "فوٽEW": 1926,
      "تشريحيEW": 1927,
      "نبيEW": 1928,
      "هاEW": 1929,
      "فيبرو": 1930,
      "واپسEW": 1931,
      "آگسٽEW": 1932,
      "غز": 1933,
      "جع": 1934,
      "ليو": 1935,
      "روش": 1936,
      "ابوEW": 1937,
      "اڪيEW": 1938,
      "صحي": 1939,
      "نمو": 1940,
      "ڇاڪ": 1941,
      "سيپٽ": 1942,
      "انجني": 1943,
      "رڪارڊEW": 1944,
      "اجا": 1945,
      "اٿار": 1946,
      "حالتEW": 1947,
      "آفريڪاEW": 1948,
      "ٽال": 1949,
      "مخال": 1950,
      "قيدEW": 1951,
      "عقي": 1952,
      "ڊلEW": 1953,
      "ڊگه": 1954,
      "ڇاڪاڻEW": 1955,
      "انقلا": 1956,
      "اٿس": 1957,
      "جرEW": 1958,
      "پسندEW": 1959,
      "يڪي": 1960,
      "انهيEW": 1961,
      "لکڻEW": 1962,
      "راه": 1963,
      "الو": 1964,
      "ساح": 1965,
      "پهچ": 1966,
      "قبضوEW": 1967,
      "اٽڪلEW": 1968,
      "شڪار": 1969,
      "برطانويEW": 1970,
      "اڻوEW": 1971,
      "وڏنEW": 1972,
      "سيڪري": 1973,
      "شريفEW": 1974,
      "فه": 1975,
      "عث": 1976,
      "سليEW": 1977,
      "عواميEW": 1978,
      "وسل": 1979,
      "قومنEW": 1980,
      "صديءEW": 1981,
      "ٻہEW": 1982,
      "پکي": 1983,
      "ڊيو": 1984,
      "گوEW": 1985,
      "سلطانEW": 1986,
      "رج": 1987,
      "انگريزنEW": 1988,
      "صور": 1989,
      "مذھ": 1990,
      "طاقتEW": 1991,
      "جهانEW": 1992,
      "پرائ": 1993,
      "هاءEW": 1994,
      "زNL": 1995,
      "روڊEW": 1996,
      "باغ": 1997,
      "مهين": 1998,
      "پروفي": 1999,
      "آهيNL": 2000,
      "ضلعوEW": 2001,
      "موEW": 2002,
      "ڏينداEW": 2003,
      "رائي": 2004,
      "شيءEW": 2005,
      "اعل": 2006,
      "رابEW": 2007,
      "معام": 2008,
      "ٽائيEW": 2009,
      "دومEW": 2010,
      "زيءEW": 2011,
      "انٽر": 2012,
      "تجر": 2013,
      "باغEW": 2014,
      "آزاديEW": 2015,
      "ٻارنEW": 2016,
      "جولاءEW": 2017,
      "متاثرEW": 2018,
      "پلي": 2019,
      "ضرورتEW": 2020,
      "وزي": 2021,
      "ئن": 2022,
      "ڏو": 2023,
      "NLچ": 2024,
      "افتEW": 2025,
      "اسيمبليEW": 2026,
      "ڀاءEW": 2027,
      "رهياEW": 2028,
      "عليٰEW": 2029,
      "تعلقوEW": 2030,
      "ٻيهرEW": 2031,
      "جهEW": 2032,
      "ماتEW": 2033,
      "اولادEW": 2034,
      "نڪت": 2035,
      "ڪلامEW": 2036,
      "ڪيٽEW": 2037,
      "ٿئي": 2038,
      "اتانEW": 2039,
      "پراڻيEW": 2040,
      "ٽنگEW": 2041,
      "موق": 2042,
      "بائيEW": 2043,
      "وچ": 2044,
      "تروEW": 2045,
      "بNL": 2046,
      "ذاتEW": 2047,
      "خبرEW": 2048,
      "ڀارتEW": 2049,
      "آڪٽوبرEW": 2050,
      "ٺٽيEW": 2051,
      "بيگEW": 2052,
      "جوڙ": 2053,
      "تنظيمEW": 2054,
      "ڪروEW": 2055,
      "زوEW": 2056,
      "ٺاھ": 2057,
      "منصو": 2058,
      "نومبرEW": 2059,
      "سنڌيءEW": 2060,
      "گورنرEW": 2061,
      "شلEW": 2062,
      "ڇڏيوEW": 2063,
      "جوا": 2064,
      "ڪمي": 2065,
      "خودEW": 2066,
      "طيفEW": 2067,
      "اپريلEW": 2068,
      "خير": 2069,
      "رهي": 2070,
      "پٿرEW": 2071,
      "چوڻEW": 2072,
      "ويجهوEW": 2073,
      "ادوEW": 2074,
      "ٺھ": 2075,
      "هيوEW": 2076,
      "اڌEW": 2077,
      "خات": 2078,
      "منتق": 2079,
      "اٺ": 2080,
      "قلي": 2081,
      "مخدومEW": 2082,
      "متيEW": 2083,
      "اهڙوEW": 2084,
      "ٿيونEW": 2085,
      "سڌ": 2086,
      "پورٽEW": 2087,
      "سلسل": 2088,
      "ٺهيلEW": 2089,
      "اسمEW": 2090,
      "حاجيEW": 2091,
      "ھئا": 2092,
      "آوازEW": 2093,
      "ويتEW": 2094,
      "شهرنEW": 2095,
      "وڃڻEW": 2096,
      "سيپٽمبرEW": 2097,
      "NLسنڌEW": 2098,
      "موتEW": 2099,
      "سيو": 2100,
      "ناولEW": 2101,
      "يونانيEW": 2102,
      "محفو": 2103,
      "پوروEW": 2104,
      "گھٽEW": 2105,
      "ئسEW": 2106,
      "رياستنEW": 2107,
      "وجودEW": 2108,
      "ڳول": 2109,
      "ڪام": 2110,
      "نمونيEW": 2111,
      "سونEW": 2112,
      "تنهنڪريEW": 2113,
      "علاو": 2114,
      "اعلانEW": 2115,
      "لڊEW": 2116,
      "اخبارEW": 2117,
      "گول": 2118,
      "ندڙنEW": 2119,
      "گج": 2120,
      "لسEW": 2121,
      "ايرا": 2122,
      "ڊين": 2123,
      "انھيءEW": 2124,
      "نديءEW": 2125,
      "رين": 2126,
      "ريڪ": 2127,
      "راجEW": 2128,
      "هنڌ": 2129,
      "ازيEW": 2130,
      "چا": 2131,
      "معنيEW": 2132,
      "آغ": 2133,
      "خر": 2134,
      "سائينEW": 2135,
      "اصطلاحEW": 2136,
      "عيسويءEW": 2137,
      "اڪث": 2138,
      "شڪارEW": 2139,
      "ڪاب": 2140,
      "اڪيڊ": 2141,
      "فهر": 2142,
      "ڻڻEW": 2143,
      "ميدانEW": 2144,
      "لشڪرEW": 2145,
      "يامEW": 2146,
      "سلسليEW": 2147,
      "اسٽيشنEW": 2148,
      "محفوظEW": 2149,
      "ٻاهرEW": 2150,
      "ورها": 2151,
      "عرصيEW": 2152,
      "شاهيEW": 2153,
      "NLال": 2154,
      "ارڪEW": 2155,
      "نظري": 2156,
      "شڪEW": 2157,
      "ھل": 2158,
      "فهرست": 2159,
      "ٽيڪنال": 2160,
      "آن": 2161,
      "مضبو": 2162,
      "جنگ": 2163,
      "فور": 2164,
      "حقيقتEW": 2165,
      "عظمEW": 2166,
      "ارNL": 2167,
      "صافEW": 2168,
      "مرادEW": 2169,
      "مڙ": 2170,
      "قيمتEW": 2171,
      "عوNL": 2172,
      "قبر": 2173,
      "راڻEW": 2174,
      "بهترينEW": 2175,
      "قليچEW": 2176,
      "ڊرEW": 2177,
      "ڏه": 2178,
      "واپارEW": 2179,
      "صحيحEW": 2180,
      "نيا": 2181,
      "روشنيEW": 2182,
      "سمو": 2183,
      "ڻيءEW": 2184,
      "سائنسيEW": 2185,
      "نيوEW": 2186,
      "ايڊ": 2187,
      "اعليٰEW": 2188,
      "پروفيسرEW": 2189,
      "يوNL": 2190,
      "وين": 2191,
      "ارفEW": 2192,
      "شاهEW": 2193,
      "بلوچستانEW": 2194,
      "سردارEW": 2195,
      "قبيليEW": 2196,
      "ابتدائيEW": 2197,
      "ڪرڻ": 2198,
      "سماجEW": 2199,
      "ڏسڻEW": 2200,
      "آب": 2201,
      "تما": 2202,
      "آءEW": 2203,
      "ياد": 2204,
      "قاضيEW": 2205,
      "ڏوEW": 2206,
      "اسما": 2207,
      "چوٿ": 2208,
      "رهنEW": 2209,
      "گههEW": 2210,
      "ڪمپيو": 2211,
      "پبلڪEW": 2212,
      "تصورEW": 2213,
      "پيدائشEW": 2214,
      "دNL": 2215,
      "ھتانEW": 2216,
      "سول": 2217,
      "کرEW": 2218,
      "اريءEW": 2219,
      "گھرEW": 2220,
      "موضوعEW": 2221,
      "ڙههEW": 2222,
      "مذهبEW": 2223,
      "ڍنڍEW": 2224,
      "مختص": 2225,
      "رنگ": 2226,
      "ڏسيEW": 2227,
      "ماڳEW": 2228,
      "واءEW": 2229,
      "وامEW": 2230,
      "يورپيEW": 2231,
      "اڀ": 2232,
      "ڻينEW": 2233,
      "ھونEW": 2234,
      "شهرNLزمرو": 2235,
      "سرحدEW": 2236,
      "وراEW": 2237,
      "حصنEW": 2238,
      "اڪوEW": 2239,
      "وفا": 2240,
      "وني": 2241,
      "فيبروريEW": 2242,
      "هجڻEW": 2243,
      "چونEW": 2244,
      "نڊنEW": 2245,
      "ايڊيشن": 2246,
      "روسEW": 2247,
      "ٽائي": 2248,
      "روايتEW": 2249,
      "سمجهيوEW": 2250,
      "ثقافتEW": 2251,
      "افغان": 2252,
      "سيڪريٽريEW": 2253,
      "لائيEW": 2254,
      "هورEW": 2255,
      "ڊNL": 2256,
      "توان": 2257,
      "لفظنEW": 2258,
      "بابEW": 2259,
      "سومر": 2260,
      "شروعاتيEW": 2261,
      "NLجيEW": 2262,
      "ليگEW": 2263,
      "ڏينھنEW": 2264,
      "ارو": 2265,
      "پهر": 2266,
      "ساڳيEW": 2267,
      "پاڪEW": 2268,
      "پڙه": 2269,
      "هارEW": 2270,
      "روزEW": 2271,
      "ورتوEW": 2272,
      "ملي": 2273,
      "مظ": 2274,
      "ڪيتريونEW": 2275,
      "ڀرسانEW": 2276,
      "زرعيEW": 2277,
      "شخصEW": 2278,
      "صنع": 2279,
      "اٺEW": 2280,
      "ثاب": 2281,
      "شمارEW": 2282,
      "گيرEW": 2283,
      "وزيرا": 2284,
      "بان": 2285,
      "ساڳئيEW": 2286,
      "چيئرمينEW": 2287,
      "طبي": 2288,
      "مپ": 2289,
      "ڻيونEW": 2290,
      "مقد": 2291,
      "اوچ": 2292,
      "اجيEW": 2293,
      "پيداوارEW": 2294,
      "مئيEW": 2295,
      "گڏو": 2296,
      "نڀ": 2297,
      "اداريEW": 2298,
      "فٽEW": 2299,
      "ڊويزنEW": 2300,
      "ايندڙEW": 2301,
      "ڪميون": 2302,
      "متونEW": 2303,
      "لمEW": 2304,
      "پال": 2305,
      "گز": 2306,
      "بري": 2307,
      "اجازتEW": 2308,
      "وس": 2309,
      "راش": 2310,
      "صفحاEW": 2311,
      "جين": 2312,
      "سياستEW": 2313,
      "ائيندوEW": 2314,
      "لاڙڪاڻيEW": 2315,
      "ھاڻيEW": 2316,
      "جانورنEW": 2317,
      "اڪثريتEW": 2318,
      "آئينEW": 2319,
      "سنهEW": 2320,
      "سڃاڻ": 2321,
      "سانچاNLزمرو": 2322,
      "مستق": 2323,
      "ترج": 2324,
      "آئيEW": 2325,
      "بنديEW": 2326,
      "فض": 2327,
      "اھڙيEW": 2328,
      "ڪپ": 2329,
      "NLت": 2330,
      "بالEW": 2331,
      "سليمEW": 2332,
      "حاڪمEW": 2333,
      "جهن": 2334,
      "چنEW": 2335,
      "خار": 2336,
      "NLسانچوEW": 2337,
      "نقص": 2338,
      "صحتEW": 2339,
      "مور": 2340,
      "کنڊEW": 2341,
      "سئ": 2342,
      "قاEW": 2343,
      "قري": 2344,
      "قبولEW": 2345,
      "درجوEW": 2346,
      "گڏوگڏEW": 2347,
      "ڪارو": 2348,
      "نائ": 2349,
      "ڪتEW": 2350,
      "ضروريEW": 2351,
      "انجنيئر": 2352,
      "ٺاهيEW": 2353,
      "گذري": 2354,
      "جبلنEW": 2355,
      "عنص": 2356,
      "ماهرEW": 2357,
      "معلومEW": 2358,
      "ڪيمEW": 2359,
      "لائينEW": 2360,
      "NLپ": 2361,
      "ڪرنEW": 2362,
      "شامEW": 2363,
      "شاخEW": 2364,
      "نمائند": 2365,
      "آيلEW": 2366,
      "واEW": 2367,
      "چين": 2368,
      "صوصEW": 2369,
      "چانڊ": 2370,
      "يوس": 2371,
      "ايندوEW": 2372,
      "جينEW": 2373,
      "دستاوي": 2374,
      "ڊائريڪ": 2375,
      "مضبوطEW": 2376,
      "ڪٿيEW": 2377,
      "چئنEW": 2378,
      "ريهEW": 2379,
      "ٽيونNLزمرو": 2380,
      "ــEW": 2381,
      "گورنمينٽEW": 2382,
      "عمل": 2383,
      "علاوهEW": 2384,
      "دا": 2385,
      "راند": 2386,
      "قيامEW": 2387,
      "ڪرينEW": 2388,
      "گڏجيEW": 2389,
      "ڏني": 2390,
      "صوبائيEW": 2391,
      "عق": 2392,
      "لرEW": 2393,
      "ميءEW": 2394,
      "ماحولEW": 2395,
      "پروگرامEW": 2396,
      "وسلمEW": 2397,
      "آئي": 2398,
      "اهميتEW": 2399,
      "بريEW": 2400,
      "ترمي": 2401,
      "ڌرتيءEW": 2402,
      "قبضيEW": 2403,
      "اعظمEW": 2404,
      "حملوEW": 2405,
      "ويڪ": 2406,
      "تڪEW": 2407,
      "ثابتEW": 2408,
      "اڪEW": 2409,
      "صيتEW": 2410,
      "ٻاه": 2411,
      "هواEW": 2412,
      "محبتEW": 2413,
      "رهڻEW": 2414,
      "تخلي": 2415,
      "تعلقوNL": 2416,
      "وڪ": 2417,
      "آياEW": 2418,
      "ثيEW": 2419,
      "ومEW": 2420,
      "ڄاڻايلEW": 2421,
      "ذرب": 2422,
      "راڄ": 2423,
      "تحف": 2424,
      "شهريEW": 2425,
      "بدر": 2426,
      "ڊوEW": 2427,
      "فقطEW": 2428,
      "هئڻEW": 2429,
      "سائيڪ": 2430,
      "سھ": 2431,
      "نگر": 2432,
      "خوش": 2433,
      "حر": 2434,
      "عبداللهEW": 2435,
      "سريEW": 2436,
      "مسا": 2437,
      "موسمEW": 2438,
      "بمب": 2439,
      "سڪر": 2440,
      "کنEW": 2441,
      "تهذي": 2442,
      "ابراه": 2443,
      "سياح": 2444,
      "ذربائي": 2445,
      "لق": 2446,
      "ڊگريEW": 2447,
      "ٺاهي": 2448,
      "طريقيEW": 2449,
      "لئنگ": 2450,
      "حقنEW": 2451,
      "سڄ": 2452,
      "اقت": 2453,
      "فز": 2454,
      "پٽيEW": 2455,
      "چونڊيوEW": 2456,
      "مختصرEW": 2457,
      "ئيجEW": 2458,
      "اوهانEW": 2459,
      "ردEW": 2460,
      "روفEW": 2461,
      "ڊر": 2462,
      "ايٽ": 2463,
      "تيلEW": 2464,
      "مخصوصEW": 2465,
      "يراEW": 2466,
      "پيڊياEW": 2467,
      "فرقEW": 2468,
      "لڳيEW": 2469,
      "ڏيکار": 2470,
      "فهرستEW": 2471,
      "لياEW": 2472,
      "دول": 2473,
      "ٻڌلEW": 2474,
      "ايوارڊEW": 2475,
      "ڪيميائيEW": 2476,
      "لڳو": 2477,
      "معلوماتEW": 2478,
      "گرميEW": 2479,
      "ٺاهڻEW": 2480,
      "سائيزEW": 2481,
      "ڪونهEW": 2482,
      "اپ": 2483,
      "ائشEW": 2484,
      "گهٽ": 2485,
      "صدي": 2486,
      "هز": 2487,
      "اسينEW": 2488,
      "ٽرڪEW": 2489,
      "ڪمپنيEW": 2490,
      "اث": 2491,
      "حسا": 2492,
      "ڪريمEW": 2493,
      "اڀر": 2494,
      "چان": 2495,
      "درياههEW": 2496,
      "ميش": 2497,
      "اظ": 2498,
      "عوامEW": 2499,
      "خال": 2500,
      "قيءEW": 2501,
      "ڳيEW": 2502,
      "NLپاڪستانEW": 2503,
      "يره": 2504,
      "ڪلهو": 2505,
      "ڇاپوEW": 2506,
      "حلEW": 2507,
      "انعامEW": 2508,
      "ڊيٽاEW": 2509,
      "ابراهيمEW": 2510,
      "رحي": 2511,
      "هد": 2512,
      "اقتص": 2513,
      "جرمن": 2514,
      "انسان": 2515,
      "شيرEW": 2516,
      "صوفيEW": 2517,
      "پکيڙEW": 2518,
      "حالتنEW": 2519,
      "شاگردنEW": 2520,
      "نڪريEW": 2521,
      "نمون": 2522,
      "وسند": 2523,
      "کانس": 2524,
      "ادارنEW": 2525,
      "سوسEW": 2526,
      "وسيعEW": 2527,
      "مسي": 2528,
      "روي": 2529,
      "يونيورسٽيءEW": 2530,
      "واپاريEW": 2531,
      "گروپEW": 2532,
      "ميٽرنEW": 2533,
      "شڪستEW": 2534,
      "پرائمريEW": 2535,
      "قاسمEW": 2536,
      "مڪنEW": 2537,
      "تيزEW": 2538,
      "ڪانفر": 2539,
      "دمش": 2540,
      "نر": 2541,
      "لاحي": 2542,
      "اهڙيءEW": 2543,
      "شهيدEW": 2544,
      "پالي": 2545,
      "لئنگئيجEW": 2546,
      "قص": 2547,
      "ڌيءEW": 2548,
      "وغيره": 2549,
      "شعرEW": 2550,
      "دلچ": 2551,
      "جريEW": 2552,
      "قاتEW": 2553,
      "ٽيNL": 2554,
      "وطنEW": 2555,
      "حل": 2556,
      "ڇپي": 2557,
      "ڇپيلEW": 2558,
      "ننڍوEW": 2559,
      "رسولEW": 2560,
      "لينEW": 2561,
      "پين": 2562,
      "NLڪ": 2563,
      "روسيEW": 2564,
      "ڪيئنEW": 2565,
      "ھونديEW": 2566,
      "سلسلوEW": 2567,
      "آسٽري": 2568,
      "سيءEW": 2569,
      "صيلEW": 2570,
      "مقدارEW": 2571,
      "پالEW": 2572,
      "قلعوEW": 2573,
      "جماعتEW": 2574,
      "طيEW": 2575,
      "مبل": 2576,
      "ملينEW": 2577,
      "شاگردEW": 2578,
      "افغانستانEW": 2579,
      "قسمنEW": 2580,
      "سکرEW": 2581,
      "اهڙاEW": 2582,
      "ورھ": 2583,
      "بلوچEW": 2584,
      "ماحول": 2585,
      "صلEW": 2586,
      "مندEW": 2587,
      "ھونداEW": 2588,
      "اينڊEW": 2589,
      "جيو": 2590,
      "بيمار": 2591,
      "جھEW": 2592,
      "هين": 2593,
      "زمين": 2594,
      "NLانEW": 2595,
      "شخصي": 2596,
      "پنجابيEW": 2597,
      "نڪتلEW": 2598,
      "انسائيڪ": 2599,
      "پيپل": 2600,
      "رهندوEW": 2601,
      "اعز": 2602,
      "سرڪارEW": 2603,
      "بحثEW": 2604,
      "چوڌاريEW": 2605,
      "جذ": 2606,
      "قاع": 2607,
      "ٿر": 2608,
      "وٺڻEW": 2609,
      "سمجھ": 2610,
      "تنظي": 2611,
      "بلا": 2612,
      "تلا": 2613,
      "ترا": 2614,
      "جاند": 2615,
      "مطالعوEW": 2616,
      "ويٺ": 2617,
      "روايتيEW": 2618,
      "چڪاEW": 2619,
      "اسبEW": 2620,
      "خلافتEW": 2621,
      "هاڻ": 2622,
      "ياNL": 2623,
      "فرانسEW": 2624,
      "ؤEW": 2625,
      "حدي": 2626,
      "هائيEW": 2627,
      "شڪارپورEW": 2628,
      "سرش": 2629,
      "بحريEW": 2630,
      "متح": 2631,
      "پکڙيلEW": 2632,
      "رڪنEW": 2633,
      "عمر": 2634,
      "هڪڙوEW": 2635,
      "فلسفيEW": 2636,
      "داسEW": 2637,
      "ھانEW": 2638,
      "ريا": 2639,
      "پيغ": 2640,
      "لاڳوEW": 2641,
      "جاپ": 2642,
      "ماس": 2643,
      "علميEW": 2644,
      "سڃاتوEW": 2645,
      "معاشيEW": 2646,
      "تالEW": 2647,
      "درياءEW": 2648,
      "نقصانEW": 2649,
      "سگهنEW": 2650,
      "آذربائي": 2651,
      "حڪيمEW": 2652,
      "پوراEW": 2653,
      "مائيEW": 2654,
      "نورEW": 2655,
      "دريافتEW": 2656,
      "انجامEW": 2657,
      "ليتEW": 2658,
      "ٽائ": 2659,
      "کاتيEW": 2660,
      "ناهيEW": 2661,
      "اڳواڻEW": 2662,
      "شيونEW": 2663,
      "ڪھ": 2664,
      "سوسائ": 2665,
      "هندستانيEW": 2666,
      "نشانEW": 2667,
      "آثارEW": 2668,
      "کانسواءEW": 2669,
      "مودEW": 2670,
      "منتقلEW": 2671,
      "ڀڳ": 2672,
      "ريانEW": 2673,
      "اريNL": 2674,
      "سسٽ": 2675,
      "سائيEW": 2676,
      "البEW": 2677,
      "شاعر": 2678,
      "سوويتEW": 2679,
      "قوتEW": 2680,
      "گولEW": 2681,
      "جرمنEW": 2682,
      "برابرEW": 2683,
      "چوٿونEW": 2684,
      "وزيراعظمEW": 2685,
      "تش": 2686,
      "زلEW": 2687,
      "عنوانEW": 2688,
      "مرو": 2689,
      "دوستEW": 2690,
      "عزي": 2691,
      "يڪيو": 2692,
      "ڊڪشن": 2693,
      "رڻEW": 2694,
      "ماديEW": 2695,
      "روين": 2696,
      "خوب": 2697,
      "انو": 2698,
      "ولنEW": 2699,
      "شايدEW": 2700,
      "ساحليEW": 2701,
      "قدرEW": 2702,
      "باو": 2703,
      "ماليEW": 2704,
      "ستنEW": 2705,
      "بادشاه": 2706,
      "نمازEW": 2707,
      "نظمEW": 2708,
      "وڪيپيڊي": 2709,
      "بزرگEW": 2710,
      "انسائيڪلو": 2711,
      "جيلEW": 2712,
      "ڪاميابEW": 2713,
      "داننEW": 2714,
      "سلامEW": 2715,
      "اڻي": 2716,
      "جام": 2717,
      "وڌEW": 2718,
      "رکيو": 2719,
      "توانائيEW": 2720,
      "اخلا": 2721,
      "ڌرمEW": 2722,
      "فوEW": 2723,
      "ميون": 2724,
      "راڳEW": 2725,
      "احت": 2726,
      "ميوز": 2727,
      "پکيEW": 2728,
      "ھڪ": 2729,
      "جدو": 2730,
      "دٻ": 2731,
      "عن": 2732,
      "صلاحي": 2733,
      "له": 2734,
      "NLهيEW": 2735,
      "نٿوEW": 2736,
      "چنڊEW": 2737,
      "ريڊيوEW": 2738,
      "نامي": 2739,
      "بهترEW": 2740,
      "چونڊنEW": 2741,
      "ولدEW": 2742,
      "دارنEW": 2743,
      "طوEW": 2744,
      "واحدEW": 2745,
      "ديشEW": 2746,
      "ضلعوNL": 2747,
      "ازوEW": 2748,
      "علائقاEW": 2749,
      "مقابليEW": 2750,
      "نڪر": 2751,
      "بلڪلEW": 2752,
      "منظورEW": 2753,
      "تصويرEW": 2754,
      "جار": 2755,
      "ڇي": 2756,
      "واڻيEW": 2757,
      "ڳالھ": 2758,
      "رھيوEW": 2759,
      "هڪڙيEW": 2760,
      "ڪمپيوٽرEW": 2761,
      "وفاقيEW": 2762,
      "مجي": 2763,
      "واتEW": 2764,
      "آزاديءEW": 2765,
      "اليڪشنEW": 2766,
      "روينيوEW": 2767,
      "زالEW": 2768,
      "ناهي": 2769,
      "ڪيتراEW": 2770,
      "ريگستانEW": 2771,
      "رون": 2772,
      "نگرEW": 2773,
      "خدمتEW": 2774,
      "دش": 2775,
      "ڀٽوEW": 2776,
      "ڪلاس": 2777,
      "تختEW": 2778,
      "ده": 2779,
      "زو": 2780,
      "NLاي": 2781,
      "چئيEW": 2782,
      "ڻيNL": 2783,
      "منهنEW": 2784,
      "فيدEW": 2785,
      "دريEW": 2786,
      "عيلEW": 2787,
      "نسل": 2788,
      "ٽنڊ": 2789,
      "عالمنEW": 2790,
      "سگھيEW": 2791,
      "سعو": 2792,
      "لاط": 2793,
      "ننڍاEW": 2794,
      "اديبEW": 2795,
      "جتانEW": 2796,
      "فيڪ": 2797,
      "جوابEW": 2798,
      "زرEW": 2799,
      "پوک": 2800,
      "دودEW": 2801,
      "سامهونEW": 2802,
      "هٿ": 2803,
      "وزنEW": 2804,
      "اڪنEW": 2805,
      "نگيEW": 2806,
      "انقلابEW": 2807,
      "مورEW": 2808,
      "NLسنڌيEW": 2809,
      "ائوEW": 2810,
      "ويون": 2811,
      "انهEW": 2812,
      "الح": 2813,
      "فردEW": 2814,
      "وسيليEW": 2815,
      "دلچس": 2816,
      "ويونEW": 2817,
      "يڪيEW": 2818,
      "خانوEW": 2819,
      "بول": 2820,
      "سنگEW": 2821,
      "پڙهڻEW": 2822,
      "قمبرEW": 2823,
      "همEW": 2824,
      "ڀيٽEW": 2825,
      "انيهEW": 2826,
      "اسيمبل": 2827,
      "عمارتEW": 2828,
      "راڄEW": 2829,
      "رھيو": 2830,
      "نهايتEW": 2831,
      "سڌيEW": 2832,
      "گنEW": 2833,
      "ڪيائينEW": 2834,
      "شاخ": 2835,
      "شاعرنEW": 2836,
      "مسEW": 2837,
      "کاEW": 2838,
      "ستائينEW": 2839,
      "نوابEW": 2840,
      "سبEW": 2841,
      "ڏٺوEW": 2842,
      "ملڪي": 2843,
      "منهنجيEW": 2844,
      "اڪيڊميEW": 2845,
      "مندرEW": 2846,
      "ڊگھ": 2847,
      "نمائندگيEW": 2848,
      "ٽل": 2849,
      "پلا": 2850,
      "اينداEW": 2851,
      "اسماعيلEW": 2852,
      "طور": 2853,
      "گيتEW": 2854,
      "ھيٺEW": 2855,
      "حدنEW": 2856,
      "هتانEW": 2857,
      "پرن": 2858,
      "غري": 2859,
      "فرا": 2860,
      "لڏيEW": 2861,
      "ٽونEW": 2862,
      "ڊسٽ": 2863,
      "رساليEW": 2864,
      "پريسEW": 2865,
      "اڪبرEW": 2866,
      "اڳوڻيEW": 2867,
      "سفار": 2868,
      "ٽڻEW": 2869,
      "بدرانEW": 2870,
      "رائيEW": 2871,
      "ملڪNLزمرو": 2872,
      "مليو": 2873,
      "بيٺ": 2874,
      "تعليم": 2875,
      "احEW": 2876,
      "رھيEW": 2877,
      "ادتEW": 2878,
      "نوازEW": 2879,
      "ڙوNL": 2880,
      "مردEW": 2881,
      "ڳاڙ": 2882,
      "گاھEW": 2883,
      "تاجEW": 2884,
      "گھڻوEW": 2885,
      "سانچو": 2886,
      "مصرEW": 2887,
      "درجيEW": 2888,
      "صفحيEW": 2889,
      "ھيٺ": 2890,
      "مضموننEW": 2891,
      "سڃاڻپEW": 2892,
      "لطيفEW": 2893,
      "ممڪنEW": 2894,
      "ھيا": 2895,
      "ملتانEW": 2896,
      "لڳا": 2897,
      "انتظامEW": 2898,
      "ڏينEW": 2899,
      "خدمتونEW": 2900,
      "ڪاؤ": 2901,
      "آس": 2902,
      "وڄ": 2903,
      "ڪتابNL": 2904,
      "وو": 2905,
      "ميمبر": 2906,
      "تعارفEW": 2907,
      "ڄائو": 2908,
      "ماڻھو": 2909,
      "اچنEW": 2910,
      "بغاوتEW": 2911,
      "پڌ": 2912,
      "ڪشميرEW": 2913,
      "يوسفEW": 2914,
      "آئر": 2915,
      "رفتارEW": 2916,
      "چينيEW": 2917,
      "ڊال": 2918,
      "سنسڪر": 2919,
      "مغلEW": 2920,
      "حدونEW": 2921,
      "ويبEW": 2922,
      "ٿوريEW": 2923,
      "ڪروڙEW": 2924,
      "پٺيانEW": 2925,
      "جانورEW": 2926,
      "فيصلوEW": 2927,
      "چم": 2928,
      "حادEW": 2929,
      "حسابEW": 2930,
      "دگيEW": 2931,
      "صوبوEW": 2932,
      "اڳيEW": 2933,
      "تقريبنEW": 2934,
      "تون": 2935,
      "حما": 2936,
      "شانEW": 2937,
      "ڪيم": 2938,
      "ڪنٽرو": 2939,
      "ٻوٽنEW": 2940,
      "بندر": 2941,
      "انسائيڪلوپيڊياEW": 2942,
      "رن": 2943,
      "نف": 2944,
      "ارڻEW": 2945,
      "وينديونEW": 2946,
      "تسليمEW": 2947,
      "دما": 2948,
      "رڪEW": 2949,
      "محمودEW": 2950,
      "عيدEW": 2951,
      "مصنفEW": 2952,
      "ڀيراEW": 2953,
      "ہي": 2954,
      "محق": 2955,
      "ليءEW": 2956,
      "ڏاڍوEW": 2957,
      "وض": 2958,
      "وءEW": 2959,
      "وائي": 2960,
      "ڪوٽ": 2961,
      "تينEW": 2962,
      "ٽيٽيو": 2963,
      "پارليا": 2964,
      "اکرEW": 2965,
      "مغر": 2966,
      "لڙ": 2967,
      "گاديEW": 2968,
      "اھرEW": 2969,
      "ويڙ": 2970,
      "سگهي": 2971,
      "ڄامشوروNL": 2972,
      "ڪورٽEW": 2973,
      "عمليEW": 2974,
      "ڪرائيEW": 2975,
      "اتحادEW": 2976,
      "واريونEW": 2977,
      "رسمEW": 2978,
      "راندEW": 2979,
      "جاب": 2980,
      "هيونEW": 2981,
      "يق": 2982,
      "ٻا": 2983,
      "ٿوروEW": 2984,
      "ڪس": 2985,
      "سياستدان": 2986,
      "خيرپورEW": 2987,
      "ڍEW": 2988,
      "سرنEW": 2989,
      "ڊيمEW": 2990,
      "هاريEW": 2991,
      "کنڊ": 2992,
      "ابو": 2993,
      "سيرEW": 2994,
      "کيرEW": 2995,
      "ڌيانEW": 2996,
      "الن": 2997,
      "محسوسEW": 2998,
      "نيٽEW": 2999,
      "انگريزيءEW": 3000,
      "ولا": 3001,
      "آيا": 3002,
      "جهو": 3003,
      "سيني": 3004,
      "آدمش": 3005,
      "ساه": 3006,
      "لتEW": 3007,
      "لاهورEW": 3008,
      "NLگ": 3009,
      "پنجنEW": 3010,
      "نسليEW": 3011,
      "معيشتEW": 3012,
      "اڀي": 3013,
      "پوي": 3014,
      "اسرائي": 3015,
      "ستانNL": 3016,
      "ضيءEW": 3017,
      "ڪانEW": 3018,
      "ڳوٺنEW": 3019,
      "ٻجEW": 3020,
      "NLمي": 3021,
      "ڪريو": 3022,
      "هه": 3023,
      "انچEW": 3024,
      "پنهنجنEW": 3025,
      "پلEW": 3026,
      "کوEW": 3027,
      "گهڻاEW": 3028,
      "پنهنجاEW": 3029,
      "فرز": 3030,
      "خشڪEW": 3031,
      "ٻڌEW": 3032,
      "ولي": 3033,
      "ڪائونسل": 3034,
      "ديوانEW": 3035,
      "حوالوEW": 3036,
      "لقبEW": 3037,
      "ڏھ": 3038,
      "ڪينEW": 3039,
      "ڪتبEW": 3040,
      "قانونيEW": 3041,
      "ويندو": 3042,
      "برسا": 3043,
      "انگريزEW": 3044,
      "حڪمرانEW": 3045,
      "آمدEW": 3046,
      "اداروEW": 3047,
      "بادشاھEW": 3048,
      "رسالوEW": 3049,
      "مصنف": 3050,
      "نوEW": 3051,
      "جنسيEW": 3052,
      "مڪيEW": 3053,
      "ہNL": 3054,
      "پويEW": 3055,
      "حمليEW": 3056,
      "فطر": 3057,
      "شيائيEW": 3058,
      "پراڻوEW": 3059,
      "پهرئينEW": 3060,
      "بيڪ": 3061,
      "پيمانيEW": 3062,
      "ٿينديونEW": 3063,
      "سموريEW": 3064,
      "!!": 3065,
      "سزاEW": 3066,
      "بلندEW": 3067,
      "مطابق": 3068,
      "عط": 3069,
      "ڌي": 3070,
      "بندرEW": 3071,
      "ٽشEW": 3072,
      "پاب": 3073,
      "زيشنEW": 3074,
      "رق": 3075,
      "سرگر": 3076,
      "نيمEW": 3077,
      "ٻيٽ": 3078,
      "ذيليEW": 3079,
      "اسپي": 3080,
      "انسٽيٽيو": 3081,
      "هميش": 3082,
      "روپEW": 3083,
      "اير": 3084,
      "ايڇEW": 3085,
      "محلEW": 3086,
      "ايڊيٽرEW": 3087,
      "دع": 3088,
      "سازEW": 3089,
      "هندو": 3090,
      "گهرجي": 3091,
      "عدال": 3092,
      "هري": 3093,
      "دعو": 3094,
      "بره": 3095,
      "چيفEW": 3096,
      "دادڪوٽEW": 3097,
      "بج": 3098,
      "ذاتيEW": 3099,
      "چڙ": 3100,
      "افظEW": 3101,
      "ھجيEW": 3102,
      "ماڳ": 3103,
      "آهنNL": 3104,
      "بڻايوEW": 3105,
      "سنسڪرتEW": 3106,
      "جز": 3107,
      "ائيندڙ": 3108,
      "ويل": 3109,
      "شعبيEW": 3110,
      "شاEW": 3111,
      "الز": 3112,
      "ايل": 3113,
      "ائيNL": 3114,
      "جاگرافيائيEW": 3115,
      "بائ": 3116,
      "تھ": 3117,
      "زرا": 3118,
      "امرEW": 3119,
      "منجهانEW": 3120,
      "بيرEW": 3121,
      "زمينيEW": 3122,
      "عرا": 3123,
      "هريEW": 3124,
      "ڪڍيEW": 3125,
      "سچ": 3126,
      "اسيمبليءEW": 3127,
      "بئ": 3128,
      "دتEW": 3129,
      "عش": 3130,
      "لکتEW": 3131,
      "ڪرايوEW": 3132,
      "آمد": 3133,
      "رخEW": 3134,
      "لنڊنEW": 3135,
      "ڀو": 3136,
      "ٻوليونNLزمرو": 3137,
      "خاصي": 3138,
      "قبيلنEW": 3139,
      "ايتريEW": 3140,
      "تنقيدEW": 3141,
      "فرانسي": 3142,
      "ڊسٽرڪ": 3143,
      "ملڪيEW": 3144,
      "ميمڻEW": 3145,
      "وارينEW": 3146,
      "سوالEW": 3147,
      "تهذيبEW": 3148,
      "آذربائيجانEW": 3149,
      "سعوديEW": 3150,
      "NLح": 3151,
      "ويلEW": 3152,
      "سوان": 3153,
      "ٿين": 3154,
      "آئين": 3155,
      "نور": 3156,
      "ٽائونEW": 3157,
      "ڊا": 3158,
      "گلو": 3159,
      "ترڪيEW": 3160,
      "محدودEW": 3161,
      "تبديليEW": 3162,
      "درا": 3163,
      "زل": 3164,
      "NLش": 3165,
      "معاه": 3166,
      "نظر": 3167,
      "ڪنٽرولEW": 3168,
      "پٿ": 3169,
      "الب": 3170,
      "لينڊ": 3171,
      "ڀاڱوEW": 3172,
      "رش": 3173,
      "نوي": 3174,
      "نائي": 3175,
      "چڪيEW": 3176,
      "ندنEW": 3177,
      "ماڻيEW": 3178,
      "بيل": 3179,
      "اڳيانEW": 3180,
      "مهينيEW": 3181,
      "وٽانEW": 3182,
      "ڪانفرنسEW": 3183,
      "سسٽمEW": 3184,
      "رکي": 3185,
      "ڱيEW": 3186,
      "رواجEW": 3187,
      "ائليEW": 3188,
      "پرڏي": 3189,
      "صفحنEW": 3190,
      "بهادرEW": 3191,
      "ڪانگري": 3192,
      "ڊسٽرڪٽEW": 3193,
      "تھEW": 3194,
      "دين": 3195,
      "ميڊ": 3196,
      "رکيلEW": 3197,
      "علاجEW": 3198,
      "شخصيتEW": 3199,
      "ڏهاڪيEW": 3200,
      "تڪ": 3201,
      "کر": 3202,
      "اقتصاديEW": 3203,
      "سٽيEW": 3204,
      "متعلقEW": 3205,
      "ووٽEW": 3206,
      "ٿل": 3207,
      "مدارEW": 3208,
      "ڏاکڻيEW": 3209,
      "غي": 3210,
      "ڌرتيEW": 3211,
      "قبرستانEW": 3212,
      "ڪچ": 3213,
      "ارتق": 3214,
      "هونديونEW": 3215,
      "ضلعنEW": 3216,
      "ڪلوميٽرنEW": 3217,
      "سڏينداEW": 3218,
      "غير": 3219,
      "ڪندي": 3220,
      "رکنEW": 3221,
      "طريقوEW": 3222,
      "ارونEW": 3223,
      "مولويEW": 3224,
      "واض": 3225,
      "پيٽEW": 3226,
      "NLزمروپاڪستانEW": 3227,
      "آفيسرEW": 3228,
      "اعزازEW": 3229,
      "آرEW": 3230,
      "NLهڪEW": 3231,
      "ڪوٺ": 3232,
      "اھي": 3233,
      "فاظ": 3234,
      "فاصليEW": 3235,
      "پڻ": 3236,
      "ريپبلڪEW": 3237,
      "ايس": 3238,
      "گرفتارEW": 3239,
      "ڪاٺEW": 3240,
      "مالڪEW": 3241,
      "يڪيشنEW": 3242,
      "ايراضيEW": 3243,
      "سمي": 3244,
      "ناڪ": 3245,
      "يڪاEW": 3246,
      "ٻوليونEW": 3247,
      "ڊائريڪٽرEW": 3248,
      "ڪڻEW": 3249,
      "ميںEW": 3250,
      "ڪيري": 3251,
      "برد": 3252,
      "پھر": 3253,
      "تجوي": 3254,
      "هندEW": 3255,
      "گها": 3256,
      "ناٽڪEW": 3257,
      "بڻائيEW": 3258,
      "پبلشر": 3259,
      "مسئلنEW": 3260,
      "اتر": 3261,
      "مگرEW": 3262,
      "رومنEW": 3263,
      "ولو": 3264,
      "پوئ": 3265,
      "ديوتاEW": 3266,
      "گجراتEW": 3267,
      "مٺ": 3268,
      "ايتروEW": 3269,
      "جهڙيEW": 3270,
      "سگھجيEW": 3271,
      "مجموعيEW": 3272,
      "ٽيڪنالاجيEW": 3273,
      "خري": 3274,
      "ريشنEW": 3275,
      "معروفEW": 3276,
      "ماڻهو": 3277,
      "سينٽEW": 3278,
      "اٿارٽي": 3279,
      "مستقلEW": 3280,
      "سياريEW": 3281,
      "رهائشEW": 3282,
      "لکياEW": 3283,
      "وائرسEW": 3284,
      "اورEW": 3285,
      "قد": 3286,
      "سامانEW": 3287,
      "معاملنEW": 3288,
      "ملڪيتEW": 3289,
      "ساسEW": 3290,
      "انNLزمرو": 3291,
      "اصولEW": 3292,
      "ڏيئيEW": 3293,
      "پهچيEW": 3294,
      "ڊويزن": 3295,
      "پسEW": 3296,
      "ڏٺ": 3297,
      "NLوڪيپيڊيا": 3298,
      "دريا": 3299,
      "ٻر": 3300,
      "ڪرارEW": 3301,
      "پارليامينٽEW": 3302,
      "بيو": 3303,
      "حفاظ": 3304,
      "داس": 3305,
      "صلاحEW": 3306,
      "يار": 3307,
      "NLچوريوEW": 3308,
      "ميڊياEW": 3309,
      "اضاف": 3310,
      "انيءEW": 3311,
      "رهنداEW": 3312,
      "امتح": 3313,
      "برقرارEW": 3314,
      "جادEW": 3315,
      "ڏاڍيEW": 3316,
      "آدمشماريEW": 3317,
      "واديEW": 3318,
      "۾.": 3319,
      "عيسويEW": 3320,
      "نوجوانEW": 3321,
      "عثمانEW": 3322,
      "چن": 3323,
      "ڳڻ": 3324,
      "عربنEW": 3325,
      "ڀاڱيEW": 3326,
      "نظرييEW": 3327,
      "سرويEW": 3328,
      "ڌرEW": 3329,
      "ويجھ": 3330,
      "پوڄ": 3331,
      "تقريباEW": 3332,
      "آفيسEW": 3333,
      "حمايتEW": 3334,
      "قسم": 3335,
      "اھمEW": 3336,
      "علامهEW": 3337,
      "وضاح": 3338,
      "فونEW": 3339,
      "ادريEW": 3340,
      "ابوال": 3341,
      "فلسط": 3342,
      "فائدوEW": 3343,
      "معيارEW": 3344,
      "مجموعوEW": 3345,
      "آغاEW": 3346,
      "تخليقEW": 3347,
      "ڏانھنEW": 3348,
      "گھڻيEW": 3349,
      "ڪيون": 3350,
      "السلامEW": 3351,
      "انسٽيٽيوٽEW": 3352,
      "قبلEW": 3353,
      "جهڙوEW": 3354,
      "سربرا": 3355,
      "مخالفEW": 3356,
      "عزيزEW": 3357,
      "ئڻEW": 3358,
      "عباد": 3359,
      "مليلEW": 3360,
      "لڳلEW": 3361,
      "عنصرEW": 3362,
      "جتو": 3363,
      "تصني": 3364,
      "باوجودEW": 3365,
      "ڪائن": 3366,
      "NLسالEW": 3367,
      "يونٽEW": 3368,
      "پارٽيءEW": 3369,
      "انجنيئرنگEW": 3370,
      "انص": 3371,
      "ارا": 3372,
      "اردو": 3373,
      "ڪاٺ": 3374,
      "مغربيEW": 3375,
      "فرزندEW": 3376,
      "لازم": 3377,
      "موٽيEW": 3378,
      "ابي": 3379,
      "سٽنEW": 3380,
      "فلمنEW": 3381,
      "فرانسيسيEW": 3382,
      "فيروزEW": 3383,
      "چونڊجيEW": 3384,
      "عهديEW": 3385,
      "پش": 3386,
      "روح": 3387,
      "NLزمرووڪيپيڊياEW": 3388,
      "عالم": 3389,
      "آت": 3390,
      "يتي": 3391,
      "ڪڙ": 3392,
      "NLھ": 3393,
      "ورثيEW": 3394,
      "ڳالھEW": 3395,
      "تحقيقيEW": 3396,
      "اور": 3397,
      "کن": 3398,
      "گاEW": 3399,
      "ڪارنEW": 3400,
      "لڳي": 3401,
      "مشاه": 3402,
      "لائقEW": 3403,
      "پوليسEW": 3404,
      "نلEW": 3405,
      "ٿيندو": 3406,
      "رهيا": 3407,
      "شرڪتEW": 3408,
      "مسيحEW": 3409,
      "شل": 3410,
      "هائي": 3411,
      "ديروEW": 3412,
      "برٽشEW": 3413,
      "چوٿينEW": 3414,
      "ھننEW": 3415,
      "هال": 3416,
      "تياريEW": 3417,
      "تعري": 3418,
      "آباديءEW": 3419,
      "ذوال": 3420,
      "صوEW": 3421,
      "ڀائ": 3422,
      "گار": 3423,
      "NLر": 3424,
      "اسڪا": 3425,
      "جهازEW": 3426,
      "شماريEW": 3427,
      "اسٽو": 3428,
      "رايوEW": 3429,
      "واڌ": 3430,
      "ترڪEW": 3431,
      "جاگرافيNLزمرو": 3432,
      "ھجڻEW": 3433,
      "سلامتEW": 3434,
      "نيڪ": 3435,
      "آهستيEW": 3436,
      "جمعEW": 3437,
      "تڪرارEW": 3438,
      "پينEW": 3439,
      "خرچEW": 3440,
      "پڌروEW": 3441,
      "حرڪ": 3442,
      "فاEW": 3443,
      "وڻ": 3444,
      "ڄڻEW": 3445,
      "ڏEW": 3446,
      "اڻاEW": 3447,
      "پارڪرEW": 3448,
      "خودمختيارEW": 3449,
      "ماحولياتيEW": 3450,
      "فطرتEW": 3451,
      "ڪانگريسEW": 3452,
      "دروا": 3453,
      "لب": 3454,
      "ڪNLزمرو": 3455,
      "ڪمنEW": 3456,
      "آرڪي": 3457,
      "ٻڌايوEW": 3458,
      "سياستدانNLزمرو": 3459,
      "آڳا": 3460,
      "ڏيندوEW": 3461,
      "NLپيEW": 3462,
      "آپري": 3463,
      "فڪEW": 3464,
      "هٿي": 3465,
      "ئيشنEW": 3466,
      "هاڻEW": 3467,
      "فزڪسEW": 3468,
      "ـEW": 3469,
      "ڳي": 3470,
      "رونيEW": 3471,
      "انگلينڊEW": 3472,
      "پنھنجوEW": 3473,
      "اسپتالEW": 3474,
      "....": 3475,
      "ڳنڍيلEW": 3476,
      "سڄوEW": 3477,
      "آسٽريلياEW": 3478,
      "ڪاؤنسلEW": 3479,
      "صرEW": 3480,
      "فارمEW": 3481,
      "معياريEW": 3482,
      "جاد": 3483,
      "جھيEW": 3484,
      "مقبر": 3485,
      "ٻڌيEW": 3486,
      "موسيقيEW": 3487,
      "لاطينيEW": 3488,
      "وڻنEW": 3489,
      "ورتي": 3490,
      "منجه": 3491,
      "جازEW": 3492,
      "NLاينEW": 3493,
      "برطانياEW": 3494,
      "روايتنEW": 3495,
      "NLمحمدEW": 3496,
      "رکندوEW": 3497,
      "دوارEW": 3498,
      "زونEW": 3499,
      "مزEW": 3500,
      "راڪEW": 3501,
      "ايشيائيEW": 3502,
      "ڏناEW": 3503,
      "سينٽر": 3504,
      "ھئاEW": 3505,
      "اڀياسEW": 3506,
      "ھڻEW": 3507,
      "انڪارEW": 3508,
      "شرحEW": 3509,
      "ورهايلEW": 3510,
      "گالEW": 3511,
      "ملڻEW": 3512,
      "رهندڙEW": 3513,
      "رستوEW": 3514,
      "هميشهEW": 3515,
      "متعارفEW": 3516,
      "اتلEW": 3517,
      "صوبنEW": 3518,
      "راڄڌ": 3519,
      "رحيمEW": 3520,
      "ڪائناتEW": 3521,
      "عھ": 3522,
      "ھياEW": 3523,
      "منت": 3524,
      "پارڪEW": 3525,
      "امتحانEW": 3526,
      "آندوEW": 3527,
      "دڙيEW": 3528,
      "هيا": 3529,
      "منص": 3530,
      "مارجيEW": 3531,
      "مزاح": 3532,
      "ٺھيلEW": 3533,
      "سلو": 3534,
      "کڻ": 3535,
      "انٽ": 3536,
      "رياض": 3537,
      "ميڪ": 3538,
      "ڪالونيEW": 3539,
      "اکينEW": 3540,
      "NLل": 3541,
      "تربيتEW": 3542,
      "مدينيEW": 3543,
      "هندنEW": 3544,
      "صنعتEW": 3545,
      "نمايانEW": 3546,
      "راجپو": 3547,
      "دولتEW": 3548,
      "خصو": 3549,
      "قدمEW": 3550,
      "ڳڙ": 3551,
      "اڻنEW": 3552,
      "معمو": 3553,
      "ناموEW": 3554,
      "اليڪٽر": 3555,
      "جڪEW": 3556,
      "ورلڊEW": 3557,
      "جنهنڪريEW": 3558,
      "مهراڻEW": 3559,
      "بئن": 3560,
      "جيوEW": 3561,
      "فھ": 3562,
      "يناEW": 3563,
      "سمانيEW": 3564,
      "چونڊيلEW": 3565,
      "دادوEW": 3566,
      "پٽنEW": 3567,
      "ويندڙEW": 3568,
      "انگيEW": 3569,
      "ڪارڻEW": 3570,
      "انتهائيEW": 3571,
      "مطالعيEW": 3572,
      "غريبEW": 3573,
      "اضافوEW": 3574,
      "سورEW": 3575,
      "سهو": 3576,
      "ضاب": 3577,
      "فارEW": 3578,
      "ھهEW": 3579,
      "رحمانEW": 3580,
      "مرحومEW": 3581,
      "ماڻھوNLزمرو": 3582,
      "لازميEW": 3583,
      "دفنEW": 3584,
      "ليونEW": 3585,
      "اڻيNL": 3586,
      "يتيمEW": 3587,
      "زا": 3588,
      "غلا": 3589,
      "ڙا": 3590,
      "ڪاف": 3591,
      "امينEW": 3592,
      "ڪوار": 3593,
      "بيبيEW": 3594,
      "سرانجامEW": 3595,
      "عورتونEW": 3596,
      "دلچسپيEW": 3597,
      "خطر": 3598,
      "خرابEW": 3599,
      "پڇ": 3600,
      "ڪوئ": 3601,
      "ڪوبهEW": 3602,
      "سربر": 3603,
      "ٻيٽنEW": 3604,
      "ڇپائيEW": 3605,
      "واسطوEW": 3606,
      "خوبصورتEW": 3607,
      "ئيءEW": 3608,
      "مرڻEW": 3609,
      "نظريوEW": 3610,
      "اختلا": 3611,
      "خاصيتEW": 3612,
      "شوقEW": 3613,
      "لائبري": 3614,
      "ڊراماEW": 3615,
      "حرڪتEW": 3616,
      "اڄ": 3617,
      "مند": 3618,
      "مائي": 3619,
      "NLو": 3620,
      "مقبولEW": 3621,
      "جمهوريهEW": 3622,
      "اوچائيEW": 3623,
      "وائيسEW": 3624,
      "راتيEW": 3625,
      "اينديEW": 3626,
      "مناسبEW": 3627,
      "اڻپوراEW": 3628,
      "وٺي": 3629,
      "سمجهيEW": 3630,
      "اچي": 3631,
      "يڪارEW": 3632,
      "جوڻي": 3633,
      "حيدرEW": 3634,
      "حديثEW": 3635,
      "جيڪڏھنEW": 3636,
      "اڻيءEW": 3637,
      "اندازوEW": 3638,
      "نقشيEW": 3639,
      "مذھبEW": 3640,
      "علEW": 3641,
      "مزارEW": 3642,
      "نبا": 3643,
      "رومEW": 3644,
      "نالنEW": 3645,
      "روزانيEW": 3646,
      "غلطEW": 3647,
      "ايازEW": 3648,
      "واڌEW": 3649,
      "ملائيEW": 3650,
      "باھEW": 3651,
      "جڳه": 3652,
      "زڪ": 3653,
      "هون": 3654,
      "سيمEW": 3655,
      "ديويEW": 3656,
      "اوEW": 3657,
      "سٺوEW": 3658,
      "مفيدEW": 3659,
      "سراس": 3660,
      "ٽيڪلEW": 3661,
      "تNLزمرو": 3662,
      "شين": 3663,
      "فريEW": 3664,
      "ميٽر": 3665,
      "ننڍڙوEW": 3666,
      "يادگارEW": 3667,
      "قادرEW": 3668,
      "نرEW": 3669,
      "ھنڌEW": 3670,
      "سيڪنڊ": 3671,
      "اڳوڻوEW": 3672,
      "ترميمEW": 3673,
      "انينEW": 3674,
      "ورNL": 3675,
      "ائينديEW": 3676,
      "گذر": 3677,
      "عقدEW": 3678,
      "بمبئيEW": 3679,
      "پيپلزEW": 3680,
      "سٺيEW": 3681,
      "کائڻEW": 3682,
      "ارهEW": 3683,
      "ويئي": 3684,
      "منظمEW": 3685,
      "ٽيليو": 3686,
      "انٽرنيشنلEW": 3687,
      "ورهاڱيEW": 3688,
      "مڙسEW": 3689,
      "مجيدEW": 3690,
      "لکي": 3691,
      "سڏجيEW": 3692,
      "ٺاهيوEW": 3693,
      "ڪششEW": 3694,
      "ٻنھيEW": 3695,
      "اميدEW": 3696,
      "بکرEW": 3697,
      "ميلا": 3698,
      "جنسEW": 3699,
      "کاڌيEW": 3700,
      "مخالفتEW": 3701,
      "دماغEW": 3702,
      "اونEW": 3703,
      "بارنEW": 3704,
      "مؤ": 3705,
      "مڇ": 3706,
      "کار": 3707,
      "روحEW": 3708,
      "درخو": 3709,
      "افسان": 3710,
      "شيدEW": 3711,
      "زميند": 3712,
      "مٿا": 3713,
      "ديرEW": 3714,
      "تنهن": 3715,
      "ڪئنا": 3716,
      "سڪوEW": 3717,
      "پدEW": 3718,
      "ڀEW": 3719,
      "ڪريءEW": 3720,
      "خانيEW": 3721,
      "نڪ": 3722,
      "منعقدEW": 3723,
      "پهتو": 3724,
      "واقعيEW": 3725,
      "مسٽرEW": 3726,
      "پکينEW": 3727,
      "صنعتيEW": 3728,
      "گير": 3729,
      "امتEW": 3730,
      "ڪرائڻEW": 3731,
      "سيل": 3732,
      "سيٽEW": 3733,
      "ترقيءEW": 3734,
      "احوالEW": 3735,
      "شھريEW": 3736,
      "ڪرايو": 3737,
      "ڇپائيندڙ": 3738,
      "ماهرنEW": 3739,
      "تجويزEW": 3740,
      "حاد": 3741,
      "کليلEW": 3742,
      "نتيجوEW": 3743,
      "اظهارEW": 3744,
      "زراعتEW": 3745,
      "بياEW": 3746,
      "مٽي": 3747,
      "هج": 3748,
      "NLھيEW": 3749,
      "اڳواڻيEW": 3750,
      "جسٽ": 3751,
      "ڄمارEW": 3752,
      "روشنEW": 3753,
      "ڪاروEW": 3754,
      "وزارتEW": 3755,
      "اکرنEW": 3756,
      "اندر": 3757,
      "مليوEW": 3758,
      "درجهEW": 3759,
      "اعليEW": 3760,
      "ڇپا": 3761,
      "بيماريEW": 3762,
      "خدمتنEW": 3763,
      "وضاحتEW": 3764,
      "ودEW": 3765,
      "ڀٽيEW": 3766,
      "ڙڻEW": 3767,
      "امو": 3768,
      "تارEW": 3769,
      "گلا": 3770,
      "NLع": 3771,
      "اهڙنEW": 3772,
      "سرائ": 3773,
      "آخر": 3774,
      "سکياEW": 3775,
      "ڊگهيEW": 3776,
      "ٻيٽNLزمرو": 3777,
      "پيارEW": 3778,
      "ستينEW": 3779,
      "انساننEW": 3780,
      "ايرانيEW": 3781,
      "لس": 3782,
      "مٽ": 3783,
      "ڇريEW": 3784,
      "ڇپيو": 3785,
      "NLباب": 3786,
      "ڪريونEW": 3787,
      "صورتح": 3788,
      "سيوهڻEW": 3789,
      "تونNL": 3790,
      "شوروEW": 3791,
      "ايجادEW": 3792,
      "باقاع": 3793,
      "سڀئيEW": 3794,
      "خواه": 3795,
      "ٽرانس": 3796,
      "صدينEW": 3797,
      "پريس": 3798,
      "رابطاNLزمرو": 3799,
      "ٽنڊوEW": 3800,
      "ڀارتيEW": 3801,
      "ڪائ": 3802,
      "اله": 3803,
      "ياءEW": 3804,
      "اوزارEW": 3805,
      "شھرنEW": 3806,
      "شعبنEW": 3807,
      "شمEW": 3808,
      "پارEW": 3809,
      "ڦر": 3810,
      "لاتEW": 3811,
      "اداراEW": 3812,
      "ورتيEW": 3813,
      "مذھبيEW": 3814,
      "تعليمNLزمرو": 3815,
      "جڙيلEW": 3816,
      "لهEW": 3817,
      "يڪسEW": 3818,
      "برگEW": 3819,
      "ميوزيمEW": 3820,
      "بش": 3821,
      "روانوEW": 3822,
      "جيڪبEW": 3823,
      "بادشاھ": 3824,
      "عبدالل": 3825,
      "کوڙEW": 3826,
      "پکڙ": 3827,
      "سانچاNL": 3828,
      "جاپانEW": 3829,
      "آڻي": 3830,
      "فڪرEW": 3831,
      "سنگههEW": 3832,
      "ياف": 3833,
      "سٽريEW": 3834,
      "عرصوEW": 3835,
      "طريقنEW": 3836,
      "اميدوارEW": 3837,
      "حقيقيEW": 3838,
      "خليفيEW": 3839,
      "عزتEW": 3840,
      "ٽون": 3841,
      "واپر": 3842,
      "فيضEW": 3843,
      "جھاز": 3844,
      "پريمEW": 3845,
      "بورڊ": 3846,
      "اسپينEW": 3847,
      "دفعوEW": 3848,
      "حافظEW": 3849,
      "سوي": 3850,
      "سٽرEW": 3851,
      "ڌن": 3852,
      "NLاو": 3853,
      "طرزEW": 3854,
      "هليوEW": 3855,
      "رهEW": 3856,
      "رئي": 3857,
      "پارٽيونNLزمرو": 3858,
      "ماليڪيو": 3859,
      "رضهEW": 3860,
      "موڪليوEW": 3861,
      "اربEW": 3862,
      "الا": 3863,
      "تراEW": 3864,
      "ائيلEW": 3865,
      "بوتEW": 3866,
      "دوران": 3867,
      "شريڪEW": 3868,
      "آدمEW": 3869,
      "سڳ": 3870,
      "شهن": 3871,
      "ماسEW": 3872,
      "هجن": 3873,
      "وڪEW": 3874,
      "ٿريEW": 3875,
      "ڊرو": 3876,
      "حڪمرانيEW": 3877,
      "ويجھوEW": 3878,
      "بورEW": 3879,
      "عهEW": 3880,
      "هائو": 3881,
      "کول": 3882,
      "ڪيرEW": 3883,
      "فيڊ": 3884,
      "حصاEW": 3885,
      "عباسيEW": 3886,
      "اقتدارEW": 3887,
      "اجل": 3888,
      "عيو": 3889,
      "وسEW": 3890,
      "ٽرنEW": 3891,
      "ڌنEW": 3892,
      "ھندوEW": 3893,
      "انتEW": 3894,
      "ريڊEW": 3895,
      "روشن": 3896,
      "اخبارنEW": 3897,
      "قانون": 3898,
      "حياتياتيEW": 3899,
      "جامعEW": 3900,
      "سراسريEW": 3901,
      "تيا": 3902,
      "حق": 3903,
      "پائ": 3904,
      "ماڻي": 3905,
      "خوشEW": 3906,
      "بناEW": 3907,
      "عراقEW": 3908,
      "ذميو": 3909,
      "انڪEW": 3910,
      "ويدEW": 3911,
      "بدينEW": 3912,
      "ڪهاڻيEW": 3913,
      "جابلوEW": 3914,
      "ڪيءEW": 3915,
      "مسلسلEW": 3916,
      "مسجد": 3917,
      "موقعيEW": 3918,
      "ميمبرنEW": 3919,
      "جڳهيونNLزمرو": 3920,
      "،،": 3921,
      "اڇ": 3922,
      "ڪشنEW": 3923,
      "NLمن": 3924,
      "ائٽ": 3925,
      "جنگيEW": 3926,
      "ٽيمEW": 3927,
      "فرما": 3928,
      "بڻيو": 3929,
      "آئرلينڊEW": 3930,
      "ذات": 3931,
      "نديون": 3932,
      "ڪرائونEW": 3933,
      "اڪاEW": 3934,
      "آرٽEW": 3935,
      "ليکڪ": 3936,
      "حفاظتEW": 3937,
      "آڻيEW": 3938,
      "سالي": 3939,
      "مٽيءEW": 3940,
      "ڪرمEW": 3941,
      "انگنEW": 3942,
      "برطانيهEW": 3943,
      "هنڌNLزمرو": 3944,
      "آسٽ": 3945,
      "صل": 3946,
      "ننڍپڻ": 3947,
      "يونيورسٽيونNLزمرو": 3948,
      "خاناNLزمرو": 3949,
      "منظرEW": 3950,
      "سڪندرEW": 3951,
      "سنڀال": 3952,
      "واضحEW": 3953,
      "نڪEW": 3954,
      "ڌاEW": 3955,
      "NLديھEW": 3956,
      "ڏينديEW": 3957,
      "عرب": 3958,
      "صورتحالEW": 3959,
      "صفEW": 3960,
      "عرو": 3961,
      "ٽيوEW": 3962,
      "ڪاو": 3963,
      "ميريEW": 3964,
      "جيتEW": 3965,
      "سوشل": 3966,
      "ننڍڙيEW": 3967,
      "حڪمتEW": 3968,
      "پئجيEW": 3969,
      "مقابلوEW": 3970,
      "جعفر": 3971,
      "ٽالپرEW": 3972,
      "نباتا": 3973,
      "شمار": 3974,
      "ڌو": 3975,
      "ڪڇEW": 3976,
      "سانچوEW": 3977,
      "خطيEW": 3978,
      "صلاحيتEW": 3979,
      "آناEW": 3980,
      "خاليEW": 3981,
      "شڪل": 3982,
      "نگارEW": 3983,
      "اقبالEW": 3984,
      "رھندڙEW": 3985,
      "جاگرافيEW": 3986,
      "ايٽميEW": 3987,
      "ميونسپ": 3988,
      "زوالEW": 3989,
      "سرگرمEW": 3990,
      "نيٺEW": 3991,
      "گذاري": 3992,
      "اڃانEW": 3993,
      "خاتميEW": 3994,
      "آئينNLزمرو": 3995,
      "ننڍپڻNLزمرو": 3996,
      "ءNL": 3997,
      "چوڪNLزمرو": 3998,
      "ڪلاڪEW": 3999,
      "سوسائٽيEW": 4000,
      "زيوEW": 4001,
      "ڙائيEW": 4002,
      "ھا": 4003,
      "بازEW": 4004,
      "تصدي": 4005,
      "ايوبEW": 4006,
      "نوجوانNLزمرو": 4007,
      "چڱوEW": 4008,
      "فهرستNL": 4009,
      "هوندو": 4010,
      "ڪيسEW": 4011,
      "جاگيرEW": 4012,
      "اسڪولNLزمرو": 4013,
      "ڊالرEW": 4014,
      "پاڪستان": 4015,
      "ڪلاسEW": 4016,
      "عباسEW": 4017,
      "منصوبوEW": 4018,
      "هزارينEW": 4019,
      "وسنديونNLزمرو": 4020,
      "جھازNLزمرو": 4021,
      "باههEW": 4022,
      "مٽيEW": 4023,
      "ڪشEW": 4024,
      "گلنEW": 4025,
      "پرڳ": 4026,
      "ٻڌائيEW": 4027,
      "سياستدانEW": 4028,
      "آخرڪارEW": 4029,
      "رپياEW": 4030,
      "ڳائ": 4031,
      "پوندوEW": 4032,
      "هيڊEW": 4033,
      "ٻوليNL": 4034,
      "رکنداEW": 4035,
      "رياستيEW": 4036,
      "ذريعوEW": 4037,
      "آئينيEW": 4038,
      "متازEW": 4039,
      "اسرائيلEW": 4040,
      "ملياEW": 4041,
      "وڏيونEW": 4042,
      "ٻولي": 4043,
      "بهر": 4044,
      "اسٽيٽEW": 4045,
      "جدوجه": 4046,
      "صدر": 4047,
      "فرو": 4048,
      "فصلEW": 4049,
      "ڪيترينEW": 4050,
      "پھريون": 4051,
      "سنتEW": 4052,
      "سنڌيانا": 4053,
      "مهيننEW": 4054,
      "نسلنEW": 4055,
      "آڏ": 4056,
      "ازنEW": 4057,
      "تصو": 4058,
      "ورتلEW": 4059,
      "جيرياEW": 4060,
      "جمھو": 4061,
      "انڊينEW": 4062,
      "قلمEW": 4063,
      "برادريEW": 4064,
      "پاسوEW": 4065,
      "حياتEW": 4066,
      "NLسي": 4067,
      "سرزمينEW": 4068,
      "ڪننEW": 4069,
      "فيٰEW": 4070,
      "خيالنEW": 4071,
      "ڳالهائيندڙEW": 4072,
      "سومروEW": 4073,
      "معموليEW": 4074,
      "ٽيليوي": 4075,
      "بحالEW": 4076,
      "خل": 4077,
      "ڪاس": 4078,
      "ھند": 4079,
      "درجEW": 4080,
      "ڪنگ": 4081,
      "مريدEW": 4082,
      "مصط": 4083,
      "حوالاEW": 4084,
      "ميٽرو": 4085,
      "شمسيEW": 4086,
      "ورهايوEW": 4087,
      "بحEW": 4088,
      "جانيEW": 4089,
      "زخ": 4090,
      "يارEW": 4091,
      "ڪجھEW": 4092,
      "سيNL": 4093,
      "ساڻ": 4094,
      "ڪورياEW": 4095,
      "واري": 4096,
      "اندرونيEW": 4097,
      "فراهمEW": 4098,
      "ٽرين": 4099,
      "ورا": 4100,
      "ــــ": 4101,
      "گروههEW": 4102,
      "تعريفEW": 4103,
      "بڪEW": 4104,
      "دهليEW": 4105,
      "شورEW": 4106,
      "گان": 4107,
      "ڪرڪيٽEW": 4108,
      "منزلEW": 4109,
      "وڏEW": 4110,
      "چونڊونEW": 4111,
      "ڪهاڻيونEW": 4112,
      "ڪاروبارEW": 4113,
      "سوانحEW": 4114,
      "واههEW": 4115,
      "ڪهEW": 4116,
      "ريزEW": 4117,
      "مدد": 4118,
      "ڪريوEW": 4119,
      "هنڌنEW": 4120,
      "حلقوEW": 4121,
      "سيڪنڊريEW": 4122,
      "بسEW": 4123,
      "ڀڃ": 4124,
      "ڪورEW": 4125,
      "ائجيEW": 4126,
      "مارشلEW": 4127,
      "فلڪي": 4128,
      "جرمنيEW": 4129,
      "جنتEW": 4130,
      "هوائيEW": 4131,
      "برقيEW": 4132,
      "آباديونEW": 4133,
      "مھراڻEW": 4134,
      "اٺنEW": 4135,
      "آي": 4136,
      "سري": 4137,
      "عجائ": 4138,
      "ساز": 4139,
      "لڳائيEW": 4140,
      "ڳاڙهيEW": 4141,
      "مبارڪEW": 4142,
      "نامز": 4143,
      "بيگمEW": 4144,
      "قن": 4145,
      "انورEW": 4146,
      "جهڙاEW": 4147,
      "اندارEW": 4148,
      "ضرورEW": 4149,
      "پرڏيهيEW": 4150,
      "خريدEW": 4151,
      "ددEW": 4152,
      "جيستائينEW": 4153,
      "سوچEW": 4154,
      "وڌوEW": 4155,
      "ٻيھرEW": 4156,
      "هداي": 4157,
      "ڪونEW": 4158,
      "ساڄيEW": 4159,
      "محمد": 4160,
      "جاجEW": 4161,
      "تحفظEW": 4162,
      "روحانيEW": 4163,
      "سڪEW": 4164,
      "شونEW": 4165,
      "فNL": 4166,
      "چور": 4167,
      "انجيEW": 4168,
      "ورتائين": 4169,
      "يوني": 4170,
      "مهياEW": 4171,
      "نسبتEW": 4172,
      "ڏينهن": 4173,
      "دعوي": 4174,
      "بجليEW": 4175,
      "حجEW": 4176,
      "خيرEW": 4177,
      "ورڪEW": 4178,
      "گهراڻيEW": 4179,
      "رسالنEW": 4180,
      "پرنٽنگEW": 4181,
      "برساتEW": 4182,
      "تصديقEW": 4183,
      "باني": 4184,
      "تاب": 4185,
      "مکEW": 4186,
      "نوبلEW": 4187,
      "لڳوEW": 4188,
      "سڏبوEW": 4189,
      "غزلEW": 4190,
      "تڪر": 4191,
      "NLڊاڪٽرEW": 4192,
      "مشر": 4193,
      "درو": 4194,
      "سج": 4195,
      "سد": 4196,
      "شت": 4197,
      "ريسر": 4198,
      "سوسي": 4199,
      "تحصيلEW": 4200,
      "علائقائيEW": 4201,
      "سئوEW": 4202,
      "پيغامEW": 4203,
      "مڇيEW": 4204,
      "پائيEW": 4205,
      "ڀڄيEW": 4206,
      "انکيEW": 4207,
      "جناحEW": 4208,
      "سموروEW": 4209,
      "مهلEW": 4210,
      "هلندڙEW": 4211,
      "اچارEW": 4212,
      "مولائيEW": 4213,
      "خارجEW": 4214,
      "تائيEW": 4215,
      "عار": 4216,
      "ناميEW": 4217,
      "ڪليEW": 4218,
      "انا": 4219,
      "ولاEW": 4220,
      "جيNL": 4221,
      "خوندEW": 4222,
      "مهمEW": 4223,
      "پورچو": 4224,
      "مٿسEW": 4225,
      "ڳالهيونEW": 4226,
      "مفاصليEW": 4227,
      "اجلاسEW": 4228,
      "رپورٽEW": 4229,
      "سفر": 4230,
      "مگ": 4231,
      "يهو": 4232,
      "ٽئينEW": 4233,
      "چش": 4234,
      "ڇههEW": 4235,
      "کلEW": 4236,
      "ماپEW": 4237,
      "پيرو": 4238,
      "محنتEW": 4239,
      "سينٽرEW": 4240,
      "ڊڪشنريEW": 4241,
      "جدEW": 4242,
      "طنEW": 4243,
      "غذ": 4244,
      "ڊن": 4245,
      "ڊينEW": 4246,
      "بازارEW": 4247,
      "بلد": 4248,
      "ناطي": 4249,
      "مجبورEW": 4250,
      "تفصيلEW": 4251,
      "آڻڻEW": 4252,
      "بندو": 4253,
      "سزEW": 4254,
      "لڪEW": 4255,
      "هڻ": 4256,
      "منسو": 4257,
      "اوارڊEW": 4258,
      "عرفEW": 4259,
      "ڪميشنEW": 4260,
      "مقدسEW": 4261,
      "ٽيليويزنEW": 4262,
      "بلي": 4263,
      "چڪEW": 4264,
      "ڪجيEW": 4265,
      "فيتEW": 4266,
      "هيهEW": 4267,
      "اشاروEW": 4268,
      "راڄڌانيEW": 4269,
      "خاط": 4270,
      "دهل": 4271,
      "سڌوEW": 4272,
      "ادهEW": 4273,
      "يني": 4274,
      "درستEW": 4275,
      "پبليڪيشنEW": 4276,
      "دھ": 4277,
      "لھ": 4278,
      "ڀيڻEW": 4279,
      "الزامEW": 4280,
      "ڏسند": 4281,
      "ڳڙههEW": 4282,
      "وڃن": 4283,
      "حاقEW": 4284,
      "مدرسيEW": 4285,
      "پليٽEW": 4286,
      "دٻاءEW": 4287,
      "جدوجهدEW": 4288,
      "آلEW": 4289,
      "دينيEW": 4290,
      "فينEW": 4291,
      "نثرEW": 4292,
      "ڀريلEW": 4293,
      "ھزارEW": 4294,
      "اماEW": 4295,
      "گروEW": 4296,
      "ناڪEW": 4297,
      "گرامEW": 4298,
      "ميڊيڪلEW": 4299,
      "ساڻسEW": 4300,
      "زيرEW": 4301,
      "مڪر": 4302,
      "مالي": 4303,
      "پرنEW": 4304,
      "ڊنگEW": 4305,
      "رومان": 4306,
      "نالو": 4307,
      "اسٽري": 4308,
      "گذريEW": 4309,
      "گذريوEW": 4310,
      "سعيدEW": 4311,
      "غر": 4312,
      "پشا": 4313,
      "گئ": 4314,
      "NLڪو": 4315,
      "اريونEW": 4316,
      "اسدEW": 4317,
      "راڻ": 4318,
      "شاھيEW": 4319,
      "نسخ": 4320,
      "انڊوني": 4321,
      "ملازم": 4322,
      "عشقEW": 4323,
      "پوڄاEW": 4324,
      "ميڪسيڪ": 4325,
      "دروي": 4326,
      "پخت": 4327,
      "ڌاتوEW": 4328,
      "ميز": 4329,
      "ويب": 4330,
      "ماڻهوءEW": 4331,
      "فرضEW": 4332,
      "ڪمزورEW": 4333,
      "فاقEW": 4334,
      "پوليٽنEW": 4335,
      "دشمنEW": 4336,
      "دعوتEW": 4337,
      "صبحEW": 4338,
      "چاند": 4339,
      "جيئ": 4340,
      "ڏنائين": 4341,
      "چئجيEW": 4342,
      "سنگتEW": 4343,
      "اڀرنديEW": 4344,
      "بادشاهتEW": 4345,
      "عبادتEW": 4346,
      "تيونEW": 4347,
      "فط": 4348,
      "ارڙ": 4349,
      "گهروEW": 4350,
      "نويEW": 4351,
      "حاض": 4352,
      "ڪلھو": 4353,
      "واقعنEW": 4354,
      "زيدEW": 4355,
      "گوگلEW": 4356,
      "وجهيEW": 4357,
      "سارEW": 4358,
      "شاد": 4359,
      "ممتازEW": 4360,
      "ڪث": 4361,
      "NLهيءEW": 4362,
      "منيEW": 4363,
      "ليزEW": 4364,
      "برفEW": 4365,
      "بنوEW": 4366,
      "ٻاهرينEW": 4367,
      "بيمارينEW": 4368,
      "بست": 4369,
      "صاد": 4370,
      "طاقت": 4371,
      "روڊ": 4372,
      "لکيو": 4373,
      "رکنديEW": 4374,
      "سنڀالEW": 4375,
      "جيءEW": 4376,
      "سکEW": 4377,
      "ٽنگ": 4378,
      "چند": 4379,
      "NLــEW": 4380,
      "ساٿيEW": 4381,
      "بادلEW": 4382,
      "لياقتEW": 4383,
      "راندينEW": 4384,
      "عاش": 4385,
      "ڪاري": 4386,
      "گون": 4387,
      "رام": 4388,
      "ڊيشنEW": 4389,
      "هيل": 4390,
      "خوراڪEW": 4391,
      "ننڍپڻEW": 4392,
      "کوٽائيEW": 4393,
      "جڳههEW": 4394,
      "ڳولاEW": 4395,
      "ٺهڻEW": 4396,
      "پچ": 4397,
      "ڪپEW": 4398,
      "انصافEW": 4399,
      "پيش": 4400,
      "موجود": 4401,
      "ڪتابادبيEW": 4402,
      "گذاريEW": 4403,
      "ڪراچيNL": 4404,
      "پاسنEW": 4405,
      "ضنEW": 4406,
      "ڄمڻEW": 4407,
      "لاڏ": 4408,
      "ائيٽEW": 4409,
      "تعاونEW": 4410,
      "ساڳيوEW": 4411,
      "هيٺيانEW": 4412,
      "ملاقاتEW": 4413,
      "هدايتEW": 4414,
      "نمونوEW": 4415,
      "زلز": 4416,
      "شيا": 4417,
      "لزEW": 4418,
      "چاه": 4419,
      "ڳائڻEW": 4420,
      "واريءEW": 4421,
      "اخبار": 4422,
      "مارڪيٽEW": 4423,
      "سگهجي": 4424,
      "حڪومتيEW": 4425,
      "سمجهڻEW": 4426,
      "ڪاليج": 4427,
      "ڪابلEW": 4428,
      "رهن": 4429,
      "راول": 4430,
      "گهرنEW": 4431,
      "محبو": 4432,
      "گھراڻيEW": 4433,
      "صدارتيEW": 4434,
      "آڪسي": 4435,
      "بچاءEW": 4436,
      "چڱيEW": 4437,
      "خاتموEW": 4438,
      "رئيسEW": 4439,
      "جهنEW": 4440,
      "ذيرEW": 4441,
      "ڪند": 4442,
      "NLسندسEW": 4443,
      "اسڪال": 4444,
      "درٻارEW": 4445,
      "ڪارپو": 4446,
      "تڪلي": 4447,
      "ساس": 4448,
      "سؤEW": 4449,
      "ڦي": 4450,
      "ھٿEW": 4451,
      "NLمو": 4452,
      "مرضEW": 4453,
      "گوشتEW": 4454,
      "سرگرمينEW": 4455,
      "بغيرEW": 4456,
      "لان": 4457,
      "پليEW": 4458,
      "چاEW": 4459,
      "ڻائيEW": 4460,
      "ورهينEW": 4461,
      "امNL": 4462,
      "مردمEW": 4463,
      "ڪمشن": 4464,
      "چاڙ": 4465,
      "سربراھEW": 4466,
      "حمي": 4467,
      "ضمEW": 4468,
      "قبرEW": 4469,
      "الونEW": 4470,
      "جيڪٽEW": 4471,
      "اصولنEW": 4472,
      "ڪهڙيEW": 4473,
      "آغازEW": 4474,
      "چانڊيوEW": 4475,
      "آڏوEW": 4476,
      "اڇيEW": 4477,
      "دڙوEW": 4478,
      "نونEW": 4479,
      "ڪندڙنEW": 4480,
      "اهلEW": 4481,
      "ميرنEW": 4482,
      "ڪيشنEW": 4483,
      "منڊ": 4484,
      "ڪارڪنEW": 4485,
      "پرست": 4486,
      "صفحا": 4487,
      "ڇپيندڙ": 4488,
      "جاندارنEW": 4489,
      "نفسي": 4490,
      "آري": 4491,
      "لائنEW": 4492,
      "هتEW": 4493,
      "پند": 4494,
      "جيتروEW": 4495,
      "شهدادڪوٽEW": 4496,
      "مقناطي": 4497,
      "وڌو": 4498,
      "وڌڻEW": 4499,
      "لڳايوEW": 4500,
      "خطابEW": 4501,
      "خليفوEW": 4502,
      "صال": 4503,
      "نع": 4504,
      "وانEW": 4505,
      "ارامEW": 4506,
      "پنڌEW": 4507,
      "منڊلEW": 4508,
      "سندEW": 4509,
      "وڏينEW": 4510,
      "ڪنڊEW": 4511,
      "رسالو": 4512,
      "نوڪريEW": 4513,
      "علامتEW": 4514,
      "فاط": 4515,
      "ڏيکاريEW": 4516,
      "ايراضيءEW": 4517,
      "ڪميونسٽEW": 4518,
      "خز": 4519,
      "زيو": 4520,
      "فائون": 4521,
      "يزEW": 4522,
      "پائرEW": 4523,
      "اوبل": 4524,
      "فرين": 4525,
      "سلطن": 4526,
      "سائيٽEW": 4527,
      "ڪالمEW": 4528,
      "وهڪريEW": 4529,
      "آسمانEW": 4530,
      "بنا": 4531,
      "جامEW": 4532,
      "طبيEW": 4533,
      "غازيEW": 4534,
      "ڏههEW": 4535,
      "ايئنEW": 4536,
      "ليمEW": 4537,
      "محا": 4538,
      "مقصد": 4539,
      "ڪائونٽيEW": 4540,
      "ڪانهEW": 4541,
      "هاڻوڪيEW": 4542,
      "عجائبEW": 4543,
      "ڪٽ": 4544,
      "ملاEW": 4545,
      "گرد": 4546,
      "ڪيني": 4547,
      "ڪاميابيEW": 4548,
      "سروسEW": 4549,
      "اختلافEW": 4550,
      "يافتهEW": 4551,
      "عڪسEW": 4552,
      "ادار": 4553,
      "سنيEW": 4554,
      "پهتوEW": 4555,
      "سٽنٽEW": 4556,
      "نقلEW": 4557,
      "ڀرپورEW": 4558,
      "تحريرEW": 4559,
      "جماع": 4560,
      "بلدياتيEW": 4561,
      "ثانيEW": 4562,
      "نارEW": 4563,
      "ايفEW": 4564,
      "ڪوڊEW": 4565,
      "سگھنEW": 4566,
      "عيوضEW": 4567,
      "غالبEW": 4568,
      "لڏ": 4569,
      "ارغ": 4570,
      "ٽيڊEW": 4571,
      "تصويرونEW": 4572,
      "قطبEW": 4573,
      "ميٽروپوليٽنEW": 4574,
      "تفري": 4575,
      "خلائيEW": 4576,
      "پڪEW": 4577,
      "ٿانEW": 4578,
      "پننEW": 4579,
      "سافٽEW": 4580,
      "جوڙيEW": 4581,
      "توھانEW": 4582,
      "ناز": 4583,
      "مهر": 4584,
      "سگهوEW": 4585,
      "ڇپجيEW": 4586,
      "ڊگهوEW": 4587,
      "جاندارEW": 4588,
      "ڪلاسيڪلEW": 4589,
      "پويانEW": 4590,
      "مقبروEW": 4591,
      "ثبوتEW": 4592,
      "جون": 4593,
      "دفا": 4594,
      "شدEW": 4595,
      "ڪيائون": 4596,
      "يونانEW": 4597,
      "بخاريEW": 4598,
      "قبيلوEW": 4599,
      "چارجEW": 4600,
      "جائزوEW": 4601,
      "ڪهاڻينEW": 4602,
      "مئٽرڪEW": 4603,
      "خواجهEW": 4604,
      "وچوليEW": 4605,
      "بص": 4606,
      "ڀريEW": 4607,
      "ڦو": 4608,
      "کائيEW": 4609,
      "الط": 4610,
      "الحقEW": 4611,
      "پيرا": 4612,
      "ياتNL": 4613,
      "مردنEW": 4614,
      "سروEW": 4615,
      "عيسائيEW": 4616,
      "پنجاب": 4617,
      "موضوعنEW": 4618,
      "يقينEW": 4619,
      "مٿاڇريEW": 4620,
      "ظاھرEW": 4621,
      "هڻيEW": 4622,
      "ڪراEW": 4623,
      "صولEW": 4624,
      "پھچ": 4625,
      "تاريخNL": 4626,
      "موجب": 4627,
      "سينٽرلEW": 4628,
      "ڪوارٽرEW": 4629,
      "آسانEW": 4630,
      "رخ": 4631,
      "فٽ": 4632,
      "نئ": 4633,
      "نNL": 4634,
      "ڊپٽيEW": 4635,
      "گلي": 4636,
      "ھر": 4637,
      "ملندڙEW": 4638,
      "پهري": 4639,
      "ٻيليEW": 4640,
      "ايمپائرEW": 4641,
      "اطلا": 4642,
      "شمسEW": 4643,
      "حياتياتEW": 4644,
      "خاطرEW": 4645,
      "جلEW": 4646,
      "سميEW": 4647,
      "سڪيEW": 4648,
      "يھو": 4649,
      "واٽEW": 4650,
      "ٿوNL": 4651,
      "وڌائڻEW": 4652,
      "ڪراچي": 4653,
      "زيبEW": 4654,
      "شرطEW": 4655,
      "ايڪس": 4656,
      "هڪٻئيEW": 4657,
      "رضيEW": 4658,
      "پڇا": 4659,
      "ھNL": 4660,
      "امدادEW": 4661,
      "ملائي": 4662,
      "رهنديEW": 4663,
      "تنقي": 4664,
      "شعورEW": 4665,
      "کاٻيEW": 4666,
      "اداڪارEW": 4667,
      "عطاEW": 4668,
      "درخواستEW": 4669,
      "باڪ": 4670,
      "ڪندو": 4671,
      "گرينEW": 4672,
      "منٽEW": 4673,
      "باباEW": 4674,
      "صاحب": 4675,
      "برونEW": 4676,
      "اديبنEW": 4677,
      "ڊز": 4678,
      "رسٽEW": 4679,
      "درياEW": 4680,
      "اڏاوتEW": 4681,
      "واڌاروEW": 4682,
      "ميڪسيڪوEW": 4683,
      "روميEW": 4684,
      "پونديEW": 4685,
      "پوسٽEW": 4686,
      "يونيورسٽي": 4687,
      "عثمانيEW": 4688,
      "اشاع": 4689,
      "ضلEW": 4690,
      "لال": 4691,
      "ڪپڙ": 4692,
      "ڪٽن": 4693,
      "يوزرEW": 4694,
      "تازوEW": 4695,
      "تيئنEW": 4696,
      "هيٺانEW": 4697,
      "آثارنEW": 4698,
      "محققEW": 4699,
      "تپيEW": 4700,
      "زين": 4701,
      "ڇهنEW": 4702,
      "گنيEW": 4703,
      "محتر": 4704,
      "پنجينEW": 4705,
      "هيٺينEW": 4706,
      "سنگھEW": 4707,
      "صادقEW": 4708,
      "يوارEW": 4709,
      "راڳ": 4710,
      "جيبEW": 4711,
      "ڪولمب": 4712,
      "تفصي": 4713,
      "داستانEW": 4714,
      "ريسرچEW": 4715,
      "آف": 4716,
      "زبرد": 4717,
      "فانيEW": 4718,
      "نماEW": 4719,
      "ٿول": 4720,
      "ماڊلEW": 4721,
      "ويئرEW": 4722,
      "سنڌينEW": 4723,
      "درسEW": 4724,
      "علائقو": 4725,
      "ليڪنEW": 4726,
      "سفي": 4727,
      "نٿاEW": 4728,
      "پلو": 4729,
      "که": 4730,
      "ڪڏھنEW": 4731,
      "گبولEW": 4732,
      "ھاEW": 4733,
      "روNL": 4734,
      "اتنEW": 4735,
      "سينٽيEW": 4736,
      "حو": 4737,
      "سپرEW": 4738,
      "عيتEW": 4739,
      "هجنEW": 4740,
      "ينڊEW": 4741,
      "پيا": 4742,
      "جھڙوڪEW": 4743,
      "دهليءEW": 4744,
      "وھ": 4745,
      "پون": 4746,
      "ڀتEW": 4747,
      "مولEW": 4748,
      "اڻيونEW": 4749,
      "بيبEW": 4750,
      "وڌندڙEW": 4751,
      "بنجيEW": 4752,
      "ننڍنEW": 4753,
      "انتظامي": 4754,
      "بگ": 4755,
      "نٿيEW": 4756,
      "ڏنEW": 4757,
      "ھاءEW": 4758,
      "انيNL": 4759,
      "اڪرEW": 4760,
      "شهز": 4761,
      "فوجنEW": 4762,
      "سگهيو": 4763,
      "نصيرEW": 4764,
      "ڊراميEW": 4765,
      "عبداللطيفEW": 4766,
      "صالحEW": 4767,
      "ناھيEW": 4768,
      "ڏسوEW": 4769,
      "ڙيوEW": 4770,
      "ڪڙEW": 4771,
      "وڌائيEW": 4772,
      "اندازيEW": 4773,
      "بدل": 4774,
      "اسڪولنEW": 4775,
      "منهنجوEW": 4776,
      "ذهنEW": 4777,
      "مديEW": 4778,
      "نڪا": 4779,
      "پئي": 4780,
      "کٽ": 4781,
      "ڪڻ": 4782,
      "NLڀ": 4783,
      "لاھ": 4784,
      "ميلنEW": 4785,
      "پيئڻEW": 4786,
      "برٽEW": 4787,
      "فقارEW": 4788,
      "روزانوEW": 4789,
      "ميلاپEW": 4790,
      "جسمانيEW": 4791,
      "چٽ": 4792,
      "ڪائيEW": 4793,
      "روناEW": 4794,
      "معصو": 4795,
      "تقسيمEW": 4796,
      "وانگيEW": 4797,
      "مستقبلEW": 4798,
      "عنايتEW": 4799,
      "فلسطينEW": 4800,
      "پختون": 4801,
      "آرامEW": 4802,
      "چڪرEW": 4803,
      "خاصخي": 4804,
      "گيل": 4805,
      "سٽريشنEW": 4806,
      "انٽرنيٽEW": 4807,
      "ڪميٽيEW": 4808,
      "نائبEW": 4809,
      "سياحتEW": 4810,
      "هجريEW": 4811,
      "چوڏ": 4812,
      "ڍان": 4813,
      "ھرا": 4814,
      "ھيون": 4815,
      "ايئر": 4816,
      "پير": 4817,
      "باتيEW": 4818,
      "کاڌوEW": 4819,
      "اداڪار": 4820,
      "دفعاEW": 4821,
      "روشنيءEW": 4822,
      "رھنEW": 4823,
      "شاندارEW": 4824,
      "عالEW": 4825,
      "ھندو": 4826,
      "انڪريEW": 4827,
      "الع": 4828,
      "ورث": 4829,
      "ڪيل": 4830,
      "پرنس": 4831,
      "شاهه": 4832,
      "گذار": 4833,
      "مغلنEW": 4834,
      "ڪاميٽيEW": 4835,
      "ڊرامنEW": 4836,
      "وري": 4837,
      "رازEW": 4838,
      "ڊيمو": 4839,
      "واليEW": 4840,
      "خيبرEW": 4841,
      "فضلEW": 4842,
      "ڪپڙيEW": 4843,
      "رياضيEW": 4844,
      "طاقتورEW": 4845,
      "مک": 4846,
      "ڪٽEW": 4847,
      "NLار": 4848,
      "اصرEW": 4849,
      "رياستونEW": 4850,
      "ٻڌڻEW": 4851,
      "صنفEW": 4852,
      "ابتداEW": 4853,
      "فطريEW": 4854,
      "NLف": 4855,
      "ڪنگEW": 4856,
      "دائريEW": 4857,
      "گريجو": 4858,
      "راندي": 4859,
      "آEW": 4860,
      "ھار": 4861,
      "NLبر": 4862,
      "ميني": 4863,
      "گهڻنEW": 4864,
      "اوائليEW": 4865,
      "پارٽ": 4866,
      "تجارتيEW": 4867,
      "طبقيEW": 4868,
      "راشديEW": 4869,
      "رفتEW": 4870,
      "سينيEW": 4871,
      "يهEW": 4872,
      "ڪنديونEW": 4873,
      "ائڻ": 4874,
      "پيرنEW": 4875,
      "ڏيڍEW": 4876,
      "وڪيلEW": 4877,
      "ڳالهينEW": 4878,
      "خانNL": 4879,
      "ڪمشنرEW": 4880,
      "جمليEW": 4881,
      "قدEW": 4882,
      "ڍيEW": 4883,
      "ڏهينEW": 4884,
      "NLان": 4885,
      "سازيEW": 4886,
      "شهرتEW": 4887,
      "جاگير": 4888,
      "مارڪEW": 4889,
      "تباههEW": 4890,
      "دعويٰEW": 4891,
      "پشاورEW": 4892,
      "اچEW": 4893,
      "اپEW": 4894,
      "اکEW": 4895,
      "زينEW": 4896,
      "ويرEW": 4897,
      "تيمورEW": 4898,
      "بلغ": 4899,
      "گڏج": 4900,
      "ڪجهہEW": 4901,
      "پڙهيEW": 4902,
      "کوجن": 4903,
      "ميرزاEW": 4904,
      "پاليسيEW": 4905,
      "ڇپيندڙEW": 4906,
      "زميننEW": 4907,
      "عدالتEW": 4908,
      "نڪاحEW": 4909,
      "طئيEW": 4910,
      "غورEW": 4911,
      "ٻوڏEW": 4912,
      "ڦير": 4913,
      "اهينEW": 4914,
      "اتاEW": 4915,
      "تعلق": 4916,
      "فيلڊEW": 4917,
      "مشڪلEW": 4918,
      "عيسي": 4919,
      "بخش": 4920,
      "طبEW": 4921,
      "نز": 4922,
      "اسڪر": 4923,
      "ميد": 4924,
      "ورهيهEW": 4925,
      "سيٺEW": 4926,
      "پوئينEW": 4927,
      "اوز": 4928,
      "گھو": 4929,
      "اختي": 4930,
      "ايوانEW": 4931,
      "چارلسEW": 4932,
      "انقلابيEW": 4933,
      "ذوالفقارEW": 4934,
      "ذرEW": 4935,
      "مپEW": 4936,
      "ٽنڊيEW": 4937,
      "ڏاEW": 4938,
      "ڪچيEW": 4939,
      "گئسEW": 4940,
      "انءEW": 4941,
      "الهنديEW": 4942,
      "فرھ": 4943,
      "افغانEW": 4944,
      "بس": 4945,
      "جلالEW": 4946,
      "دليلEW": 4947,
      "ساد": 4948,
      "مہEW": 4949,
      "ٹEW": 4950,
      "ٺاEW": 4951,
      "ھارEW": 4952,
      "ائلEW": 4953,
      "واقع": 4954,
      "فلميEW": 4955,
      "نامورEW": 4956,
      "اخلاقيEW": 4957,
      "پبلشرسنڌEW": 4958,
      "پت": 4959,
      "پان": 4960,
      "چالي": 4961,
      "ارڊ": 4962,
      "لاش": 4963,
      "اوٽEW": 4964,
      "جيانEW": 4965,
      "نسب": 4966,
      "رائجEW": 4967,
      "سليمانEW": 4968,
      "لاڙڪاڻوEW": 4969,
      "جوڙجڪEW": 4970,
      "ٺاھڻEW": 4971,
      "جتوئيEW": 4972,
      "تونNLزمرو": 4973,
      "خلاEW": 4974,
      "رت": 4975,
      "رڊEW": 4976,
      "ناريEW": 4977,
      "ناظمEW": 4978,
      "تنھنEW": 4979,
      "ذريعنEW": 4980,
      "بڻائڻEW": 4981,
      "آمدنيEW": 4982,
      "طالبEW": 4983,
      "مڪEW": 4984,
      "پرستيEW": 4985,
      "ڪمر": 4986,
      "آرٽسEW": 4987,
      "فارمي": 4988,
      "گاڏ": 4989,
      "گهربلEW": 4990,
      "سھول": 4991,
      "مٽياريEW": 4992,
      "شهنشاههEW": 4993,
      "سوشلسٽEW": 4994,
      "تتا": 4995,
      "شوريEW": 4996,
      "صلاح": 4997,
      "لٽEW": 4998,
      "ٽائون": 4999,
      "ندينEW": 5000,
      "بادشا": 5001,
      "نامزدEW": 5002,
      "بطورEW": 5003,
      "پخ": 5004,
      "پتوEW": 5005,
      "ڊانEW": 5006,
      "کٽيEW": 5007,
      "ڪڙيEW": 5008,
      "ويئيEW": 5009,
      "ونگEW": 5010,
      "ليNL": 5011,
      "باتEW": 5012,
      "مقبريEW": 5013,
      "احساسEW": 5014,
      "سموراEW": 5015,
      "دورنEW": 5016,
      "سنڌياناEW": 5017,
      "ڇپائيندڙEW": 5018,
      "عمارتونEW": 5019,
      "طبيع": 5020,
      "نرمEW": 5021,
      "جبEW": 5022,
      "سسEW": 5023,
      "عض": 5024,
      "هڪجه": 5025,
      "کڻڻEW": 5026,
      "ڪتيEW": 5027,
      "ڪلوEW": 5028,
      "ڏکڻ": 5029,
      "هايوEW": 5030,
      "تبلي": 5031,
      "هلندوEW": 5032,
      "ربانيEW": 5033,
      "مظاه": 5034,
      "قريشيEW": 5035,
      "پلاڻEW": 5036,
      "سدائينEW": 5037,
      "تسل": 5038,
      "ذر": 5039,
      "يائين": 5040,
      "پرستEW": 5041,
      "ڊول": 5042,
      "ينNL": 5043,
      "ويندي": 5044,
      "اڻينEW": 5045,
      "پهريانEW": 5046,
      "لکيا": 5047,
      "اللہEW": 5048,
      "ڪمانڊ": 5049,
      "بهارEW": 5050,
      "مصريEW": 5051,
      "هلائڻEW": 5052,
      "ڪڍڻEW": 5053,
      "ماڳنEW": 5054,
      "فرھنگEW": 5055,
      "بونEW": 5056,
      "جمالEW": 5057,
      "ديءEW": 5058,
      "ڪجي": 5059,
      "موهنEW": 5060,
      "جيڪلEW": 5061,
      "تيNL": 5062,
      "شادEW": 5063,
      "اتNL": 5064,
      "نوعEW": 5065,
      "ڪلچرEW": 5066,
      "نگرانيEW": 5067,
      "منصورEW": 5068,
      "عملنEW": 5069,
      "ماري": 5070,
      "مٺيEW": 5071,
      "ليٽEW": 5072,
      "باز": 5073,
      "مٿينEW": 5074,
      "تخبEW": 5075,
      "سپاسEW": 5076,
      "رضاEW": 5077,
      "گذريلEW": 5078,
      "رقمEW": 5079,
      "تارنEW": 5080,
      "مڱ": 5081,
      "چلEW": 5082,
      "NLجڏهنEW": 5083,
      "سوينEW": 5084,
      "ناچEW": 5085,
      "ايڪٽEW": 5086,
      "صديقEW": 5087,
      "ڪلهوڙنEW": 5088,
      "بيٺلEW": 5089,
      "عيسيٰEW": 5090,
      "تال": 5091,
      "عبر": 5092,
      "ڀٽEW": 5093,
      "ڪمالEW": 5094,
      "ڪچوEW": 5095,
      "يڪٽرEW": 5096,
      "ايسٽEW": 5097,
      "واھEW": 5098,
      "جوڳيEW": 5099,
      "رسميEW": 5100,
      "پروٽينEW": 5101,
      "اعترا": 5102,
      "علومEW": 5103,
      "داخلاEW": 5104,
      "بينظ": 5105,
      "رابطيEW": 5106,
      "بنگلا": 5107,
      "سمجھيوEW": 5108,
      "پٿرنEW": 5109,
      "بئنڪEW": 5110,
      "منسوبEW": 5111,
      "آخوندEW": 5112,
      "رمEW": 5113,
      "مادوEW": 5114,
      "ڇرEW": 5115,
      "ادب": 5116,
      "ائيڊEW": 5117,
      "لغاريEW": 5118,
      "عقيديEW": 5119,
      "ساحلEW": 5120,
      "پهچڻEW": 5121,
      "آبهواEW": 5122,
      "پيپلز": 5123,
      "سرشتيEW": 5124,
      "سچلEW": 5125,
      "ناڪامEW": 5126,
      "آھيNL": 5127,
      "ڏيندڙEW": 5128,
      "پراڻنEW": 5129,
      "فورڊEW": 5130,
      "غيبيEW": 5131,
      "ارتقاEW": 5132,
      "ذهن": 5133,
      "لسان": 5134,
      "وڇ": 5135,
      "پيچي": 5136,
      "ساٿينEW": 5137,
      "سمورنEW": 5138,
      "آسپاسEW": 5139,
      "فلEW": 5140,
      "انسEW": 5141,
      "انفرا": 5142,
      "صوبو": 5143,
      "ائونڊEW": 5144,
      "اشتEW": 5145,
      "مقصدنEW": 5146,
      "ڙيNL": 5147,
      "گليEW": 5148,
      "ھائيEW": 5149,
      "ہيEW": 5150,
      "ڪرائي": 5151,
      "گهرNL": 5152,
      "معز": 5153,
      "شيخ": 5154,
      "ڄاڻخانوEW": 5155,
      "بزرگنEW": 5156,
      "مهينوEW": 5157,
      "سربراههEW": 5158,
      "ئاEW": 5159,
      "قاف": 5160,
      "ڳوڙ": 5161,
      "لاڙEW": 5162,
      "پنجونEW": 5163,
      "ڪوري": 5164,
      "اتفاقEW": 5165,
      "پاڪستانNL": 5166,
      "گرميءEW": 5167,
      "آڪسائي": 5168,
      "مسئلوEW": 5169,
      "باغباني": 5170,
      "گتEW": 5171,
      "ويهيEW": 5172,
      "مھين": 5173,
      "معاهديEW": 5174,
      "بجاءEW": 5175,
      "سچEW": 5176,
      "ٿنEW": 5177,
      "ڄي": 5178,
      "گيNL": 5179,
      "ھنديEW": 5180,
      "اسحاقEW": 5181,
      "ويڙههEW": 5182,
      "ياڻيEW": 5183,
      "پوڻEW": 5184,
      "چويEW": 5185,
      "گھٽ": 5186,
      "استعمال": 5187,
      "مرڪبEW": 5188,
      "لاڳاپاEW": 5189,
      "اسپيڪ": 5190,
      "هيٺيونEW": 5191,
      "ميرپورEW": 5192,
      "مسئليEW": 5193,
      "رهو": 5194,
      "پذيرEW": 5195,
      "الم": 5196,
      "اسٽEW": 5197,
      "واپار": 5198,
      "ٿيندي": 5199,
      "لکنEW": 5200,
      "ڪارڪر": 5201,
      "واقعاEW": 5202,
      "صحافيEW": 5203,
      "قبيلاEW": 5204,
      "رجح": 5205,
      "مهيناEW": 5206,
      "تنظيمنEW": 5207,
      "کنڊNLزمرو": 5208,
      "آيتEW": 5209,
      "اڙيEW": 5210,
      "صغيرEW": 5211,
      "هف": 5212,
      "يارڪEW": 5213,
      "پاڙي": 5214,
      "آرگن": 5215,
      "اسٽيجEW": 5216,
      "مٿان": 5217,
      "ڪالون": 5218,
      "وسيلنEW": 5219,
      "ٺاهينداEW": 5220,
      "قرا": 5221,
      "ميونEW": 5222,
      "کل": 5223,
      "NLوڪيپيڊي": 5224,
      "فارسيءEW": 5225,
      "نوازيوEW": 5226,
      "هٿانEW": 5227,
      "تاراEW": 5228,
      "دفت": 5229,
      "سپريمEW": 5230,
      "يريEW": 5231,
      "ڀليEW": 5232,
      "ھيونEW": 5233,
      "انٽرEW": 5234,
      "ائشيEW": 5235,
      "نديNL": 5236,
      "الفEW": 5237,
      "ويسٽEW": 5238,
      "ايجو": 5239,
      "ڪنڀ": 5240,
      "جماليEW": 5241,
      "کانپوء": 5242,
      "ڪيريئرEW": 5243,
      "آسٽرياEW": 5244,
      "اما": 5245,
      "چچEW": 5246,
      "روڪڻEW": 5247,
      "موڪلي": 5248,
      "وليمEW": 5249,
      "قولEW": 5250,
      "ڄامشوروEW": 5251,
      "مسافرEW": 5252,
      "ٻه": 5253,
      "ڏاه": 5254,
      "ڏسو": 5255,
      "هوندي": 5256,
      "ديههEW": 5257,
      "شنNL": 5258,
      "جلسEW": 5259,
      "اعجازEW": 5260,
      "نواب": 5261,
      "قلاتEW": 5262,
      "سائنسدانEW": 5263,
      "عڪ": 5264,
      "هياEW": 5265,
      "ٻان": 5266,
      "ٽيون": 5267,
      "کائينداEW": 5268,
      "ھجي": 5269,
      "اسسٽنٽEW": 5270,
      "ويٽن": 5271,
      "ونياEW": 5272,
      "لاڳاپنEW": 5273,
      "ڪوششنEW": 5274,
      "عنصرنEW": 5275,
      "دستاويز": 5276,
      "لائبريريEW": 5277,
      "ئلEW": 5278,
      "عجيبEW": 5279,
      "ڌما": 5280,
      "ڏئي": 5281,
      "ڪانگ": 5282,
      "پوکEW": 5283,
      "چوٽيEW": 5284,
      "فيسEW": 5285,
      "حڪومت": 5286,
      "رھي": 5287,
      "عملدارEW": 5288,
      "تشددEW": 5289,
      "آڪسيجنEW": 5290,
      "جلا": 5291,
      "ربEW": 5292,
      "ڏاهرEW": 5293,
      "ھمEW": 5294,
      "ھعEW": 5295,
      "ارڪ": 5296,
      "ميان": 5297,
      "سورا": 5298,
      "يعقو": 5299,
      "ايڪڙEW": 5300,
      "ڏيکاريوEW": 5301,
      "هائوسEW": 5302,
      "يونيسڪوEW": 5303,
      "محبوبEW": 5304,
      "ئمEW": 5305,
      "جNL": 5306,
      "جياEW": 5307,
      "ٻھرا": 5308,
      "پNL": 5309,
      "ڦريEW": 5310,
      "ايسوسي": 5311,
      "ھوائيEW": 5312,
      "پلان": 5313,
      "بروهيEW": 5314,
      "نشانيEW": 5315,
      "خالدEW": 5316,
      "بادشاھتEW": 5317,
      "اڍ": 5318,
      "خيروEW": 5319,
      "فنيEW": 5320,
      "ٻاھ": 5321,
      "ڊسEW": 5322,
      "سيلEW": 5323,
      "گهيEW": 5324,
      "ساڻEW": 5325,
      "ڪوروناEW": 5326,
      "انگل": 5327,
      "گرافيEW": 5328,
      "ڇاپو": 5329,
      "ڇوڙEW": 5330,
      "ڪڍيوEW": 5331,
      "پابنديEW": 5332,
      "آڱ": 5333,
      "دعاEW": 5334,
      "رمض": 5335,
      "قاض": 5336,
      "مٽEW": 5337,
      "ڄائوEW": 5338,
      "چناEW": 5339,
      "ھاريEW": 5340,
      "ماتحتEW": 5341,
      "وناEW": 5342,
      "سرمائي": 5343,
      "نوٽEW": 5344,
      "زيارتEW": 5345,
      "جھانEW": 5346,
      "ديوارEW": 5347,
      "اضافيEW": 5348,
      "رائچندEW": 5349,
      "انڊونيشياEW": 5350,
      "تيون": 5351,
      "ججEW": 5352,
      "لائي": 5353,
      "مةEW": 5354,
      "ٽڪرEW": 5355,
      "ايجن": 5356,
      "ايئرEW": 5357,
      "سنڌوءEW": 5358,
      "اڻو": 5359,
      "اواEW": 5360,
      "ائيندڙنEW": 5361,
      "ٽيلي": 5362,
      "دوريEW": 5363,
      "اٿسEW": 5364,
      "عبدالمجيدEW": 5365,
      "بھترينEW": 5366,
      "ماهوارEW": 5367,
      "آپريشنEW": 5368,
      "اياEW": 5369,
      "خبر": 5370,
      "NLرو": 5371,
      "الاجيEW": 5372,
      "اسٽر": 5373,
      "ميڊي": 5374,
      "ويههEW": 5375,
      "عيسائي": 5376,
      "مٿئينEW": 5377,
      "رنگنEW": 5378,
      "حسين": 5379,
      "هائ": 5380,
      "ورڊEW": 5381,
      "اتح": 5382,
      "گھا": 5383,
      "موسيٰEW": 5384,
      "هينئرEW": 5385,
      "هٿنEW": 5386,
      "آئونEW": 5387,
      "خور": 5388,
      "فورسEW": 5389,
      "وتEW": 5390,
      "پرس": 5391,
      "گد": 5392,
      "ھجريEW": 5393,
      "ينهEW": 5394,
      "حيدEW": 5395,
      "نوآباد": 5396,
      "لڳندوEW": 5397,
      "بنتEW": 5398,
      "نڊاEW": 5399,
      "ھئڻEW": 5400,
      "آفريڪيEW": 5401,
      "ڪامريڊEW": 5402,
      "شخصيتنEW": 5403,
      "عروجEW": 5404,
      "بهرحال": 5405,
      "هاڪ": 5406,
      "چندرEW": 5407,
      "ڊپارٽ": 5408,
      "ڏھEW": 5409,
      "ماضيEW": 5410,
      "سرحدونEW": 5411,
      "درگاههEW": 5412,
      "سومرو": 5413,
      "فيئرEW": 5414,
      "فوتEW": 5415,
      "مدادEW": 5416,
      "مثلاEW": 5417,
      "نشان": 5418,
      "طريقاEW": 5419,
      "رجسٽريشنEW": 5420,
      "اٺينEW": 5421,
      "آڳاٽيEW": 5422,
      "تار": 5423,
      "پائي": 5424,
      "گنگ": 5425,
      "ھليEW": 5426,
      "الخطEW": 5427,
      "اهڙيونEW": 5428,
      "سورةEW": 5429,
      "مسئلاEW": 5430,
      "قطرEW": 5431,
      "ٽاورEW": 5432,
      "جعفرEW": 5433,
      "اڄڪل": 5434,
      "جئ": 5435,
      "شئيEW": 5436,
      "طلا": 5437,
      "نج": 5438,
      "هڙ": 5439,
      "هلا": 5440,
      "پس": 5441,
      "ڌا": 5442,
      "گھEW": 5443,
      "ابڙوEW": 5444,
      "جيئيEW": 5445,
      "لڳنEW": 5446,
      "سائوEW": 5447,
      "تبص": 5448,
      "گاهEW": 5449,
      "حقيق": 5450,
      "موسيقيءEW": 5451,
      "اسڪاٽ": 5452,
      "ڪئناڊاEW": 5453,
      "عاشقEW": 5454,
      "پهريائينEW": 5455,
      "تمEW": 5456,
      "شار": 5457,
      "نمبر": 5458,
      "هٽ": 5459,
      "ڏڻEW": 5460,
      "يوانEW": 5461,
      "اهه": 5462,
      "ڪوئيEW": 5463,
      "سوارEW": 5464,
      "ٽيرياEW": 5465,
      "معدن": 5466,
      "مهرEW": 5467,
      "بحرEW": 5468,
      "نصي": 5469,
      "لغتEW": 5470,
      "اڏاو": 5471,
      "فيصلEW": 5472,
      "ورهائيEW": 5473,
      "مڃتاEW": 5474,
      "سومرنEW": 5475,
      "جارجEW": 5476,
      "ڏھاڪيEW": 5477,
      "خواهشEW": 5478,
      "عارضيEW": 5479,
      "مفتEW": 5480,
      "ناس": 5481,
      "ڏندEW": 5482,
      "ڪندڙ": 5483,
      "يوي": 5484,
      "ريلوEW": 5485,
      "امتيا": 5486,
      "رهاڪوEW": 5487,
      "بوءEW": 5488,
      "عربي": 5489,
      "خاناEW": 5490,
      "دائودEW": 5491,
      "ڳالهائيEW": 5492,
      "گهوٽEW": 5493,
      "درياھEW": 5494,
      "ڀائرنEW": 5495,
      "ميونسپلEW": 5496,
      "مئنEW": 5497,
      "ٽرينEW": 5498,
      "ڇتEW": 5499,
      "ڇهينEW": 5500,
      "ڏسEW": 5501,
      "ڦاڪEW": 5502,
      "ڪع": 5503,
      "الف": 5504,
      "استح": 5505,
      "ورن": 5506,
      "منتخبEW": 5507,
      "شابEW": 5508,
      "فرشEW": 5509,
      "آبادNL": 5510,
      "تناسبEW": 5511,
      "عيد": 5512,
      "زندهEW": 5513,
      "حڪمراننEW": 5514,
      "اسماعي": 5515,
      "خاصيتنEW": 5516,
      "ڇپايو": 5517,
      "مقناطيسيEW": 5518,
      "ديوEW": 5519,
      "ٻيءEW": 5520,
      "ويٺوEW": 5521,
      "تعمي": 5522,
      "گرھEW": 5523,
      "رکياEW": 5524,
      "بنيادنEW": 5525,
      "موسيق": 5526,
      "بغدادEW": 5527,
      "پهريون": 5528,
      "شاخونEW": 5529,
      "واپرائيندڙEW": 5530,
      "حبيبEW": 5531,
      "خاننEW": 5532,
      "عنو": 5533,
      "هما": 5534,
      "يورو": 5535,
      "بيلEW": 5536,
      "لوڻEW": 5537,
      "مريضEW": 5538,
      "آمريڪا": 5539,
      "رھياEW": 5540,
      "ڏاڙ": 5541,
      "وزير": 5542,
      "قدرتEW": 5543,
      "ٽيڪنالا": 5544,
      "ويٺو": 5545,
      "تنهنجيEW": 5546,
      "نباتاتEW": 5547,
      "درويشEW": 5548,
      "ماست": 5549,
      "نهنEW": 5550,
      "ٺهيEW": 5551,
      "پڌر": 5552,
      "ڊمEW": 5553,
      "ڦل": 5554,
      "ڳجه": 5555,
      "NLپي": 5556,
      "ڪرڻوEW": 5557,
      "سادEW": 5558,
      "تازيEW": 5559,
      "تيزيءEW": 5560,
      "مخلو": 5561,
      "شھر": 5562,
      "مصر": 5563,
      "نقط": 5564,
      "ثقلEW": 5565,
      "گذرڻEW": 5566,
      "لاڳاپوEW": 5567,
      "ڇوڪرينEW": 5568,
      "چرچEW": 5569,
      "معاشريEW": 5570,
      "ڪميونٽيEW": 5571,
      "نھ": 5572,
      "ارت": 5573,
      "الههEW": 5574,
      "منفردEW": 5575,
      "ڪنوارEW": 5576,
      "معديEW": 5577,
      "مشين": 5578,
      "ڏنيونEW": 5579,
      "ڇڏڻEW": 5580,
      "گنب": 5581,
      "سهڻيEW": 5582,
      "ڏيکاري": 5583,
      "ٽالپرنEW": 5584,
      "رحيمدادEW": 5585,
      "متحرڪEW": 5586,
      "زڪواتEW": 5587,
      "مصطفيٰEW": 5588,
      "لڏپلاڻEW": 5589,
      "دلي": 5590,
      "لصEW": 5591,
      "وهيEW": 5592,
      "ڙNL": 5593,
      "روه": 5594,
      "گهڻEW": 5595,
      "تيزيEW": 5596,
      "مقالاEW": 5597,
      "والاEW": 5598,
      "ٽرزEW": 5599,
      "عبدالغ": 5600,
      "ڪانہEW": 5601,
      "آئسEW": 5602,
      "نصير": 5603,
      "اکيونEW": 5604,
      "خودمخ": 5605,
      "گزين": 5606,
      "ڊگھيEW": 5607,
      "بندرگاههEW": 5608,
      "برهمڻEW": 5609,
      "تم": 5610,
      "حدهEW": 5611,
      "لنگEW": 5612,
      "ممب": 5613,
      "ٽائرEW": 5614,
      "گمEW": 5615,
      "آهيون": 5616,
      "ايڇ": 5617,
      "پوزيشنEW": 5618,
      "سردEW": 5619,
      "افتتا": 5620,
      "پرت": 5621,
      "سماEW": 5622,
      "شاعري": 5623,
      "نشينEW": 5624,
      "گهرجيEW": 5625,
      "عمارتنEW": 5626,
      "ڀڳتEW": 5627,
      "آتمEW": 5628,
      "آرينEW": 5629,
      "نھEW": 5630,
      "NLسيدEW": 5631,
      "انياEW": 5632,
      "ارسط": 5633,
      "ميڪان": 5634,
      "جاينEW": 5635,
      "اھڙوEW": 5636,
      "پاورEW": 5637,
      "قيادتEW": 5638,
      "نظا": 5639,
      "پروڊيو": 5640,
      "قديمهEW": 5641,
      "اڳواڻنEW": 5642,
      "تجربوEW": 5643,
      "لباسEW": 5644,
      "مڪرانEW": 5645,
      "ڊيموڪري": 5646,
      "بينظيرEW": 5647,
      "ساههEW": 5648,
      "لعلEW": 5649,
      "NLز": 5650,
      "ائش": 5651,
      "لاشEW": 5652,
      "راڻوEW": 5653,
      "ملندوEW": 5654,
      "منصوبيEW": 5655,
      "لکڻينEW": 5656,
      "ڪلبEW": 5657,
      "مينهنEW": 5658,
      "خالصEW": 5659,
      "شاديءEW": 5660,
      "طوف": 5661,
      "ود": 5662,
      "وڪروEW": 5663,
      "ڪٿاEW": 5664,
      "اتو": 5665,
      "لڳاEW": 5666,
      "دوستنEW": 5667,
      "سگهيوEW": 5668,
      "عليہEW": 5669,
      "ڪينسرEW": 5670,
      "ويجهيEW": 5671,
      "ملازمتEW": 5672,
      "پيپلزپارٽيEW": 5673,
      "آسEW": 5674,
      "اھEW": 5675,
      "سٽي": 5676,
      "پٽي": 5677,
      "کوٽEW": 5678,
      "NLما": 5679,
      "ويد": 5680,
      "امڪانEW": 5681,
      "باق": 5682,
      "تعلقاتEW": 5683,
      "ڊيزEW": 5684,
      "ڳالهائڻEW": 5685,
      "داريءEW": 5686,
      "هريجنEW": 5687,
      "دروازيEW": 5688,
      "پرڳڻيEW": 5689,
      "رمضانEW": 5690,
      "اپن": 5691,
      "عام": 5692,
      "کھ": 5693,
      "ريسEW": 5694,
      "امانEW": 5695,
      "بلت": 5696,
      "ڊيگههEW": 5697,
      "بدليEW": 5698,
      "واقفEW": 5699,
      "اقلي": 5700,
      "خاندانيEW": 5701,
      "ڪامياب": 5702,
      "فيصليEW": 5703,
      "بمبئيءEW": 5704,
      "عالمگيرEW": 5705,
      "آڏواڻيEW": 5706,
      "فرينچEW": 5707,
      "گردشEW": 5708,
      "جيونEW": 5709,
      "ذمي": 5710,
      "رٿ": 5711,
      "رشيدEW": 5712,
      "غو": 5713,
      "ترجي": 5714,
      "اصلو": 5715,
      "سوڀ": 5716,
      "اتارEW": 5717,
      "تعالي": 5718,
      "شھيدEW": 5719,
      "ناٿEW": 5720,
      "آرٽ": 5721,
      "مصنو": 5722,
      "مالاEW": 5723,
      "استادنEW": 5724,
      "کاڌ": 5725,
      "اداڪاريEW": 5726,
      "دستاويزEW": 5727,
      "منتظمEW": 5728,
      "فھرستEW": 5729,
      "پکڙجيEW": 5730,
      "ذهنيEW": 5731,
      "تنگEW": 5732,
      "ذائ": 5733,
      "رتنEW": 5734,
      "رپور": 5735,
      "وچينEW": 5736,
      "ٻائيEW": 5737,
      "چؤ": 5738,
      "گينEW": 5739,
      "ڱEW": 5740,
      "ارادوEW": 5741,
      "پوٽوEW": 5742,
      "ديتEW": 5743,
      "مارڪسEW": 5744,
      "صدارتEW": 5745,
      "قلميEW": 5746,
      "تبديليونEW": 5747,
      "لنڪاEW": 5748,
      "ڇڏينداEW": 5749,
      "وقفEW": 5750,
      "موقعوEW": 5751,
      "اترئينEW": 5752,
      "ثنEW": 5753,
      "حاميEW": 5754,
      "قNL": 5755,
      "ڀڄ": 5756,
      "ڀنڀ": 5757,
      "ڌڻيEW": 5758,
      "ٿيل": 5759,
      "نيپ": 5760,
      "صوبي": 5761,
      "شھدادڪوٽEW": 5762,
      "استعي": 5763,
      "گريڊEW": 5764,
      "عبدEW": 5765,
      "بچائڻEW": 5766,
      "وقت": 5767,
      "هندوستانEW": 5768,
      "فلڪياتEW": 5769,
      "تمندEW": 5770,
      "خرEW": 5771,
      "شڪيEW": 5772,
      "NLجوEW": 5773,
      "ڪرن": 5774,
      "ائيزيشنEW": 5775,
      "گھڻاEW": 5776,
      "بدارEW": 5777,
      "بعد": 5778,
      "يونيورسٽينEW": 5779,
      "ڪتابيEW": 5780,
      "ٻوٽيEW": 5781,
      "گلشنEW": 5782,
      "گلگتEW": 5783,
      "منتقليEW": 5784,
      "نظرياتيEW": 5785,
      "عمرڪوٽEW": 5786,
      "پوئتيEW": 5787,
      "ھندستانEW": 5788,
      "ڪٽنبEW": 5789,
      "هيلEW": 5790,
      "ڀائيEW": 5791,
      "ڄارEW": 5792,
      "ڦرEW": 5793,
      "ميل": 5794,
      "لڳائڻEW": 5795,
      "خوشيEW": 5796,
      "سالNL": 5797,
      "بڻايو": 5798,
      "ٻوٽاEW": 5799,
      "متبادلEW": 5800,
      "مشرقيEW": 5801,
      "اجEW": 5802,
      "بک": 5803,
      "بچيEW": 5804,
      "زالونEW": 5805,
      "طاق": 5806,
      "فين": 5807,
      "ٿان": 5808,
      "ڊنٽEW": 5809,
      "ڦا": 5810,
      "NLاهوEW": 5811,
      "ڪيئيEW": 5812,
      "زمرو": 5813,
      "مطل": 5814,
      "ٺهرا": 5815,
      "سائنسداننEW": 5816,
      "نويسEW": 5817,
      "نائيجيرياEW": 5818,
      "فائونڊيشنEW": 5819,
      "تہ": 5820,
      "حتEW": 5821,
      "زهرEW": 5822,
      "چيءEW": 5823,
      "NLخاصيتEW": 5824,
      "ميسرEW": 5825,
      "نامو": 5826,
      "دوائنEW": 5827,
      "عبدالرحمانEW": 5828,
      "ڀيريEW": 5829,
      "صحاف": 5830,
      "گروهنEW": 5831,
      "اسپينيEW": 5832,
      "جڳھEW": 5833,
      "ٿرپارڪرEW": 5834,
      "تصنيفEW": 5835,
      "جادو": 5836,
      "محاذEW": 5837,
      "جندڙEW": 5838,
      "رد": 5839,
      "نزEW": 5840,
      "ناف": 5841,
      "ڪستانEW": 5842,
      "ميئرEW": 5843,
      "ويهينEW": 5844,
      "نيڪEW": 5845,
      "ضلعاEW": 5846,
      "تشريحEW": 5847,
      "فنڪارEW": 5848,
      "ڪابهEW": 5849,
      "سياحنEW": 5850,
      "ھيٺينEW": 5851,
      "فيڊريشنEW": 5852,
      "ڪارپوريشنEW": 5853,
      "تڪليفEW": 5854,
      "ورثوEW": 5855,
      "زائ": 5856,
      "نامEW": 5857,
      "ڏورEW": 5858,
      "ميلوEW": 5859,
      "سيد": 5860,
      "ئيٽEW": 5861,
      "قومونEW": 5862,
      "کانئسEW": 5863,
      "پراڻاEW": 5864,
      "بنياد": 5865,
      "ميووEW": 5866,
      "ڪوششونEW": 5867,
      "راجپوتEW": 5868,
      "آبيEW": 5869,
      "ايونEW": 5870,
      "تاريEW": 5871,
      "سع": 5872,
      "نئيEW": 5873,
      "ٿڪEW": 5874,
      "ديبلEW": 5875,
      "بلاEW": 5876,
      "ناول": 5877,
      "تنھن": 5878,
      "اٿن": 5879,
      "زرخي": 5880,
      "ڀيرو": 5881,
      "يڪيشن": 5882,
      "شاخنEW": 5883,
      "زخميEW": 5884,
      "عمو": 5885,
      "لنگ": 5886,
      "نث": 5887,
      "گNL": 5888,
      "ھز": 5889,
      "ھيمEW": 5890,
      "سنئونEW": 5891,
      "زمانEW": 5892,
      "منگول": 5893,
      "براEW": 5894,
      "پاڙيEW": 5895,
      "اخترEW": 5896,
      "والدينEW": 5897,
      "دوروEW": 5898,
      "ڄاڻايوEW": 5899,
      "فاضلEW": 5900,
      "ڪونهي": 5901,
      "جعفريEW": 5902,
      "جسٽسEW": 5903,
      "ڪولمبياEW": 5904,
      "فعالEW": 5905,
      "ڄاڻيEW": 5906,
      "اريوEW": 5907,
      "ابخ": 5908,
      "پارلي": 5909,
      "مارڻEW": 5910,
      "مهارتEW": 5911,
      "مشينEW": 5912,
      "پروسي": 5913,
      "خانداننEW": 5914,
      "تقريرEW": 5915,
      "نيوزEW": 5916,
      "رحمتEW": 5917,
      "بنگالEW": 5918,
      "زبردستEW": 5919,
      "ٻھراڙيءEW": 5920,
      "تذ": 5921,
      "تلو": 5922,
      "ساريEW": 5923,
      "ناه": 5924,
      "ٺهر": 5925,
      "ريٽEW": 5926,
      "ينءEW": 5927,
      "ويھينEW": 5928,
      "سنڌيNL": 5929,
      "پنهنجونEW": 5930,
      "احمد": 5931,
      "پرديشEW": 5932,
      "فلاس": 5933,
      "فارسEW": 5934,
      "ڏاڏيEW": 5935,
      "قبائليEW": 5936,
      "اٿارٽيEW": 5937,
      "ٺاھيوEW": 5938,
      "زمينونEW": 5939,
      "زميندارEW": 5940,
      "فرمايوEW": 5941,
      "تاروEW": 5942,
      "تائنEW": 5943,
      "زيلEW": 5944,
      "شپEW": 5945,
      "طلبEW": 5946,
      "ڍاEW": 5947,
      "ڪندا": 5948,
      "انڙEW": 5949,
      "هنرEW": 5950,
      "منط": 5951,
      "رهيونEW": 5952,
      "ڊيز": 5953,
      "دوست": 5954,
      "ننڍڙاEW": 5955,
      "هاشمEW": 5956,
      "ـــ": 5957,
      "مھينيEW": 5958,
      "مڃيوEW": 5959,
      "بيماريءEW": 5960,
      "اسپيسEW": 5961,
      "اگرEW": 5962,
      "رڪن": 5963,
      "فاس": 5964,
      "قينEW": 5965,
      "وحد": 5966,
      "ٺاھيEW": 5967,
      "ٽئ": 5968,
      "ٿڌيEW": 5969,
      "هومEW": 5970,
      "يونائي": 5971,
      "NLزمروسنڌEW": 5972,
      "چوڌ": 5973,
      "رسال": 5974,
      "نقش": 5975,
      "ڀرپاسيEW": 5976,
      "قرضEW": 5977,
      "ٻوٽوEW": 5978,
      "سرشتوEW": 5979,
      "پيغمبرEW": 5980,
      "هجرتEW": 5981,
      "سازشEW": 5982,
      "ربي": 5983,
      "يوري": 5984,
      "الNL": 5985,
      "اسين": 5986,
      "موريEW": 5987,
      "واقعوEW": 5988,
      "جھڙيEW": 5989,
      "ٽيڪن": 5990,
      "ٺاهيلEW": 5991,
      "اميرنEW": 5992,
      "غلط": 5993,
      "ورھايلEW": 5994,
      "هاڻو": 5995,
      "ڊڪشنر": 5996,
      "ھڪڙوEW": 5997,
      "خطرناڪEW": 5998,
      "فروغEW": 5999,
      "تعاليٰEW": 6000,
      "تڪارEW": 6001,
      "جہEW": 6002,
      "طو": 6003,
      "يمنEW": 6004,
      "چڙهيEW": 6005,
      "ھہEW": 6006,
      "المو": 6007,
      "منھنEW": 6008,
      "لوڪلEW": 6009,
      "جوNL": 6010,
      "ڪنارنEW": 6011,
      "فيل": 6012,
      "وٺندڙEW": 6013,
      "آرڪائ": 6014,
      "ڪيمياEW": 6015,
      "گهٽتائيEW": 6016,
      "دفاعEW": 6017,
      "تائ": 6018,
      "تدري": 6019,
      "ظلمEW": 6020,
      "فلو": 6021,
      "ينداEW": 6022,
      "پڪيEW": 6023,
      "ڊبل": 6024,
      "ڳوليEW": 6025,
      "NLق": 6026,
      "لاڳي": 6027,
      "اهريEW": 6028,
      "راھEW": 6029,
      "راضيEW": 6030,
      "ميم": 6031,
      "علحدهEW": 6032,
      "ويNL": 6033,
      "گيسEW": 6034,
      "مائڪرو": 6035,
      "صحبتEW": 6036,
      "جمهوريEW": 6037,
      "آنلائينEW": 6038,
      "ويٺلEW": 6039,
      "حميدEW": 6040,
      "معدنياتEW": 6041,
      ".،": 6042,
      "نيونEW": 6043,
      "ڪٿ": 6044,
      "ھج": 6045,
      "NLبورڊEW": 6046,
      "انويEW": 6047,
      "علماءEW": 6048,
      "ڪرتEW": 6049,
      "سيريزEW": 6050,
      "مستEW": 6051,
      "جھازEW": 6052,
      "حوالنEW": 6053,
      "موڪليو": 6054,
      "نوجواننEW": 6055,
      "انجنيئرنگ": 6056,
      "جرمنيءEW": 6057,
      "پاڙيسريEW": 6058,
      "دون": 6059,
      "لط": 6060,
      "مترج": 6061,
      "ٻاھرEW": 6062,
      "پتEW": 6063,
      "ڦلEW": 6064,
      "زمراEW": 6065,
      "رهينEW": 6066,
      "کير": 6067,
      "انگيرEW": 6068,
      "سٽاEW": 6069,
      "بدرEW": 6070,
      "ننڍيونEW": 6071,
      "اولمپ": 6072,
      "نقشEW": 6073,
      "نمائشEW": 6074,
      "خوابEW": 6075,
      "ماهر": 6076,
      "خاصيتونEW": 6077,
      "انفراديEW": 6078,
      "اسڪاٽلينڊEW": 6079,
      "بڪرEW": 6080,
      "عاتEW": 6081,
      "ٻولEW": 6082,
      "ڇھEW": 6083,
      "گني": 6084,
      "NLسو": 6085,
      "انجڻEW": 6086,
      "اوھانEW": 6087,
      "بلڪEW": 6088,
      "سمنڊ": 6089,
      "ڀاڄ": 6090,
      "سائيٽ": 6091,
      "نيوڪلي": 6092,
      "اڏوEW": 6093,
      "حاڪمنEW": 6094,
      "پروگرامنEW": 6095,
      "جعفري": 6096,
      "گهٽجيEW": 6097,
      "متحدEW": 6098,
      "جاپانيEW": 6099,
      "لاڏاڻوEW": 6100,
      "پختونخو": 6101,
      "ڪمانڊرEW": 6102,
      "توا": 6103,
      "سفڪEW": 6104,
      "عنهEW": 6105,
      "فهEW": 6106,
      "نجEW": 6107,
      "نڪرڻEW": 6108,
      "ڃاڻEW": 6109,
      "ڳو": 6110,
      "NLاس": 6111,
      "بلنديEW": 6112,
      "قيمتيEW": 6113,
      "ڪاراEW": 6114,
      "دواEW": 6115,
      "مهاج": 6116,
      "سگهجنEW": 6117,
      "حڪومتنEW": 6118,
      "ٽوڙيEW": 6119,
      "سالارEW": 6120,
      "هلائيEW": 6121,
      "ٽيڪسEW": 6122,
      "وهڪروEW": 6123,
      "جائزEW": 6124,
      "ڪمپنيءEW": 6125,
      "گزينEW": 6126,
      "ويڪرEW": 6127,
      "احتجاجEW": 6128,
      "هٿيارEW": 6129,
      "تڪراريEW": 6130,
      "آڻ": 6131,
      "آند": 6132,
      "حصو": 6133,
      "رٿEW": 6134,
      "گورEW": 6135,
      "اهوئيEW": 6136,
      "تيهEW": 6137,
      "جوانEW": 6138,
      "شيدائيEW": 6139,
      "عبدالڪريمEW": 6140,
      "صحافتEW": 6141,
      "چڱيءEW": 6142,
      "ٻاهرانEW": 6143,
      "نامياريEW": 6144,
      "خطروEW": 6145,
      "جوڻيجوEW": 6146,
      "ساليانيEW": 6147,
      "مترجمEW": 6148,
      "اڇوEW": 6149,
      "زئيEW": 6150,
      "پيونEW": 6151,
      "چني": 6152,
      "ڪامEW": 6153,
      "ڪجھ": 6154,
      "ڪشيEW": 6155,
      "ايران": 6156,
      "سيمينٽEW": 6157,
      "سيٽونEW": 6158,
      "بايو": 6159,
      "مدنEW": 6160,
      "مداخ": 6161,
      "مذهبنEW": 6162,
      "ڀاڱي": 6163,
      "اجتما": 6164,
      "جهنگليEW": 6165,
      "ميوزڪEW": 6166,
      "تھذي": 6167,
      "ڪوٺيوEW": 6168,
      "ضابط": 6169,
      "جڳEW": 6170,
      "خسروEW": 6171,
      "يہEW": 6172,
      "ٿام": 6173,
      "الج": 6174,
      "ولوEW": 6175,
      "معاھ": 6176,
      "رسمنEW": 6177,
      "صفاEW": 6178,
      "حالتونEW": 6179,
      "تبديلينEW": 6180,
      "نشرEW": 6181,
      "مطالبوEW": 6182,
      "ميرپور": 6183,
      "اونهاريEW": 6184,
      "مرحليEW": 6185,
      "انجنيئرEW": 6186,
      "ايٽمEW": 6187,
      "لاھورEW": 6188,
      "بنگلاديشEW": 6189,
      "تغل": 6190,
      "رٽائرEW": 6191,
      "سپل": 6192,
      "شNL": 6193,
      "قس": 6194,
      "لههEW": 6195,
      "وان": 6196,
      "ھد": 6197,
      "انٽرو": 6198,
      "پنهورEW": 6199,
      "ساءEW": 6200,
      "منصور": 6201,
      "اترينEW": 6202,
      "ھونديونEW": 6203,
      "ڏنيون": 6204,
      "آھنNL": 6205,
      "تقريبEW": 6206,
      "عباس": 6207,
      "روزگارEW": 6208,
      "پٺاڻEW": 6209,
      "لفظيEW": 6210,
      "اڀريEW": 6211,
      "ڏيکاريلEW": 6212,
      "ڪپڙاEW": 6213,
      "تفصيليEW": 6214,
      "آندو": 6215,
      "جتEW": 6216,
      "جگرEW": 6217,
      "ذخي": 6218,
      "چڪ": 6219,
      "رياNL": 6220,
      "امرو": 6221,
      "بيتنEW": 6222,
      "مرشدEW": 6223,
      "چوٽيءEW": 6224,
      "لکينEW": 6225,
      "سگهن": 6226,
      "زيادهEW": 6227,
      "پروجيڪٽEW": 6228,
      "انڊسEW": 6229,
      "سگھي": 6230,
      "جمهوريتEW": 6231,
      "صلحEW": 6232,
      "ڪينيڊاEW": 6233,
      "پڇاڙيءEW": 6234,
      "خاصخيليEW": 6235,
      "ايجوڪيشنEW": 6236,
      "آزم": 6237,
      "حيو": 6238,
      "عدمEW": 6239,
      "ـيEW": 6240,
      "ناي": 6241,
      "پڙEW": 6242,
      "کنڀ": 6243,
      "ڪيمپ": 6244,
      "يابEW": 6245,
      "دردEW": 6246,
      "ٿاNL": 6247,
      "مڪانيEW": 6248,
      "هارونEW": 6249,
      "رستنEW": 6250,
      "سنڀالي": 6251,
      "جيوتEW": 6252,
      "باقاعديEW": 6253,
      "ملائيشياEW": 6254,
      "کوجناEW": 6255,
      "تبليغEW": 6256,
      "باڪوEW": 6257,
      "وقEW": 6258,
      "پلوEW": 6259,
      "يومEW": 6260,
      "مياEW": 6261,
      "ڪير": 6262,
      "زمانوEW": 6263,
      "پناه": 6264,
      "گهڻائيEW": 6265,
      "جيمسEW": 6266,
      "جمال": 6267,
      "سڏينEW": 6268,
      "عبدالرحيمEW": 6269,
      "ٺاهياEW": 6270,
      "حيدرآبادNL": 6271,
      "تمادEW": 6272,
      "ڪلاسيڪيEW": 6273,
      "تصوفEW": 6274,
      "باه": 6275,
      "بائي": 6276,
      "بستEW": 6277,
      "فرنEW": 6278,
      "ڊان": 6279,
      "ريز": 6280,
      "ريش": 6281,
      "واڙEW": 6282,
      "گهڻيونEW": 6283,
      "جيتريEW": 6284,
      "برصغيرEW": 6285,
      "معناEW": 6286,
      "ھواEW": 6287,
      "خطنEW": 6288,
      "ڪائونسلرEW": 6289,
      "دراصلEW": 6290,
      "صلاحڪارEW": 6291,
      "ڄيٺ": 6292,
      "تائي": 6293,
      "زب": 6294,
      "طال": 6295,
      "ڏجيEW": 6296,
      "کوليEW": 6297,
      "NLحضرتEW": 6298,
      "رات": 6299,
      "مولو": 6300,
      "موڪليEW": 6301,
      "واڳ": 6302,
      "ڪرائ": 6303,
      "پناههEW": 6304,
      "پوکيEW": 6305,
      "ديھونEW": 6306,
      "جوشEW": 6307,
      "تعلقنEW": 6308,
      "نظرينEW": 6309,
      "عرضEW": 6310,
      "ذريعي": 6311,
      "آرڪ": 6312,
      "سکنEW": 6313,
      "ڊومين": 6314,
      "گھربلEW": 6315,
      "اوچتوEW": 6316,
      "ترجميEW": 6317,
      "چانسل": 6318,
      "متحدهEW": 6319,
      "محترمEW": 6320,
      "حسن": 6321,
      "شيو": 6322,
      "ماد": 6323,
      "مسو": 6324,
      "مشنEW": 6325,
      "متو": 6326,
      "ٻرEW": 6327,
      "ٽرا": 6328,
      "ڌڪEW": 6329,
      "کليEW": 6330,
      "NLبي": 6331,
      "NLوڪيپيڊياEW": 6332,
      "پيشابEW": 6333,
      "امن": 6334,
      "جهڙنEW": 6335,
      "بلينEW": 6336,
      "بدنEW": 6337,
      "سڏجڻEW": 6338,
      "اعتمادEW": 6339,
      "رھڻEW": 6340,
      "نقشوEW": 6341,
      "مالياEW": 6342,
      "گهوٽ": 6343,
      "نڪتوEW": 6344,
      "انسانيتEW": 6345,
      "قدامتEW": 6346,
      "سهول": 6347,
      "معصومEW": 6348,
      "آڪسائيڊEW": 6349,
      "رجحانEW": 6350,
      "بز": 6351,
      "بکEW": 6352,
      "ختEW": 6353,
      "دہEW": 6354,
      "شور": 6355,
      "لڪيEW": 6356,
      "لسٽEW": 6357,
      "هلEW": 6358,
      "هور": 6359,
      "واه": 6360,
      "ٺٽو": 6361,
      "ٽڪريءEW": 6362,
      "پمينٽEW": 6363,
      "ہو": 6364,
      "ارض": 6365,
      "ائنڊEW": 6366,
      "ماھرEW": 6367,
      "تعينEW": 6368,
      "پارڪ": 6369,
      "ٽرسEW": 6370,
      "موجودگيEW": 6371,
      "جلديEW": 6372,
      "کوٽ": 6373,
      "ڪهڙوEW": 6374,
      "فلسفوEW": 6375,
      "بھترEW": 6376,
      "دفعيEW": 6377,
      "ڪانفرنس": 6378,
      "احترامEW": 6379,
      "جزويEW": 6380,
      "اورنگ": 6381,
      "ويٽنامEW": 6382,
      "تان": 6383,
      "شريEW": 6384,
      "صهEW": 6385,
      "لونEW": 6386,
      "وٽسEW": 6387,
      "چيو": 6388,
      "ڦEW": 6389,
      "گاھ": 6390,
      "القرآنEW": 6391,
      "آهيان": 6392,
      "علمنEW": 6393,
      "ايائين": 6394,
      "ڪوئي": 6395,
      "منگEW": 6396,
      "فيقEW": 6397,
      "بلڪهEW": 6398,
      "وڃائيEW": 6399,
      "گھي": 6400,
      "اھميتEW": 6401,
      "نازلEW": 6402,
      "عبدالقادرEW": 6403,
      "خدمت": 6404,
      "اطال": 6405,
      "رابطوEW": 6406,
      "خارجيEW": 6407,
      "ٻرندڙEW": 6408,
      "اجر": 6409,
      "خمي": 6410,
      "ضي": 6411,
      "پونEW": 6412,
      "ٿور": 6413,
      "ڌرينEW": 6414,
      "ندر": 6415,
      "ويندا": 6416,
      "جهازنEW": 6417,
      "تاج": 6418,
      "ناليو": 6419,
      "درجاEW": 6420,
      "رهاڪنEW": 6421,
      "بادشاهيEW": 6422,
      "وٺنداEW": 6423,
      "نوعيتEW": 6424,
      "فرانس": 6425,
      "ٽرNL": 6426,
      "سماج": 6427,
      "پاڻي": 6428,
      "حياتيءEW": 6429,
      "اڪيڊمي": 6430,
      "لسانيEW": 6431,
      "مهرچندEW": 6432,
      "فارميشنEW": 6433,
      "راههEW": 6434,
      "عالي": 6435,
      "نادرEW": 6436,
      "ڀاڻEW": 6437,
      "لاNL": 6438,
      "سيک": 6439,
      "اڻوNL": 6440,
      "وٺندوEW": 6441,
      "احسانEW": 6442,
      "پهلو": 6443,
      "پاڙEW": 6444,
      "گردEW": 6445,
      "فوٽنEW": 6446,
      "ضلعEW": 6447,
      "ضلعو": 6448,
      "قلندرEW": 6449,
      "برازيلEW": 6450,
      "بلوچيEW": 6451,
      "طبعيEW": 6452,
      "آبپا": 6453,
      "پورچوگي": 6454,
      "بلتستانEW": 6455,
      "آک": 6456,
      "سجا": 6457,
      "ظرEW": 6458,
      "فتح": 6459,
      "ڄاتلEW": 6460,
      "ڦڦ": 6461,
      "روپياEW": 6462,
      "ماھ": 6463,
      "موٽ": 6464,
      "سڀي": 6465,
      "ڪلڪEW": 6466,
      "سببنEW": 6467,
      "پھچيEW": 6468,
      "اعتب": 6469,
      "منظوريEW": 6470,
      "ماسٽرEW": 6471,
      "ھڪڙيEW": 6472,
      "لڙائيEW": 6473,
      "دراو": 6474,
      "بندوبستEW": 6475,
      "زلزليEW": 6476,
      "ٽيڪنالاجي": 6477,
      "بنيEW": 6478,
      "ضياءEW": 6479,
      "فال": 6480,
      "وڪال": 6481,
      "ڊرائ": 6482,
      "گاناEW": 6483,
      "واٽرEW": 6484,
      "اصلاحEW": 6485,
      "برفانيEW": 6486,
      "مقبول": 6487,
      "اسلامي": 6488,
      "مجاه": 6489,
      "ملازمEW": 6490,
      "بنگاليEW": 6491,
      "ڏٺو": 6492,
      "دروازوEW": 6493,
      "راولپن": 6494,
      "بادشاهنEW": 6495,
      "تالي": 6496,
      "حرEW": 6497,
      "سئيEW": 6498,
      "غيEW": 6499,
      "لائين": 6500,
      "چمڪ": 6501,
      "الدين": 6502,
      "جنڪشنEW": 6503,
      "چوندوEW": 6504,
      "پاڙ": 6505,
      "بنائڻEW": 6506,
      "علائقاNLزمرو": 6507,
      "مصروفEW": 6508,
      "عبدالعزيزEW": 6509,
      "اٽليEW": 6510,
      "اڪيلوEW": 6511,
      "خودڪارEW": 6512,
      "جنگينEW": 6513,
      "تماڪEW": 6514,
      "ٽائيمEW": 6515,
      "فضاEW": 6516,
      "مزاحمتEW": 6517,
      "سڳورنEW": 6518,
      "ماليهEW": 6519,
      "اشاعتEW": 6520,
      "ڪنڀارEW": 6521,
      "ڊپارٽمينٽEW": 6522,
      "ماسترEW": 6523,
      "مداخلتEW": 6524,
      "طوط": 6525,
      "وول": 6526,
      "چائ": 6527,
      "ڇڪ": 6528,
      "ائٽل": 6529,
      "اسڪ": 6530,
      "ادر": 6531,
      "سنوار": 6532,
      "اويEW": 6533,
      "شهرNL": 6534,
      "افز": 6535,
      "پههEW": 6536,
      "اخذEW": 6537,
      "مهراڻ": 6538,
      "تاريخNLزمرو": 6539,
      "ڪلهوڙيEW": 6540,
      "نڪرندڙEW": 6541,
      "جارجياEW": 6542,
      "قانوننEW": 6543,
      "سوراخEW": 6544,
      "اڍائيEW": 6545,
      "ذخيروEW": 6546,
      "سهEW": 6547,
      "سفيدEW": 6548,
      "فص": 6549,
      "لڪ": 6550,
      "ٽانEW": 6551,
      "پائنEW": 6552,
      "ڍلEW": 6553,
      "NLه": 6554,
      "ارجنEW": 6555,
      "راڻي": 6556,
      "ايگز": 6557,
      "واڌاريEW": 6558,
      "NLزمروپاڪستانيEW": 6559,
      "ترڪي": 6560,
      "جوڳ": 6561,
      "ٽيههEW": 6562,
      "صوف": 6563,
      "آرمين": 6564,
      "هلڻEW": 6565,
      "تخلصEW": 6566,
      "دارال": 6567,
      "سونهنEW": 6568,
      "نياڻيEW": 6569,
      "وفاقEW": 6570,
      "چانڊيو": 6571,
      "نامياروEW": 6572,
      "ہيںEW": 6573,
      "بشمولEW": 6574,
      "عيسائيتEW": 6575,
      "هہEW": 6576,
      "ڏها": 6577,
      "لاهيEW": 6578,
      "ستارEW": 6579,
      "گهڙEW": 6580,
      "بايوEW": 6581,
      "تيز": 6582,
      "جوڙEW": 6583,
      "نالوNL": 6584,
      "سردارنEW": 6585,
      "ڪنڊي": 6586,
      "اتمEW": 6587,
      "سانچيEW": 6588,
      "ڪاپيEW": 6589,
      "گرامرEW": 6590,
      "آرميEW": 6591,
      "فريدEW": 6592,
      "ڪاروباريEW": 6593,
      "فاطمهEW": 6594,
      "ئوEW": 6595,
      "اگ": 6596,
      "بھEW": 6597,
      "بها": 6598,
      "فون": 6599,
      "قاتيEW": 6600,
      "لارڊEW": 6601,
      "مجلسEW": 6602,
      "واد": 6603,
      "ٺي": 6604,
      "پتيEW": 6605,
      "الق": 6606,
      "ايا": 6607,
      "امار": 6608,
      "ترخانEW": 6609,
      "جهي": 6610,
      "لوNL": 6611,
      "نيپالEW": 6612,
      "هئو": 6613,
      "سمجھيEW": 6614,
      "سائو": 6615,
      "فلمونEW": 6616,
      "مسعو": 6617,
      "تصويرنEW": 6618,
      "انجمنEW": 6619,
      "بنايوEW": 6620,
      "افتتاحEW": 6621,
      "پارليام": 6622,
      "اڙ": 6623,
      "حديEW": 6624,
      "خاد": 6625,
      "سائين": 6626,
      "عبي": 6627,
      "فسادEW": 6628,
      "وائيEW": 6629,
      "ٽاNL": 6630,
      "ٿائي": 6631,
      "چاچ": 6632,
      "ڪيٿول": 6633,
      "سيفEW": 6634,
      "سياسي": 6635,
      "ديسEW": 6636,
      "برجEW": 6637,
      "بدو": 6638,
      "ڪاٺيEW": 6639,
      "مٿيونEW": 6640,
      "مضمونNL": 6641,
      "چينلEW": 6642,
      "حاضرEW": 6643,
      "حملEW": 6644,
      "داللهEW": 6645,
      "رشEW": 6646,
      "ظاهريEW": 6647,
      "نياEW": 6648,
      "ڊروEW": 6649,
      "روڪEW": 6650,
      "ميليEW": 6651,
      "پيٽرو": 6652,
      "ساٿEW": 6653,
      "بيمارEW": 6654,
      "جود": 6655,
      "مرمتEW": 6656,
      "سوڊانEW": 6657,
      "ڪارلEW": 6658,
      "ڪاريءEW": 6659,
      "ٻيلنEW": 6660,
      "جھڙوEW": 6661,
      "برابريEW": 6662,
      "ڏاڏوEW": 6663,
      "ڇوڪريEW": 6664,
      "ڊراموEW": 6665,
      "اخلاقEW": 6666,
      "ڪيمسٽريEW": 6667,
      "سرائڪيEW": 6668,
      "آڻينداEW": 6669,
      "نايابEW": 6670,
      "اعتبارEW": 6671,
      "آپEW": 6672,
      "رٿاEW": 6673,
      "وڊEW": 6674,
      "وڊيوEW": 6675,
      "چيڪ": 6676,
      "ڌام": 6677,
      "البتEW": 6678,
      "ماٿ": 6679,
      "ڪرسٽ": 6680,
      "پوٽيEW": 6681,
      "نظام": 6682,
      "ڀرائيEW": 6683,
      "طريق": 6684,
      "گريٽEW": 6685,
      "ٻارهنEW": 6686,
      "معامليEW": 6687,
      "جهنگEW": 6688,
      "ابوذرEW": 6689,
      "منجهسEW": 6690,
      "گلابEW": 6691,
      "ارغونEW": 6692,
      "آء": 6693,
      "بمEW": 6694,
      "تري": 6695,
      "حملنEW": 6696,
      "دانNL": 6697,
      "ساديEW": 6698,
      "شديدEW": 6699,
      "ننڊEW": 6700,
      "همع": 6701,
      "هفت": 6702,
      "ڀون": 6703,
      "اهيءEW": 6704,
      "ميڊيا": 6705,
      "ويچارEW": 6706,
      "پيئرEW": 6707,
      "سترEW": 6708,
      "پنھ": 6709,
      "ترنEW": 6710,
      "سوئي": 6711,
      "سڀاEW": 6712,
      "ڏکEW": 6713,
      "ڇڏيا": 6714,
      "براعظمEW": 6715,
      "ڀرڳ": 6716,
      "علاوه": 6717,
      "خطريEW": 6718,
      "گھرجي": 6719,
      "عقيدنEW": 6720,
      "تجربنEW": 6721,
      "ترجمو": 6722,
      "نموننEW": 6723,
      "پوکڻEW": 6724,
      "طبيعياتEW": 6725,
      "آرا": 6726,
      "لهيEW": 6727,
      "لطي": 6728,
      "مڊلEW": 6729,
      "مادريEW": 6730,
      "نفر": 6731,
      "پانEW": 6732,
      "ڌاري": 6733,
      "NLٻ": 6734,
      "الرحمانEW": 6735,
      "جنابEW": 6736,
      "ملھ": 6737,
      "سامEW": 6738,
      "NLزمروEW": 6739,
      "جوڙي": 6740,
      "سرحدنEW": 6741,
      "سومريEW": 6742,
      "اڳئينEW": 6743,
      "اليگزين": 6744,
      "ڪمان": 6745,
      "آزاد": 6746,
      "ليکڪنEW": 6747,
      "اميد": 6748,
      "سرورEW": 6749,
      "پئسفڪEW": 6750,
      "اقتصاد": 6751,
      "ميزبانيEW": 6752,
      "طوفانEW": 6753,
      "منصورهEW": 6754,
      "وڪالتEW": 6755,
      "تڏھنEW": 6756,
      "حبEW": 6757,
      "حرفEW": 6758,
      "فرسٽEW": 6759,
      "قبوEW": 6760,
      "متNL": 6761,
      "نيلEW": 6762,
      "نانگEW": 6763,
      "ٽس": 6764,
      "ڍڪيلEW": 6765,
      "گرنEW": 6766,
      "NLڳوٺEW": 6767,
      "NLگو": 6768,
      "NLيونينEW": 6769,
      "راو": 6770,
      "ايمانEW": 6771,
      "ايشيا": 6772,
      "سنڌو": 6773,
      "بيرياEW": 6774,
      "NLمھ": 6775,
      "اديب": 6776,
      "مستحڪمEW": 6777,
      "صلاحيتنEW": 6778,
      "سفارتيEW": 6779,
      "ميدانيEW": 6780,
      "مقبوليتEW": 6781,
      "حام": 6782,
      "خونEW": 6783,
      "خشڪيEW": 6784,
      "قياتيEW": 6785,
      "هالEW": 6786,
      "ٽياEW": 6787,
      "ڏنا": 6788,
      "NLميرEW": 6789,
      "ماٿريEW": 6790,
      "موسميEW": 6791,
      "جيل": 6792,
      "ڪنڊيEW": 6793,
      "نگار": 6794,
      "نگاريEW": 6795,
      "دوستيEW": 6796,
      "مشغ": 6797,
      "NLسانچ": 6798,
      "گاهنEW": 6799,
      "ڪهڪش": 6800,
      "ڪلاڪنEW": 6801,
      "ہيں": 6802,
      "ڊڪشنريونNL": 6803,
      "لطفEW": 6804,
      "قبرونEW": 6805,
      "لٽيEW": 6806,
      "وهندوEW": 6807,
      "ٻاريEW": 6808,
      "NLوي": 6809,
      "ايسٽ": 6810,
      "ڪردارنEW": 6811,
      "معاوي": 6812,
      "گھڻEW": 6813,
      "صوبا": 6814,
      "ڊيميEW": 6815,
      "فرق": 6816,
      "پرائي": 6817,
      "خوفEW": 6818,
      "صفائيEW": 6819,
      "چيائينEW": 6820,
      "پھريانEW": 6821,
      "ٻڌمتEW": 6822,
      "جرنلEW": 6823,
      "ڪلوميٽر": 6824,
      "ابتڙEW": 6825,
      "سياستNLزمرو": 6826,
      "گهوڙيEW": 6827,
      "عقيدوEW": 6828,
      "طبيعيEW": 6829,
      "تلاشEW": 6830,
      "هائيڊرو": 6831,
      "پيرويEW": 6832,
      "گريجوئيشنEW": 6833,
      "فورEW": 6834,
      "نائينEW": 6835,
      "ڀائرEW": 6836,
      "چل": 6837,
      "کائ": 6838,
      "ھٿي": 6839,
      "راويEW": 6840,
      "اتحاد": 6841,
      "وارثEW": 6842,
      "فريئرEW": 6843,
      "قرآن": 6844,
      "ويڪرائيEW": 6845,
      "وڪٽو": 6846,
      "نڪرندوEW": 6847,
      "ٻاڦEW": 6848,
      "لکيائين": 6849,
      "عربيءEW": 6850,
      "ٻهرا": 6851,
      "پارليامانيEW": 6852,
      "جڙ": 6853,
      "خنEW": 6854,
      "فنگ": 6855,
      "چرلEW": 6856,
      "ڌار": 6857,
      "ڻو": 6858,
      "NLک": 6859,
      "NLڪي": 6860,
      "ائنٽEW": 6861,
      "مايوEW": 6862,
      "واڻيNL": 6863,
      "شهادتEW": 6864,
      "سرحديEW": 6865,
      "فوجينEW": 6866,
      "بنائيEW": 6867,
      "سيڪنڊEW": 6868,
      "پنھنجاEW": 6869,
      "عهدوEW": 6870,
      "رستاEW": 6871,
      "طبيعتEW": 6872,
      "بلاولEW": 6873,
      "باقاعدهEW": 6874,
      "ٽرانسپورٽEW": 6875,
      "مددگارEW": 6876,
      "سجاولEW": 6877,
      "طلاقEW": 6878,
      "ڊيموڪريٽڪEW": 6879,
      "مصنوعيEW": 6880,
      "يونائيٽيڊEW": 6881,
      "چنيسرEW": 6882,
      "ٿامسEW": 6883,
      "رگEW": 6884,
      "فخرEW": 6885,
      "ڳڻEW": 6886,
      "NLتاريخEW": 6887,
      "انٽڪEW": 6888,
      "ارسEW": 6889,
      "ميٽرڪEW": 6890,
      "اباEW": 6891,
      "ڪوه": 6892,
      "جوهيEW": 6893,
      "سوشلEW": 6894,
      "لڳاتارEW": 6895,
      "بوريEW": 6896,
      "خوشيءEW": 6897,
      "ڇڏياEW": 6898,
      "هندستان": 6899,
      "تباهيEW": 6900,
      "اچن": 6901,
      "شاهجهانEW": 6902,
      "فائلEW": 6903,
      "گنجائ": 6904,
      "رجسٽ": 6905,
      "دلچسپEW": 6906,
      "چمڙيEW": 6907,
      "نوآبادياتيEW": 6908,
      "اطالويEW": 6909,
      "حياتيEW": 6910,
      "شرابEW": 6911,
      "مـ": 6912,
      "ناھي": 6913,
      "ڀٽ": 6914,
      "چاهيEW": 6915,
      "گين": 6916,
      "NLجيڪڏهنEW": 6917,
      "گھروEW": 6918,
      "نتيجاEW": 6919,
      "ڀاڱنEW": 6920,
      "ميونسپل": 6921,
      "عضونEW": 6922,
      "پيچيدهEW": 6923,
      "زرخيزEW": 6924,
      "ڪيٿولڪEW": 6925,
      "آصفEW": 6926,
      "جڙيEW": 6927,
      "جسٽEW": 6928,
      "خامو": 6929,
      "دال": 6930,
      "دڪانEW": 6931,
      "صالEW": 6932,
      "فيو": 6933,
      "وسيEW": 6934,
      "NLڊ": 6935,
      "ائپEW": 6936,
      "ريہEW": 6937,
      "ايندو": 6938,
      "موتيEW": 6939,
      "ملهايوEW": 6940,
      "محرمEW": 6941,
      "وڌايوEW": 6942,
      "ڪيتروEW": 6943,
      "ڏکيوEW": 6944,
      "پڙھ": 6945,
      "ڀرتيEW": 6946,
      "ديوتائنEW": 6947,
      "جدولEW": 6948,
      "آسانيEW": 6949,
      "انٽمEW": 6950,
      "زڪامEW": 6951,
      "بليڪEW": 6952,
      "ڪثرتEW": 6953,
      "ڪارڪردگيEW": 6954,
      "آسان": 6955,
      "بشيرEW": 6956,
      "خانگيEW": 6957,
      "قسط": 6958,
      "نين": 6959,
      "ڀري": 6960,
      "چيلEW": 6961,
      "ڪاڪ": 6962,
      "گزي": 6963,
      "گوليEW": 6964,
      "NLهوEW": 6965,
      "انفارميشنEW": 6966,
      "ارجن": 6967,
      "اوڙEW": 6968,
      "پاڳ": 6969,
      "رھندوEW": 6970,
      "هلنديEW": 6971,
      "جانشينEW": 6972,
      "تفسيرEW": 6973,
      "حملاEW": 6974,
      "قصوEW": 6975,
      "ولادتEW": 6976,
      "تپوEW": 6977,
      "فنڊEW": 6978,
      "نب": 6979,
      "هارينEW": 6980,
      "ڀٽائيEW": 6981,
      "چڻEW": 6982,
      "ڏيوEW": 6983,
      "گند": 6984,
      "ريمEW": 6985,
      "رابرٽEW": 6986,
      "سنگه": 6987,
      "سيڙ": 6988,
      "ترتEW": 6989,
      "جوڙيلEW": 6990,
      "مدتEW": 6991,
      "ڪرامEW": 6992,
      "گوارEW": 6993,
      "سبب": 6994,
      "سهڪارEW": 6995,
      "ڍنڍنEW": 6996,
      "نارويEW": 6997,
      "عهدEW": 6998,
      "عددEW": 6999,
      "ڏوھEW": 7000,
      "ٺھڻEW": 7001,
      "ابوبڪرEW": 7002,
      "ذاتينEW": 7003,
      "يهوديEW": 7004,
      "جد": 7005,
      "دنيEW": 7006,
      "رتيEW": 7007,
      "ظفرEW": 7008,
      "عاق": 7009,
      "هالاEW": 7010,
      "ٻانهنEW": 7011,
      "ماڊ": 7012,
      "ڪرشنEW": 7013,
      "ويوNL": 7014,
      "مهمانEW": 7015,
      "تلاEW": 7016,
      "رياست": 7017,
      "آرڊين": 7018,
      "وغيرہEW": 7019,
      "معلوما": 7020,
      "اڏام": 7021,
      "بچيلEW": 7022,
      "تخليقيEW": 7023,
      "نموناEW": 7024,
      "روييEW": 7025,
      "پشتوEW": 7026,
      "عھديEW": 7027,
      "الطافEW": 7028,
      "سھولتEW": 7029,
      "آئنEW": 7030,
      "بت": 7031,
      "جھن": 7032,
      "حس": 7033,
      "ڃEW": 7034,
      "ايپل": 7035,
      "زمروEW": 7036,
      "امر": 7037,
      "امڪ": 7038,
      "ملنديEW": 7039,
      "رهجيEW": 7040,
      "معت": 7041,
      "طرح": 7042,
      "نوريEW": 7043,
      "سٽونEW": 7044,
      "مدوEW": 7045,
      "مرڪز": 7046,
      "انڊاEW": 7047,
      "ڏاک": 7048,
      "نصابEW": 7049,
      "دستورEW": 7050,
      "دستخطEW": 7051,
      "قطارEW": 7052,
      "انصاريEW": 7053,
      "زاقEW": 7054,
      "رومانويEW": 7055,
      "چاهيوEW": 7056,
      "تنقيديEW": 7057,
      "لسانياتEW": 7058,
      "هفتيEW": 7059,
      "ايسوسيئيشنEW": 7060,
      "توازنEW": 7061,
      "اڇاEW": 7062,
      "بيونEW": 7063,
      "جمع": 7064,
      "رليزEW": 7065,
      "نان": 7066,
      "ٽڪرنEW": 7067,
      "پڪوEW": 7068,
      "اباڻيEW": 7069,
      "سياحEW": 7070,
      "اوچوEW": 7071,
      "جيمEW": 7072,
      "شهبازEW": 7073,
      "ٽيئرEW": 7074,
      "توکيEW": 7075,
      "فرقيEW": 7076,
      "قويEW": 7077,
      "لڳڻEW": 7078,
      "ناٽ": 7079,
      "بدلائيEW": 7080,
      "نشاند": 7081,
      "ميٽڪEW": 7082,
      "لائبر": 7083,
      "گجراتيEW": 7084,
      "بلاڪEW": 7085,
      "نامياتيEW": 7086,
      "پندرهنEW": 7087,
      "يعقوبEW": 7088,
      "مٺوEW": 7089,
      "وئ": 7090,
      "ڏان": 7091,
      "ڪاههEW": 7092,
      "گفت": 7093,
      "ڳائيEW": 7094,
      "ريڊ": 7095,
      "روڪيEW": 7096,
      "مليرEW": 7097,
      "ديھ": 7098,
      "اوند": 7099,
      "بيڪEW": 7100,
      "بيٺوEW": 7101,
      "اصلوEW": 7102,
      "لوههEW": 7103,
      "سوئ": 7104,
      "فيهEW": 7105,
      "هيروEW": 7106,
      "رياستNL": 7107,
      "ٻيڙيEW": 7108,
      "NLامامEW": 7109,
      "گاڏيEW": 7110,
      "ڊوائي": 7111,
      "روايتونEW": 7112,
      "وٽامنEW": 7113,
      "ڪهاڻيڪارEW": 7114,
      "باغيEW": 7115,
      "دهشت": 7116,
      "هيلٿEW": 7117,
      "اڄڪلههEW": 7118,
      "ممبئيEW": 7119,
      "پختونخواEW": 7120,
      "چانسلرEW": 7121,
      "تلاءEW": 7122,
      "درينEW": 7123,
      "شمو": 7124,
      "فلا": 7125,
      "ڀريوEW": 7126,
      "ڦٽ": 7127,
      "کاتوEW": 7128,
      "گانEW": 7129,
      "NLٽ": 7130,
      "NLعامEW": 7131,
      "اردنEW": 7132,
      "ريپبل": 7133,
      "زمريEW": 7134,
      "مني": 7135,
      "گھرنEW": 7136,
      "ائيناEW": 7137,
      "مهربانيEW": 7138,
      "زيهEW": 7139,
      "انگريزي": 7140,
      "NLاين": 7141,
      "تهNL": 7142,
      "پهچائڻEW": 7143,
      "ڊينمارڪEW": 7144,
      "ڪپڙوEW": 7145,
      "ويڙھEW": 7146,
      "برداشتEW": 7147,
      "غربتEW": 7148,
      "نسخوEW": 7149,
      "چانديءEW": 7150,
      "مظاهروEW": 7151,
      "موسيقارEW": 7152,
      "ربيعEW": 7153,
      "تباھEW": 7154,
      "دب": 7155,
      "زاديEW": 7156,
      "ٻEW": 7157,
      "ٽڪراEW": 7158,
      "ڏيو": 7159,
      "ڏجنEW": 7160,
      "ڪوبہEW": 7161,
      "اوڀر": 7162,
      "ڪنوين": 7163,
      "اھڙاEW": 7164,
      "ٽران": 7165,
      "گوادرEW": 7166,
      "دريءEW": 7167,
      "ساڳيءEW": 7168,
      "سکر": 7169,
      "وانگر": 7170,
      "دارو": 7171,
      "ورهاستEW": 7172,
      "تجرباتيEW": 7173,
      "يقينيEW": 7174,
      "فھرست": 7175,
      "رانديگرEW": 7176,
      "ردعملEW": 7177,
      "اڌ": 7178,
      "ووٽ": 7179,
      "پيڪ": 7180,
      "پڇEW": 7181,
      "ڦٽيEW": 7182,
      "ھميش": 7183,
      "روضيEW": 7184,
      "اهڙينEW": 7185,
      "ڪيلي": 7186,
      "NLزمروسنڌيEW": 7187,
      "منڇرEW": 7188,
      "چوريEW": 7189,
      "وارو": 7190,
      "قائد": 7191,
      "پرورشEW": 7192,
      "بچڻEW": 7193,
      "راجس": 7194,
      "شڪارپور": 7195,
      "چوٿون": 7196,
      "پڙهيلEW": 7197,
      "ائٽلانٽڪEW": 7198,
      "اڙEW": 7199,
      "همتEW": 7200,
      "ڊورEW": 7201,
      "ڪاهيEW": 7202,
      "گسEW": 7203,
      "گنڊاEW": 7204,
      "NLسر": 7205,
      "NLڪتابEW": 7206,
      "ميرو": 7207,
      "يڪس": 7208,
      "ڪيNL": 7209,
      "جايونEW": 7210,
      "نگي": 7211,
      "ڪاغ": 7212,
      "مهاEW": 7213,
      "پريفيڪ": 7214,
      "آرٽيڪلEW": 7215,
      "رھنداEW": 7216,
      "حاليءEW": 7217,
      "اليڪٽرڪEW": 7218,
      "نارٿEW": 7219,
      "ڳولڻEW": 7220,
      "سياحتيEW": 7221,
      "يڪيوٽوEW": 7222,
      "سينيٽEW": 7223,
      "ڳڙھEW": 7224,
      "ڪڻڪEW": 7225,
      "ڪالونيNL": 7226,
      "همايونEW": 7227,
      "آرمينياEW": 7228,
      "داست": 7229,
      "داڻاEW": 7230,
      "ريو": 7231,
      "سڪاEW": 7232,
      "عمانEW": 7233,
      "ٽاميEW": 7234,
      "ھين": 7235,
      "NLجو": 7236,
      "ماخ": 7237,
      "جنو": 7238,
      "پيئ": 7239,
      "ابرا": 7240,
      "ديسيEW": 7241,
      "سواEW": 7242,
      "نيٽ": 7243,
      "پارسيEW": 7244,
      "چونڊي": 7245,
      "رھينEW": 7246,
      "ايوارڊ": 7247,
      "واپسيEW": 7248,
      "ڪاميٽيءEW": 7249,
      "ڇڏيندوEW": 7250,
      "اٿارٽيNL": 7251,
      "خاتونEW": 7252,
      "عقلEW": 7253,
      "ڊگھائيEW": 7254,
      "چانديEW": 7255,
      "نافذEW": 7256,
      "ميرپورخاصEW": 7257,
      "اورنگزيبEW": 7258,
      "جرا": 7259,
      "ذريEW": 7260,
      "رتو": 7261,
      "سلوڪEW": 7262,
      "شارEW": 7263,
      "شام": 7264,
      "شڪرEW": 7265,
      "غنEW": 7266,
      "فعلEW": 7267,
      "ملاحEW": 7268,
      "ڊيءEW": 7269,
      "ڪميEW": 7270,
      "گره": 7271,
      "اربابEW": 7272,
      "اهونEW": 7273,
      "پيراEW": 7274,
      "ڪوانٽمEW": 7275,
      "جهانگيرEW": 7276,
      "ڏيهيEW": 7277,
      "پايوEW": 7278,
      "لکندوEW": 7279,
      "خانبهادرEW": 7280,
      "فنڪارنEW": 7281,
      "صنعتنEW": 7282,
      "راشدي": 7283,
      "NLتپوEW": 7284,
      "نفسياتيEW": 7285,
      "اوبلاسٽ": 7286,
      "اسپيڪرEW": 7287,
      "ڀيروملEW": 7288,
      "جزوEW": 7289,
      "غرEW": 7290,
      "نجيEW": 7291,
      "نڪيEW": 7292,
      "ٽان": 7293,
      "ميڙEW": 7294,
      "ايلي": 7295,
      "ولينEW": 7296,
      "ستارنEW": 7297,
      "آھستيEW": 7298,
      "گهي": 7299,
      "بيهيEW": 7300,
      "جيٽلEW": 7301,
      "ٽيليEW": 7302,
      "مقال": 7303,
      "ڏياريEW": 7304,
      "حيرتEW": 7305,
      "هيريEW": 7306,
      "دوديEW": 7307,
      "مينارEW": 7308,
      "يونيورسٽيNL": 7309,
      "خانهEW": 7310,
      "يورپينEW": 7311,
      "شاهنوازEW": 7312,
      "پولينڊEW": 7313,
      "لغويEW": 7314,
      "آفيسرنEW": 7315,
      "ڇڏيائين": 7316,
      "رياضEW": 7317,
      "اليڪٽرانEW": 7318,
      "ڪعبيEW": 7319,
      "تغلقEW": 7320,
      "اغ": 7321,
      "جمEW": 7322,
      "ساميEW": 7323,
      "شدتEW": 7324,
      "ضادEW": 7325,
      "کہEW": 7326,
      "NLڪن": 7327,
      "NLاسلامEW": 7328,
      "لاهو": 7329,
      "ميجرEW": 7330,
      "مايو": 7331,
      "سني": 7332,
      "ساڍاEW": 7333,
      "منھن": 7334,
      "ليڊرEW": 7335,
      "جهرEW": 7336,
      "جههEW": 7337,
      "اصح": 7338,
      "اھن": 7339,
      "ڪاربنEW": 7340,
      "پرفار": 7341,
      "قائدEW": 7342,
      "جمالي": 7343,
      "پريزي": 7344,
      "اولھهEW": 7345,
      "ڳايوEW": 7346,
      "کوههEW": 7347,
      "ڄاڻوEW": 7348,
      "فائزEW": 7349,
      "ميوزي": 7350,
      "اڪيليEW": 7351,
      "هزارنEW": 7352,
      "تھھEW": 7353,
      "مشاهدوEW": 7354,
      "منتظ": 7355,
      "سفيرEW": 7356,
      "پرنسپالEW": 7357,
      "واپارينEW": 7358,
      "اسماعيليEW": 7359,
      "فصلنEW": 7360,
      "نفرتEW": 7361,
      "اٿيEW": 7362,
      "سڪلEW": 7363,
      "عينEW": 7364,
      "ناصرEW": 7365,
      "وجھ": 7366,
      "ٿلEW": 7367,
      "چرا": 7368,
      "ڍا": 7369,
      "ۡEW": 7370,
      "انفر": 7371,
      "آهيونEW": 7372,
      "ريجنEW": 7373,
      "جهيEW": 7374,
      "معن": 7375,
      "وڃEW": 7376,
      "والدهEW": 7377,
      "بنانEW": 7378,
      "شريعتEW": 7379,
      "مائٽنEW": 7380,
      "اسٽاEW": 7381,
      "نشانوEW": 7382,
      "ازمEW": 7383,
      "گروھEW": 7384,
      "گروپنEW": 7385,
      "نامهEW": 7386,
      "نتيجنEW": 7387,
      "مرادوEW": 7388,
      "رائلEW": 7389,
      "مفادنEW": 7390,
      "وسلمNL": 7391,
      "رينجEW": 7392,
      "سولنگيEW": 7393,
      "محققنEW": 7394,
      "ٿلهيEW": 7395,
      "خودمختياريEW": 7396,
      "دخ": 7397,
      "فقEW": 7398,
      "ليوEW": 7399,
      "ماني": 7400,
      "وآ": 7401,
      "ٺيڪEW": 7402,
      "NLلو": 7403,
      "الاهيEW": 7404,
      "رورEW": 7405,
      "روپي": 7406,
      "ماضيءEW": 7407,
      "ڪيائونEW": 7408,
      "پوندو": 7409,
      "ئيNL": 7410,
      "سافٽ": 7411,
      "منعEW": 7412,
      "اصلاتEW": 7413,
      "تيرEW": 7414,
      "شهرينEW": 7415,
      "درسيEW": 7416,
      "ٽيم": 7417,
      "ٽيسٽEW": 7418,
      "نازEW": 7419,
      "نسبEW": 7420,
      "ٻيلوEW": 7421,
      "پراڻEW": 7422,
      "مائلEW": 7423,
      "آڪس": 7424,
      "پنجاههEW": 7425,
      "هيٺئينEW": 7426,
      "پيداواريEW": 7427,
      "تجربيEW": 7428,
      "جوڙيوEW": 7429,
      "نگرانEW": 7430,
      "صديقيEW": 7431,
      "حسامEW": 7432,
      "مشاهديEW": 7433,
      "نيڪالEW": 7434,
      "وڻندڙEW": 7435,
      "ميونسپال": 7436,
      "ڪنگڊمEW": 7437,
      "تسلطEW": 7438,
      "آبپاشيEW": 7439,
      "اڱ": 7440,
      "رزEW": 7441,
      "ـي": 7442,
      "لاسEW": 7443,
      "ناسEW": 7444,
      "ٺارEW": 7445,
      "ٺاههEW": 7446,
      "پڄاڻ": 7447,
      "ڪٽيEW": 7448,
      "گائ": 7449,
      "گاليEW": 7450,
      "ارقEW": 7451,
      "هوندا": 7452,
      "ڪرڻيEW": 7453,
      "پنگEW": 7454,
      "گهريEW": 7455,
      "ٽيڪEW": 7456,
      "هيڊ": 7457,
      "پراس": 7458,
      "شيد": 7459,
      "فريمEW": 7460,
      "گيرنEW": 7461,
      "گاڏينEW": 7462,
      "ٺهرايوEW": 7463,
      "طبقاتيEW": 7464,
      "جوڙڻEW": 7465,
      "سومراEW": 7466,
      "راشدEW": 7467,
      "جينياتيEW": 7468,
      "ترجمانEW": 7469,
      "دستاويزNL": 7470,
      "ڳاڙهوEW": 7471,
      "ارتقائيEW": 7472,
      "دروازاEW": 7473,
      "خصوصي": 7474,
      "سهولتEW": 7475,
      "باڪسEW": 7476,
      "عڪاسيEW": 7477,
      "نصيرآبادEW": 7478,
      "ذميداريEW": 7479,
      "صہEW": 7480,
      "ضميرEW": 7481,
      "ننگرEW": 7482,
      "چال": 7483,
      "NLجي": 7484,
      "انتق": 7485,
      "ائتاEW": 7486,
      "لاڙوEW": 7487,
      "اهڃاڻEW": 7488,
      "علم": 7489,
      "ايٿو": 7490,
      "جهادEW": 7491,
      "مارڪي": 7492,
      "پورهي": 7493,
      "NLسانچوڄاڻخانوEW": 7494,
      "مزدورEW": 7495,
      "سخيEW": 7496,
      "سانچاEW": 7497,
      "ڊسمبر": 7498,
      "واسطيEW": 7499,
      "مرحلنEW": 7500,
      "رنگينEW": 7501,
      "جذبEW": 7502,
      "عمروEW": 7503,
      "جشنEW": 7504,
      "خليلEW": 7505,
      "زالنEW": 7506,
      "صار": 7507,
      "هنداEW": 7508,
      "ڇات": 7509,
      "ادارEW": 7510,
      "ايکEW": 7511,
      "ڪيتريEW": 7512,
      "مليا": 7513,
      "گهرا": 7514,
      "ساھEW": 7515,
      "ڪوٽNL": 7516,
      "منڊيEW": 7517,
      "بيهڪEW": 7518,
      "رسائيEW": 7519,
      "نومبر": 7520,
      "حصي": 7521,
      "ننڍينEW": 7522,
      "جمعيEW": 7523,
      "دريائنEW": 7524,
      "قربانEW": 7525,
      "پليڪسEW": 7526,
      "ٽريٽEW": 7527,
      "تصويرون": 7528,
      "عهدنEW": 7529,
      "مدرسوEW": 7530,
      "وقتنEW": 7531,
      "خالقEW": 7532,
      "پاليسينEW": 7533,
      "آتشEW": 7534,
      "مگسيEW": 7535,
      "پرستيءEW": 7536,
      "دفتريEW": 7537,
      "ارسطوEW": 7538,
      "ترجيحEW": 7539,
      "ايگزيڪيوٽوEW": 7540,
      "معاويهEW": 7541,
      "گنجائشEW": 7542,
      "ثتEW": 7543,
      "خيEW": 7544,
      "رع": 7545,
      "صاب": 7546,
      "غارEW": 7547,
      "يزيدEW": 7548,
      "ڪاملEW": 7549,
      "اريو": 7550,
      "الأ": 7551,
      "جنسنEW": 7552,
      "اينديونEW": 7553,
      "پنڊ": 7554,
      "هنگ": 7555,
      "ڏيڻ": 7556,
      "گرديEW": 7557,
      "پارڪNL": 7558,
      "اختياريEW": 7559,
      "ائونٽEW": 7560,
      "سڏباEW": 7561,
      "درياھ": 7562,
      "اشرفEW": 7563,
      "عبدالر": 7564,
      "اسٽالنEW": 7565,
      "گذارڻEW": 7566,
      "مڃڻEW": 7567,
      "نيازEW": 7568,
      "ڪئنالEW": 7569,
      "شموليتEW": 7570,
      "دارومدارEW": 7571,
      "آنيEW": 7572,
      "جئينEW": 7573,
      "رحEW": 7574,
      "سٺاEW": 7575,
      "فظEW": 7576,
      "ٰيEW": 7577,
      "ڦٽلEW": 7578,
      "NLشيخEW": 7579,
      "استNL": 7580,
      "پيشيEW": 7581,
      "ائينديونEW": 7582,
      "مقام": 7583,
      "جاتEW": 7584,
      "قومپ": 7585,
      "تنتيEW": 7586,
      "ٻيڙينEW": 7587,
      "چونڊيEW": 7588,
      "نصر": 7589,
      "NLجديدEW": 7590,
      "اداڪاراEW": 7591,
      "چيئرمئنEW": 7592,
      "تجرباEW": 7593,
      "رانديونEW": 7594,
      "خوبصور": 7595,
      "فلسطينيEW": 7596,
      "انٽارڪ": 7597,
      "ڊولپمينٽEW": 7598,
      "وحدتEW": 7599,
      "لاڳيتوEW": 7600,
      "اليگزينڊرEW": 7601,
      "حامدEW": 7602,
      "نشاندهيEW": 7603,
      "جاس": 7604,
      "زوي": 7605,
      "سپر": 7606,
      "پگه": 7607,
      "پسمن": 7608,
      "ڀين": 7609,
      "ڀروEW": 7610,
      "کڻEW": 7611,
      "يوزEW": 7612,
      "الاولEW": 7613,
      "روڊنEW": 7614,
      "وابEW": 7615,
      "ترقي": 7616,
      "تاڻEW": 7617,
      "ٽيف": 7618,
      "فيعEW": 7619,
      "شھن": 7620,
      "گڏيEW": 7621,
      "ڪارڪننEW": 7622,
      "ڪليڪٽرEW": 7623,
      "سگهندوEW": 7624,
      "سواء": 7625,
      "ديوارنEW": 7626,
      "بحاليEW": 7627,
      "مزاجEW": 7628,
      "ڏاڍاEW": 7629,
      "ڪمپنينEW": 7630,
      "اروڙEW": 7631,
      "ترالEW": 7632,
      "عمرانEW": 7633,
      "وڄائڻEW": 7634,
      "النساءEW": 7635,
      "هٿيارنEW": 7636,
      "شهزاديEW": 7637,
      "همعصرEW": 7638,
      "بون": 7639,
      "حاليEW": 7640,
      "خيلEW": 7641,
      "دنگEW": 7642,
      "فتو": 7643,
      "لڻEW": 7644,
      "ليون": 7645,
      "ننEW": 7646,
      "وح": 7647,
      "يان": 7648,
      "ٽڪرا": 7649,
      "ڍنEW": 7650,
      "ڦه": 7651,
      "ڪمارEW": 7652,
      "NLلا": 7653,
      "NLانهنEW": 7654,
      "ارن": 7655,
      "المEW": 7656,
      "ميداننEW": 7657,
      "واع": 7658,
      "وابس": 7659,
      "پيروEW": 7660,
      "ونگ": 7661,
      "گهڙ": 7662,
      "ڊيراEW": 7663,
      "ڊيگھEW": 7664,
      "گيتاEW": 7665,
      "ميٽريEW": 7666,
      "اسپتال": 7667,
      "ياتNLزمرو": 7668,
      "قابضEW": 7669,
      "رواجيEW": 7670,
      "باغنEW": 7671,
      "وسنديEW": 7672,
      "ويٺاEW": 7673,
      "مروجEW": 7674,
      "اسرائيليEW": 7675,
      "اردوءEW": 7676,
      "افسانويEW": 7677,
      "مٽاسٽاEW": 7678,
      "شماروEW": 7679,
      "پورچوگالEW": 7680,
      "رسالومهراڻ": 7681,
      "ايئرپورٽEW": 7682,
      "بهاول": 7683,
      "مشرو": 7684,
      "هيڪ": 7685,
      "پائڻEW": 7686,
      "ڀٽو": 7687,
      "ادلEW": 7688,
      "موٽEW": 7689,
      "پونداEW": 7690,
      "سانگيEW": 7691,
      "نوحEW": 7692,
      "توسي": 7693,
      "ڪمبو": 7694,
      "ٻيڙيءEW": 7695,
      "اقليتEW": 7696,
      "رھائشEW": 7697,
      "انتخ": 7698,
      "ثقافتنEW": 7699,
      "سپاهيEW": 7700,
      "شاھهEW": 7701,
      "چرپرEW": 7702,
      "خوشحالEW": 7703,
      "ذميوارEW": 7704,
      "راولپنڊيEW": 7705,
      "خادمEW": 7706,
      "اپرEW": 7707,
      "بمطابقEW": 7708,
      "حنEW": 7709,
      "خرا": 7710,
      "شنگ": 7711,
      "وش": 7712,
      "ٽڪريEW": 7713,
      "چاهي": 7714,
      "ڪڇ": 7715,
      "ڪئينEW": 7716,
      "ڪبوEW": 7717,
      "NLملڪEW": 7718,
      "ندس": 7719,
      "الاسلامEW": 7720,
      "ريل": 7721,
      "ميرانEW": 7722,
      "ماڙيEW": 7723,
      "جنسونEW": 7724,
      "اوڀ": 7725,
      "بازيEW": 7726,
      "چوڪEW": 7727,
      "وٺEW": 7728,
      "تعار": 7729,
      "افلاط": 7730,
      "مشاب": 7731,
      "سگهڙEW": 7732,
      "جھنگ": 7733,
      "آرميني": 7734,
      "تاريخنEW": 7735,
      "قرار": 7736,
      "مثاليEW": 7737,
      "ثقافت": 7738,
      "سامھونEW": 7739,
      "ترجماEW": 7740,
      "رحمEW": 7741,
      "بلوچنEW": 7742,
      "مکيہEW": 7743,
      "سنگيتEW": 7744,
      "ٽيوبEW": 7745,
      "سوسائٽيءEW": 7746,
      "يھودينEW": 7747,
      "ڪوئيٽاEW": 7748,
      "وابستهEW": 7749,
      "اهEW": 7750,
      "جري": 7751,
      "جسمنEW": 7752,
      "دليEW": 7753,
      "رندEW": 7754,
      "سز": 7755,
      "عاNL": 7756,
      "فات": 7757,
      "هانتEW": 7758,
      "چڪيونEW": 7759,
      "کنيوEW": 7760,
      "ڪٽو": 7761,
      "ڪبيرEW": 7762,
      "اروNL": 7763,
      "يڪنEW": 7764,
      "گهريلوEW": 7765,
      "ديھنEW": 7766,
      "باع": 7767,
      "نظرياEW": 7768,
      "فردنEW": 7769,
      "هيئنEW": 7770,
      "مارچ": 7771,
      "جلد": 7772,
      "گيٽEW": 7773,
      "حضورEW": 7774,
      "خيبر": 7775,
      "ڇپيوEW": 7776,
      "سڃاتلEW": 7777,
      "فقيرنEW": 7778,
      "سپاهينEW": 7779,
      "بندشEW": 7780,
      "مظفرEW": 7781,
      "شخصيتونEW": 7782,
      "معززEW": 7783,
      "نشانيونEW": 7784,
      "نصيبEW": 7785,
      "امتيازEW": 7786,
      "تنھنڪريEW": 7787,
      "ڦڦڙنEW": 7788,
      "جزنEW": 7789,
      "زبي": 7790,
      "شير": 7791,
      "ضاEW": 7792,
      "مجا": 7793,
      "نيءEW": 7794,
      "ووEW": 7795,
      "ٽڪرينEW": 7796,
      "ٿنڀ": 7797,
      "گائيناEW": 7798,
      "NLڇ": 7799,
      "NLيو": 7800,
      "NLني": 7801,
      "انہEW": 7802,
      "يڪار": 7803,
      "موسمي": 7804,
      "ڪرنسيEW": 7805,
      "جوهرEW": 7806,
      "براه": 7807,
      "ڪنڊنEW": 7808,
      "بادشاهEW": 7809,
      "گران": 7810,
      "سموEW": 7811,
      "ڪاشEW": 7812,
      "الله": 7813,
      "جليءEW": 7814,
      "ليننEW": 7815,
      "سينگار": 7816,
      "بخارEW": 7817,
      "فقهEW": 7818,
      "نيوٽنEW": 7819,
      "پئمانيEW": 7820,
      "فلسفو": 7821,
      "حرارتEW": 7822,
      "دشمن": 7823,
      "ساهتEW": 7824,
      "خصوصيتEW": 7825,
      "ٽريننگEW": 7826,
      "ڏسنديEW": 7827,
      "بصريEW": 7828,
      "اطلاعEW": 7829,
      "رهواسيEW": 7830,
      "سائوٿEW": 7831,
      "باس": 7832,
      "تند": 7833,
      "خاڪ": 7834,
      "طارقEW": 7835,
      "فيءEW": 7836,
      "چاريEW": 7837,
      "ڊزEW": 7838,
      "کسيEW": 7839,
      "ڪسNL": 7840,
      "ھھEW": 7841,
      "NLقديمEW": 7842,
      "انيڪEW": 7843,
      "الملڪEW": 7844,
      "راياEW": 7845,
      "مليونEW": 7846,
      "پوٽي": 7847,
      "بيان": 7848,
      "معا": 7849,
      "جاڳ": 7850,
      "رسمونEW": 7851,
      "وڌندوEW": 7852,
      "مشتا": 7853,
      "ڪريٽEW": 7854,
      "انڊوEW": 7855,
      "مائڪروEW": 7856,
      "هڪدمEW": 7857,
      "آفريقيEW": 7858,
      "ڳالهائيندڙنEW": 7859,
      "مئني": 7860,
      "ليڪچ": 7861,
      "ڪميٽيءEW": 7862,
      "گولڊEW": 7863,
      "ڪپڙنEW": 7864,
      "گذرندڙEW": 7865,
      "هڪجهڙائيEW": 7866,
      "پروڊيوسرEW": 7867,
      "ذائقيEW": 7868,
      "رجسٽرڊEW": 7869,
      "آسانيءEW": 7870,
      "جول": 7871,
      "زهEW": 7872,
      "زئي": 7873,
      "عضو": 7874,
      "فڪريEW": 7875,
      "قصيEW": 7876,
      "نط": 7877,
      "وسط": 7878,
      "ياس": 7879,
      "ڀرياEW": 7880,
      "کٽي": 7881,
      "ۃEW": 7882,
      "NLڄامEW": 7883,
      "ٿيٽرEW": 7884,
      "ڪردار": 7885,
      "ڪرڻNL": 7886,
      "ڪولEW": 7887,
      "اندرينEW": 7888,
      "اڳڪٿيEW": 7889,
      "خوبEW": 7890,
      "صفحوNL": 7891,
      "هندي": 7892,
      "هلياEW": 7893,
      "نقطيEW": 7894,
      "گاپورEW": 7895,
      "سگھوEW": 7896,
      "اسپين": 7897,
      "قابليتEW": 7898,
      "مضمونNLزمرو": 7899,
      "فلسفي": 7900,
      "ريگستانيEW": 7901,
      "سڌارنEW": 7902,
      "ايڊورڊEW": 7903,
      "ڇپايوEW": 7904,
      "گنگاEW": 7905,
      "چوڌريEW": 7906,
      "اجتماعيEW": 7907,
      "آڪسفورڊEW": 7908,
      "زفEW": 7909,
      "نبي": 7910,
      "ٿڌوEW": 7911,
      "NLلي": 7912,
      "NLاسلاميEW": 7913,
      "ميNL": 7914,
      "ايرياEW": 7915,
      "امري": 7916,
      "منجھانEW": 7917,
      "بيحدEW": 7918,
      "باش": 7919,
      "باگ": 7920,
      "درس": 7921,
      "فيظEW": 7922,
      "توحيدEW": 7923,
      "هئائين": 7924,
      "پارٽينEW": 7925,
      "ٻڌوEW": 7926,
      "براءEW": 7927,
      "NLاثرEW": 7928,
      "مالياتيEW": 7929,
      "اسٽارEW": 7930,
      "برون": 7931,
      "ٺهراءEW": 7932,
      "اجيءEW": 7933,
      "طبعEW": 7934,
      "مسافرنEW": 7935,
      "اثر": 7936,
      "اظھارEW": 7937,
      "باوجود": 7938,
      "ڪوٽڙيEW": 7939,
      "معاهدوEW": 7940,
      "غلامنEW": 7941,
      "ٽيڪنيڪلEW": 7942,
      "طالبانEW": 7943,
      "ڇڪتاڻEW": 7944,
      "ڌامرا": 7945,
      "ڪاغذEW": 7946,
      "آڌارEW": 7947,
      "تخت": 7948,
      "حجاجEW": 7949,
      "سچيEW": 7950,
      "چترالEW": 7951,
      "گزEW": 7952,
      "NLرا": 7953,
      "NLمولاناEW": 7954,
      "انچنEW": 7955,
      "الاس": 7956,
      "السنڌEW": 7957,
      "ويهنEW": 7958,
      "وابست": 7959,
      "پيڙ": 7960,
      "ملوڪEW": 7961,
      "جهليEW": 7962,
      "محرومEW": 7963,
      "سرمستEW": 7964,
      "مقالوEW": 7965,
      "وڌايو": 7966,
      "ٻوليونNL": 7967,
      "بورڊNL": 7968,
      "پراڪرتEW": 7969,
      "تبديليءEW": 7970,
      "مسجدNL": 7971,
      "آگسٽ": 7972,
      "پئساEW": 7973,
      "زنجي": 7974,
      "ڏهاڪنEW": 7975,
      "ايڊمن": 7976,
      "مجيبEW": 7977,
      "ڳڻپEW": 7978,
      "ساليانوEW": 7979,
      "اناجEW": 7980,
      "رهنمائيEW": 7981,
      "اتحاديEW": 7982,
      "آرڪٽڪEW": 7983,
      "پرفارمن": 7984,
      ".٪": 7985,
      "اڏيEW": 7986,
      "جلو": 7987,
      "خض": 7988,
      "رھو": 7989,
      "ٿرا": 7990,
      "ڇان": 7991,
      "ڪشا": 7992,
      "ھريEW": 7993,
      "NLاسانEW": 7994,
      "سنسEW": 7995,
      "ويسEW": 7996,
      "پيشو": 7997,
      "ملههEW": 7998,
      "لوھEW": 7999,
      "درگاھEW": 8000,
      "شھرNL": 8001,
      "فوجونEW": 8002,
      "شاعريNL": 8003,
      "پريشانEW": 8004,
      "شوڪتEW": 8005,
      "ٺاهينEW": 8006,
      "اسٽاڪEW": 8007,
      "گاجيEW": 8008,
      "نشانينEW": 8009,
      "ضرورتنEW": 8010,
      "برطاني": 8011,
      "وڙهڻEW": 8012,
      "سڪرنڊEW": 8013,
      "اڀرندڙEW": 8014,
      "عدالتيEW": 8015,
      "ائٽميEW": 8016,
      "اسڪالرEW": 8017,
      "ڍانچيEW": 8018,
      "نظاماڻيEW": 8019,
      "ويدڪEW": 8020,
      "آکي": 8021,
      "ئرنEW": 8022,
      "جزEW": 8023,
      "رف": 8024,
      "رچناEW": 8025,
      "غاEW": 8026,
      "وڇو": 8027,
      "پائونڊEW": 8028,
      "ڊچEW": 8029,
      "گارنEW": 8030,
      "پيشوEW": 8031,
      "ٿيندا": 8032,
      "ڪرنلEW": 8033,
      "ڪوڙيEW": 8034,
      "تاث": 8035,
      "لوبEW": 8036,
      "ڪاررو": 8037,
      "قومي": 8038,
      "ڪلرEW": 8039,
      "صفرEW": 8040,
      "تنز": 8041,
      "ڌرميEW": 8042,
      "طريقو": 8043,
      "ماحولياتEW": 8044,
      "ذميواريEW": 8045,
      "زباننEW": 8046,
      "ئتEW": 8047,
      "بدEW": 8048,
      "بليEW": 8049,
      "لٿو": 8050,
      "مانNL": 8051,
      "ڪھاڻيEW": 8052,
      "ڳريEW": 8053,
      "انٽي": 8054,
      "لاڳ": 8055,
      "موري": 8056,
      "واڻي": 8057,
      "گهڙيEW": 8058,
      "گهيروEW": 8059,
      "مرث": 8060,
      "اتراول": 8061,
      "جاکوڙEW": 8062,
      "ڪيوNL": 8063,
      "يرهEW": 8064,
      "ڏنائينEW": 8065,
      "مينٽ": 8066,
      "گوبندEW": 8067,
      "سبزEW": 8068,
      "مبنيEW": 8069,
      "ناماEW": 8070,
      "NLجانEW": 8071,
      "متفقEW": 8072,
      "جنيدEW": 8073,
      "غلطيEW": 8074,
      "چانههEW": 8075,
      "سفارت": 8076,
      "پابندEW": 8077,
      "ماليڪيولEW": 8078,
      "ماليڪيولرEW": 8079,
      "يهودينEW": 8080,
      "نازڪEW": 8081,
      "چاليههEW": 8082,
      "آرگنائيزيشنEW": 8083,
      "تھذيبEW": 8084,
      "امڪانيEW": 8085,
      "بيا": 8086,
      "تمغ": 8087,
      "سؤ": 8088,
      "سٺ": 8089,
      "سيونEW": 8090,
      "لل": 8091,
      "ٺلEW": 8092,
      "پد": 8093,
      "کٽEW": 8094,
      "NLد": 8095,
      "ائبEW": 8096,
      "ماتاEW": 8097,
      "موزونEW": 8098,
      "هوشEW": 8099,
      "ابڙيEW": 8100,
      "ستاوي": 8101,
      "برڪتEW": 8102,
      "فيNL": 8103,
      "معرفتEW": 8104,
      "قيدينEW": 8105,
      "گريونEW": 8106,
      "قوتنEW": 8107,
      "بوڪEW": 8108,
      "عرسا": 8109,
      "شيط": 8110,
      "جھڙاEW": 8111,
      "NLنار": 8112,
      "شعبوEW": 8113,
      "NLآگ": 8114,
      "NLآفري": 8115,
      "دائيءEW": 8116,
      "ڏوههEW": 8117,
      "ھلندڙEW": 8118,
      "هينريEW": 8119,
      "ولايتEW": 8120,
      "رکيائين": 8121,
      "بهرحالEW": 8122,
      "تلوارEW": 8123,
      "آرياEW": 8124,
      "اٽيEW": 8125,
      "بجي": 8126,
      "ترو": 8127,
      "تههEW": 8128,
      "جوي": 8129,
      "جبر": 8130,
      "فيا": 8131,
      "مانيهEW": 8132,
      "نمEW": 8133,
      "ڊپلو": 8134,
      "ھال": 8135,
      "NLپر": 8136,
      "يوزر": 8137,
      "اهيوEW": 8138,
      "ايماEW": 8139,
      "پيئيEW": 8140
    },
    "merges": [
      [
        "E",
        "W"
      ],
      [
        "ي",
        "EW"
      ],
      [
        "ن",
        "EW"
      ],
      [
        "و",
        "EW"
      ],
      [
        "ج",
        "يEW"
      ],
      [
        "ر",
        "EW"
      ],
      [
        "ا",
        "نEW"
      ],
      [
        "ا",
        "EW"
      ],
      [
        "N",
        "L"
      ],
      [
        "ل",
        "EW"
      ],
      [
        "ا",
        "ن"
      ],
      [
        "ا",
        "ر"
      ],
      [
        "ا",
        "ئ"
      ],
      [
        "ي",
        "و"
      ],
      [
        "ن",
        "د"
      ],
      [
        "ه",
        "EW"
      ],
      [
        "آ",
        "ه"
      ],
      [
        "ت",
        "EW"
      ],
      [
        "م",
        "EW"
      ],
      [
        "ء",
        "EW"
      ],
      [
        "ج",
        "وEW"
      ],
      [
        "ا",
        "ل"
      ],
      [
        "ر",
        "ي"
      ],
      [
        "ه",
        "نEW"
      ],
      [
        "ي",
        "نEW"
      ],
      [
        "ڪ",
        "EW"
      ],
      [
        "ت",
        "يEW"
      ],
      [
        "د",
        "EW"
      ],
      [
        "ڻ",
        "EW"
      ],
      [
        "ر",
        "و"
      ],
      [
        "ا",
        "س"
      ],
      [
        "ي",
        "وEW"
      ],
      [
        "ک",
        "يEW"
      ],
      [
        "ل",
        "ا"
      ],
      [
        "ر",
        "يEW"
      ],
      [
        "آه",
        "ي"
      ],
      [
        "ا",
        "ه"
      ],
      [
        "ر",
        "ا"
      ],
      [
        "س",
        "EW"
      ],
      [
        "م",
        "ي"
      ],
      [
        "ي",
        "اEW"
      ],
      [
        "ب",
        "EW"
      ],
      [
        "ي",
        "ءEW"
      ],
      [
        "ي",
        "ڪ"
      ],
      [
        "ا",
        "د"
      ],
      [
        "ع",
        "EW"
      ],
      [
        "و",
        "ر"
      ],
      [
        "م",
        "ا"
      ],
      [
        "ک",
        "انEW"
      ],
      [
        "ا",
        "رEW"
      ],
      [
        "ي",
        "ن"
      ],
      [
        "س",
        "ن"
      ],
      [
        "و",
        "نEW"
      ],
      [
        "ئ",
        "يEW"
      ],
      [
        "ٽ",
        "EW"
      ],
      [
        "و",
        "رEW"
      ],
      [
        "س",
        "انEW"
      ],
      [
        "ج",
        "ن"
      ],
      [
        "ع",
        "ل"
      ],
      [
        "و",
        "ي"
      ],
      [
        "ا",
        "ي"
      ],
      [
        "م",
        "و"
      ],
      [
        "ه",
        "و"
      ],
      [
        "و",
        "ا"
      ],
      [
        "ھ",
        "نEW"
      ],
      [
        "ڪ",
        "ي"
      ],
      [
        "ار",
        "يEW"
      ],
      [
        "سن",
        "ڌ"
      ],
      [
        "يو",
        "نEW"
      ],
      [
        "ه",
        "ڪEW"
      ],
      [
        "پ",
        "ي"
      ],
      [
        "و",
        "ل"
      ],
      [
        "ز",
        "م"
      ],
      [
        "ا",
        "م"
      ],
      [
        "ج",
        "اEW"
      ],
      [
        "ا",
        "ب"
      ],
      [
        "ڪ",
        "ريEW"
      ],
      [
        "ت",
        "هEW"
      ],
      [
        "ف",
        "EW"
      ],
      [
        "س",
        "ت"
      ],
      [
        "ٿ",
        "ي"
      ],
      [
        "ڪ",
        "ر"
      ],
      [
        "م",
        "ل"
      ],
      [
        "ائ",
        "يEW"
      ],
      [
        "و",
        "ن"
      ],
      [
        "آ",
        "ھ"
      ],
      [
        "س",
        "ي"
      ],
      [
        "ند",
        "وEW"
      ],
      [
        "ج",
        "يڪ"
      ],
      [
        "پ",
        "ن"
      ],
      [
        "آه",
        "ن"
      ],
      [
        "ا",
        "ڪ"
      ],
      [
        "گ",
        "ه"
      ],
      [
        "ي",
        "ا"
      ],
      [
        "م",
        "انEW"
      ],
      [
        "ہ",
        "EW"
      ],
      [
        "پ",
        "و"
      ],
      [
        "ئ",
        "ي"
      ],
      [
        "ز",
        "EW"
      ],
      [
        "ه",
        "ن"
      ],
      [
        "يو",
        "ن"
      ],
      [
        "س",
        "ا"
      ],
      [
        "ڊ",
        "EW"
      ],
      [
        "لا",
        "ءEW"
      ],
      [
        "آه",
        "يEW"
      ],
      [
        "NL",
        "زم"
      ],
      [
        "NLزم",
        "رو"
      ],
      [
        "ڪ",
        "و"
      ],
      [
        "م",
        "ن"
      ],
      [
        "ل",
        "ي"
      ],
      [
        "د",
        "ي"
      ],
      [
        "ا",
        "ڻ"
      ],
      [
        "ب",
        "هEW"
      ],
      [
        "ڙ",
        "EW"
      ],
      [
        "ا",
        "و"
      ],
      [
        "ب",
        "ي"
      ],
      [
        "ت",
        "ر"
      ],
      [
        "ٿ",
        "يEW"
      ],
      [
        "ھ",
        "EW"
      ],
      [
        "ب",
        "ا"
      ],
      [
        "ج",
        "ه"
      ],
      [
        "ل",
        "يEW"
      ],
      [
        "ا",
        "ص"
      ],
      [
        "ب",
        "يEW"
      ],
      [
        "س",
        "ند"
      ],
      [
        "ت",
        "ا"
      ],
      [
        "ائ",
        "ي"
      ],
      [
        "ل",
        "و"
      ],
      [
        "ج",
        "ي"
      ],
      [
        "م",
        "ح"
      ],
      [
        "ق",
        "EW"
      ],
      [
        "ان",
        "يEW"
      ],
      [
        "م",
        "يEW"
      ],
      [
        "ت",
        "ي"
      ],
      [
        "ج",
        "و"
      ],
      [
        "گ",
        "EW"
      ],
      [
        "ش",
        "ه"
      ],
      [
        "ند",
        "يEW"
      ],
      [
        "ج",
        "EW"
      ],
      [
        "ند",
        "اEW"
      ],
      [
        "ائ",
        "ينEW"
      ],
      [
        "ن",
        "ال"
      ],
      [
        "ه",
        "يEW"
      ],
      [
        "ش",
        "ا"
      ],
      [
        "ٽ",
        "يEW"
      ],
      [
        "م",
        "ر"
      ],
      [
        "جن",
        "هنEW"
      ],
      [
        "ڪ",
        "يوEW"
      ],
      [
        "ب",
        "ر"
      ],
      [
        "ا",
        "مEW"
      ],
      [
        "سنڌ",
        "EW"
      ],
      [
        "ي",
        "لEW"
      ],
      [
        "س",
        "ر"
      ],
      [
        "ش",
        "EW"
      ],
      [
        "د",
        "ر"
      ],
      [
        "و",
        "ڏ"
      ],
      [
        "س",
        "و"
      ],
      [
        "س",
        "ل"
      ],
      [
        "ٿ",
        "و"
      ],
      [
        "ق",
        "يEW"
      ],
      [
        "ڪ",
        "ن"
      ],
      [
        "ست",
        "انEW"
      ],
      [
        "ج",
        "نEW"
      ],
      [
        "ه",
        "وEW"
      ],
      [
        "ا",
        "ت"
      ],
      [
        "ڙ",
        "يEW"
      ],
      [
        "ٽ",
        "ي"
      ],
      [
        "آھ",
        "ي"
      ],
      [
        "ح",
        "EW"
      ],
      [
        "ر",
        "ه"
      ],
      [
        "ن",
        "ي"
      ],
      [
        "ت",
        "عل"
      ],
      [
        "ب",
        "اد"
      ],
      [
        "ط",
        "ورEW"
      ],
      [
        "م",
        "دEW"
      ],
      [
        "چ",
        "و"
      ],
      [
        "ن",
        "يEW"
      ],
      [
        "سند",
        "سEW"
      ],
      [
        "ف",
        "ي"
      ],
      [
        "پو",
        "ءEW"
      ],
      [
        "ند",
        "ڙEW"
      ],
      [
        "و",
        "ٺ"
      ],
      [
        "و",
        "ار"
      ],
      [
        "پ",
        "رEW"
      ],
      [
        "م",
        "ق"
      ],
      [
        "ب",
        "ل"
      ],
      [
        "پن",
        "هن"
      ],
      [
        "س",
        "يEW"
      ],
      [
        "ب",
        "رEW"
      ],
      [
        "ع",
        "يEW"
      ],
      [
        "ت",
        "ع"
      ],
      [
        "ڪر",
        "ڻEW"
      ],
      [
        "چ",
        "EW"
      ],
      [
        "ان",
        "هنEW"
      ],
      [
        "ڻ",
        "يEW"
      ],
      [
        "ڏ",
        "هنEW"
      ],
      [
        "ار",
        "ي"
      ],
      [
        "م",
        "ع"
      ],
      [
        "ڪ",
        "يEW"
      ],
      [
        "و",
        "يو"
      ],
      [
        "ٽ",
        "رEW"
      ],
      [
        "ج",
        "ا"
      ],
      [
        "ا",
        "ف"
      ],
      [
        "و",
        "اريEW"
      ],
      [
        "جيڪ",
        "وEW"
      ],
      [
        "ر",
        "س"
      ],
      [
        "و",
        "ڌ"
      ],
      [
        "و",
        "ڃ"
      ],
      [
        "ا",
        "ح"
      ],
      [
        "ما",
        "ڻ"
      ],
      [
        "ن",
        "هEW"
      ],
      [
        "گ",
        "ھ"
      ],
      [
        "ري",
        "نEW"
      ],
      [
        "م",
        "خ"
      ],
      [
        "ق",
        "تEW"
      ],
      [
        "ا",
        "ھ"
      ],
      [
        "ک",
        "ي"
      ],
      [
        "ڏ",
        "ي"
      ],
      [
        "ر",
        "نEW"
      ],
      [
        "پ",
        "ه"
      ],
      [
        "پ",
        "ا"
      ],
      [
        "س",
        "ان"
      ],
      [
        "ط",
        "ر"
      ],
      [
        "ت",
        "نEW"
      ],
      [
        "تا",
        "بEW"
      ],
      [
        "ت",
        "ائينEW"
      ],
      [
        "ق",
        "ي"
      ],
      [
        "ص",
        "و"
      ],
      [
        "ان",
        "د"
      ],
      [
        "ا",
        "ڳ"
      ],
      [
        "سنڌ",
        "يEW"
      ],
      [
        "ش",
        "نEW"
      ],
      [
        "ش",
        "ھ"
      ],
      [
        "ح",
        "ي"
      ],
      [
        "اه",
        "وEW"
      ],
      [
        "اه",
        "هEW"
      ],
      [
        "ڪ",
        "تابEW"
      ],
      [
        "ان",
        "گ"
      ],
      [
        "پ",
        "ڻEW"
      ],
      [
        "گ",
        "ڏ"
      ],
      [
        "ن",
        "ظ"
      ],
      [
        "ن",
        "و"
      ],
      [
        "ت",
        "و"
      ],
      [
        "د",
        "يEW"
      ],
      [
        "پنهن",
        "جيEW"
      ],
      [
        "ڪ",
        "نEW"
      ],
      [
        "ھ",
        "ڪEW"
      ],
      [
        "م",
        "نEW"
      ],
      [
        "ج",
        "ونEW"
      ],
      [
        "ڊ",
        "ي"
      ],
      [
        "پ",
        "اڪ"
      ],
      [
        "ف",
        "ر"
      ],
      [
        "ل",
        "ک"
      ],
      [
        "گ",
        "ر"
      ],
      [
        "سا",
        "لEW"
      ],
      [
        "ه",
        "ئ"
      ],
      [
        "پ",
        "ار"
      ],
      [
        "ه",
        "ي"
      ],
      [
        "چ",
        "يEW"
      ],
      [
        "ت",
        "ح"
      ],
      [
        "مح",
        "مدEW"
      ],
      [
        "و",
        "يوEW"
      ],
      [
        "ڪ",
        "ار"
      ],
      [
        "س",
        "ڀ"
      ],
      [
        "خ",
        "EW"
      ],
      [
        "ا",
        "تEW"
      ],
      [
        "ام",
        "لEW"
      ],
      [
        "آ",
        "باد"
      ],
      [
        "ي",
        "رEW"
      ],
      [
        "ظ",
        "EW"
      ],
      [
        "ه",
        "هEW"
      ],
      [
        "عل",
        "ائ"
      ],
      [
        "م",
        "تEW"
      ],
      [
        "اڻ",
        "يEW"
      ],
      [
        "ٻ",
        "ول"
      ],
      [
        "و",
        "قتEW"
      ],
      [
        "ش",
        "املEW"
      ],
      [
        "ھ",
        "و"
      ],
      [
        "ڪ",
        "يو"
      ],
      [
        "پ",
        "ر"
      ],
      [
        "ن",
        "گ"
      ],
      [
        "ڙ",
        "وEW"
      ],
      [
        "ق",
        "و"
      ],
      [
        "ي",
        "ر"
      ],
      [
        "م",
        "لEW"
      ],
      [
        "ٿ",
        "وEW"
      ],
      [
        "پ",
        "EW"
      ],
      [
        "س",
        "م"
      ],
      [
        "ي",
        "مEW"
      ],
      [
        "ھ",
        "يEW"
      ],
      [
        "نال",
        "وEW"
      ],
      [
        "ر",
        "ک"
      ],
      [
        "ب",
        "نEW"
      ],
      [
        "ٿ",
        "ا"
      ],
      [
        "ا",
        "خ"
      ],
      [
        "اه",
        "يEW"
      ],
      [
        "ه",
        "يءEW"
      ],
      [
        "س",
        "ٽ"
      ],
      [
        "ڳ",
        "وٺ"
      ],
      [
        "ڪ",
        "مEW"
      ],
      [
        "ي",
        "ڪEW"
      ],
      [
        "ت",
        "اري"
      ],
      [
        "م",
        "ط"
      ],
      [
        "ل",
        "ڳ"
      ],
      [
        "ش",
        "ن"
      ],
      [
        "ن",
        "ڍ"
      ],
      [
        "ما",
        "لEW"
      ],
      [
        "پاڪ",
        "ستانEW"
      ],
      [
        "ن",
        "ا"
      ],
      [
        "ش",
        "رو"
      ],
      [
        "ند",
        "EW"
      ],
      [
        "م",
        "ار"
      ],
      [
        "ئ",
        "نEW"
      ],
      [
        "اد",
        "يEW"
      ],
      [
        "ح",
        "ا"
      ],
      [
        "ب",
        "د"
      ],
      [
        "خ",
        "انEW"
      ],
      [
        "د",
        "اEW"
      ],
      [
        "ف",
        "و"
      ],
      [
        "ڪ",
        "ل"
      ],
      [
        "وي",
        "ندوEW"
      ],
      [
        "ڪ",
        "ا"
      ],
      [
        "اص",
        "لEW"
      ],
      [
        "جن",
        "ھنEW"
      ],
      [
        "ت",
        "ہEW"
      ],
      [
        "آھ",
        "يEW"
      ],
      [
        "ب",
        "و"
      ],
      [
        "شه",
        "رEW"
      ],
      [
        "اس",
        "EW"
      ],
      [
        "وا",
        "ق"
      ],
      [
        "ائ",
        "ين"
      ],
      [
        "با",
        "دEW"
      ],
      [
        "ض",
        "ل"
      ],
      [
        "ع",
        "ر"
      ],
      [
        "د",
        "و"
      ],
      [
        "خ",
        "و"
      ],
      [
        "مل",
        "ڪEW"
      ],
      [
        "ڪ",
        "ئيEW"
      ],
      [
        "آ",
        "بادEW"
      ],
      [
        "ج",
        "ڏهنEW"
      ],
      [
        "ه",
        "ئي"
      ],
      [
        "ش",
        "ي"
      ],
      [
        "ڪ",
        "اEW"
      ],
      [
        "ا",
        "دEW"
      ],
      [
        "ح",
        "ص"
      ],
      [
        "م",
        "ه"
      ],
      [
        "م",
        "د"
      ],
      [
        "م",
        "برEW"
      ],
      [
        "و",
        "ال"
      ],
      [
        "ز",
        "يEW"
      ],
      [
        "ٿ",
        "يو"
      ],
      [
        ".",
        "."
      ],
      [
        "ڳوٺ",
        "EW"
      ],
      [
        "م",
        "ش"
      ],
      [
        "ن",
        "گEW"
      ],
      [
        "اس",
        "تع"
      ],
      [
        "ص",
        "ف"
      ],
      [
        "آه",
        "نEW"
      ],
      [
        "س",
        "ائ"
      ],
      [
        "ار",
        "نEW"
      ],
      [
        "شھ",
        "رEW"
      ],
      [
        "وڃ",
        "يEW"
      ],
      [
        "ڪ",
        "را"
      ],
      [
        "ڪي",
        "تر"
      ],
      [
        "ٽ",
        "ر"
      ],
      [
        "ڻ",
        "وEW"
      ],
      [
        "ڏ",
        "ن"
      ],
      [
        "هئ",
        "ا"
      ],
      [
        "ف",
        "ل"
      ],
      [
        "ي",
        "تEW"
      ],
      [
        "ٽ",
        "نEW"
      ],
      [
        "جيڪ",
        "يEW"
      ],
      [
        "مو",
        "جو"
      ],
      [
        "وڌ",
        "يڪEW"
      ],
      [
        "سڀ",
        "EW"
      ],
      [
        "د",
        "ارEW"
      ],
      [
        "اس",
        "يEW"
      ],
      [
        "ال",
        "ي"
      ],
      [
        "مي",
        "رEW"
      ],
      [
        "ا",
        "تيEW"
      ],
      [
        "ئ",
        "ينEW"
      ],
      [
        "س",
        "گه"
      ],
      [
        "ڪ",
        "ئي"
      ],
      [
        "ز",
        "ي"
      ],
      [
        "استع",
        "مالEW"
      ],
      [
        "ت",
        "ل"
      ],
      [
        "د",
        "ن"
      ],
      [
        "ال",
        "ل"
      ],
      [
        "ڪ",
        "وEW"
      ],
      [
        "لا",
        "مEW"
      ],
      [
        "ت",
        "ن"
      ],
      [
        "عل",
        "يEW"
      ],
      [
        "جيڪ",
        "اEW"
      ],
      [
        "ھ",
        "ن"
      ],
      [
        "ا",
        "NL"
      ],
      [
        "آھ",
        "ن"
      ],
      [
        "ع",
        "امEW"
      ],
      [
        "نال",
        "يEW"
      ],
      [
        "ٺ",
        "EW"
      ],
      [
        "ڪ",
        "م"
      ],
      [
        "ڪ",
        "رEW"
      ],
      [
        "ي",
        "NL"
      ],
      [
        "ب",
        "ن"
      ],
      [
        "وڏ",
        "يEW"
      ],
      [
        "ث",
        "رEW"
      ],
      [
        "ن",
        "س"
      ],
      [
        "ائ",
        "ڻEW"
      ],
      [
        "ري",
        "اس"
      ],
      [
        "گڏ",
        "EW"
      ],
      [
        "ڪ",
        "لEW"
      ],
      [
        "ا",
        "لEW"
      ],
      [
        "وڏ",
        "وEW"
      ],
      [
        "ڪ",
        "ت"
      ],
      [
        "واق",
        "عEW"
      ],
      [
        "م",
        "ري"
      ],
      [
        "م",
        "س"
      ],
      [
        "ائ",
        "ون"
      ],
      [
        "ب",
        "ہEW"
      ],
      [
        "ن",
        "ڊ"
      ],
      [
        "ح",
        "ڪو"
      ],
      [
        "ڪ",
        "ري"
      ],
      [
        "ه",
        "رEW"
      ],
      [
        "س",
        "مEW"
      ],
      [
        "خ",
        "اص"
      ],
      [
        "ٽ",
        "و"
      ],
      [
        "شا",
        "ع"
      ],
      [
        "ڌ",
        "EW"
      ],
      [
        "ٻ",
        "ي"
      ],
      [
        "مي",
        "ن"
      ],
      [
        "پ",
        "يEW"
      ],
      [
        "و",
        "ريEW"
      ],
      [
        "ش",
        "اههEW"
      ],
      [
        "ب",
        "ع"
      ],
      [
        "ج",
        "ھ"
      ],
      [
        "ڪ",
        "جه"
      ],
      [
        "ر",
        "تEW"
      ],
      [
        "م",
        "ض"
      ],
      [
        "دن",
        "ياEW"
      ],
      [
        "ص",
        "د"
      ],
      [
        "پ",
        "ور"
      ],
      [
        "۾",
        "،"
      ],
      [
        "ڏ",
        "ک"
      ],
      [
        "دي",
        "ھEW"
      ],
      [
        "کي",
        "سEW"
      ],
      [
        "ن",
        "نڍ"
      ],
      [
        "ت",
        "ص"
      ],
      [
        "ٻ",
        "ينEW"
      ],
      [
        "گ",
        "و"
      ],
      [
        "چ",
        "ون"
      ],
      [
        "م",
        "ونEW"
      ],
      [
        "علائ",
        "ق"
      ],
      [
        "ح",
        "اصلEW"
      ],
      [
        "پا",
        "ڻEW"
      ],
      [
        "ت",
        "انEW"
      ],
      [
        "د",
        "ورEW"
      ],
      [
        "صف",
        "ح"
      ],
      [
        "ل",
        "نEW"
      ],
      [
        "ت",
        "ونEW"
      ],
      [
        "ق",
        "ائ"
      ],
      [
        "ذ",
        "ري"
      ],
      [
        "مخ",
        "تل"
      ],
      [
        "س",
        "يڪ"
      ],
      [
        "پ",
        "رو"
      ],
      [
        "مختل",
        "فEW"
      ],
      [
        "تي",
        "ارEW"
      ],
      [
        "س",
        "رEW"
      ],
      [
        "انگ",
        "ري"
      ],
      [
        "ل",
        "وEW"
      ],
      [
        "الل",
        "هEW"
      ],
      [
        "ڊ",
        "ياEW"
      ],
      [
        "ب",
        "وEW"
      ],
      [
        "ر",
        "وEW"
      ],
      [
        "م",
        "سل"
      ],
      [
        "ل",
        "ف"
      ],
      [
        "ما",
        "مEW"
      ],
      [
        "آباد",
        "يEW"
      ],
      [
        "ڳ",
        "EW"
      ],
      [
        "ه",
        "ا"
      ],
      [
        "س",
        "ال"
      ],
      [
        "چ",
        "ي"
      ],
      [
        "ڏ",
        "ين"
      ],
      [
        "ڪجه",
        "هEW"
      ],
      [
        "و",
        "ڪي"
      ],
      [
        "و",
        "چEW"
      ],
      [
        "ج",
        "م"
      ],
      [
        "ر",
        "يونEW"
      ],
      [
        "ف",
        "يEW"
      ],
      [
        "ڪن",
        "هنEW"
      ],
      [
        "وار",
        "وEW"
      ],
      [
        "پ",
        "ري"
      ],
      [
        "تاري",
        "خEW"
      ],
      [
        "ڇ",
        "ڏ"
      ],
      [
        "ز",
        "نEW"
      ],
      [
        "شرو",
        "عEW"
      ],
      [
        "ڪ",
        "ارEW"
      ],
      [
        "ڳ",
        "ال"
      ],
      [
        "موجو",
        "دEW"
      ],
      [
        "ا",
        "ق"
      ],
      [
        "ات",
        "رEW"
      ],
      [
        "ه",
        "ند"
      ],
      [
        "س",
        "ب"
      ],
      [
        "مط",
        "اب"
      ],
      [
        "و",
        "NL"
      ],
      [
        "گ",
        "را"
      ],
      [
        "ڙ",
        "نEW"
      ],
      [
        "حڪو",
        "متEW"
      ],
      [
        "س",
        "نEW"
      ],
      [
        "بع",
        "دEW"
      ],
      [
        "ٰ",
        "EW"
      ],
      [
        "ب",
        "اب"
      ],
      [
        "گ",
        "يEW"
      ],
      [
        "ا",
        "ول"
      ],
      [
        "ب",
        "ڻ"
      ],
      [
        "م",
        "شه"
      ],
      [
        "ط",
        "EW"
      ],
      [
        "و",
        "ف"
      ],
      [
        "ضل",
        "عيEW"
      ],
      [
        "و",
        "يEW"
      ],
      [
        "ڏک",
        "ڻEW"
      ],
      [
        "قائ",
        "مEW"
      ],
      [
        "مشه",
        "ورEW"
      ],
      [
        "ع",
        "ي"
      ],
      [
        "ين",
        "يEW"
      ],
      [
        "ت",
        "ق"
      ],
      [
        "ع",
        "بد"
      ],
      [
        "ا",
        "چيEW"
      ],
      [
        "ع",
        "ال"
      ],
      [
        "ڀ",
        "رEW"
      ],
      [
        "حي",
        "در"
      ],
      [
        "س",
        "ٽEW"
      ],
      [
        "ل",
        "اEW"
      ],
      [
        "آ",
        "ر"
      ],
      [
        "اد",
        "بيEW"
      ],
      [
        "پ",
        "ھ"
      ],
      [
        "يون",
        "يو"
      ],
      [
        "ڳ",
        "ا"
      ],
      [
        "يونيو",
        "رس"
      ],
      [
        "اه",
        "اEW"
      ],
      [
        "آ",
        "مري"
      ],
      [
        "ان",
        "س"
      ],
      [
        "ال",
        "يEW"
      ],
      [
        "ان",
        "نEW"
      ],
      [
        "ص",
        "اح"
      ],
      [
        "خاص",
        "EW"
      ],
      [
        "ت",
        "ب"
      ],
      [
        "ا",
        "ڻEW"
      ],
      [
        "پ",
        "ورEW"
      ],
      [
        "ٿ",
        "EW"
      ],
      [
        "س",
        "ڏ"
      ],
      [
        "ا",
        "زEW"
      ],
      [
        "د",
        "وEW"
      ],
      [
        "ف",
        "ار"
      ],
      [
        "ع",
        "وEW"
      ],
      [
        "ٿ",
        "اEW"
      ],
      [
        "آ",
        "ز"
      ],
      [
        "تعل",
        "يمEW"
      ],
      [
        "پي",
        "داEW"
      ],
      [
        "ب",
        "لEW"
      ],
      [
        "د",
        "ري"
      ],
      [
        "ٻ",
        "ڌ"
      ],
      [
        "ف",
        "ري"
      ],
      [
        "ام",
        "يEW"
      ],
      [
        "ض",
        "يEW"
      ],
      [
        "ان",
        "هيءEW"
      ],
      [
        "وڪي",
        "پي"
      ],
      [
        "ج",
        "ل"
      ],
      [
        "مطاب",
        "قEW"
      ],
      [
        "ل",
        "ين"
      ],
      [
        "ٻ",
        "ئيEW"
      ],
      [
        "ٿي",
        "لEW"
      ],
      [
        "ب",
        "ه"
      ],
      [
        "ٿ",
        "ئيEW"
      ],
      [
        "حص",
        "وEW"
      ],
      [
        "ا",
        "ش"
      ],
      [
        "د",
        "نEW"
      ],
      [
        "ف",
        "ت"
      ],
      [
        "ا",
        "ع"
      ],
      [
        "ٿ",
        "يوEW"
      ],
      [
        "NL",
        "سان"
      ],
      [
        "ند",
        "و"
      ],
      [
        "جي",
        "ئنEW"
      ],
      [
        "ج",
        "ر"
      ],
      [
        "پ",
        "بل"
      ],
      [
        "او",
        "ڀرEW"
      ],
      [
        "مل",
        "يEW"
      ],
      [
        "م",
        "ب"
      ],
      [
        "د",
        "ور"
      ],
      [
        "ئ",
        "ر"
      ],
      [
        "مر",
        "ڪ"
      ],
      [
        "ڏ",
        "انهنEW"
      ],
      [
        "ت",
        "وEW"
      ],
      [
        "گ",
        "ي"
      ],
      [
        "NL",
        "ن"
      ],
      [
        "س",
        "ين"
      ],
      [
        "م",
        "ذ"
      ],
      [
        "اس",
        "ٽي"
      ],
      [
        "رياس",
        "تEW"
      ],
      [
        "اڳ",
        "EW"
      ],
      [
        "ق",
        "دي"
      ],
      [
        "پ",
        "ڙ"
      ],
      [
        "ه",
        "ينEW"
      ],
      [
        "م",
        "ص"
      ],
      [
        "و",
        "ٽEW"
      ],
      [
        "ھ",
        "وEW"
      ],
      [
        "آ",
        "فEW"
      ],
      [
        "اه",
        "رEW"
      ],
      [
        "خ",
        "ان"
      ],
      [
        "مي",
        "ٽرEW"
      ],
      [
        "ٿي",
        "ڻEW"
      ],
      [
        "ئ",
        "رEW"
      ],
      [
        "پن",
        "ھن"
      ],
      [
        "علائ",
        "قيEW"
      ],
      [
        "حا",
        "ظEW"
      ],
      [
        "ر",
        "ھ"
      ],
      [
        "ا",
        "ءEW"
      ],
      [
        "د",
        "ينEW"
      ],
      [
        "ند",
        "يونEW"
      ],
      [
        "ز",
        "اEW"
      ],
      [
        "ت",
        "مامEW"
      ],
      [
        "ز",
        "ند"
      ],
      [
        "ان",
        "ڊ"
      ],
      [
        "ه",
        "ل"
      ],
      [
        "ان",
        "ھنEW"
      ],
      [
        "صاح",
        "بEW"
      ],
      [
        "ور",
        "تEW"
      ],
      [
        "ڙ",
        "اEW"
      ],
      [
        "مو",
        "ن"
      ],
      [
        "ب",
        "خ"
      ],
      [
        "ق",
        "ل"
      ],
      [
        "ق",
        "سمEW"
      ],
      [
        "ن",
        "ق"
      ],
      [
        "آ",
        "خ"
      ],
      [
        "ک",
        "ان"
      ],
      [
        "ٽ",
        "وEW"
      ],
      [
        "م",
        "ڪ"
      ],
      [
        "ب",
        "را"
      ],
      [
        "ار",
        "وEW"
      ],
      [
        "ڀ",
[...]
