{
  "version": "1.0",
  "truncation": null,
  "padding": null,
  "added_tokens": [
    {
      "id": 0,
      "content": "<UNK>",
      "single_word": false,
      "lstrip": false,
      "rstrip": false,
      "normalized": false,
      "special": true
    },
    {
      "id": 1,
      "content": "<PAD>",
      "single_word": false,
      "lstrip": false,
      "rstrip": false,
      "normalized": false,
      "special": true
    },
    {
      "id": 2,
      "content": "<BOS>",
      "single_word": false,
      "lstrip": false,
      "rstrip": false,
      "normalized": false,
      "special": true
    },
    {
      "id": 3,
      "content": "<EOS>",
      "single_word": false,
      "lstrip": false,
      "rstrip": false,
      "normalized": false,
      "special": true
    },
    {
      "id": 4,
      "content": "<SEP>",
      "single_word": false,
      "lstrip": false,
      "rstrip": false,
      "normalized": false,
      "special": true
    },
    {
      "id": 5,
      "content": "<MASK>",
      "single_word": false,
      "lstrip": false,
      "rstrip": false,
      "normalized": false,
      "special": true
    }
  ],
  "normalizer": null,
  "pre_tokenizer": {
    "type": "Whitespace"
  },
  "post_processor": null,
  "decoder": null,
  "model": {
    "type": "BPE",
    "dropout": null,
    "unk_token": "<UNK>",
    "continuing_subword_prefix": null,
    "end_of_word_suffix": null,
    "fuse_unk": false,
    "byte_fallback": false,
    "ignore_merges": false,
    "vocab": {
      "<UNK>": 0,
      "<PAD>": 1,
      "<BOS>": 2,
      "<EOS>": 3,
      "<SEP>": 4,
      "<MASK>": 5,
      "!": 6,
      "%": 7,
      "(": 8,
      ")": 9,
      ".": 10,
      "0": 11,
      "1": 12,
      "2": 13,
      "3": 14,
      "4": 15,
      "5": 16,
      "6": 17,
      "7": 18,
      "8": 19,
      "9": 20,
      ":": 21,
      "?": 22,
      "A": 23,
      "B": 24,
      "C": 25,
      "D": 26,
      "E": 27,
      "F": 28,
      "G": 29,
      "H": 30,
      "I": 31,
      "J": 32,
      "K": 33,
      "L": 34,
      "M": 35,
      "N": 36,
      "O": 37,
      "P": 38,
      "Q": 39,
      "R": 40,
      "S": 41,
      "T": 42,
      "U": 43,
      "V": 44,
      "W": 45,
      "X": 46,
      "Y": 47,
      "Z": 48,
      "a": 49,
      "b": 50,
      "c": 51,
      "d": 52,
      "e": 53,
      "f": 54,
      "g": 55,
      "h": 56,
      "i": 57,
      "j": 58,
      "k": 59,
      "l": 60,
      "m": 61,
      "n": 62,
      "o": 63,
      "p": 64,
      "q": 65,
      "r": 66,
      "s": 67,
      "t": 68,
      "u": 69,
      "v": 70,
      "w": 71,
      "x": 72,
      "y": 73,
      "z": 74,
      "؁": 75,
      "،": 76,
      "؎": 77,
      "ؐ": 78,
      "ؑ": 79,
      "ؒ": 80,
      "ؓ": 81,
      "ؕ": 82,
      "؛": 83,
      "؟": 84,
      "ء": 85,
      "آ": 86,
      "أ": 87,
      "ؤ": 88,
      "إ": 89,
      "ئ": 90,
      "ا": 91,
      "ب": 92,
      "ة": 93,
      "ت": 94,
      "ث": 95,
      "ج": 96,
      "ح": 97,
      "خ": 98,
      "د": 99,
      "ذ": 100,
      "ر": 101,
      "ز": 102,
      "س": 103,
      "ش": 104,
      "ص": 105,
      "ض": 106,
      "ط": 107,
      "ظ": 108,
      "ع": 109,
      "غ": 110,
      "ـ": 111,
      "ف": 112,
      "ق": 113,
      "ك": 114,
      "ل": 115,
      "م": 116,
      "ن": 117,
      "ه": 118,
      "و": 119,
      "ي": 120,
      "ً": 121,
      "ٓ": 122,
      "ٔ": 123,
      "ٕ": 124,
      "ٖ": 125,
      "ٗ": 126,
      "ٚ": 127,
      "ٜ": 128,
      "٠": 129,
      "١": 130,
      "٢": 131,
      "٣": 132,
      "٤": 133,
      "٥": 134,
      "٦": 135,
      "٧": 136,
      "٨": 137,
      "٩": 138,
      "٪": 139,
      "٫": 140,
      "٬": 141,
      "٭": 142,
      "ٮ": 143,
      "ٰ": 144,
      "ٱ": 145,
      "ٴ": 146,
      "ٹ": 147,
      "ٺ": 148,
      "ٻ": 149,
      "ټ": 150,
      "ٽ": 151,
      "پ": 152,
      "ٿ": 153,
      "ڀ": 154,
      "ځ": 155,
      "ڃ": 156,
      "ڄ": 157,
      "څ": 158,
      "چ": 159,
      "ڇ": 160,
      "ڈ": 161,
      "ډ": 162,
      "ڊ": 163,
      "ڌ": 164,
      "ڍ": 165,
      "ڎ": 166,
      "ڏ": 167,
      "ڑ": 168,
      "ړ": 169,
      "ږ": 170,
      "ژ": 171,
      "ڙ": 172,
      "ښ": 173,
      "ڦ": 174,
      "ک": 175,
      "ڪ": 176,
      "ګ": 177,
      "ڭ": 178,
      "گ": 179,
      "ڱ": 180,
      "ڲ": 181,
      "ڳ": 182,
      "ڵ": 183,
      "ں": 184,
      "ڻ": 185,
      "ھ": 186,
      "ہ": 187,
      "ۂ": 188,
      "ۃ": 189,
      "ۅ": 190,
      "ۇ": 191,
      "ۉ": 192,
      "ۏ": 193,
      "۔": 194,
      "ە": 195,
      "ۖ": 196,
      "ۗ": 197,
      "ۙ": 198,
      "ۚ": 199,
      "ۜ": 200,
      "۠": 201,
      "ۡ": 202,
      "ۢ": 203,
      "ۤ": 204,
      "۬": 205,
      "۰": 206,
      "۱": 207,
      "۲": 208,
      "۳": 209,
      "۴": 210,
      "۵": 211,
      "۶": 212,
      "۷": 213,
      "۸": 214,
      "۹": 215,
      "۽": 216,
      "۾": 217,
      "ݔ": 218,
      "ݣ": 219,
      "ݨ": 220,
      "ݯ": 221,
      "﴾": 222,
      "﴿": 223,
      "﷢": 224,
      "﷥": 225,
      "﷦": 226,
      "EW": 227,
      "يEW": 228,
      "نEW": 229,
      "وEW": 230,
      "جيEW": 231,
      "رEW": 232,
      "انEW": 233,
      "اEW": 234,
      "لEW": 235,
      "NL": 236,
      "ان": 237,
      "ار": 238,
      "ائ": 239,
      "ند": 240,
      "يو": 241,
      "آه": 242,
      "هEW": 243,
      "تEW": 244,
      "ءEW": 245,
      "مEW": 246,
      "جوEW": 247,
      "ال": 248,
      "ري": 249,
      "هنEW": 250,
      "ينEW": 251,
      "ڪEW": 252,
      "تيEW": 253,
      "ڻEW": 254,
      "دEW": 255,
      "لا": 256,
      "کيEW": 257,
      "يوEW": 258,
      "ريEW": 259,
      "رو": 260,
      "آهي": 261,
      "اس": 262,
      "اه": 263,
      "سEW": 264,
      "را": 265,
      "مي": 266,
      "ياEW": 267,
      "يءEW": 268,
      "يڪ": 269,
      "اد": 270,
      "بEW": 271,
      "ور": 272,
      "ما": 273,
      "عEW": 274,
      "کانEW": 275,
      "ارEW": 276,
      "ئيEW": 277,
      "ين": 278,
      "سن": 279,
      "هو": 280,
      "مو": 281,
      "سانEW": 282,
      "ٽEW": 283,
      "جن": 284,
      "يند": 285,
      "عل": 286,
      "ونEW": 287,
      "ورEW": 288,
      "اي": 289,
      "اريEW": 290,
      "وا": 291,
      "ھنEW": 292,
      "ڪي": 293,
      "سنڌ": 294,
      "يا": 295,
      "هڪEW": 296,
      "يونEW": 297,
      "اب": 298,
      "ڪريEW": 299,
      "پي": 300,
      "ول": 301,
      "تهEW": 302,
      "جاEW": 303,
      "ام": 304,
      "فEW": 305,
      "ڪر": 306,
      "آهن": 307,
      "مل": 308,
      "جيڪ": 309,
      "ائيEW": 310,
      "پن": 311,
      "آھ": 312,
      "ست": 313,
      "19": 314,
      "ون": 315,
      "گه": 316,
      "پو": 317,
      "مانEW": 318,
      "اڪ": 319,
      "يلEW": 320,
      "هن": 321,
      "ئي": 322,
      "ہEW": 323,
      "سي": 324,
      "لاءEW": 325,
      "زEW": 326,
      "سا": 327,
      "آهيEW": 328,
      "ڊEW": 329,
      "يون": 330,
      "بهEW": 331,
      "او": 332,
      "من": 333,
      "ڪو": 334,
      "ڻيEW": 335,
      "ٿيEW": 336,
      "بي": 337,
      "ڙEW": 338,
      "دي": 339,
      "تر": 340,
      "زم": 341,
      "ھEW": 342,
      "جه": 343,
      "اص": 344,
      "وي": 345,
      "لي": 346,
      "سند": 347,
      "ليEW": 348,
      "با": 349,
      "20": 350,
      "بيEW": 351,
      "قEW": 352,
      "مح": 353,
      "جي": 354,
      "ميEW": 355,
      "جو": 356,
      "انيEW": 357,
      "جEW": 358,
      "هيEW": 359,
      "لو": 360,
      "تي": 361,
      "گEW": 362,
      "ائينEW": 363,
      "نال": 364,
      "تا": 365,
      "جنهنEW": 366,
      "شا": 367,
      "مر": 368,
      "ٽيEW": 369,
      "ڪيوEW": 370,
      "سنڌEW": 371,
      "امEW": 372,
      "سر": 373,
      "بر": 374,
      "ٿو": 375,
      "در": 376,
      "وڏ": 377,
      "پا": 378,
      "شEW": 379,
      "سو": 380,
      "ڪن": 381,
      "ٿي": 382,
      "قيEW": 383,
      "سل": 384,
      "جنEW": 385,
      "هوEW": 386,
      "ره": 387,
      "ڙيEW": 388,
      "ندوEW": 389,
      "آھي": 390,
      "حEW": 391,
      "ستانEW": 392,
      "مش": 393,
      "ويند": 394,
      "سندسEW": 395,
      "وٺ": 396,
      "ني": 397,
      "ات": 398,
      "طورEW": 399,
      "پوءEW": 400,
      "هرEW": 401,
      "پنهن": 402,
      "نيEW": 403,
      "باد": 404,
      "پرEW": 405,
      "مدEW": 406,
      "ڪرڻEW": 407,
      "برEW": 408,
      "ٽي": 409,
      "مق": 410,
      "تعل": 411,
      "ڏهنEW": 412,
      "في": 413,
      "وار": 414,
      "زمرو": 415,
      "تع": 416,
      "عيEW": 417,
      "وڌ": 418,
      "NLزمرو": 419,
      "سيEW": 420,
      "ويو": 421,
      "چEW": 422,
      "مع": 423,
      "انهنEW": 424,
      "ائي": 425,
      "نديEW": 426,
      "ٽرEW": 427,
      "وڃ": 428,
      "واريEW": 429,
      "نهEW": 430,
      "جيڪوEW": 431,
      "جا": 432,
      "ڪيEW": 433,
      "اف": 434,
      "بل": 435,
      "0EW": 436,
      "قتEW": 437,
      "مخ": 438,
      "ماڻ": 439,
      "کي": 440,
      "رينEW": 441,
      "رس": 442,
      "اري": 443,
      "گھ": 444,
      "رنEW": 445,
      "په": 446,
      "طر": 447,
      "اھ": 448,
      "اح": 449,
      "اند": 450,
      "تائينEW": 451,
      "تنEW": 452,
      "اڳ": 453,
      "قي": 454,
      "اهوEW": 455,
      "حي": 456,
      "شنEW": 457,
      "تو": 458,
      "اههEW": 459,
      "سنڌيEW": 460,
      "نداEW": 461,
      "اڻ": 462,
      "هي": 463,
      "پڻEW": 464,
      "گڏ": 465,
      "انگ": 466,
      "پنهنجيEW": 467,
      "چو": 468,
      "صو": 469,
      "نظ": 470,
      "ڪنEW": 471,
      "هئ": 472,
      "نو": 473,
      "گر": 474,
      "لک": 475,
      "فر": 476,
      "ديEW": 477,
      "منEW": 478,
      "جونEW": 479,
      "تح": 480,
      "ھڪEW": 481,
      "چيEW": 482,
      "سالEW": 483,
      "ٿيند": 484,
      "ويوEW": 485,
      "پار": 486,
      "ڪار": 487,
      "سڀ": 488,
      "محمدEW": 489,
      "ههEW": 490,
      "املEW": 491,
      "متEW": 492,
      "خEW": 493,
      "يرEW": 494,
      "تابEW": 495,
      "وقتEW": 496,
      "آباد": 497,
      "پاڪ": 498,
      "بد": 499,
      "علائ": 500,
      "يمEW": 501,
      "ملEW": 502,
      "شاملEW": 503,
      "اتEW": 504,
      "ڪيو": 505,
      "ير": 506,
      "ڙوEW": 507,
      "ٿا": 508,
      "ڪتابEW": 509,
      "رک": 510,
      "شھ": 511,
      "ڪا": 512,
      "ٿوEW": 513,
      "ھو": 514,
      "هيءEW": 515,
      "ڳوٺ": 516,
      "سم": 517,
      "نگ": 518,
      "پر": 519,
      "اهيEW": 520,
      "ٻول": 521,
      "نا": 522,
      "ڏي": 523,
      "ڪمEW": 524,
      "ھيEW": 525,
      "18": 526,
      "لڳ": 527,
      "مط": 528,
      "پEW": 529,
      "بنEW": 530,
      "يڪEW": 531,
      "ظEW": 532,
      "اخ": 533,
      "قو": 534,
      "نالوEW": 535,
      "مالEW": 536,
      "ئنEW": 537,
      "ڊي": 538,
      "سٽ": 539,
      "اديEW": 540,
      "اصلEW": 541,
      "تاري": 542,
      "ندڙEW": 543,
      "داEW": 544,
      "ويندوEW": 545,
      "ندEW": 546,
      "شرو": 547,
      "ائين": 548,
      "نڍ": 549,
      "مار": 550,
      "خانEW": 551,
      "دو": 552,
      "شهرEW": 553,
      "تہEW": 554,
      "فو": 555,
      "ها": 556,
      "جنھنEW": 557,
      "جڏهنEW": 558,
      "ادEW": 559,
      "بو": 560,
      "آھيEW": 561,
      "واق": 562,
      "پاڪستانEW": 563,
      "سان": 564,
      "ڪت": 565,
      "ڪئيEW": 566,
      "خو": 567,
      "هئي": 568,
      "عر": 569,
      "بادEW": 570,
      "ملڪEW": 571,
      "مبرEW": 572,
      "ٿيو": 573,
      "حص": 574,
      "ڳوٺEW": 575,
      "مد": 576,
      "شن": 577,
      "آبادEW": 578,
      "وال": 579,
      "استع": 580,
      "ضل": 581,
      "ڪاEW": 582,
      "ڪل": 583,
      "هئا": 584,
      "وڃيEW": 585,
      "نگEW": 586,
      "شي": 587,
      "ارنEW": 588,
      "ڪيتر": 589,
      "ٽر": 590,
      "ڏن": 591,
      "ڻوEW": 592,
      "سگه": 593,
      "جيڪيEW": 594,
      "ڪرا": 595,
      "يتEW": 596,
      "سائ": 597,
      "وڌيڪEW": 598,
      "an": 599,
      "اسEW": 600,
      "موجو": 601,
      "مه": 602,
      "آهنEW": 603,
      "ٽنEW": 604,
      "الEW": 605,
      "سڀEW": 606,
      "زي": 607,
      "زيEW": 608,
      "دارEW": 609,
      "5EW": 610,
      "ڪئي": 611,
      "ئينEW": 612,
      "استعمالEW": 613,
      "ميرEW": 614,
      "جيڪاEW": 615,
      "تل": 616,
      "شھرEW": 617,
      "اتيEW": 618,
      "تن": 619,
      "دن": 620,
      "ڪوEW": 621,
      "آھن": 622,
      "200": 623,
      "الل": 624,
      "الي": 625,
      "فل": 626,
      "لامEW": 627,
      "ائڻEW": 628,
      "اسيEW": 629,
      "ٺEW": 630,
      "ڪلEW": 631,
      "عامEW": 632,
      "ناليEW": 633,
      "2EW": 634,
      "ھن": 635,
      "وڏيEW": 636,
      "in": 637,
      "ثرEW": 638,
      ")،": 639,
      "ڪرEW": 640,
      "بن": 641,
      "عليEW": 642,
      "گڏEW": 643,
      "وڏوEW": 644,
      "ديھEW": 645,
      "بہEW": 646,
      "ڪري": 647,
      "خاص": 648,
      "رياس": 649,
      "سمEW": 650,
      "صف": 651,
      "نس": 652,
      "واقعEW": 653,
      "وريEW": 654,
      "1EW": 655,
      "ڇڏ": 656,
      "حڪو": 657,
      "مس": 658,
      "ڌEW": 659,
      "شاههEW": 660,
      "ائون": 661,
      "سيڪ": 662,
      "ڪم": 663,
      "ڪجه": 664,
      "شاع": 665,
      "مين": 666,
      "رتEW": 667,
      "بع": 668,
      "201": 669,
      "مري": 670,
      "مض": 671,
      "چون": 672,
      "پاڻEW": 673,
      "حاصلEW": 674,
      "کيسEW": 675,
      "دنياEW": 676,
      "هورEW": 677,
      "ٻينEW": 678,
      "۾،": 679,
      "ائيند": 680,
      "صد": 681,
      "مختل": 682,
      "تانEW": 683,
      "لنEW": 684,
      "تص": 685,
      "مختلفEW": 686,
      "ٽو": 687,
      "چي": 688,
      "تيارEW": 689,
      "دورEW": 690,
      "مونEW": 691,
      "ٻي": 692,
      "3EW": 693,
      "ذري": 694,
      "شر": 695,
      "نڊ": 696,
      "ڏک": 697,
      "4EW": 698,
      "قائ": 699,
      "علائق": 700,
      "ننڍ": 701,
      "حا": 702,
      "تونEW": 703,
      "پرو": 704,
      "پور": 705,
      "ڏين": 706,
      "جھ": 707,
      "ڪنهنEW": 708,
      "ڪتاب": 709,
      "سرEW": 710,
      "7EW": 711,
      "مامEW": 712,
      "اللهEW": 713,
      "لوEW": 714,
      "انگري": 715,
      "آباديEW": 716,
      "مسل": 717,
      "لف": 718,
      "ڪجههEW": 719,
      "6EW": 720,
      "ڳEW": 721,
      "بوEW": 722,
      "گو": 723,
      "مطاب": 724,
      "ريونEW": 725,
      "سال": 726,
      "وچEW": 727,
      "ڳال": 728,
      "سڏ": 729,
      "شروعEW": 730,
      "سب": 731,
      "موجودEW": 732,
      "پيEW": 733,
      "ڙنEW": 734,
      "پيڊ": 735,
      "ڪارEW": 736,
      "سنEW": 737,
      "واروEW": 738,
      "بعدEW": 739,
      "روEW": 740,
      "پري": 741,
      "فيEW": 742,
      "حڪومتEW": 743,
      "شه": 744,
      "هند": 745,
      "بڻ": 746,
      "زنEW": 747,
      "تاريخEW": 748,
      "انڊ": 749,
      "ٰEW": 750,
      "طEW": 751,
      "وڪي": 752,
      "اول": 753,
      "اق": 754,
      "اننEW": 755,
      "مشهورEW": 756,
      "اترEW": 757,
      "اچيEW": 758,
      "قائمEW": 759,
      "گيEW": 760,
      "حيدر": 761,
      "وف": 762,
      "جم": 763,
      "ادبيEW": 764,
      "..": 765,
      "ضلعيEW": 766,
      "تق": 767,
      "سٽEW": 768,
      "اهاEW": 769,
      "عي": 770,
      "صاح": 771,
      "199": 772,
      "ڀرEW": 773,
      "ينيEW": 774,
      "عبد": 775,
      "ڏکڻEW": 776,
      "eEW": 777,
      "خاصEW": 778,
      "کان": 779,
      "گرا": 780,
      "باب": 781,
      "ويEW": 782,
      "عال": 783,
      "صفح": 784,
      "ڳا": 785,
      "اڻEW": 786,
      "انهيءEW": 787,
      "پھ": 788,
      "ٻڌ": 789,
      "لاEW": 790,
      "آر": 791,
      "پيداEW": 792,
      "ٿEW": 793,
      "تعليمEW": 794,
      "فت": 795,
      "ٿاEW": 796,
      "مطابقEW": 797,
      "ٿئيEW": 798,
      "ٻئيEW": 799,
      "اليEW": 800,
      "فار": 801,
      "به": 802,
      "ضيEW": 803,
      "پورEW": 804,
      "دنEW": 805,
      "دري": 806,
      "00EW": 807,
      "آمري": 808,
      "سوا": 809,
      "ٿيلEW": 810,
      "عوEW": 811,
      "بلEW": 812,
      "آز": 813,
      "جيئنEW": 814,
      "حصوEW": 815,
      "تب": 816,
      "اميEW": 817,
      "مليEW": 818,
      "پبل": 819,
      "er": 820,
      "ٿيوEW": 821,
      "شيEW": 822,
      "دور": 823,
      "اع": 824,
      "ڙاEW": 825,
      "on": 826,
      "دوEW": 827,
      "فري": 828,
      "زاEW": 829,
      "وٽEW": 830,
      "يونيو": 831,
      "اوڀرEW": 832,
      "هينEW": 833,
      "اڳEW": 834,
      "توEW": 835,
      "هل": 836,
      "مرڪ": 837,
      "جر": 838,
      "وڪيپيڊ": 839,
      "يونيورس": 840,
      "ٿيڻEW": 841,
      "رياستEW": 842,
      "مب": 843,
      "اهرEW": 844,
      "گي": 845,
      "جل": 846,
      "تمامEW": 847,
      "0عEW": 848,
      "مص": 849,
      "زند": 850,
      "صاحبEW": 851,
      "ازEW": 852,
      "پنھن": 853,
      "قدي": 854,
      "سين": 855,
      "ورتEW": 856,
      "ئر": 857,
      "اءEW": 858,
      "مذ": 859,
      "8EW": 860,
      "علائقيEW": 861,
      "ڙه": 862,
      "شو": 863,
      "دينEW": 864,
      "رھ": 865,
      "نق": 866,
      "آفEW": 867,
      "ئرEW": 868,
      "ھوEW": 869,
      "انھنEW": 870,
      "ماڻهوEW": 871,
      "اسانEW": 872,
      "قسمEW": 873,
      "لين": 874,
      "آخ": 875,
      "قل": 876,
      "مڪ": 877,
      "ڀر": 878,
      "بخ": 879,
      "شري": 880,
      "چونڊ": 881,
      "ينداEW": 882,
      "مون": 883,
      "پارانEW": 884,
      "ar": 885,
      "ڏينهنEW": 886,
      "طرحEW": 887,
      "جتيEW": 888,
      "سببEW": 889,
      "زمينEW": 890,
      "يNL": 891,
      "ڙو": 892,
      "ڏنوEW": 893,
      "انس": 894,
      "ڪاريEW": 895,
      "ماڻهنEW": 896,
      "لفظEW": 897,
      "ڏا": 898,
      "اسٽي": 899,
      "ميٽرEW": 900,
      "اروEW": 901,
      "ٽوEW": 902,
      "ستEW": 903,
      "وئيEW": 904,
      "ڇپ": 905,
      "اٿ": 906,
      "197": 907,
      "198": 908,
      "مٿ": 909,
      "ڪيلEW": 910,
      "وئي": 911,
      "اهمEW": 912,
      "سما": 913,
      "برا": 914,
      "بور": 915,
      "ڪائون": 916,
      "مرEW": 917,
      "علي": 918,
      "ريءEW": 919,
      "ذريعيEW": 920,
      "جنگEW": 921,
      "يادEW": 922,
      "7عEW": 923,
      "NLن": 924,
      "علا": 925,
      "قديمEW": 926,
      "تاريخ": 927,
      "9EW": 928,
      "انت": 929,
      "انا": 930,
      "اچ": 931,
      "وغ": 932,
      "غيرEW": 933,
      "يانEW": 934,
      "ڏانهنEW": 935,
      "ڄEW": 936,
      "hi": 937,
      "صEW": 938,
      "طرف": 939,
      "عبدال": 940,
      "احمدEW": 941,
      "sEW": 942,
      "ضEW": 943,
      "سلEW": 944,
      "لاح": 945,
      "چيوEW": 946,
      "پهريونEW": 947,
      "نسEW": 948,
      "زر": 949,
      "196": 950,
      "تاEW": 951,
      "پرا": 952,
      "ايو": 953,
      "ليک": 954,
      "ــ": 955,
      "ڪيائين": 956,
      "قان": 957,
      "مائ": 958,
      "ڊاڪ": 959,
      "دهEW": 960,
      "ٽيڪ": 961,
      "شع": 962,
      "مث": 963,
      "کو": 964,
      "اناEW": 965,
      "ڪلو": 966,
      "ڊيEW": 967,
      "ٿيندوEW": 968,
      "صوبيEW": 969,
      "5عEW": 970,
      "واپ": 971,
      "هوندوEW": 972,
      "ٽيءEW": 973,
      "ٻوليEW": 974,
      "گهڻوEW": 975,
      "مال": 976,
      "سنڌي": 977,
      "مقر": 978,
      "نہEW": 979,
      "ٻهEW": 980,
      "يور": 981,
      "شروع": 982,
      "سندنEW": 983,
      "3عEW": 984,
      "سالنEW": 985,
      "اسڪو": 986,
      "اڻيEW": 987,
      "پٽEW": 988,
      "رهيو": 989,
      "ايڊي": 990,
      "ٺاه": 991,
      "سلط": 992,
      "يع": 993,
      "ti": 994,
      "خت": 995,
      "لويEW": 996,
      "2عEW": 997,
      "ئونEW": 998,
      "ڪند": 999,
      "al": 1000,
      "ديو": 1001,
      "قر": 1002,
      "ماEW": 1003,
      "1عEW": 1004,
      "سواءEW": 1005,
      "حوال": 1006,
      "خلا": 1007,
      "ياتEW": 1008,
      "زارEW": 1009,
      "194": 1010,
      "پنھنجيEW": 1011,
      "خاند": 1012,
      "طرفEW": 1013,
      "سيدEW": 1014,
      "ائنEW": 1015,
      "مقررEW": 1016,
      "سمن": 1017,
      "پهرينEW": 1018,
      "ورن": 1019,
      "گا": 1020,
      "ترينEW": 1021,
      "ٿيون": 1022,
      "ايوEW": 1023,
      "6عEW": 1024,
      "ٻيوEW": 1025,
      "195": 1026,
      "نڊEW": 1027,
      "ايند": 1028,
      "حال": 1029,
      "حاظEW": 1030,
      "گهر": 1031,
      "NLا": 1032,
      "ڪان": 1033,
      "ٻنEW": 1034,
      "ولEW": 1035,
      "اديءEW": 1036,
      "تعلقيEW": 1037,
      "ثق": 1038,
      "ڊاڪٽرEW": 1039,
      "ڌر": 1040,
      "ڄيEW": 1041,
      "ind": 1042,
      "ڪندوEW": 1043,
      "ڪنداEW": 1044,
      "17": 1045,
      "خان": 1046,
      "قب": 1047,
      "ياتيEW": 1048,
      "سياسيEW": 1049,
      "طرفانEW": 1050,
      "مشت": 1051,
      "کEW": 1052,
      "اسڪولEW": 1053,
      "وٺيEW": 1054,
      "دادEW": 1055,
      "ڏيEW": 1056,
      "ارتEW": 1057,
      "پيلEW": 1058,
      "پاڻيEW": 1059,
      "ظمEW": 1060,
      "وياEW": 1061,
      "ڪياEW": 1062,
      "ڀي": 1063,
      "ڪيترنEW": 1064,
      "پل": 1065,
      "اني": 1066,
      "رياEW": 1067,
      "ويا": 1068,
      "ھي": 1069,
      "از": 1070,
      "يعنيEW": 1071,
      "جڻEW": 1072,
      "صدرEW": 1073,
      "8عEW": 1074,
      "ريتEW": 1075,
      "NLس": 1076,
      "دائ": 1077,
      "وفاتEW": 1078,
      "مضمونEW": 1079,
      "بتEW": 1080,
      "اش": 1081,
      "دورانEW": 1082,
      "سمجه": 1083,
      "عملEW": 1084,
      "ضرو": 1085,
      "تخ": 1086,
      "بابتEW": 1087,
      "ڳوEW": 1088,
      "4عEW": 1089,
      "گذ": 1090,
      "ايلEW": 1091,
      "جان": 1092,
      "تحري": 1093,
      "ميتEW": 1094,
      "آھنEW": 1095,
      "پيشEW": 1096,
      "ڪيترائيEW": 1097,
      "حدEW": 1098,
      "فنEW": 1099,
      "عتEW": 1100,
      "ڪه": 1101,
      "ڪالي": 1102,
      "سط": 1103,
      "وارنEW": 1104,
      "ته": 1105,
      "بح": 1106,
      "شاي": 1107,
      "NLم": 1108,
      "اندرEW": 1109,
      "ايتEW": 1110,
      "ايEW": 1111,
      "or": 1112,
      "مشتملEW": 1113,
      "رهيوEW": 1114,
      "شاھEW": 1115,
      "فرEW": 1116,
      "صديEW": 1117,
      "اسٽ": 1118,
      "نش": 1119,
      "برو": 1120,
      "شاه": 1121,
      "صح": 1122,
      "سگھ": 1123,
      "Sind": 1124,
      "بنيادEW": 1125,
      "سينEW": 1126,
      "بند": 1127,
      "عو": 1128,
      "غEW": 1129,
      "مج": 1130,
      "NLآ": 1131,
      "است": 1132,
      "ٺه": 1133,
      "ساڳ": 1134,
      "خد": 1135,
      "طري": 1136,
      "اصط": 1137,
      "en": 1138,
      "نظرEW": 1139,
      "ڏھنEW": 1140,
      "dEW": 1141,
      "اراEW": 1142,
      "ڀا": 1143,
      "افيEW": 1144,
      "بني": 1145,
      "نظامEW": 1146,
      "هيٺEW": 1147,
      "کانپوءEW": 1148,
      "حض": 1149,
      "ڙيءEW": 1150,
      "ٿينEW": 1151,
      "هانEW": 1152,
      "قوميEW": 1153,
      "مذه": 1154,
      "اسلا": 1155,
      "ثقاف": 1156,
      "پبلشر": 1157,
      "لاڳا": 1158,
      "مينٽEW": 1159,
      "شخ": 1160,
      "رفEW": 1161,
      "اڪثرEW": 1162,
      "مسج": 1163,
      "حيدرآبادEW": 1164,
      "ٻيEW": 1165,
      "واميEW": 1166,
      "ڻنEW": 1167,
      "سنڌيانا": 1168,
      "ائونEW": 1169,
      "پٽ": 1170,
      "وز": 1171,
      "ٻياEW": 1172,
      "دانEW": 1173,
      "ڪائونسلEW": 1174,
      "باEW": 1175,
      "اھوEW": 1176,
      "تعلقEW": 1177,
      "بلو": 1178,
      "بورڊEW": 1179,
      "ڻيءEW": 1180,
      "الدينEW": 1181,
      "نمبرEW": 1182,
      "ڪش": 1183,
      "ٽاEW": 1184,
      "ڪسEW": 1185,
      "عمرEW": 1186,
      "ملڪنEW": 1187,
      "وغير": 1188,
      "صورتEW": 1189,
      "اNL": 1190,
      "يالEW": 1191,
      "ريلويEW": 1192,
      "ٻوليءEW": 1193,
      "ڪراچيEW": 1194,
      "نص": 1195,
      "Sindhi": 1196,
      "پول": 1197,
      "گرو": 1198,
      "غلامEW": 1199,
      "ڏيڻEW": 1200,
      "ڪنديEW": 1201,
      "پيو": 1202,
      "هڪ": 1203,
      "ڇا": 1204,
      "اسي": 1205,
      "فا": 1206,
      "اهڙيEW": 1207,
      "ٻن": 1208,
      "ana": 1209,
      "هئيEW": 1210,
      "نئينEW": 1211,
      "هتيEW": 1212,
      "گورن": 1213,
      "ورنEW": 1214,
      "بيانEW": 1215,
      "ادبEW": 1216,
      "10": 1217,
      "ختمEW": 1218,
      "وينديEW": 1219,
      "سائي": 1220,
      "چارEW": 1221,
      "خي": 1222,
      "گرEW": 1223,
      "يونينEW": 1224,
      "ڏئيEW": 1225,
      "سيڪڙوEW": 1226,
      "سمنڊEW": 1227,
      "ترقيEW": 1228,
      "ترEW": 1229,
      "ڪال": 1230,
      "مينEW": 1231,
      "رهيEW": 1232,
      "قبي": 1233,
      "ڄاڻ": 1234,
      "حضرتEW": 1235,
      "ڪلا": 1236,
      "رنگEW": 1237,
      "حيث": 1238,
      "سوEW": 1239,
      "کينEW": 1240,
      "علمEW": 1241,
      "واراEW": 1242,
      "مارEW": 1243,
      "يونيورسٽيEW": 1244,
      "9عEW": 1245,
      "مددEW": 1246,
      "وروEW": 1247,
      "لغ": 1248,
      "هنڌEW": 1249,
      "ديدEW": 1250,
      "بانEW": 1251,
      "ڪندڙEW": 1252,
      "193": 1253,
      "کرEW": 1254,
      "ثEW": 1255,
      "رانEW": 1256,
      "ڇاEW": 1257,
      "لکيلEW": 1258,
      "اٽ": 1259,
      "هونديEW": 1260,
      "وسي": 1261,
      "گهٽEW": 1262,
      "بينEW": 1263,
      "حيثيتEW": 1264,
      "انوEW": 1265,
      "تحقي": 1266,
      "اسلامEW": 1267,
      "علو": 1268,
      "سڀنيEW": 1269,
      "اڄEW": 1270,
      "امي": 1271,
      "ايڪ": 1272,
      "راتEW": 1273,
      "شيخEW": 1274,
      "بارEW": 1275,
      "ٿرEW": 1276,
      "رکيEW": 1277,
      "نتي": 1278,
      "مھ": 1279,
      "حيدرآباد": 1280,
      "ذڪرEW": 1281,
      "مغ": 1282,
      "ھئي": 1283,
      "گلEW": 1284,
      "رارEW": 1285,
      "فائ": 1286,
      "اختيارEW": 1287,
      "انتظ": 1288,
      "ابEW": 1289,
      "گهرEW": 1290,
      "راEW": 1291,
      "آئ": 1292,
      "لينڊEW": 1293,
      "ڪاليجEW": 1294,
      "Sindhiana": 1295,
      "پيرEW": 1296,
      "ستانيEW": 1297,
      "Sindhianaسنڌيانا": 1298,
      "15": 1299,
      "هندستانEW": 1300,
      "سڃ": 1301,
      "مڪملEW": 1302,
      "قنEW": 1303,
      "سرڪاريEW": 1304,
      "عور": 1305,
      "آڪ": 1306,
      "نوا": 1307,
      "مرزاEW": 1308,
      "ميو": 1309,
      "ناEW": 1310,
      "آزادEW": 1311,
      "ڪون": 1312,
      "رلEW": 1313,
      "شروعاتEW": 1314,
      "وغيرهEW": 1315,
      "مول": 1316,
      "وانگ": 1317,
      "st": 1318,
      "سڌ": 1319,
      "ميمبرEW": 1320,
      "علائقنEW": 1321,
      "تNL": 1322,
      "داخ": 1323,
      "جلدEW": 1324,
      "جيڪڏهنEW": 1325,
      "خاندانEW": 1326,
      "موج": 1327,
      "ڪوٽEW": 1328,
      "تلEW": 1329,
      "ٿينديEW": 1330,
      "اولEW": 1331,
      "دمEW": 1332,
      "قوEW": 1333,
      "چئ": 1334,
      "مرڪزEW": 1335,
      "بنياديEW": 1336,
      "ڪول": 1337,
      "آمريڪاEW": 1338,
      "ڪلوميٽرEW": 1339,
      "خيالEW": 1340,
      "برط": 1341,
      "صرفEW": 1342,
      "شياEW": 1343,
      "جاريEW": 1344,
      "هونEW": 1345,
      "سام": 1346,
      "ھرEW": 1347,
      "نتEW": 1348,
      "202": 1349,
      "وڪيپيڊياEW": 1350,
      "کا": 1351,
      "رائ": 1352,
      "فتEW": 1353,
      "مان": 1354,
      "ٻو": 1355,
      "ٽسEW": 1356,
      "لائ": 1357,
      "عنEW": 1358,
      "اين": 1359,
      "سڏيوEW": 1360,
      "16": 1361,
      "رامEW": 1362,
      "ندو": 1363,
      "رکيوEW": 1364,
      "پنج": 1365,
      "اولههEW": 1366,
      "طي": 1367,
      "ڻاEW": 1368,
      "پڙه": 1369,
      "ورسEW": 1370,
      "تعلي": 1371,
      "سانچو": 1372,
      "وه": 1373,
      "اثرEW": 1374,
      "ڻي": 1375,
      "ميٽ": 1376,
      "خلافEW": 1377,
      "حڪ": 1378,
      "اسلاميEW": 1379,
      "ڄام": 1380,
      "وليEW": 1381,
      "تاريخيEW": 1382,
      "زمانيEW": 1383,
      "هاڻيEW": 1384,
      "ڏنيEW": 1385,
      "شنلEW": 1386,
      "راءEW": 1387,
      "ڪڍ": 1388,
      "جديدEW": 1389,
      "يروEW": 1390,
      "صن": 1391,
      "علائقوEW": 1392,
      "ڄامEW": 1393,
      "هوءEW": 1394,
      "ڪڏهنEW": 1395,
      "ماريEW": 1396,
      "پاسيEW": 1397,
      "ڇو": 1398,
      "ٺوEW": 1399,
      "وڪيپيڊيا": 1400,
      "بندEW": 1401,
      "جهڙو": 1402,
      "ڪوش": 1403,
      "رست": 1404,
      "فلمEW": 1405,
      "مت": 1406,
      "بخشEW": 1407,
      "آنEW": 1408,
      "مريEW": 1409,
      "معي": 1410,
      "جاءEW": 1411,
      "شايعEW": 1412,
      "مسجدEW": 1413,
      "اسپ": 1414,
      "درEW": 1415,
      "مٿيEW": 1416,
      "خط": 1417,
      "معني": 1418,
      "ڪردارEW": 1419,
      "ةEW": 1420,
      "سگهيEW": 1421,
      "اھيEW": 1422,
      "گڏيلEW": 1423,
      "فق": 1424,
      "20EW": 1425,
      "انسانيEW": 1426,
      "وينداEW": 1427,
      "لبEW": 1428,
      "ٿيا": 1429,
      "ڪامي": 1430,
      "لکيEW": 1431,
      "آيو": 1432,
      "نام": 1433,
      "ڙيلEW": 1434,
      "لاحEW": 1435,
      "لڳEW": 1436,
      "ھئ": 1437,
      "NLهنEW": 1438,
      "ic": 1439,
      "it": 1440,
      "ڪنھنEW": 1441,
      "تقري": 1442,
      "ڳاله": 1443,
      "فقي": 1444,
      "at": 1445,
      "وڃي": 1446,
      "اسٽيشنEW": 1447,
      "انگريزيEW": 1448,
      "عالميEW": 1449,
      "زندگيEW": 1450,
      "شاگر": 1451,
      "راڻيEW": 1452,
      "اڃ": 1453,
      "معلو": 1454,
      "نسلEW": 1455,
      "پوEW": 1456,
      "داد": 1457,
      "aEW": 1458,
      "مز": 1459,
      "ونيEW": 1460,
      "اج": 1461,
      "شورو": 1462,
      "ڪين": 1463,
      "سگ": 1464,
      "ريلEW": 1465,
      "جانEW": 1466,
      "ادي": 1467,
      "مختيارEW": 1468,
      "شاعرEW": 1469,
      "حقEW": 1470,
      "سڄيEW": 1471,
      "آيوEW": 1472,
      "مرا": 1473,
      "رونEW": 1474,
      "دل": 1475,
      "نديونEW": 1476,
      "هئاEW": 1477,
      "پنهنجوEW": 1478,
      "حيEW": 1479,
      "چونداEW": 1480,
      "لحاظEW": 1481,
      "ارينEW": 1482,
      "yEW": 1483,
      "مثالEW": 1484,
      "تحريڪEW": 1485,
      "کڻيEW": 1486,
      "13": 1487,
      "رNL": 1488,
      "ٽري": 1489,
      "ٿينداEW": 1490,
      "بولEW": 1491,
      "دؤ": 1492,
      "تڏهنEW": 1493,
      "حواليEW": 1494,
      "يات": 1495,
      "نيو": 1496,
      "تنهنEW": 1497,
      "معنيٰEW": 1498,
      "ڪافيEW": 1499,
      "12": 1500,
      "بڻجيEW": 1501,
      "ٽڪEW": 1502,
      "اڳوا": 1503,
      "ٻارEW": 1504,
      "سماجيEW": 1505,
      "دست": 1506,
      "فه": 1507,
      "مNL": 1508,
      "پنEW": 1509,
      "وNL": 1510,
      "پڙ": 1511,
      "فتحEW": 1512,
      "ڇوEW": 1513,
      "انسانEW": 1514,
      "رڪ": 1515,
      "مانيEW": 1516,
      "ظاهرEW": 1517,
      "مطال": 1518,
      "ادرEW": 1519,
      "سپ": 1520,
      "قانونEW": 1521,
      "اض": 1522,
      "هيٺ": 1523,
      "گيءEW": 1524,
      "ترجم": 1525,
      "هونداEW": 1526,
      "بچ": 1527,
      "گاديءEW": 1528,
      "ڇEW": 1529,
      "النEW": 1530,
      "اڏ": 1531,
      "منظ": 1532,
      ").": 1533,
      "ريوEW": 1534,
      "ذي": 1535,
      "هيو": 1536,
      "تعميرEW": 1537,
      "سخ": 1538,
      "ضو": 1539,
      "طا": 1540,
      "ايمEW": 1541,
      "حقي": 1542,
      "ٺيEW": 1543,
      "دان": 1544,
      "سرو": 1545,
      "ڊرا": 1546,
      "ابيEW": 1547,
      "ھيءEW": 1548,
      "فوجEW": 1549,
      "ڊو": 1550,
      "استا": 1551,
      "ستان": 1552,
      "نڊيEW": 1553,
      "آفري": 1554,
      "هٿEW": 1555,
      "گن": 1556,
      "تنظ": 1557,
      "ڀاڱ": 1558,
      "آفي": 1559,
      "ھورEW": 1560,
      "هننEW": 1561,
      "قاب": 1562,
      "ران": 1563,
      "ارڊEW": 1564,
      "استادEW": 1565,
      "جنمEW": 1566,
      "آمريڪيEW": 1567,
      "تحتEW": 1568,
      "گري": 1569,
      "موجبEW": 1570,
      "ٽيونEW": 1571,
      "ڌاريEW": 1572,
      "ايڊيشن": 1573,
      "دلEW": 1574,
      "مف": 1575,
      "تصوي": 1576,
      "رڳوEW": 1577,
      "رح": 1578,
      "آگ": 1579,
      "ٽينEW": 1580,
      "عليهEW": 1581,
      "هيون": 1582,
      "ٽريEW": 1583,
      "جهڙوڪEW": 1584,
      "NLوڪيپيڊيا": 1585,
      "آخريEW": 1586,
      "سه": 1587,
      "قرارEW": 1588,
      "يندوEW": 1589,
      "NLسانچو": 1590,
      "مست": 1591,
      "تعدادEW": 1592,
      "es": 1593,
      "قدر": 1594,
      "مبر": 1595,
      "سائنسEW": 1596,
      "دار": 1597,
      "000EW": 1598,
      "NLج": 1599,
      "چونڊEW": 1600,
      "گل": 1601,
      "استEW": 1602,
      "ويجه": 1603,
      "مضمون": 1604,
      "پيوEW": 1605,
      "حسينEW": 1606,
      "روز": 1607,
      "192": 1608,
      "متا": 1609,
      "ابت": 1610,
      "عربEW": 1611,
      "تائين": 1612,
      "اڪي": 1613,
      "ھيو": 1614,
      "وانگرEW": 1615,
      "داخلEW": 1616,
      "چينEW": 1617,
      "حسنEW": 1618,
      "نه": 1619,
      "()": 1620,
      "برطان": 1621,
      "تريEW": 1622,
      "شينEW": 1623,
      "اداEW": 1624,
      "سلطنتEW": 1625,
      "عب": 1626,
      "اليڪ": 1627,
      "ماح": 1628,
      "نف": 1629,
      "پنجا": 1630,
      "مير": 1631,
      "عاEW": 1632,
      "باقيEW": 1633,
      "NLب": 1634,
      "اصطلاح": 1635,
      "ماننEW": 1636,
      "حصيEW": 1637,
      "دؤرEW": 1638,
      "am": 1639,
      "کار": 1640,
      "جودEW": 1641,
      "صي": 1642,
      "فيص": 1643,
      "مٿانEW": 1644,
      "پک": 1645,
      "شاديEW": 1646,
      "وڻEW": 1647,
      "ڏاڍ": 1648,
      "گهڻيEW": 1649,
      "ترتي": 1650,
      "ائو": 1651,
      "جنرلEW": 1652,
      "مڻEW": 1653,
      "جنوريEW": 1654,
      "ڪرو": 1655,
      "ھتيEW": 1656,
      "ائيءEW": 1657,
      "ملا": 1658,
      "ميانEW": 1659,
      "عورتنEW": 1660,
      "تج": 1661,
      "وڏاEW": 1662,
      "نيشنلEW": 1663,
      "tion": 1664,
      "انگEW": 1665,
      "مسلمانEW": 1666,
      "چا": 1667,
      "ڏنلEW": 1668,
      "وڃنEW": 1669,
      "سلي": 1670,
      "ڏس": 1671,
      "ڙي": 1672,
      "هنڪريEW": 1673,
      "ڳالههEW": 1674,
      "ماءEW": 1675,
      "لاڳاپيلEW": 1676,
      "ليکڪ": 1677,
      "اڳتيEW": 1678,
      "مطلبEW": 1679,
      "الڳEW": 1680,
      "مهEW": 1681,
      "مسئ": 1682,
      "مسلمEW": 1683,
      "لکيوEW": 1684,
      "ستيEW": 1685,
      "جاگرا": 1686,
      "اتوEW": 1687,
      "ڪئ": 1688,
      "فوجيEW": 1689,
      "مسلماننEW": 1690,
      "10EW": 1691,
      "سٽري": 1692,
      "تشري": 1693,
      "رسEW": 1694,
      "ھئيEW": 1695,
      "الاق": 1696,
      "مقامEW": 1697,
      "پسند": 1698,
      "ڊائ": 1699,
      "رواي": 1700,
      "پنجابEW": 1701,
      "چار": 1702,
      "سک": 1703,
      "هندوEW": 1704,
      "ٽرو": 1705,
      "ايم": 1706,
      "ٿيندڙEW": 1707,
      "ٻنهيEW": 1708,
      "لاڙ": 1709,
      "بديلEW": 1710,
      "ميلEW": 1711,
      "لن": 1712,
      "عظ": 1713,
      "ساEW": 1714,
      "چورسEW": 1715,
      "ڌيEW": 1716,
      "سور": 1717,
      "ميڊ": 1718,
      "ملنEW": 1719,
      "مارچEW": 1720,
      "بانيEW": 1721,
      "14": 1722,
      "تبديلEW": 1723,
      "موضو": 1724,
      "NLھنEW": 1725,
      "پوريEW": 1726,
      "پيءEW": 1727,
      "ol": 1728,
      "وڪيEW": 1729,
      "حڪمر": 1730,
      "توهانEW": 1731,
      "ڇڏيو": 1732,
      "زبانEW": 1733,
      "قرآنEW": 1734,
      "پيدائ": 1735,
      "اردوEW": 1736,
      "مقاميEW": 1737,
      "تحقيقEW": 1738,
      "مولاناEW": 1739,
      "الاقواميEW": 1740,
      "پئ": 1741,
      "روا": 1742,
      "ڄامشورو": 1743,
      "قا": 1744,
      "ڪيونEW": 1745,
      "ںEW": 1746,
      "عرص": 1747,
      "چيءEW": 1748,
      "هجي": 1749,
      "جائ": 1750,
      "عد": 1751,
      "پٺ": 1752,
      "لوڪEW": 1753,
      "امنEW": 1754,
      "آخرEW": 1755,
      "ڪور": 1756,
      "پارٽيEW": 1757,
      "ھينEW": 1758,
      "عيسو": 1759,
      "نٽEW": 1760,
      "وٽ": 1761,
      "ندرEW": 1762,
      "چندEW": 1763,
      "ڳنڍ": 1764,
      "fEW": 1765,
      "سفرEW": 1766,
      "بار": 1767,
      "جڏھنEW": 1768,
      "زتEW": 1769,
      "قلا": 1770,
      "سطحEW": 1771,
      "نمائ": 1772,
      "مشھورEW": 1773,
      "ڍنڍ": 1774,
      "ڇڏيEW": 1775,
      "پاڻيءEW": 1776,
      "سمنEW": 1777,
      "موسي": 1778,
      "پنجEW": 1779,
      "بيتEW": 1780,
      "رستEW": 1781,
      "لکEW": 1782,
      "نما": 1783,
      "شاھ": 1784,
      "وزيرEW": 1785,
      "فقيرEW": 1786,
      "شڪ": 1787,
      "توڙيEW": 1788,
      "شتEW": 1789,
      "پوء": 1790,
      "يورپEW": 1791,
      "وره": 1792,
      "مکي": 1793,
      "مقاب": 1794,
      "ٻولينEW": 1795,
      "قتلEW": 1796,
      "ڏنو": 1797,
      "اوي": 1798,
      "شاعريEW": 1799,
      "ائينداEW": 1800,
      "اولھEW": 1801,
      "لاء": 1802,
      "زورEW": 1803,
      "هليEW": 1804,
      "ڪمپن": 1805,
      "ڪوششEW": 1806,
      "موڪل": 1807,
      "بلوچ": 1808,
      "اط": 1809,
      "عمار": 1810,
      "فران": 1811,
      "مجمو": 1812,
      "is": 1813,
      "صدEW": 1814,
      "ليا": 1815,
      "سگهجيEW": 1816,
      "چر": 1817,
      "اچڻEW": 1818,
      "ننڍيEW": 1819,
      "پاسEW": 1820,
      "ڊسم": 1821,
      "ابنEW": 1822,
      "لفظ": 1823,
      "اينEW": 1824,
      "ڪهاڻ": 1825,
      "ڊوي": 1826,
      "وارEW": 1827,
      "فلس": 1828,
      "پولي": 1829,
      "تبدي": 1830,
      "نتيجيEW": 1831,
      "باريEW": 1832,
      "هار": 1833,
      "ٻيونEW": 1834,
      "حد": 1835,
      "ھوندوEW": 1836,
      "جڳ": 1837,
      "ھيوEW": 1838,
      "جني": 1839,
      "ڙيونEW": 1840,
      "ڙهيEW": 1841,
      "حڪمEW": 1842,
      "مڃ": 1843,
      "عربيEW": 1844,
      "ندي": 1845,
      "توڻ": 1846,
      "ايشياEW": 1847,
      "طب": 1848,
      "ٻار": 1849,
      "جيتوڻ": 1850,
      "اڳو": 1851,
      "ڪارڊEW": 1852,
      "هجيEW": 1853,
      "ڪتابنEW": 1854,
      "مقصدEW": 1855,
      "تيءEW": 1856,
      "ملاح": 1857,
      "راج": 1858,
      "ونNL": 1859,
      "انج": 1860,
      "سنگ": 1861,
      "انڊياEW": 1862,
      "ترجموEW": 1863,
      "el": 1864,
      "tEW": 1865,
      "شڪلEW": 1866,
      "عه": 1867,
      "ضوEW": 1868,
      "سنڌوEW": 1869,
      "بال": 1870,
      "ماڻھوEW": 1871,
      "رض": 1872,
      "پياEW": 1873,
      "رسال": 1874,
      "ائيندڙEW": 1875,
      "معا": 1876,
      "اندازEW": 1877,
      "دف": 1878,
      "ڪيمي": 1879,
      "اوتEW": 1880,
      "جداEW": 1881,
      "افغ": 1882,
      "گرمEW": 1883,
      "ترتيبEW": 1884,
      "دائيEW": 1885,
      "ٽن": 1886,
      "اھاEW": 1887,
      "تف": 1888,
      "لئ": 1889,
      "سختEW": 1890,
      "جبلEW": 1891,
      "سولEW": 1892,
      "اصطلاحنEW": 1893,
      "چوEW": 1894,
      "مئ": 1895,
      "موجودهEW": 1896,
      "مدر": 1897,
      "طنEW": 1898,
      "گهو": 1899,
      "18EW": 1900,
      "نار": 1901,
      "چيئر": 1902,
      "عالمEW": 1903,
      "جسمEW": 1904,
      "سميتEW": 1905,
      "اداڪ": 1906,
      "سامو": 1907,
      "ورتو": 1908,
      "زندگيءEW": 1909,
      "اولا": 1910,
      "جيتوڻيڪEW": 1911,
      "صفحو": 1912,
      "چڪوEW": 1913,
      "ur": 1914,
      "رکڻEW": 1915,
      "حاڪ": 1916,
      "مرتب": 1917,
      "پروگرا": 1918,
      "ريگ": 1919,
      "نوانEW": 1920,
      "تعليميEW": 1921,
      "آوا": 1922,
      "آڪٽو": 1923,
      "اڃاEW": 1924,
      "عورتEW": 1925,
      "فتارEW": 1926,
      "قلعيEW": 1927,
      "خلي": 1928,
      "ماڻھنEW": 1929,
      "راب": 1930,
      "والEW": 1931,
      "پئيEW": 1932,
      "ڙينEW": 1933,
      "زمEW": 1934,
      "گارEW": 1935,
      "ٽيو": 1936,
      "پھرينEW": 1937,
      "داو": 1938,
      "ڇيEW": 1939,
      "زن": 1940,
      "مهين": 1941,
      "ڄاڻEW": 1942,
      "مذهبيEW": 1943,
      "بغ": 1944,
      "سون": 1945,
      "خبرEW": 1946,
      "فن": 1947,
      "چڱ": 1948,
      "بيگ": 1949,
      "بين": 1950,
      "متنEW": 1951,
      "پريEW": 1952,
      "ofEW": 1953,
      "رکندڙEW": 1954,
      "قومEW": 1955,
      "شاعريءEW": 1956,
      "لغت": 1957,
      "خداEW": 1958,
      "مرڪزيEW": 1959,
      "اک": 1960,
      "15EW": 1961,
      "NLنئونEW": 1962,
      "th": 1963,
      "ايسEW": 1964,
      "جبل": 1965,
      "ڏو": 1966,
      "يندڙEW": 1967,
      "والدEW": 1968,
      "ڊسمبرEW": 1969,
      "سائنس": 1970,
      "چئبوEW": 1971,
      "اصليEW": 1972,
      "هزارEW": 1973,
      "ٽلEW": 1974,
      "اڪيEW": 1975,
      "ڪيا": 1976,
      "اپري": 1977,
      "بھ": 1978,
      "آگسٽEW": 1979,
      "سياست": 1980,
      "ادنEW": 1981,
      "om": 1982,
      "فيبرو": 1983,
      "غل": 1984,
      "صليEW": 1985,
      "قيدEW": 1986,
      "سلا": 1987,
      "نسيEW": 1988,
      "ٽا": 1989,
      "ميل": 1990,
      "شڪرEW": 1991,
      "واس": 1992,
      "گريEW": 1993,
      "سنڀ": 1994,
      "قابلEW": 1995,
      "اجا": 1996,
      "سيا": 1997,
      "شم": 1998,
      "ڪلي": 1999,
      "قط": 2000,
      "اميرEW": 2001,
      "ڀڳEW": 2002,
      "يونNLزمرو": 2003,
      "وجه": 2004,
      "ڀيروEW": 2005,
      "ڪراچيءEW": 2006,
      "بزر": 2007,
      "سجEW": 2008,
      "ائرEW": 2009,
      "جوڙ": 2010,
      "اٿس": 2011,
      "وق": 2012,
      "مکيهEW": 2013,
      "سار": 2014,
      "گاههEW": 2015,
      "مرح": 2016,
      "تشريحيEW": 2017,
      "امامEW": 2018,
      "پاس": 2019,
      "اهي": 2020,
      "پھريونEW": 2021,
      "ثقافتيEW": 2022,
      "افEW": 2023,
      "190": 2024,
      "بادشاههEW": 2025,
      "ڪپ": 2026,
      "موادEW": 2027,
      "ڌوEW": 2028,
      "اٿار": 2029,
      "ائن": 2030,
      "12EW": 2031,
      "پيداو": 2032,
      "سيپٽ": 2033,
      "ريڊ": 2034,
      "...": 2035,
      "ارتيEW": 2036,
      "لالEW": 2037,
      "چرEW": 2038,
      "ڇاڪ": 2039,
      "خود": 2040,
      "منهن": 2041,
      "ڪناريEW": 2042,
      "جرEW": 2043,
      "صحي": 2044,
      "ڪرڻ": 2045,
      "خطEW": 2046,
      "og": 2047,
      "il": 2048,
      "روش": 2049,
      "داريEW": 2050,
      "ڇاڪاڻEW": 2051,
      "نمو": 2052,
      "لکڻEW": 2053,
      "واپسEW": 2054,
      "رڪارڊEW": 2055,
      "ڊگه": 2056,
      "رستيEW": 2057,
      "پهچ": 2058,
      "ليڪ": 2059,
      "هر": 2060,
      "وائ": 2061,
      "انهيEW": 2062,
      "راجاEW": 2063,
      "حمل": 2064,
      "19EW": 2065,
      "حالتEW": 2066,
      "وڌيEW": 2067,
      "ac": 2068,
      "نبيEW": 2069,
      "ٻيٽEW": 2070,
      "جع": 2071,
      "جما": 2072,
      "گھر": 2073,
      "ڪاڻيEW": 2074,
      "ڊنEW": 2075,
      "آث": 2076,
      "ڌارEW": 2077,
      "اون": 2078,
      "ذEW": 2079,
      "رج": 2080,
      "بلحاظEW": 2081,
      "فارسيEW": 2082,
      "پسندEW": 2083,
      "يڪي": 2084,
      "ٿياEW": 2085,
      "خوا": 2086,
      "30EW": 2087,
      "يڪلEW": 2088,
      "مخال": 2089,
      "زمي": 2090,
      "شيءEW": 2091,
      "ٽال": 2092,
      "زلEW": 2093,
      "وڏنEW": 2094,
      "ايرانEW": 2095,
      "سيڪري": 2096,
      "انگريزنEW": 2097,
      "قبضوEW": 2098,
      "اٽڪلEW": 2099,
      "آڪٽوبرEW": 2100,
      "معام": 2101,
      "شوEW": 2102,
      "شڪار": 2103,
      "هاءEW": 2104,
      "قدرتيEW": 2105,
      "وسل": 2106,
      "سليEW": 2107,
      "اسيمب": 2108,
      "ماه": 2109,
      "جهانEW": 2110,
      "سامونڊيEW": 2111,
      "انقلا": 2112,
      "پرائ": 2113,
      "alEW": 2114,
      "ٿئي": 2115,
      "صفحوEW": 2116,
      "طاقتEW": 2117,
      "زيءEW": 2118,
      "رهياEW": 2119,
      "پاEW": 2120,
      "اسڪول": 2121,
      "صديءEW": 2122,
      "ضرورتEW": 2123,
      "عقي": 2124,
      "نئونEW": 2125,
      "يراEW": 2126,
      "تروEW": 2127,
      "عظيمEW": 2128,
      "شريفEW": 2129,
      "صور": 2130,
      "ٻيهرEW": 2131,
      "متاثرEW": 2132,
      "حلEW": 2133,
      "انجني": 2134,
      "جولاءEW": 2135,
      "ئن": 2136,
      "حيات": 2137,
      "ٽين": 2138,
      "راه": 2139,
      "وزي": 2140,
      "ماتEW": 2141,
      "سلطانEW": 2142,
      "تجر": 2143,
      "ڪلامEW": 2144,
      "جاگرافي": 2145,
      "ٺٽيEW": 2146,
      "بهترينEW": 2147,
      "طيEW": 2148,
      "ٽائيEW": 2149,
      "ڏه": 2150,
      "عليٰEW": 2151,
      "الاEW": 2152,
      "سنڌيءEW": 2153,
      "پروفي": 2154,
      "اعل": 2155,
      "روڊEW": 2156,
      "موق": 2157,
      "دومEW": 2158,
      "عث": 2159,
      "ٻہEW": 2160,
      "ذاتEW": 2161,
      "اتانEW": 2162,
      "اولادEW": 2163,
      "ٻارنEW": 2164,
      "موEW": 2165,
      "نومبرEW": 2166,
      "بنگ": 2167,
      "رابEW": 2168,
      "باغ": 2169,
      "انتظاميEW": 2170,
      "قومنEW": 2171,
      "14EW": 2172,
      "قيا": 2173,
      "رب": 2174,
      "عواميEW": 2175,
      "ڀاءEW": 2176,
      "پکي": 2177,
      "رهي": 2178,
      "آزاديEW": 2179,
      "قلي": 2180,
      "هڻEW": 2181,
      "اهڙوEW": 2182,
      "ابوEW": 2183,
      "ڇڏيوEW": 2184,
      "طيفEW": 2185,
      "اپريلEW": 2186,
      "ٽنگEW": 2187,
      "پلي": 2188,
      "خودEW": 2189,
      "ھل": 2190,
      "وچ": 2191,
      "ڪمي": 2192,
      "ويجهوEW": 2193,
      "بيگEW": 2194,
      "افتEW": 2195,
      "پراڻيEW": 2196,
      "برطانويEW": 2197,
      "ينديEW": 2198,
      "188": 2199,
      "نڪت": 2200,
      "وجودEW": 2201,
      "جهEW": 2202,
      "چوڻEW": 2203,
      "نالا": 2204,
      "اڻوEW": 2205,
      "جمهو": 2206,
      "آڻ": 2207,
      "لNL": 2208,
      "باغEW": 2209,
      "سيپٽمبرEW": 2210,
      "ٺاھ": 2211,
      "انٽر": 2212,
      "تنهنڪريEW": 2213,
      "ڊڪ": 2214,
      "ھئا": 2215,
      "ڊاEW": 2216,
      "وڃڻEW": 2217,
      "مخدومEW": 2218,
      "جوا": 2219,
      "ٺھ": 2220,
      "مورEW": 2221,
      "پوروEW": 2222,
      "نوجو": 2223,
      "ٺهيلEW": 2224,
      "NLسنڌEW": 2225,
      "ڪروEW": 2226,
      "ليکڪEW": 2227,
      "گورنرEW": 2228,
      "بلا": 2229,
      "اٺ": 2230,
      "اڌEW": 2231,
      "بائيEW": 2232,
      "پٿرEW": 2233,
      "زوEW": 2234,
      "ايڊ": 2235,
      "شهرنEW": 2236,
      "نمونيEW": 2237,
      "اسيمبليEW": 2238,
      "تنظيمEW": 2239,
      "ريون": 2240,
      "پورٽEW": 2241,
      "علاو": 2242,
      "ليو": 2243,
      "ئسEW": 2244,
      "سيو": 2245,
      "سائينEW": 2246,
      "اسمEW": 2247,
      "موتEW": 2248,
      "اتح": 2249,
      "آوازEW": 2250,
      "لشڪرEW": 2251,
      "هنديEW": 2252,
      "خات": 2253,
      "حاجيEW": 2254,
      "شڪارEW": 2255,
      "گھٽEW": 2256,
      "متيEW": 2257,
      "انھيءEW": 2258,
      "ادوEW": 2259,
      "آفريڪاEW": 2260,
      "قيمتEW": 2261,
      "خر": 2262,
      "ڪيٽEW": 2263,
      "مضبو": 2264,
      "as": 2265,
      "سNL": 2266,
      "ٻاهرEW": 2267,
      "نالاEW": 2268,
      "ٿيونEW": 2269,
      "اڪيڊ": 2270,
      "يره": 2271,
      "منتق": 2272,
      "اخبارEW": 2273,
      "سونEW": 2274,
      "شڪEW": 2275,
      "سلسليEW": 2276,
      "پاڪستانيEW": 2277,
      "قليچEW": 2278,
      "سلسل": 2279,
      "محفو": 2280,
      "NLچ": 2281,
      "عرصيEW": 2282,
      "اعلانEW": 2283,
      "ميدانEW": 2284,
      "وغيره": 2285,
      "حقيقتEW": 2286,
      "شلEW": 2287,
      "صافEW": 2288,
      "anEW": 2289,
      "صحيحEW": 2290,
      "ڊلEW": 2291,
      "اڪث": 2292,
      "اصطلاحEW": 2293,
      "ڪاب": 2294,
      "ورها": 2295,
      "مرادEW": 2296,
      "ضروريEW": 2297,
      "ڏوEW": 2298,
      "شهر": 2299,
      "روشنيEW": 2300,
      "عظمEW": 2301,
      "NLپاڪستانEW": 2302,
      "ونNLزمرو": 2303,
      "نديءEW": 2304,
      "نظري": 2305,
      "ريڪ": 2306,
      "ڏسڻEW": 2307,
      "راڻEW": 2308,
      "فيبروريEW": 2309,
      "واپارEW": 2310,
      "شخصEW": 2311,
      "اعليٰEW": 2312,
      "چوڌ": 2313,
      "ڻينEW": 2314,
      "گج": 2315,
      "ڳول": 2316,
      "وراEW": 2317,
      "ايرا": 2318,
      "شاهيEW": 2319,
      "ڀارتEW": 2320,
      "چنEW": 2321,
      "محفوظEW": 2322,
      "50EW": 2323,
      "ri": 2324,
      "رهنEW": 2325,
      "ناولEW": 2326,
      "رياستنEW": 2327,
      "ڪمپيو": 2328,
      "آن": 2329,
      "نيا": 2330,
      "ضلعوEW": 2331,
      "سڃاڻ": 2332,
      "ٽNL": 2333,
      "ڪام": 2334,
      "اريءEW": 2335,
      "25EW": 2336,
      "راجEW": 2337,
      "191": 2338,
      "مذھ": 2339,
      "ڏسيEW": 2340,
      "هجڻEW": 2341,
      "گوEW": 2342,
      "طوEW": 2343,
      "سردارEW": 2344,
      "ابتدائيEW": 2345,
      "خل": 2346,
      "دمش": 2347,
      "اجازتEW": 2348,
      "ازيEW": 2349,
      "نقص": 2350,
      "سماجEW": 2351,
      "قبر": 2352,
      "تما": 2353,
      "ارڪEW": 2354,
      "وامEW": 2355,
      "آغ": 2356,
      "سمو": 2357,
      "NLال": 2358,
      "رين": 2359,
      "قاضيEW": 2360,
      "شاهEW": 2361,
      "پروفيسرEW": 2362,
      "آءEW": 2363,
      "لڊEW": 2364,
      "ڙههEW": 2365,
      "موضوعEW": 2366,
      "ھتانEW": 2367,
      "ملڪ": 2368,
      "تعلقوEW": 2369,
      "ائيندوEW": 2370,
      "قبيليEW": 2371,
      "پال": 2372,
      "گههEW": 2373,
      "ياد": 2374,
      "ثاب": 2375,
      "لسEW": 2376,
      "مذهبEW": 2377,
      "ڏيکار": 2378,
      "عيسويءEW": 2379,
      "گيرEW": 2380,
      "ڻيونEW": 2381,
      "ing": 2382,
      "تصورEW": 2383,
      "اداريEW": 2384,
      "سرحدEW": 2385,
      "صوبوEW": 2386,
      "گول": 2387,
      "معنيEW": 2388,
      "سائنسيEW": 2389,
      "چوٿ": 2390,
      "مصنف": 2391,
      "سيڪريٽريEW": 2392,
      "مئيEW": 2393,
      "وزيرا": 2394,
      "هاEW": 2395,
      "ڪيتريونEW": 2396,
      "سمجهيوEW": 2397,
      "ورتوEW": 2398,
      "ترج": 2399,
      "وفا": 2400,
      "شروعاتيEW": 2401,
      "re": 2402,
      "روايتEW": 2403,
      "يونانيEW": 2404,
      "زرعيEW": 2405,
      "di": 2406,
      "پاڪEW": 2407,
      "مختص": 2408,
      "چونEW": 2409,
      "ھانEW": 2410,
      "ارفEW": 2411,
      "اسما": 2412,
      "ملي": 2413,
      "ڀرسانEW": 2414,
      "لاڙڪاڻيEW": 2415,
      "رنگ": 2416,
      "شهي": 2417,
      "آب": 2418,
      "ماڳEW": 2419,
      "پبلڪEW": 2420,
      "ساڳيEW": 2421,
      "ساڳئيEW": 2422,
      "خير": 2423,
      "شمارEW": 2424,
      "لفظنEW": 2425,
      "سنهEW": 2426,
      "ation": 2427,
      "متونEW": 2428,
      "هارEW": 2429,
      "ڍنڍEW": 2430,
      "حصنEW": 2431,
      "ائيندڙ": 2432,
      "سومر": 2433,
      "بلوچستانEW": 2434,
      "چيئرمينEW": 2435,
      "پيداوارEW": 2436,
      "اٺEW": 2437,
      "ويتEW": 2438,
      "گڏو": 2439,
      "مڙ": 2440,
      "ڪميون": 2441,
      "نڊنEW": 2442,
      "يورپيEW": 2443,
      "صنع": 2444,
      "مظ": 2445,
      "روزEW": 2446,
      "بابEW": 2447,
      "ڏينھنEW": 2448,
      "ايندڙEW": 2449,
      "ڊرEW": 2450,
      "ڊين": 2451,
      "توان": 2452,
      "ڪٿيEW": 2453,
      "مستق": 2454,
      "قبولEW": 2455,
      "گھرEW": 2456,
      "ايندوEW": 2457,
      "نيوEW": 2458,
      "ڇڏي": 2459,
      "ثقافتEW": 2460,
      "دا": 2461,
      "واEW": 2462,
      "گذري": 2463,
      "بان": 2464,
      "ٺاهيEW": 2465,
      "ڊيو": 2466,
      "مقد": 2467,
      "صوصEW": 2468,
      "11EW": 2469,
      "esEW": 2470,
      "نڀ": 2471,
      "جانورنEW": 2472,
      "ag": 2473,
      "وس": 2474,
      "صفحاEW": 2475,
      "معلومEW": 2476,
      "مضبوطEW": 2477,
      "16EW": 2478,
      "قاEW": 2479,
      "اهميتEW": 2480,
      "نمائند": 2481,
      "ھاڻيEW": 2482,
      "حاڪمEW": 2483,
      "oEW": 2484,
      "NLت": 2485,
      "آيلEW": 2486,
      "فوٽEW": 2487,
      "مپ": 2488,
      "جنگ": 2489,
      "ليگEW": 2490,
      "ڪارو": 2491,
      "اڪثريتEW": 2492,
      "عنص": 2493,
      "ثابتEW": 2494,
      "آئينEW": 2495,
      "رهڻEW": 2496,
      "189": 2497,
      "شاگردنEW": 2498,
      "سول": 2499,
      "وني": 2500,
      "سليمEW": 2501,
      "گڏوگڏEW": 2502,
      "بنديEW": 2503,
      "ڪيمEW": 2504,
      "اڪوEW": 2505,
      "چئنEW": 2506,
      "ڪرنEW": 2507,
      "علاوهEW": 2508,
      "ڏني": 2509,
      "گز": 2510,
      "صحتEW": 2511,
      "فقطEW": 2512,
      "13EW": 2513,
      "مسا": 2514,
      "اردو": 2515,
      "هئڻEW": 2516,
      "گورنمينٽEW": 2517,
      "ڄاڻايلEW": 2518,
      "ميءEW": 2519,
      "اھڙيEW": 2520,
      "فض": 2521,
      "گهٽ": 2522,
      "گڏجيEW": 2523,
      "جهن": 2524,
      "طبي": 2525,
      "ڪتEW": 2526,
      "درجوEW": 2527,
      "ــEW": 2528,
      "جين": 2529,
      "آئيEW": 2530,
      "ڳيEW": 2531,
      "ھونEW": 2532,
      "خار": 2533,
      "سئ": 2534,
      "راش": 2535,
      "اوچ": 2536,
      "اوهانEW": 2537,
      "شاخEW": 2538,
      "افغان": 2539,
      "ڌرتيءEW": 2540,
      "محبتEW": 2541,
      "حملوEW": 2542,
      "هواEW": 2543,
      "روسEW": 2544,
      "ماحولEW": 2545,
      "ٻاه": 2546,
      "ڪيئنEW": 2547,
      "بالEW": 2548,
      "خوش": 2549,
      "عق": 2550,
      "قري": 2551,
      "تحف": 2552,
      "پلا": 2553,
      "سياستEW": 2554,
      "قبضيEW": 2555,
      "بدر": 2556,
      "وين": 2557,
      "ايوارڊEW": 2558,
      "us": 2559,
      "بمب": 2560,
      "ثيEW": 2561,
      "لڳو": 2562,
      "erEW": 2563,
      "سڄ": 2564,
      "لمEW": 2565,
      "چونڊيوEW": 2566,
      "پروگرامEW": 2567,
      "صيتEW": 2568,
      "عمل": 2569,
      "ڊائريڪ": 2570,
      "et": 2571,
      "ومEW": 2572,
      "مخصوصEW": 2573,
      "ڊويزنEW": 2574,
      "آياEW": 2575,
      "زمين": 2576,
      "نگر": 2577,
      "ٽائي": 2578,
      "کنEW": 2579,
      "قيامEW": 2580,
      "موسمEW": 2581,
      "سائيزEW": 2582,
      "انجنيئر": 2583,
      "em": 2584,
      "بري": 2585,
      "وڪ": 2586,
      "يونNL": 2587,
      "ڳوٺنEW": 2588,
      "جبلنEW": 2589,
      "ڪرينEW": 2590,
      "لڳيEW": 2591,
      "لئنگ": 2592,
      "ماهرEW": 2593,
      "ڊگريEW": 2594,
      "ڌنEW": 2595,
      "اقت": 2596,
      "ڪونهEW": 2597,
      "معلوماتEW": 2598,
      "17EW": 2599,
      "فرقEW": 2600,
      "يوس": 2601,
      "ئيجEW": 2602,
      "اث": 2603,
      "جينEW": 2604,
      "قص": 2605,
      "ويڪ": 2606,
      "کنڊEW": 2607,
      "NLح": 2608,
      "NLجيEW": 2609,
      "طريقيEW": 2610,
      "ro": 2611,
      "ردEW": 2612,
      "لرEW": 2613,
      "عدال": 2614,
      "روفEW": 2615,
      "ٽرڪEW": 2616,
      "عوامEW": 2617,
      "پٽيEW": 2618,
      "ٺاهڻEW": 2619,
      "ارو": 2620,
      "سگهنEW": 2621,
      "un": 2622,
      "رئينEW": 2623,
      "طور": 2624,
      "نائ": 2625,
      "صوبائيEW": 2626,
      "حالتنEW": 2627,
      "وسلمEW": 2628,
      "اڀر": 2629,
      "نر": 2630,
      "شامEW": 2631,
      "ٻڌلEW": 2632,
      "چين": 2633,
      "حقنEW": 2634,
      "سڪر": 2635,
      "ميش": 2636,
      "ٺو": 2637,
      "NLانEW": 2638,
      "درياههEW": 2639,
      "کڻ": 2640,
      "گرميEW": 2641,
      "ڪلهو": 2642,
      "شهريEW": 2643,
      "تيلEW": 2644,
      "سائيڪ": 2645,
      "نڪريEW": 2646,
      "ائشEW": 2647,
      "ابراه": 2648,
      "مختصرEW": 2649,
      "سھ": 2650,
      "چانڊ": 2651,
      "اسينEW": 2652,
      "پارليا": 2653,
      "هز": 2654,
      "NLهيEW": 2655,
      "سوسEW": 2656,
      "اعظمEW": 2657,
      "يونيورسٽيءEW": 2658,
      "بريEW": 2659,
      "مور": 2660,
      "هيوEW": 2661,
      "لاحي": 2662,
      "اهڙيءEW": 2663,
      "انسان": 2664,
      "عبداللهEW": 2665,
      "دول": 2666,
      "ايٽ": 2667,
      "تيزEW": 2668,
      "پرائمريEW": 2669,
      "قيءEW": 2670,
      "اهڙاEW": 2671,
      "هد": 2672,
      "ادارنEW": 2673,
      "خال": 2674,
      "چان": 2675,
      "روي": 2676,
      "ترمي": 2677,
      "مڪنEW": 2678,
      "ڪريمEW": 2679,
      "وسيعEW": 2680,
      "سيءEW": 2681,
      "تخلي": 2682,
      "تهذي": 2683,
      "شڪستEW": 2684,
      "آئي": 2685,
      "اڀ": 2686,
      "ڪيميائيEW": 2687,
      "فز": 2688,
      "لاڳوEW": 2689,
      "وطنEW": 2690,
      "لئنگئيجEW": 2691,
      "ڳو": 2692,
      "شعرEW": 2693,
      "الح": 2694,
      "صوفيEW": 2695,
      "دلچ": 2696,
      "اظ": 2697,
      "مقدارEW": 2698,
      "ڪانفر": 2699,
      "شهيدEW": 2700,
      "آدمش": 2701,
      "قاتEW": 2702,
      "قسمنEW": 2703,
      "نمون": 2704,
      "يندڙ": 2705,
      "رهندوEW": 2706,
      "وٺڻEW": 2707,
      "اڪEW": 2708,
      "ڪمپنيEW": 2709,
      "سريEW": 2710,
      "اقتص": 2711,
      "شاگردEW": 2712,
      "قاسمEW": 2713,
      "پين": 2714,
      "قاع": 2715,
      "In": 2716,
      "پيڊياEW": 2717,
      "سياح": 2718,
      "راند": 2719,
      "فٽEW": 2720,
      "ابراهيمEW": 2721,
      "چڪاEW": 2722,
      "ريهEW": 2723,
      "راڄ": 2724,
      "ڪريو": 2725,
      "واپاريEW": 2726,
      "پکيڙEW": 2727,
      "سزاEW": 2728,
      "رسولEW": 2729,
      "لائينEW": 2730,
      "بيمار": 2731,
      "ننڍوEW": 2732,
      "سرڪارEW": 2733,
      "احت": 2734,
      "حسا": 2735,
      "جھEW": 2736,
      "رائيEW": 2737,
      "لق": 2738,
      "هڪڙوEW": 2739,
      "رحي": 2740,
      "ڇاپوEW": 2741,
      "جماعتEW": 2742,
      "سکرEW": 2743,
      "ھونداEW": 2744,
      "تڪEW": 2745,
      "جذ": 2746,
      "تلا": 2747,
      "صيلEW": 2748,
      "پيپل": 2749,
      "شڪارپورEW": 2750,
      "شيرEW": 2751,
      "مبل": 2752,
      "کل": 2753,
      "هج": 2754,
      "چوڌاريEW": 2755,
      "روين": 2756,
      "پوک": 2757,
      "ra": 2758,
      "صلEW": 2759,
      "ڌيءEW": 2760,
      "اسبEW": 2761,
      "ھونديEW": 2762,
      "نرEW": 2763,
      "انعامEW": 2764,
      "ٽيڪنالا": 2765,
      "پيدائشEW": 2766,
      "انجامEW": 2767,
      "مسي": 2768,
      "ريا": 2769,
      "ڊوEW": 2770,
      "hEW": 2771,
      "علميEW": 2772,
      "ميٽرنEW": 2773,
      "کانسواءEW": 2774,
      "زو": 2775,
      "يڪيو": 2776,
      "قانونيEW": 2777,
      "صدي": 2778,
      "رون": 2779,
      "پکڙيلEW": 2780,
      "ec": 2781,
      "اپ": 2782,
      "حر": 2783,
      "ڇپائيندڙ": 2784,
      "بحثEW": 2785,
      "جيو": 2786,
      "بلوچEW": 2787,
      "گروپEW": 2788,
      "مندEW": 2789,
      "سلسلوEW": 2790,
      "هNL": 2791,
      "فهرست": 2792,
      "فهرستEW": 2793,
      "قلعوEW": 2794,
      "ناهي": 2795,
      "انسائيڪ": 2796,
      "تالEW": 2797,
      "اينڊEW": 2798,
      "ؤEW": 2799,
      "لينEW": 2800,
      "پالي": 2801,
      "سمجھ": 2802,
      "درياءEW": 2803,
      "معاشيEW": 2804,
      "کاتيEW": 2805,
      "NLڪ": 2806,
      "ملڪي": 2807,
      "روايتيEW": 2808,
      "له": 2809,
      "ناهيEW": 2810,
      "ٿر": 2811,
      "Th": 2812,
      "NLاي": 2813,
      "2017EW": 2814,
      "بهترEW": 2815,
      "ڇپيلEW": 2816,
      "انو": 2817,
      "جرمن": 2818,
      "روينيوEW": 2819,
      "24EW": 2820,
      "رڪنEW": 2821,
      "ڊر": 2822,
      "ماحول": 2823,
      "وزيراعظمEW": 2824,
      "شيونEW": 2825,
      "پيغ": 2826,
      "جاند": 2827,
      "هين": 2828,
      "ليتEW": 2829,
      "قوتEW": 2830,
      "خلافتEW": 2831,
      "21EW": 2832,
      "رڻEW": 2833,
      "مطالعوEW": 2834,
      "داسEW": 2835,
      "قدرEW": 2836,
      "NLپ": 2837,
      "پالEW": 2838,
      "186": 2839,
      "اعز": 2840,
      "نمازEW": 2841,
      "ريانEW": 2842,
      "نشانEW": 2843,
      "بزرگEW": 2844,
      "ترا": 2845,
      "نٿوEW": 2846,
      "ٺاEW": 2847,
      "ڇي": 2848,
      "ستنEW": 2849,
      "فلسفيEW": 2850,
      "چوٿونEW": 2851,
      "ميون": 2852,
      "نڪتلEW": 2853,
      "سڃاڻپEW": 2854,
      "فور": 2855,
      "لياEW": 2856,
      "راڳEW": 2857,
      "ولنEW": 2858,
      "اٿارٽي": 2859,
      "22EW": 2860,
      "مائيEW": 2861,
      "ماديEW": 2862,
      "ولدEW": 2863,
      "گولEW": 2864,
      "باو": 2865,
      "الو": 2866,
      "خوب": 2867,
      "هڪڙيEW": 2868,
      "منتقلEW": 2869,
      "سسٽ": 2870,
      "واتEW": 2871,
      "دوستEW": 2872,
      "ڪيتراEW": 2873,
      "نڪر": 2874,
      "ٽائ": 2875,
      "ڪھ": 2876,
      "رکيو": 2877,
      "عمر": 2878,
      "ڻNL": 2879,
      "سڃاتوEW": 2880,
      "آثارEW": 2881,
      "آدمشماريEW": 2882,
      "تش": 2883,
      "سلامEW": 2884,
      "شايدEW": 2885,
      "فيصلوEW": 2886,
      "فرانسEW": 2887,
      "الا": 2888,
      "دريافتEW": 2889,
      "ڪاميابEW": 2890,
      "مقابليEW": 2891,
      "برابرEW": 2892,
      "اڳواڻEW": 2893,
      "افغانستانEW": 2894,
      "مودEW": 2895,
      "سرش": 2896,
      "گهرجي": 2897,
      "اليڪشنEW": 2898,
      "دارنEW": 2899,
      "40EW": 2900,
      "جام": 2901,
      "سائيEW": 2902,
      "عن": 2903,
      "بلڪلEW": 2904,
      "iEW": 2905,
      "ماس": 2906,
      "البEW": 2907,
      "اخلا": 2908,
      "نورEW": 2909,
      "185": 2910,
      "خدمتEW": 2911,
      "پنجابيEW": 2912,
      "ٺلEW": 2913,
      "دستاوي": 2914,
      "ريڊيوEW": 2915,
      "ڪمپيوٽرEW": 2916,
      "چئيEW": 2917,
      "ھڪ": 2918,
      "سوسائ": 2919,
      "فيدEW": 2920,
      "دش": 2921,
      "نظمEW": 2922,
      "ده": 2923,
      "عزي": 2924,
      "فوEW": 2925,
      "چونڊنEW": 2926,
      "هائيEW": 2927,
      "ورھ": 2928,
      "سامهونEW": 2929,
      "داننEW": 2930,
      "ذرب": 2931,
      "صلاحي": 2932,
      "وڌEW": 2933,
      "خاصي": 2934,
      "منظورEW": 2935,
      "نهايتEW": 2936,
      "پکيEW": 2937,
      "واڻيEW": 2938,
      "منهنEW": 2939,
      "علائقاEW": 2940,
      "ڌرمEW": 2941,
      "um": 2942,
      "جدو": 2943,
      "ويون": 2944,
      "187": 2945,
      "پڙهڻEW": 2946,
      "نقصانEW": 2947,
      "توانائيEW": 2948,
      "زالEW": 2949,
      "تختEW": 2950,
      "سگھيEW": 2951,
      "انسائيڪلو": 2952,
      "شاعر": 2953,
      "ننڍاEW": 2954,
      "حڪيمEW": 2955,
      "هٿ": 2956,
      "ستائينEW": 2957,
      "آزاديءEW": 2958,
      "ذربائي": 2959,
      "عنوانEW": 2960,
      "ويونEW": 2961,
      "NLسنڌيEW": 2962,
      "هندستانيEW": 2963,
      "ريگستانEW": 2964,
      "وفاقيEW": 2965,
      "جتانEW": 2966,
      "دٻ": 2967,
      "دريEW": 2968,
      "واحدEW": 2969,
      "نامي": 2970,
      "ازوEW": 2971,
      "اينداEW": 2972,
      "فرا": 2973,
      "سوويتEW": 2974,
      "سڌيEW": 2975,
      "اديبEW": 2976,
      "ڀٽوEW": 2977,
      "ڏينEW": 2978,
      "روسيEW": 2979,
      "وسيليEW": 2980,
      "ha": 2981,
      "NLگ": 2982,
      "ڪيائينEW": 2983,
      "ولي": 2984,
      "غري": 2985,
      "رساليEW": 2986,
      "فردEW": 2987,
      "184": 2988,
      "منهنجيEW": 2989,
      "دلچس": 2990,
      "متح": 2991,
      "چنڊEW": 2992,
      "شاعرنEW": 2993,
      "هاڻ": 2994,
      "مليو": 2995,
      "لڳا": 2996,
      "جوابEW": 2997,
      "ul": 2998,
      "قمبرEW": 2999,
      "ڏٺوEW": 3000,
      "تنظي": 3001,
      "آسٽري": 3002,
      "ٽونEW": 3003,
      "هون": 3004,
      "پرن": 3005,
      "مجي": 3006,
      "هتانEW": 3007,
      "ڪوٽ": 3008,
      "عمارتEW": 3009,
      "نمائندگيEW": 3010,
      "حدنEW": 3011,
      "لطيفEW": 3012,
      "ڪراچي": 3013,
      "ڪورٽEW": 3014,
      "بدرانEW": 3015,
      "ist": 3016,
      "ڊسٽ": 3017,
      "عالمنEW": 3018,
      "adEW": 3019,
      "ڀيٽEW": 3020,
      "نوابEW": 3021,
      "انقلابEW": 3022,
      "00": 3023,
      "حدي": 3024,
      "انهEW": 3025,
      "ريNL": 3026,
      "ڳالھ": 3027,
      "رھيو": 3028,
      "ڏهاڪيEW": 3029,
      "ماليEW": 3030,
      "بادشاه": 3031,
      "دودEW": 3032,
      "ميوز": 3033,
      "حل": 3034,
      "لڏيEW": 3035,
      "ممڪنEW": 3036,
      "همEW": 3037,
      "رھيوEW": 3038,
      "خدمتونEW": 3039,
      "اسيمبل": 3040,
      "تون": 3041,
      "ڄائو": 3042,
      "ہي": 3043,
      "ميمبر": 3044,
      "درجيEW": 3045,
      "پوليسEW": 3046,
      "اڪيڊميEW": 3047,
      "وڄ": 3048,
      "ڪڻEW": 3049,
      "ايس": 3050,
      "اڪنEW": 3051,
      "سگهي": 3052,
      "شخصي": 3053,
      "مضموننEW": 3054,
      "بائ": 3055,
      "مسEW": 3056,
      "مندرEW": 3057,
      "ھيا": 3058,
      "ادتEW": 3059,
      "ٽل": 3060,
      "ٽڻEW": 3061,
      "پڌ": 3062,
      "گنEW": 3063,
      "مطابق": 3064,
      "اڳوڻيEW": 3065,
      "رھيEW": 3066,
      "ٿوريEW": 3067,
      "گھڻوEW": 3068,
      "23EW": 3069,
      "رائي": 3070,
      "عيلEW": 3071,
      "سنگEW": 3072,
      "ڊگھ": 3073,
      "راڄEW": 3074,
      "نالو": 3075,
      "رفتارEW": 3076,
      "اڪبرEW": 3077,
      "شاخ": 3078,
      "اچنEW": 3079,
      "جاپ": 3080,
      "گاھEW": 3081,
      "ھيٺEW": 3082,
      "انتظامEW": 3083,
      "غز": 3084,
      "فيڪ": 3085,
      "نسل": 3086,
      "ڪس": 3087,
      "پٺيانEW": 3088,
      "وءEW": 3089,
      "پريسEW": 3090,
      "لاط": 3091,
      "نگرEW": 3092,
      "ائوEW": 3093,
      "اڳيEW": 3094,
      "ھيٺ": 3095,
      "گذار": 3096,
      "بNL": 3097,
      "بغاوتEW": 3098,
      "لتEW": 3099,
      "تعلقو": 3100,
      "ڏاڍوEW": 3101,
      "ڪNL": 3102,
      "ملتانEW": 3103,
      "25": 3104,
      "7ع": 3105,
      "دگيEW": 3106,
      "ڪرائيEW": 3107,
      "وينديونEW": 3108,
      "تقريبنEW": 3109,
      "حدونEW": 3110,
      "آيا": 3111,
      "دما": 3112,
      "جرمنEW": 3113,
      "جانورEW": 3114,
      "بج": 3115,
      "سفار": 3116,
      "وائي": 3117,
      "الز": 3118,
      "محسوسEW": 3119,
      "ويندو": 3120,
      "تعارفEW": 3121,
      "امتح": 3122,
      "مردEW": 3123,
      "بندر": 3124,
      "وض": 3125,
      "ڪينEW": 3126,
      "ندا": 3127,
      "ڪاؤ": 3128,
      "ڏيک": 3129,
      "مغلEW": 3130,
      "اسماعيلEW": 3131,
      "شانEW": 3132,
      "ابو": 3133,
      "کيرEW": 3134,
      "چم": 3135,
      "کاEW": 3136,
      "پنهنجنEW": 3137,
      "يق": 3138,
      "پاب": 3139,
      "انNL": 3140,
      "نوازEW": 3141,
      "راندEW": 3142,
      "عمليEW": 3143,
      "ڌيانEW": 3144,
      "آس": 3145,
      "حما": 3146,
      "گيتEW": 3147,
      "اڻي": 3148,
      "انيهEW": 3149,
      "ڍEW": 3150,
      "ارNL": 3151,
      "سنسڪر": 3152,
      "تاجEW": 3153,
      "ڪروڙEW": 3154,
      "مرو": 3155,
      "ٻجEW": 3156,
      "ڀيراEW": 3157,
      "محق": 3158,
      "ٿوروEW": 3159,
      "يوسفEW": 3160,
      "ٻا": 3161,
      "ديشEW": 3162,
      "گهڻاEW": 3163,
      "سرنEW": 3164,
      "پيدائش": 3165,
      "As": 3166,
      "ليءEW": 3167,
      "هاريEW": 3168,
      "ٽنڊ": 3169,
      "پنهنجاEW": 3170,
      "انگريزيءEW": 3171,
      "صفحيEW": 3172,
      "بندرEW": 3173,
      "ڪانEW": 3174,
      "پويEW": 3175,
      "ديوانEW": 3176,
      "تينEW": 3177,
      "خشڪEW": 3178,
      "ڙائيEW": 3179,
      "محمودEW": 3180,
      "رسمEW": 3181,
      "سيرEW": 3182,
      "فرز": 3183,
      "onEW": 3184,
      "ميٽر": 3185,
      "ملينEW": 3186,
      "ڪنٽرو": 3187,
      "2018": 3188,
      "نگيEW": 3189,
      "سبEW": 3190,
      "کوEW": 3191,
      "ڪتبEW": 3192,
      "رن": 3193,
      "جيلEW": 3194,
      "ضيءEW": 3195,
      "ڊڪشن": 3196,
      "زNL": 3197,
      "ڏينهن": 3198,
      "مغر": 3199,
      "سموريEW": 3200,
      "تسليمEW": 3201,
      "جاب": 3202,
      "گاديEW": 3203,
      "اداروEW": 3204,
      "پنجنEW": 3205,
      "غي": 3206,
      "مڪيEW": 3207,
      "ڊال": 3208,
      "الوEW": 3209,
      "جنسيEW": 3210,
      "سرگر": 3211,
      "انسائيڪلوپيڊياEW": 3212,
      "هه": 3213,
      "هميش": 3214,
      "برسا": 3215,
      "اھرEW": 3216,
      "ٿينديونEW": 3217,
      "مصرEW": 3218,
      "خيرپورEW": 3219,
      "حسابEW": 3220,
      "حمليEW": 3221,
      "لاسEW": 3222,
      "حڪمرانEW": 3223,
      "ملڪيتEW": 3224,
      "آذربائي": 3225,
      "ارا": 3226,
      "نيٽEW": 3227,
      "نيڪ": 3228,
      "واريونEW": 3229,
      "انگريزي": 3230,
      "عNL": 3231,
      "ٻڌEW": 3232,
      "پهرئينEW": 3233,
      "edEW": 3234,
      "سعو": 3235,
      "ٻوٽنEW": 3236,
      "بلندEW": 3237,
      "انگريزEW": 3238,
      "ڇپيندڙ": 3239,
      "اتحادEW": 3240,
      "دع": 3241,
      "طاEW": 3242,
      "ڪشميرEW": 3243,
      "بول": 3244,
      "ڙھ": 3245,
      "شعبيEW": 3246,
      "عش": 3247,
      "هري": 3248,
      "ويبEW": 3249,
      "صوبنEW": 3250,
      "ذاتيEW": 3251,
      "وو": 3252,
      "NLهيءEW": 3253,
      "انسٽي": 3254,
      "ڪيم": 3255,
      "پراڻوEW": 3256,
      "ڪڍيEW": 3257,
      "28EW": 3258,
      "ساه": 3259,
      "وسند": 3260,
      "پلEW": 3261,
      "پيمانيEW": 3262,
      "مرت": 3263,
      "ڌي": 3264,
      "ساح": 3265,
      "ايڊيٽرEW": 3266,
      "منجهانEW": 3267,
      "معيشتEW": 3268,
      "ڄامشوروNL": 3269,
      "26EW": 3270,
      "حالEW": 3271,
      "رق": 3272,
      "محلEW": 3273,
      "بره": 3274,
      "inEW": 3275,
      "ڊسٽرڪ": 3276,
      "(:": 3277,
      "آمدEW": 3278,
      "اکرEW": 3279,
      "چينيEW": 3280,
      "ايتريEW": 3281,
      "ڊيٽاEW": 3282,
      "اڀي": 3283,
      "رڪEW": 3284,
      "الن": 3285,
      "بادشاھEW": 3286,
      "دادڪوٽEW": 3287,
      "ولا": 3288,
      "NLهڪEW": 3289,
      "فاظ": 3290,
      "نسليEW": 3291,
      "لائيEW": 3292,
      "نظر": 3293,
      "مدارEW": 3294,
      "ڪندي": 3295,
      "دعو": 3296,
      "اڳيانEW": 3297,
      "انگيEW": 3298,
      "سوالEW": 3299,
      "لقبEW": 3300,
      "زرEW": 3301,
      "سچ": 3302,
      "فطر": 3303,
      "زيشنEW": 3304,
      "بڻايوEW": 3305,
      "ٿين": 3306,
      "رکي": 3307,
      "دتEW": 3308,
      "ديروEW": 3309,
      "عيدEW": 3310,
      "اسيمبليءEW": 3311,
      "آمد": 3312,
      "رخEW": 3313,
      "ڪانفرنسEW": 3314,
      "ايڇEW": 3315,
      "مهينيEW": 3316,
      "بورڊ": 3317,
      "ڊسٽرڪٽEW": 3318,
      "27EW": 3319,
      "روپEW": 3320,
      "رواجEW": 3321,
      "بيڪ": 3322,
      "هونديونEW": 3323,
      "گرفتارEW": 3324,
      "جز": 3325,
      "ڱيEW": 3326,
      "هندو": 3327,
      "ووٽEW": 3328,
      "ٽشEW": 3329,
      "تبديليEW": 3330,
      "ويل": 3331,
      "چوريوEW": 3332,
      "تنقيدEW": 3333,
      "24": 3334,
      "حفاظ": 3335,
      "ھجيEW": 3336,
      "ڀاڱوEW": 3337,
      "چڪيEW": 3338,
      "اسپي": 3339,
      "عربي": 3340,
      "مگرEW": 3341,
      "ايل": 3342,
      "برد": 3343,
      "لکتEW": 3344,
      "رکيلEW": 3345,
      "ڪرايوEW": 3346,
      "قبيلنEW": 3347,
      "انسٽيٽيو": 3348,
      "سازEW": 3349,
      "افظEW": 3350,
      "سيني": 3351,
      "مالڪEW": 3352,
      "هريEW": 3353,
      "NLش": 3354,
      "20عEW": 3355,
      "op": 3356,
      "طو": 3357,
      "نلEW": 3358,
      "ڀو": 3359,
      "گها": 3360,
      "معاه": 3361,
      "ائليEW": 3362,
      "ميمڻEW": 3363,
      "ايتروEW": 3364,
      "جهڙيEW": 3365,
      "وارينEW": 3366,
      "ٿيندو": 3367,
      "چيفEW": 3368,
      "يڪيشنEW": 3369,
      "قبرستانEW": 3370,
      "ٿل": 3371,
      "بهادرEW": 3372,
      "علاجEW": 3373,
      "معاملنEW": 3374,
      "تھEW": 3375,
      "سمي": 3376,
      "ڪانگري": 3377,
      "لاهورEW": 3378,
      "ماڻيEW": 3379,
      "مولويEW": 3380,
      "بيرEW": 3381,
      "محدودEW": 3382,
      "شخصيتEW": 3383,
      "سامانEW": 3384,
      "وزنEW": 3385,
      "ميںEW": 3386,
      "جار": 3387,
      "ناڪ": 3388,
      "ڙا": 3389,
      "الب": 3390,
      "زرا": 3391,
      "لنڊنEW": 3392,
      "رايوEW": 3393,
      "رکنEW": 3394,
      "پرڏي": 3395,
      "ڏيئيEW": 3396,
      "تھ": 3397,
      "طريقوEW": 3398,
      "اتر": 3399,
      "غير": 3400,
      "ارتق": 3401,
      "ملڪيEW": 3402,
      "ڪوٺ": 3403,
      "بڻائيEW": 3404,
      "آفيسرEW": 3405,
      "واض": 3406,
      "رهائشEW": 3407,
      "ڏاڍيEW": 3408,
      "ڊيمEW": 3409,
      "سياريEW": 3410,
      "پهچيEW": 3411,
      "سگھجيEW": 3412,
      "فائدوEW": 3413,
      "جاگرافيائيEW": 3414,
      "تهذيبEW": 3415,
      "معروفEW": 3416,
      "صفحنEW": 3417,
      "زمينيEW": 3418,
      "مستقلEW": 3419,
      "سسٽمEW": 3420,
      "ئڻEW": 3421,
      "رش": 3422,
      "متعلقEW": 3423,
      "ڳڻ": 3424,
      "لکياEW": 3425,
      "سرويEW": 3426,
      "آفيسEW": 3427,
      "پٿ": 3428,
      "ارونEW": 3429,
      "آهيNL": 3430,
      "ڪائونسل": 3431,
      "ذيليEW": 3432,
      "وٽانEW": 3433,
      "مجموعيEW": 3434,
      "اقتصاديEW": 3435,
      "ڪنٽرولEW": 3436,
      "هندEW": 3437,
      "پوئ": 3438,
      "ڪاٺEW": 3439,
      "سڏينداEW": 3440,
      "تجوي": 3441,
      "مسئلنEW": 3442,
      "سنڀال": 3443,
      "ڊائريڪٽرEW": 3444,
      "تڪ": 3445,
      "درا": 3446,
      "زل": 3447,
      "فاصليEW": 3448,
      "کر": 3449,
      "ڪيون": 3450,
      "انيءEW": 3451,
      "ڪلاسيڪ": 3452,
      "دين": 3453,
      "شاEW": 3454,
      "پيٽEW": 3455,
      "بحريEW": 3456,
      "os": 3457,
      "ڪچ": 3458,
      "ريشنEW": 3459,
      "برقرارEW": 3460,
      "رهنداEW": 3461,
      "ڪرارEW": 3462,
      "آرEW": 3463,
      "چن": 3464,
      "امرEW": 3465,
      "رهيا": 3466,
      "ڪلوميٽرنEW": 3467,
      "سنسڪرتEW": 3468,
      "جهو": 3469,
      "نوجوانEW": 3470,
      "سڪند": 3471,
      "2015EW": 3472,
      "خري": 3473,
      "نور": 3474,
      "ندنEW": 3475,
      "فرزندEW": 3476,
      "29EW": 3477,
      "oc": 3478,
      "بئ": 3479,
      "ذوال": 3480,
      "ساسEW": 3481,
      "عرا": 3482,
      "عباد": 3483,
      "ڏينداEW": 3484,
      "گلو": 3485,
      "اصولEW": 3486,
      "ڀاڱيEW": 3487,
      "دNL": 3488,
      "جهڙوEW": 3489,
      "تصني": 3490,
      "دريا": 3491,
      "اضاف": 3492,
      "27": 3493,
      "60EW": 3494,
      "فڪEW": 3495,
      "نوي": 3496,
      "گار": 3497,
      "پارٽيءEW": 3498,
      "ايڊيشنEW": 3499,
      "عهديEW": 3500,
      "ٽائونEW": 3501,
      "ضلعو": 3502,
      "tic": 3503,
      "100EW": 3504,
      "ab": 3505,
      "سٽيEW": 3506,
      "فونEW": 3507,
      "خرچEW": 3508,
      "رانيEW": 3509,
      "ٻر": 3510,
      "لازم": 3511,
      "لڳي": 3512,
      "عثمانEW": 3513,
      "نظرييEW": 3514,
      "داس": 3515,
      "السلامEW": 3516,
      "عربنEW": 3517,
      "تقريباEW": 3518,
      "اورEW": 3519,
      "چونڊجيEW": 3520,
      "ڏاکڻيEW": 3521,
      "معيارEW": 3522,
      "ad": 3523,
      "قدمEW": 3524,
      "پوڄ": 3525,
      "فرانسي": 3526,
      "گجراتEW": 3527,
      "وضاح": 3528,
      "حمايتEW": 3529,
      "ir": 3530,
      "قد": 3531,
      "ڙڻEW": 3532,
      "مليلEW": 3533,
      "گھڻيEW": 3534,
      "اھي": 3535,
      "پارٽ": 3536,
      "لڳلEW": 3537,
      "ڳالھEW": 3538,
      "حوالوEW": 3539,
      "تصويرEW": 3540,
      "اعزازEW": 3541,
      "23": 3542,
      "آهستيEW": 3543,
      "جهازEW": 3544,
      "نيمEW": 3545,
      "پاڪستان": 3546,
      "ايراضيEW": 3547,
      "ٽيڪنالاجيEW": 3548,
      "موٽيEW": 3549,
      "ولو": 3550,
      "علامهEW": 3551,
      "ميڊياEW": 3552,
      "le": 3553,
      "ابوال": 3554,
      "ناٽڪEW": 3555,
      "ضلعنEW": 3556,
      "مجموعوEW": 3557,
      "پارليامينٽEW": 3558,
      "باوجودEW": 3559,
      "ak": 3560,
      "صلاحEW": 3561,
      "ڪائن": 3562,
      "رسالوEW": 3563,
      "امتحانEW": 3564,
      "وڻ": 3565,
      "ڏانھنEW": 3566,
      "ويجھ": 3567,
      "پسEW": 3568,
      "مشاه": 3569,
      "تحقيقيEW": 3570,
      "ڊا": 3571,
      "ڪارنEW": 3572,
      "لائقEW": 3573,
      "مخالفEW": 3574,
      "ضاب": 3575,
      "روح": 3576,
      "سوان": 3577,
      "ڪاٺ": 3578,
      "پوراEW": 3579,
      "سلامتEW": 3580,
      "عنصرEW": 3581,
      "ادريEW": 3582,
      "لينڊ": 3583,
      "ساحليEW": 3584,
      "هٿي": 3585,
      "ڏھ": 3586,
      "توھانEW": 3587,
      "پڌروEW": 3588,
      "آئر": 3589,
      "جتو": 3590,
      "يار": 3591,
      "ڀائ": 3592,
      "ڄڻEW": 3593,
      "ڌرEW": 3594,
      "NLمن": 3595,
      "رومنEW": 3596,
      "دروا": 3597,
      "سڪ": 3598,
      "سهو": 3599,
      "ڪمنEW": 3600,
      "جادEW": 3601,
      "ٻوليونEW": 3602,
      "شيائيEW": 3603,
      "ڌرتيEW": 3604,
      "مها": 3605,
      "ملڻEW": 3606,
      "هڻ": 3607,
      "انص": 3608,
      "ڪيري": 3609,
      "تعري": 3610,
      "سانچا": 3611,
      "ائينديEW": 3612,
      "ٻڌايوEW": 3613,
      "عزيزEW": 3614,
      "قبلEW": 3615,
      "شرڪتEW": 3616,
      "سڄوEW": 3617,
      "St": 3618,
      "حرڪ": 3619,
      "لب": 3620,
      "نائي": 3621,
      "اڻاEW": 3622,
      "هاڻEW": 3623,
      "لاڙڪ": 3624,
      "ڪانگريسEW": 3625,
      "ھجڻEW": 3626,
      "ريپبلڪEW": 3627,
      "ورتي": 3628,
      "رکندوEW": 3629,
      "فارمEW": 3630,
      "آڳا": 3631,
      "تڪرارEW": 3632,
      "ذميو": 3633,
      "انڪارEW": 3634,
      "پارڪرEW": 3635,
      "ڪاؤنسلEW": 3636,
      "مغربيEW": 3637,
      "وڙه": 3638,
      "تياريEW": 3639,
      "اھمEW": 3640,
      "فلمنEW": 3641,
      "جمعEW": 3642,
      "عالم": 3643,
      "ٻڌيEW": 3644,
      "30": 3645,
      "کن": 3646,
      "مقبر": 3647,
      "ڏناEW": 3648,
      "آغاEW": 3649,
      "انسٽيٽيوٽEW": 3650,
      "پينEW": 3651,
      "ڏEW": 3652,
      "منجه": 3653,
      "تربيتEW": 3654,
      "سربرا": 3655,
      "سينٽEW": 3656,
      "نقشيEW": 3657,
      "سعوديEW": 3658,
      "يونٽEW": 3659,
      "چوٿينEW": 3660,
      "خانداننEW": 3661,
      "جھيEW": 3662,
      "واديEW": 3663,
      "انچEW": 3664,
      "واڌ": 3665,
      "ترڪيEW": 3666,
      "فيروزEW": 3667,
      "اسپتالEW": 3668,
      "26": 3669,
      "زڪ": 3670,
      "ورهايلEW": 3671,
      "انجنيئرنگEW": 3672,
      "مهر": 3673,
      "ھننEW": 3674,
      "هميشهEW": 3675,
      "لازميEW": 3676,
      "اچي": 3677,
      "جنهنڪريEW": 3678,
      "دوارEW": 3679,
      "رستوEW": 3680,
      "اکينEW": 3681,
      "شوروEW": 3682,
      "سٽنEW": 3683,
      "هندنEW": 3684,
      "پنھنجوEW": 3685,
      "عيسويEW": 3686,
      "ڳنڍيلEW": 3687,
      "مڙسEW": 3688,
      "آندوEW": 3689,
      "سورEW": 3690,
      "ماڳ": 3691,
      "ابي": 3692,
      "ئيشنEW": 3693,
      "وٺي": 3694,
      "آباديءEW": 3695,
      "ڪائناتEW": 3696,
      "):": 3697,
      "9ع": 3698,
      "صرEW": 3699,
      "برٽشEW": 3700,
      "اڻنEW": 3701,
      "نمايانEW": 3702,
      "وائرسEW": 3703,
      "غريبEW": 3704,
      "11": 3705,
      "جيڪڏھنEW": 3706,
      "ڪوبهEW": 3707,
      "سرانجامEW": 3708,
      "روايتنEW": 3709,
      "خطر": 3710,
      "۾.": 3711,
      "ميڪ": 3712,
      "رهندڙEW": 3713,
      "ڪارڻEW": 3714,
      "andEW": 3715,
      "ent": 3716,
      "تعليم": 3717,
      "موسيقيEW": 3718,
      "ٺھيلEW": 3719,
      "فزڪسEW": 3720,
      "28": 3721,
      "فاEW": 3722,
      "وڻنEW": 3723,
      "ترڪEW": 3724,
      "معمو": 3725,
      "ڇپائيEW": 3726,
      "ديوتاEW": 3727,
      "خانوEW": 3728,
      "ڪالونيEW": 3729,
      "اليڪٽر": 3730,
      "مرحومEW": 3731,
      "وائيسEW": 3732,
      "35": 3733,
      "آت": 3734,
      "آپري": 3735,
      "دڙيEW": 3736,
      "نوEW": 3737,
      "هائي": 3738,
      "NLسالEW": 3739,
      "رونيEW": 3740,
      "مرڻEW": 3741,
      "2005عEW": 3742,
      "آرڪي": 3743,
      "آخر": 3744,
      "فطرتEW": 3745,
      "ئيءEW": 3746,
      "شل": 3747,
      "ڳي": 3748,
      "شوقEW": 3749,
      "انتهائيEW": 3750,
      "مزاح": 3751,
      "غلطEW": 3752,
      "ماحولياتيEW": 3753,
      "خصو": 3754,
      "کائڻEW": 3755,
      "سمانيEW": 3756,
      "دولتEW": 3757,
      "بيو": 3758,
      "ڪاف": 3759,
      "رومEW": 3760,
      "چونڊيلEW": 3761,
      "راجپو": 3762,
      "TheEW": 3763,
      "بئن": 3764,
      "خرابEW": 3765,
      "مفيدEW": 3766,
      "ھج": 3767,
      "ڪيرEW": 3768,
      "فلسط": 3769,
      "صنعتEW": 3770,
      "خودمختيارEW": 3771,
      "31EW": 3772,
      "دفنEW": 3773,
      "متعارفEW": 3774,
      "ياNL": 3775,
      "ڪرائڻEW": 3776,
      "مدينيEW": 3777,
      "مطالعيEW": 3778,
      "جڪEW": 3779,
      "زونEW": 3780,
      "يناEW": 3781,
      "سربر": 3782,
      "مهراڻEW": 3783,
      "اڀياسEW": 3784,
      "مٽ": 3785,
      "ويندڙEW": 3786,
      "اينديEW": 3787,
      "جيوEW": 3788,
      "غلا": 3789,
      "درخو": 3790,
      "جازEW": 3791,
      "اختلا": 3792,
      "تخليقEW": 3793,
      "id": 3794,
      "kEW": 3795,
      "سٺوEW": 3796,
      "لکي": 3797,
      "مناسبEW": 3798,
      "قانون": 3799,
      "سمجهيEW": 3800,
      "شهرNLزمرو": 3801,
      "دلچسپيEW": 3802,
      "شماريEW": 3803,
      "پڇ": 3804,
      "خوبصورتEW": 3805,
      "حرڪتEW": 3806,
      "احEW": 3807,
      "رز": 3808,
      "NLديھEW": 3809,
      "منصو": 3810,
      "مقبولEW": 3811,
      "انگلينڊEW": 3812,
      "اور": 3813,
      "ڏيندوEW": 3814,
      "گلا": 3815,
      "ويئي": 3816,
      "واسطوEW": 3817,
      "دماغEW": 3818,
      "اضافوEW": 3819,
      "سٺيEW": 3820,
      "قسم": 3821,
      "ڀڳ": 3822,
      "معياريEW": 3823,
      "مسيحEW": 3824,
      "آذربائيجانEW": 3825,
      "ليونEW": 3826,
      "چاه": 3827,
      "ادهEW": 3828,
      "بيبيEW": 3829,
      "اندازوEW": 3830,
      "کاڌيEW": 3831,
      "سج": 3832,
      "بيل": 3833,
      "نالنEW": 3834,
      "مارجيEW": 3835,
      "ورهاڱيEW": 3836,
      "عدالتEW": 3837,
      "سڏجيEW": 3838,
      "ڊراماEW": 3839,
      "عقدEW": 3840,
      "بکرEW": 3841,
      "هال": 3842,
      "هيا": 3843,
      "پٽنEW": 3844,
      "گاEW": 3845,
      "ڻيNL": 3846,
      "NLر": 3847,
      "يڪاEW": 3848,
      "ڪوئ": 3849,
      "ماليڪيو": 3850,
      "ڪششEW": 3851,
      "سياستدان": 3852,
      "nEW": 3853,
      "اڄ": 3854,
      "راڪEW": 3855,
      "پارڪEW": 3856,
      "بوتEW": 3857,
      "تنهن": 3858,
      "روزانيEW": 3859,
      "NLــEW": 3860,
      "منظمEW": 3861,
      "ڪرايو": 3862,
      "يادگارEW": 3863,
      "سانچاNLزمرو": 3864,
      "کول": 3865,
      "اسٽو": 3866,
      "ورثيEW": 3867,
      "ماڻهو": 3868,
      "پهتو": 3869,
      "ڪريءEW": 3870,
      "مجيدEW": 3871,
      "AEW": 3872,
      "ap": 3873,
      "بارنEW": 3874,
      "مزEW": 3875,
      "هيونEW": 3876,
      "چاEW": 3877,
      "NLل": 3878,
      "انٽ": 3879,
      "واڌEW": 3880,
      "سينٽر": 3881,
      "1947عEW": 3882,
      "رحمانEW": 3883,
      "بمبئيEW": 3884,
      "Jog": 3885,
      "عزتEW": 3886,
      "کنڊ": 3887,
      "ڪيسEW": 3888,
      "ملائيEW": 3889,
      "واقعيEW": 3890,
      "ھئاEW": 3891,
      "دادوEW": 3892,
      "ھياEW": 3893,
      "NLمحمدEW": 3894,
      "پريمEW": 3895,
      "برطانياEW": 3896,
      "ڇپا": 3897,
      "منعقدEW": 3898,
      "اڳوڻوEW": 3899,
      "زميند": 3900,
      "ـEW": 3901,
      "مزارEW": 3902,
      "سراس": 3903,
      "گذر": 3904,
      "رسالو": 3905,
      "عھ": 3906,
      "پش": 3907,
      "اهڙنEW": 3908,
      "رحيمEW": 3909,
      "روحEW": 3910,
      "سيمEW": 3911,
      "ٻولي": 3912,
      "مسٽرEW": 3913,
      "ننڍڙوEW": 3914,
      "ٽيڪلEW": 3915,
      "اڳواڻيEW": 3916,
      "ڊگهيEW": 3917,
      "ماهرنEW": 3918,
      "تجويزEW": 3919,
      "فرانسيسيEW": 3920,
      "علEW": 3921,
      "فارEW": 3922,
      "پدEW": 3923,
      "باھEW": 3924,
      "احوالEW": 3925,
      "سيڪنڊ": 3926,
      "arEW": 3927,
      "ڇپيو": 3928,
      "سيوهڻEW": 3929,
      "پيپلزEW": 3930,
      "بش": 3931,
      "تہ": 3932,
      "مڇ": 3933,
      "مٿا": 3934,
      "ڀEW": 3935,
      "ڪڙ": 3936,
      "ڪوار": 3937,
      "ڪئنا": 3938,
      "مخالفتEW": 3939,
      "صنعتيEW": 3940,
      "اوچائيEW": 3941,
      "ig": 3942,
      "فريEW": 3943,
      "مند": 3944,
      "مائي": 3945,
      "نڪ": 3946,
      "هجن": 3947,
      "حيدرEW": 3948,
      "شرحEW": 3949,
      "ٻنھيEW": 3950,
      "پکڙ": 3951,
      "80EW": 3952,
      "خانيEW": 3953,
      "مٽي": 3954,
      "ڄمارEW": 3955,
      "ڪريونEW": 3956,
      "انساننEW": 3957,
      "راڄڌ": 3958,
      "ڌو": 3959,
      "NLھ": 3960,
      "اندر": 3961,
      "ورلڊEW": 3962,
      "ٺاهيوEW": 3963,
      "خدمتنEW": 3964,
      "سکياEW": 3965,
      "اظهارEW": 3966,
      "ڏسند": 3967,
      "NLو": 3968,
      "NLھيEW": 3969,
      "روشنEW": 3970,
      "بيماريEW": 3971,
      "وضاحتEW": 3972,
      "29": 3973,
      "ڙھEW": 3974,
      "انينEW": 3975,
      "راتيEW": 3976,
      "اوزارEW": 3977,
      "ترقيءEW": 3978,
      "خواه": 3979,
      "پريس": 3980,
      "هليوEW": 3981,
      "لائبري": 3982,
      "مؤ": 3983,
      "ڌن": 3984,
      "ٻيٽنEW": 3985,
      "اميدEW": 3986,
      "آسٽريلياEW": 3987,
      "اعليEW": 3988,
      "باقاع": 3989,
      "صدينEW": 3990,
      "پھريون": 3991,
      "يونيورسٽي": 3992,
      "وزارتEW": 3993,
      "لاطينيEW": 3994,
      "6ع": 3995,
      "ريٽEW": 3996,
      "سيٽEW": 3997,
      "ٽيليو": 3998,
      "صورتح": 3999,
      "قادرEW": 4000,
      "جوڻي": 4001,
      "خوشEW": 4002,
      "عرصوEW": 4003,
      "موڪليوEW": 4004,
      "ترميمEW": 4005,
      "حفاظتEW": 4006,
      "ڀٽيEW": 4007,
      "روانوEW": 4008,
      "ايازEW": 4009,
      "ياءEW": 4010,
      "200EW": 4011,
      "جاگيرEW": 4012,
      "سڀئيEW": 4013,
      "اسٽيشن": 4014,
      "نتيجوEW": 4015,
      "عورتونEW": 4016,
      "اکرنEW": 4017,
      "ot": 4018,
      "جڙيلEW": 4019,
      "پارEW": 4020,
      "ڇريEW": 4021,
      "رياض": 4022,
      "ميلا": 4023,
      "ورتيEW": 4024,
      "امينEW": 4025,
      "نظريوEW": 4026,
      "0ع": 4027,
      "ودEW": 4028,
      "ھهEW": 4029,
      "ارهEW": 4030,
      "پيارEW": 4031,
      "منص": 4032,
      "افسان": 4033,
      "شعبنEW": 4034,
      "اميدوارEW": 4035,
      "بورEW": 4036,
      "شين": 4037,
      "فڪرEW": 4038,
      "لاتEW": 4039,
      "اسڪا": 4040,
      "مليوEW": 4041,
      "ديرEW": 4042,
      "بناEW": 4043,
      "ڳاڙ": 4044,
      "رضهEW": 4045,
      "موقعيEW": 4046,
      "کليلEW": 4047,
      "usEW": 4048,
      "ڀڃ": 4049,
      "ڪيءEW": 4050,
      "ڪرائونEW": 4051,
      "بڻيو": 4052,
      "رپياEW": 4053,
      "پيا": 4054,
      "NLاو": 4055,
      "شھرنEW": 4056,
      "ھنڌEW": 4057,
      "ناموEW": 4058,
      "Jogi": 4059,
      "صل": 4060,
      "پکينEW": 4061,
      "روشن": 4062,
      "کوڙEW": 4063,
      "ڪهڙيEW": 4064,
      "حقيقيEW": 4065,
      "خليفيEW": 4066,
      "حديثEW": 4067,
      "AsadEW": 4068,
      "گير": 4069,
      "هوندو": 4070,
      "ستينEW": 4071,
      "اخبارنEW": 4072,
      "ڊويزن": 4073,
      "JogiAsadEW": 4074,
      "سوي": 4075,
      "فيضEW": 4076,
      "ڪاروEW": 4077,
      "دوران": 4078,
      "ايوبEW": 4079,
      "دفعوEW": 4080,
      "اقتدارEW": 4081,
      "زراعتEW": 4082,
      "ڦر": 4083,
      "روڊ": 4084,
      "درجهEW": 4085,
      "فرما": 4086,
      "تصدي": 4087,
      "عيو": 4088,
      "عرو": 4089,
      "اربEW": 4090,
      "اله": 4091,
      "منت": 4092,
      "رئي": 4093,
      "سٽرEW": 4094,
      "تراEW": 4095,
      "سرائ": 4096,
      "طرزEW": 4097,
      "طريقنEW": 4098,
      "iv": 4099,
      "اوEW": 4100,
      "چڪEW": 4101,
      "گور": 4102,
      "سنگههEW": 4103,
      "ايجادEW": 4104,
      "اتلEW": 4105,
      "شھريEW": 4106,
      "جامعEW": 4107,
      "تارEW": 4108,
      "پوندوEW": 4109,
      "2019": 4110,
      "حصاEW": 4111,
      "انٽرنيشنلEW": 4112,
      "جابلوEW": 4113,
      "سراسريEW": 4114,
      "4ع": 4115,
      "ed": 4116,
      "آناEW": 4117,
      "امو": 4118,
      "شهن": 4119,
      "ڪاو": 4120,
      "فراهمEW": 4121,
      "پئجيEW": 4122,
      "چڱوEW": 4123,
      "ميونسپ": 4124,
      "سلو": 4125,
      "يڪسEW": 4126,
      "نيٺEW": 4127,
      "شريڪEW": 4128,
      "مقابلوEW": 4129,
      "جعفر": 4130,
      "جسٽ": 4131,
      "عهEW": 4132,
      "يوNL": 4133,
      "جنگيEW": 4134,
      "سيل": 4135,
      "and": 4136,
      "مسلسلEW": 4137,
      "1990عEW": 4138,
      "ميمبرنEW": 4139,
      "99": 4140,
      "سڳ": 4141,
      "مٽيءEW": 4142,
      "ٽرنEW": 4143,
      "ايشيائيEW": 4144,
      "ياف": 4145,
      "جيڪبEW": 4146,
      "آئينيEW": 4147,
      "اڇ": 4148,
      "سڪEW": 4149,
      "چش": 4150,
      "ڻسEW": 4151,
      "ريڊEW": 4152,
      "سرگرمEW": 4153,
      "ٽالپرEW": 4154,
      "ويجھوEW": 4155,
      "صورتحالEW": 4156,
      "نڪEW": 4157,
      "ٿريEW": 4158,
      "ڪهاڻيEW": 4159,
      "گالEW": 4160,
      "جنسEW": 4161,
      "ڪيترينEW": 4162,
      "ٽيمEW": 4163,
      "پرڳ": 4164,
      "خطيEW": 4165,
      "ingEW": 4166,
      "هائو": 4167,
      "انڪEW": 4168,
      "عرب": 4169,
      "ٽرانس": 4170,
      "عبدالل": 4171,
      "اڃانEW": 4172,
      "هزارينEW": 4173,
      "واضحEW": 4174,
      "ڊيوEW": 4175,
      "ارڻEW": 4176,
      "ننڍڙيEW": 4177,
      "ew": 4178,
      "ازنEW": 4179,
      "قن": 4180,
      "ھڻEW": 4181,
      "فيڊ": 4182,
      "رکنداEW": 4183,
      "ديويEW": 4184,
      "منظرEW": 4185,
      "آڻيEW": 4186,
      "باههEW": 4187,
      "ٽيوEW": 4188,
      "ڪڇEW": 4189,
      "قلمEW": 4190,
      "حڪمرانيEW": 4191,
      "يني": 4192,
      "مهيننEW": 4193,
      "ch": 4194,
      "تاب": 4195,
      "خاليEW": 4196,
      "زوالEW": 4197,
      "برادريEW": 4198,
      "ڪلاسEW": 4199,
      "آخرڪارEW": 4200,
      "بحEW": 4201,
      "نبا": 4202,
      "ڊرو": 4203,
      "اداراEW": 4204,
      "سٽريEW": 4205,
      "مهياEW": 4206,
      "جمهوريهEW": 4207,
      "سڪندرEW": 4208,
      "ڏينديEW": 4209,
      "انتEW": 4210,
      "واري": 4211,
      "فوٽ": 4212,
      "ٻڌائيEW": 4213,
      "حياتياتيEW": 4214,
      "جدوجه": 4215,
      "5ع": 4216,
      "78": 4217,
      "تپيEW": 4218,
      "حافظEW": 4219,
      "زخ": 4220,
      "گلنEW": 4221,
      "ايرانيEW": 4222,
      "وڏيونEW": 4223,
      "عباسيEW": 4224,
      "مهينوEW": 4225,
      "ov": 4226,
      "تيا": 4227,
      "مٽيEW": 4228,
      "ھندوEW": 4229,
      "بازEW": 4230,
      "انگنEW": 4231,
      "بدينEW": 4232,
      "نگارEW": 4233,
      "حڪمتEW": 4234,
      "صلاحيتEW": 4235,
      "ميوزيمEW": 4236,
      "معموليEW": 4237,
      "زيوEW": 4238,
      "فصلEW": 4239,
      "لس": 4240,
      "ڌاEW": 4241,
      "NLمي": 4242,
      "ائجيEW": 4243,
      "ساز": 4244,
      "منزلEW": 4245,
      "جيتEW": 4246,
      "theEW": 4247,
      "مذھبEW": 4248,
      "سالي": 4249,
      "صفEW": 4250,
      "چور": 4251,
      "NLڪو": 4252,
      "ڪرمEW": 4253,
      "هنڌنEW": 4254,
      "درجEW": 4255,
      "ڪننEW": 4256,
      "آرٽEW": 4257,
      "خاتميEW": 4258,
      "ٽنڊوEW": 4259,
      "باني": 4260,
      "سڪوEW": 4261,
      "مٺ": 4262,
      "ھا": 4263,
      "ارڊ": 4264,
      "ائڻ": 4265,
      "ضرورEW": 4266,
      "پاسوEW": 4267,
      "فھ": 4268,
      "يدEW": 4269,
      "ورتائين": 4270,
      "ماڻھو": 4271,
      "اندارEW": 4272,
      "گروههEW": 4273,
      "96": 4274,
      "سنتEW": 4275,
      "جهڙاEW": 4276,
      "جيستائينEW": 4277,
      "برگEW": 4278,
      "معاش": 4279,
      "2018عEW": 4280,
      "35EW": 4281,
      "آدمEW": 4282,
      "فرو": 4283,
      "ڪجھEW": 4284,
      "NLع": 4285,
      "ملياEW": 4286,
      "رسالنEW": 4287,
      "مريدEW": 4288,
      "ــــ": 4289,
      "ميٽرو": 4290,
      "مذھبيEW": 4291,
      "ايٽميEW": 4292,
      "سوسائٽيEW": 4293,
      "od": 4294,
      "ڪائ": 4295,
      "انجيEW": 4296,
      "سوشل": 4297,
      "هيڊEW": 4298,
      "لڳائيEW": 4299,
      "مھراڻEW": 4300,
      "برطانيهEW": 4301,
      "تفصيلEW": 4302,
      "ڪاروبارEW": 4303,
      "رپورٽEW": 4304,
      "ماسEW": 4305,
      "نونEW": 4306,
      "ائٽ": 4307,
      "هنڌ": 4308,
      "ڪريوEW": 4309,
      "ذريعوEW": 4310,
      "پرنٽنگEW": 4311,
      "تصديقEW": 4312,
      "واههEW": 4313,
      "ڀارتيEW": 4314,
      "سوچEW": 4315,
      "هلندڙEW": 4316,
      "خيالنEW": 4317,
      "نسلنEW": 4318,
      "سيڪنڊريEW": 4319,
      "2ع": 4320,
      "بسEW": 4321,
      "شيا": 4322,
      "اڪاEW": 4323,
      "183": 4324,
      "نسبتEW": 4325,
      "اٺنEW": 4326,
      "تصو": 4327,
      "لهEW": 4328,
      "ڇههEW": 4329,
      "اريونEW": 4330,
      "سموروEW": 4331,
      "لڳوEW": 4332,
      "بحالEW": 4333,
      "مولائيEW": 4334,
      "متازEW": 4335,
      "ورهايوEW": 4336,
      "تعريفEW": 4337,
      "صدر": 4338,
      "ڏيند": 4339,
      "جاجEW": 4340,
      "رياستيEW": 4341,
      "اسپينEW": 4342,
      "سياستدانEW": 4343,
      "بجليEW": 4344,
      "شورEW": 4345,
      "مکEW": 4346,
      "هفت": 4347,
      "گهراڻيEW": 4348,
      "منسو": 4349,
      "اريNL": 4350,
      "فرضEW": 4351,
      "مبارڪEW": 4352,
      "مصن": 4353,
      "ذات": 4354,
      "ڪهEW": 4355,
      "ورتلEW": 4356,
      "جنتEW": 4357,
      "محنتEW": 4358,
      "وڃن": 4359,
      "بلد": 4360,
      "مٿسEW": 4361,
      "مجبورEW": 4362,
      "سئوEW": 4363,
      "تحفظEW": 4364,
      "دعوي": 4365,
      "خريدEW": 4366,
      "بڪEW": 4367,
      "پائ": 4368,
      "واپر": 4369,
      "رھندڙEW": 4370,
      "برساتEW": 4371,
      "دهل": 4372,
      "يڪارEW": 4373,
      "هوائيEW": 4374,
      "فيٰEW": 4375,
      "مهلEW": 4376,
      "شمسيEW": 4377,
      "الزامEW": 4378,
      "ناميEW": 4379,
      "ڦو": 4380,
      "ڪشنEW": 4381,
      "ھند": 4382,
      "اندرونيEW": 4383,
      "اجلاسEW": 4384,
      "CEW": 4385,
      "شت": 4386,
      "شمار": 4387,
      "شڪل": 4388,
      "ڀڄيEW": 4389,
      "ڪجيEW": 4390,
      "NLان": 4391,
      "لکيو": 4392,
      "اقبالEW": 4393,
      "ڳالهيونEW": 4394,
      "ڊالرEW": 4395,
      "70EW": 4396,
      "دهليEW": 4397,
      "ٽئينEW": 4398,
      "کلEW": 4399,
      "ڪونEW": 4400,
      "اوارڊEW": 4401,
      "برقيEW": 4402,
      "وڏEW": 4403,
      "هيهEW": 4404,
      "ڏنائين": 4405,
      "ڪميشنEW": 4406,
      "پرڏيهيEW": 4407,
      "bl": 4408,
      "خيرEW": 4409,
      "سري": 4410,
      "ڪاس": 4411,
      "ميريEW": 4412,
      "وڌوEW": 4413,
      "انڊينEW": 4414,
      "ڪلاڪEW": 4415,
      "بيگمEW": 4416,
      "آڻڻEW": 4417,
      "سومروEW": 4418,
      "روحانيEW": 4419,
      "ٽيليوي": 4420,
      "sp": 4421,
      "حياتEW": 4422,
      "غذ": 4423,
      "ٽون": 4424,
      "ڀريلEW": 4425,
      "ڪورEW": 4426,
      "پيرو": 4427,
      "ساڻسEW": 4428,
      "ويب": 4429,
      "ڳاڙهيEW": 4430,
      "اسٽيٽEW": 4431,
      "خارجEW": 4432,
      "ev": 4433,
      "غزلEW": 4434,
      "فلا": 4435,
      "انکيEW": 4436,
      "ماڻهوءEW": 4437,
      "مسجد": 4438,
      "ڳالهائيندڙEW": 4439,
      "دشمنEW": 4440,
      "جاپانEW": 4441,
      "عراقEW": 4442,
      "im": 4443,
      "دينيEW": 4444,
      "سزEW": 4445,
      "پائيEW": 4446,
      "ناطي": 4447,
      "نامز": 4448,
      "عباسEW": 4449,
      "تعلقوNL": 4450,
      "سد": 4451,
      "ڪليEW": 4452,
      "سوسي": 4453,
      "ملازم": 4454,
      "وجهيEW": 4455,
      "پيغامEW": 4456,
      "عبادتEW": 4457,
      "جدوجهدEW": 4458,
      "40": 4459,
      "اونEW": 4460,
      "خاط": 4461,
      "صبحEW": 4462,
      "مهمEW": 4463,
      "حاض": 4464,
      "سڏبوEW": 4465,
      "پبليڪيشنEW": 4466,
      "مفاصليEW": 4467,
      "نفس": 4468,
      "سنگتEW": 4469,
      "هداي": 4470,
      "آي": 4471,
      "آڏ": 4472,
      "تيونEW": 4473,
      "ثبوتEW": 4474,
      "درو": 4475,
      "پرنEW": 4476,
      "NLاس": 4477,
      "ريزEW": 4478,
      "بادشاھ": 4479,
      "فلڪي": 4480,
      "گذريوEW": 4481,
      "درخواستEW": 4482,
      "سفر": 4483,
      "عار": 4484,
      "نڪا": 4485,
      "NLسندسEW": 4486,
      "جناحEW": 4487,
      "ناڪEW": 4488,
      "ٻيھرEW": 4489,
      "علائقائيEW": 4490,
      "گذريEW": 4491,
      "موجب": 4492,
      "پليٽEW": 4493,
      "ter": 4494,
      "مگ": 4495,
      "مڇيEW": 4496,
      "يارEW": 4497,
      "ڌاتوEW": 4498,
      "ساڄيEW": 4499,
      "مصط": 4500,
      "ميڊيڪلEW": 4501,
      "مدرسيEW": 4502,
      "چئجيEW": 4503,
      "هدايتEW": 4504,
      "دعوتEW": 4505,
      "طاقت": 4506,
      "ورا": 4507,
      "ريسر": 4508,
      "ورڪEW": 4509,
      "ماپEW": 4510,
      "سڌوEW": 4511,
      "اڀرنديEW": 4512,
      "تائيEW": 4513,
      "حجEW": 4514,
      "خنEW": 4515,
      "دروي": 4516,
      "رهEW": 4517,
      "چاند": 4518,
      "سينٽرEW": 4519,
      "ٺهڻEW": 4520,
      "دٻاءEW": 4521,
      "عشقEW": 4522,
      "36": 4523,
      "شمEW": 4524,
      "مڪر": 4525,
      "رکنديEW": 4526,
      "ڪمزورEW": 4527,
      "جھڙو": 4528,
      "فاقEW": 4529,
      "پوليٽنEW": 4530,
      "جڳههEW": 4531,
      "بيمارينEW": 4532,
      "آلEW": 4533,
      "بست": 4534,
      "جيءEW": 4535,
      "شونEW": 4536,
      "ضنEW": 4537,
      "فينEW": 4538,
      "يائين": 4539,
      "NLباب": 4540,
      "درستEW": 4541,
      "سگهجي": 4542,
      "چڱيEW": 4543,
      "ڊڪشنريEW": 4544,
      "بلي": 4545,
      "نثرEW": 4546,
      "ڪمش": 4547,
      "ميرنEW": 4548,
      "واريءEW": 4549,
      "اڻيءEW": 4550,
      "گوشتEW": 4551,
      "ٻاهرينEW": 4552,
      "نڪاحEW": 4553,
      "جاد": 4554,
      "عجائ": 4555,
      "NLمو": 4556,
      "ميز": 4557,
      "بازارEW": 4558,
      "محمد": 4559,
      "ننڍپڻEW": 4560,
      "اشاروEW": 4561,
      "سمجهڻEW": 4562,
      "پوڄاEW": 4563,
      "ددEW": 4564,
      "ڳائڻEW": 4565,
      "گهروEW": 4566,
      "فيتEW": 4567,
      "عرفEW": 4568,
      "گذاريEW": 4569,
      "ملاقاتEW": 4570,
      "جاگرافيEW": 4571,
      "پاسنEW": 4572,
      "غيبيEW": 4573,
      "سوانحEW": 4574,
      "جهنEW": 4575,
      "سارEW": 4576,
      "پچ": 4577,
      "ڄمڻEW": 4578,
      "جيتروEW": 4579,
      "مشر": 4580,
      "زيدEW": 4581,
      "خاصيتEW": 4582,
      "بندو": 4583,
      "سنڀالEW": 4584,
      "مقدسEW": 4585,
      "نباتا": 4586,
      "تڪلي": 4587,
      "لھ": 4588,
      "لڪEW": 4589,
      "ويلEW": 4590,
      "ساٿيEW": 4591,
      "نويEW": 4592,
      "ساڳيوEW": 4593,
      "icEW": 4594,
      "بچاءEW": 4595,
      "رئيسEW": 4596,
      "ٽيليويزنEW": 4597,
      "بغيرEW": 4598,
      "فٽ": 4599,
      "ممتازEW": 4600,
      "يهو": 4601,
      "ڪاري": 4602,
      "گان": 4603,
      "NLسي": 4604,
      "اصولنEW": 4605,
      "ڊيشنEW": 4606,
      "نمونوEW": 4607,
      "سرگرمينEW": 4608,
      "3ع": 4609,
      "قبرEW": 4610,
      "وڌڻEW": 4611,
      "ڪندو": 4612,
      "ڀيڻEW": 4613,
      "50": 4614,
      "جدEW": 4615,
      "کٽ": 4616,
      "ڪٽ": 4617,
      "NLڊاڪٽرEW": 4618,
      "واقعنEW": 4619,
      "جمھو": 4620,
      "چونڊونEW": 4621,
      "سروسEW": 4622,
      "98": 4623,
      "آڏوEW": 4624,
      "جانيEW": 4625,
      "زيرEW": 4626,
      "ڏههEW": 4627,
      "ھليEW": 4628,
      "ورهينEW": 4629,
      "برفEW": 4630,
      "خوندEW": 4631,
      "شهدادڪوٽEW": 4632,
      "هيٺيانEW": 4633,
      "مصنفEW": 4634,
      "ذيرEW": 4635,
      "غر": 4636,
      "ڪشEW": 4637,
      "ڻائيEW": 4638,
      "انصافEW": 4639,
      "اهلEW": 4640,
      "منڊ": 4641,
      "منيEW": 4642,
      "سندEW": 4643,
      "جيئ": 4644,
      "درٻارEW": 4645,
      "180": 4646,
      "موجود": 4647,
      "2007عEW": 4648,
      "ٻيٽ": 4649,
      "آڪسي": 4650,
      "ڪميونسٽEW": 4651,
      "بلدياتيEW": 4652,
      "500EW": 4653,
      "اڇيEW": 4654,
      "تڪر": 4655,
      "سؤEW": 4656,
      "رام": 4657,
      "گهرنEW": 4658,
      "وڌو": 4659,
      "هيل": 4660,
      "سگهوEW": 4661,
      "بنوEW": 4662,
      "شاعري": 4663,
      "نقلEW": 4664,
      "هاڻوڪيEW": 4665,
      "پيدائشونNLزمرو": 4666,
      "راڄڌانيEW": 4667,
      "جامEW": 4668,
      "ٽنگ": 4669,
      "پليEW": 4670,
      "گون": 4671,
      "الونEW": 4672,
      "سرزمينEW": 4673,
      "ڪنگ": 4674,
      "مقصد": 4675,
      "مقناطي": 4676,
      "ڪارڪنEW": 4677,
      "ڪلھو": 4678,
      "کوٽائيEW": 4679,
      "خليفوEW": 4680,
      "ڏيکاريEW": 4681,
      "Ch": 4682,
      "خز": 4683,
      "سکEW": 4684,
      "صال": 4685,
      "طلا": 4686,
      "لڙ": 4687,
      "چڙه": 4688,
      "ڪڙيEW": 4689,
      "مارڪيٽEW": 4690,
      "وهڪريEW": 4691,
      "مئٽرڪEW": 4692,
      "اختلافEW": 4693,
      "وسEW": 4694,
      "پند": 4695,
      "پنڌEW": 4696,
      "پويانEW": 4697,
      "وڏينEW": 4698,
      "ڪنڊEW": 4699,
      "لڳايوEW": 4700,
      "ang": 4701,
      "حوالاEW": 4702,
      "ڪاليج": 4703,
      "سائيٽEW": 4704,
      "رائيلEW": 4705,
      "خاتموEW": 4706,
      "پشا": 4707,
      "محا": 4708,
      "تحصيلEW": 4709,
      "حاقEW": 4710,
      "ڀرپورEW": 4711,
      "سگھنEW": 4712,
      "ڳولاEW": 4713,
      "فهرستNL": 4714,
      "شاد": 4715,
      "طبيEW": 4716,
      "فط": 4717,
      "لڏ": 4718,
      "الحقEW": 4719,
      "ايئنEW": 4720,
      "ڪيائون": 4721,
      "جوڙيEW": 4722,
      "تعاونEW": 4723,
      "نوڪريEW": 4724,
      "بدل": 4725,
      "مارشلEW": 4726,
      "پورچو": 4727,
      "گرامEW": 4728,
      "1970عEW": 4729,
      "مٿينEW": 4730,
      "ڪاميابيEW": 4731,
      "لياقتEW": 4732,
      "لزEW": 4733,
      "نع": 4734,
      "ڪپEW": 4735,
      "پننEW": 4736,
      "بادشا": 4737,
      "پهتوEW": 4738,
      "2000EW": 4739,
      "ڪانهEW": 4740,
      "بادشاهتEW": 4741,
      "آسٽ": 4742,
      "ضمEW": 4743,
      "پڪEW": 4744,
      "چٽ": 4745,
      "ڪائيEW": 4746,
      "منڊلEW": 4747,
      "صدارتيEW": 4748,
      "ڇپجيEW": 4749,
      "ڪندڙنEW": 4750,
      "ڪهاڻينEW": 4751,
      "ملڪNLزمرو": 4752,
      "مقبروEW": 4753,
      "طهEW": 4754,
      "عاش": 4755,
      "ڦي": 4756,
      "ھزارEW": 4757,
      "ارڙ": 4758,
      "راڻ": 4759,
      "راول": 4760,
      "ورNL": 4761,
      "مرضEW": 4762,
      "بادلEW": 4763,
      "گرد": 4764,
      "هڪٻئيEW": 4765,
      "ڊگهوEW": 4766,
      "ايراضيءEW": 4767,
      "سربراھEW": 4768,
      "An": 4769,
      "eb": 4770,
      "اNLزمرو": 4771,
      "زيو": 4772,
      "ڊنگEW": 4773,
      "ھٿEW": 4774,
      "يوني": 4775,
      "ائيNL": 4776,
      "پهري": 4777,
      "ڪارپو": 4778,
      "سٽنٽEW": 4779,
      "مدد": 4780,
      "ڪالمEW": 4781,
      "خطابEW": 4782,
      "ٽرين": 4783,
      "چارجEW": 4784,
      "ڪهاڻيونEW": 4785,
      "آئرلينڊEW": 4786,
      "صاد": 4787,
      "لائنEW": 4788,
      "ڊن": 4789,
      "کائيEW": 4790,
      "ڳڙههEW": 4791,
      "پيش": 4792,
      "پاڻ": 4793,
      "خوراڪEW": 4794,
      "تحريرEW": 4795,
      "شاهه": 4796,
      "موضوعنEW": 4797,
      "خواجهEW": 4798,
      "آغازEW": 4799,
      "جرمنيEW": 4800,
      "ڀريEW": 4801,
      "چند": 4802,
      "ارغ": 4803,
      "پيئڻEW": 4804,
      "پونديEW": 4805,
      "شرطEW": 4806,
      "صاحب": 4807,
      "آئين": 4808,
      "سٽريشنEW": 4809,
      "جاندارنEW": 4810,
      "يقينEW": 4811,
      "ميٽروپوليٽنEW": 4812,
      "ow": 4813,
      "تونNL": 4814,
      "رهن": 4815,
      "هجنEW": 4816,
      "ڊپٽيEW": 4817,
      "ڪث": 4818,
      "ڪيشنEW": 4819,
      "وڌائڻEW": 4820,
      "راندينEW": 4821,
      "uc": 4822,
      "رضيEW": 4823,
      "عيتEW": 4824,
      "محتر": 4825,
      "تيئنEW": 4826,
      "وڪيلEW": 4827,
      "پھچ": 4828,
      "داستانEW": 4829,
      "يافتهEW": 4830,
      "Al": 4831,
      "آري": 4832,
      "حمي": 4833,
      "ساس": 4834,
      "شدEW": 4835,
      "هتEW": 4836,
      "يزEW": 4837,
      "ڪجي": 4838,
      "محبو": 4839,
      "رهنديEW": 4840,
      "اطلا": 4841,
      "ڪابلEW": 4842,
      "خاطرEW": 4843,
      "8ع": 4844,
      "آسانEW": 4845,
      "حق": 4846,
      "زبرد": 4847,
      "غالبEW": 4848,
      "ڏسو": 4849,
      "ارامEW": 4850,
      "سروEW": 4851,
      "صولEW": 4852,
      "آسمانEW": 4853,
      "هڻيEW": 4854,
      "ملاEW": 4855,
      "پوسٽEW": 4856,
      "ڪوڊEW": 4857,
      "تازوEW": 4858,
      "پهريون": 4859,
      "کاٻيEW": 4860,
      "هيٺانEW": 4861,
      "ليڪنEW": 4862,
      "وچوليEW": 4863,
      "1ع": 4864,
      "IEW": 4865,
      "بنا": 4866,
      "سفي": 4867,
      "سعيدEW": 4868,
      "فائون": 4869,
      "نٿاEW": 4870,
      "رومان": 4871,
      "اسرائيلEW": 4872,
      "ers": 4873,
      "فرين": 4874,
      "اديبنEW": 4875,
      "ڪميٽيEW": 4876,
      "تفري": 4877,
      "دڙوEW": 4878,
      "دفا": 4879,
      "نارEW": 4880,
      "پڻ": 4881,
      "پڇا": 4882,
      "ڇهنEW": 4883,
      "ڪيل": 4884,
      "ڪرڪيٽEW": 4885,
      "منٽEW": 4886,
      "وڌائيEW": 4887,
      "نوبلEW": 4888,
      "گروEW": 4889,
      "ari": 4890,
      "هيٺينEW": 4891,
      "اڏاوتEW": 4892,
      "شمسEW": 4893,
      "زلز": 4894,
      "مٿاڇريEW": 4895,
      "80": 4896,
      "ay": 4897,
      "ذهنEW": 4898,
      "طالبEW": 4899,
      "عڪسEW": 4900,
      "نٿيEW": 4901,
      "گئ": 4902,
      "NLجڏهنEW": 4903,
      "درسEW": 4904,
      "سينٽيEW": 4905,
      "کاڌوEW": 4906,
      "ڪلاسيڪلEW": 4907,
      "سميEW": 4908,
      "نئ": 4909,
      "جيرياEW": 4910,
      "رسٽEW": 4911,
      "گبولEW": 4912,
      "NLڀ": 4913,
      "سنڌينEW": 4914,
      "امتEW": 4915,
      "ڪورياEW": 4916,
      "مردمEW": 4917,
      "ٻيليEW": 4918,
      "ترجمو": 4919,
      "ميڪسيڪ": 4920,
      "دهليءEW": 4921,
      "بص": 4922,
      "ذخ": 4923,
      "ٻيون": 4924,
      "يوارEW": 4925,
      "اسڪال": 4926,
      "يڪيEW": 4927,
      "واٽEW": 4928,
      "فوجنEW": 4929,
      "درياEW": 4930,
      "وانگيEW": 4931,
      "تفصي": 4932,
      "ationEW": 4933,
      "چانڊيوEW": 4934,
      "اشاع": 4935,
      "ڏنEW": 4936,
      "ليمEW": 4937,
      "پرست": 4938,
      "سگهيو": 4939,
      "عيسائيEW": 4940,
      "بخاريEW": 4941,
      "شعورEW": 4942,
      "orEW": 4943,
      "قبيلوEW": 4944,
      "جسمانيEW": 4945,
      "ضلEW": 4946,
      "پخت": 4947,
      "روميEW": 4948,
      "ايفEW": 4949,
      "ڪراEW": 4950,
      "ملندڙEW": 4951,
      "جيبEW": 4952,
      "ائيٽEW": 4953,
      "90EW": 4954,
      "سڪيEW": 4955,
      "ڪڏھنEW": 4956,
      "گئسEW": 4957,
      "مردنEW": 4958,
      "وڌندڙEW": 4959,
      "ننڍنEW": 4960,
      "ڊراميEW": 4961,
      "خلائيEW": 4962,
      "جاندارEW": 4963,
      "34": 4964,
      "ep": 4965,
      "زينEW": 4966,
      "شاندارEW": 4967,
      "ڳائ": 4968,
      "انڪريEW": 4969,
      "راڳ": 4970,
      "نسخ": 4971,
      "حڪومتيEW": 4972,
      "ڪپڙيEW": 4973,
      "ثانيEW": 4974,
      "جلEW": 4975,
      "حو": 4976,
      "رڊEW": 4977,
      "غازيEW": 4978,
      "ڙيوEW": 4979,
      "ولاEW": 4980,
      "انڊوني": 4981,
      "stEW": 4982,
      "ڄامشوروEW": 4983,
      "دفعاEW": 4984,
      "واڌاروEW": 4985,
      "شرEW": 4986,
      "ناھيEW": 4987,
      "که": 4988,
      "ويدEW": 4989,
      "اتنEW": 4990,
      "گھراڻيEW": 4991,
      "ڳالهينEW": 4992,
      "باباEW": 4993,
      "ڇاپو": 4994,
      "منهنجوEW": 4995,
      "محققEW": 4996,
      "روشنيءEW": 4997,
      "صالحEW": 4998,
      "آرامEW": 4999,
      "اگ": 5000,
      "ظاھرEW": 5001,
      "گلي": 5002,
      "ماڊلEW": 5003,
      "امدادEW": 5004,
      "جيڪٽEW": 5005,
      "2018EW": 5006,
      "اسڪولنEW": 5007,
      "جون": 5008,
      "ٿانEW": 5009,
      "ڀتEW": 5010,
      "ڊز": 5011,
      "ڏاEW": 5012,
      "ڪٽن": 5013,
      "اماEW": 5014,
      "ڏيڍEW": 5015,
      "زيبEW": 5016,
      "بنجيEW": 5017,
      "شهز": 5018,
      "نائبEW": 5019,
      "ڪوارٽرEW": 5020,
      "ريسرچEW": 5021,
      "بياEW": 5022,
      "فانيEW": 5023,
      "ھاءEW": 5024,
      "گهڻنEW": 5025,
      "ٿيندي": 5026,
      "شيدEW": 5027,
      "ineEW": 5028,
      "ٻڌڻEW": 5029,
      "نصيرEW": 5030,
      "فاط": 5031,
      "2023عEW": 5032,
      "پنجينEW": 5033,
      "رفتEW": 5034,
      "طئيEW": 5035,
      "عطاEW": 5036,
      "لان": 5037,
      "يهEW": 5038,
      "ڪڻ": 5039,
      "ھر": 5040,
      "اندازيEW": 5041,
      "هلائڻEW": 5042,
      "علامتEW": 5043,
      "1960عEW": 5044,
      "ڪنديونEW": 5045,
      "ڪيني": 5046,
      "پڙهيEW": 5047,
      "ميرزاEW": 5048,
      "طبقيEW": 5049,
      "حياتياتEW": 5050,
      "عنايتEW": 5051,
      "عجائبEW": 5052,
      "رھنEW": 5053,
      "زين": 5054,
      "ٺا": 5055,
      "پون": 5056,
      "پئي": 5057,
      "ڪڙEW": 5058,
      "اسدEW": 5059,
      "پيرنEW": 5060,
      "ويندي": 5061,
      "ٽيڊEW": 5062,
      "پرنس": 5063,
      "2012": 5064,
      "مغلنEW": 5065,
      "ڪاميٽيEW": 5066,
      "ڊرامنEW": 5067,
      "قطبEW": 5068,
      "مستقبلEW": 5069,
      "يتي": 5070,
      "پلو": 5071,
      "ڏهينEW": 5072,
      "ڪٽEW": 5073,
      "اهينEW": 5074,
      "اوائليEW": 5075,
      "نامورEW": 5076,
      "شهرتEW": 5077,
      "تقسيمEW": 5078,
      "نگرانيEW": 5079,
      "عبداللطيفEW": 5080,
      "37": 5081,
      "ٽنڊيEW": 5082,
      "ٿول": 5083,
      "ليزEW": 5084,
      "مشڪلEW": 5085,
      "ڏکڻ": 5086,
      "صنفEW": 5087,
      "عثمانيEW": 5088,
      "سينٽرلEW": 5089,
      "مديEW": 5090,
      "نز": 5091,
      "نماEW": 5092,
      "رازEW": 5093,
      "ورهيهEW": 5094,
      "سنيEW": 5095,
      "تنقي": 5096,
      "ڪجهہEW": 5097,
      "جائزوEW": 5098,
      "آثارنEW": 5099,
      "زميننEW": 5100,
      "ڪمشنرEW": 5101,
      "ik": 5102,
      "اچEW": 5103,
      "سينيEW": 5104,
      "وھ": 5105,
      "انورEW": 5106,
      "ميلنEW": 5107,
      "ويئرEW": 5108,
      "2017عEW": 5109,
      "بڻائڻEW": 5110,
      "تباههEW": 5111,
      "دعويٰEW": 5112,
      "IS": 5113,
      "qu": 5114,
      "بس": 5115,
      "رمض": 5116,
      "عالEW": 5117,
      "قدEW": 5118,
      "چڪرEW": 5119,
      "اڪرEW": 5120,
      "بيبEW": 5121,
      "ايڪس": 5122,
      "ابتداEW": 5123,
      "olog": 5124,
      "ميلاپEW": 5125,
      "33EW": 5126,
      "ut": 5127,
      "غورEW": 5128,
      "مالي": 5129,
      "الهنديEW": 5130,
      "مولEW": 5131,
      "اوز": 5132,
      "معصو": 5133,
      "فرھ": 5134,
      "خاصخي": 5135,
      "فقارEW": 5136,
      "اداڪارEW": 5137,
      "انٽرنيٽEW": 5138,
      "طاقتورEW": 5139,
      "edi": 5140,
      "بگ": 5141,
      "جمليEW": 5142,
      "لال": 5143,
      "ارت": 5144,
      "ادب": 5145,
      "منصوبوEW": 5146,
      "اصرEW": 5147,
      "دائريEW": 5148,
      "رائجEW": 5149,
      "انقلابيEW": 5150,
      "فضلEW": 5151,
      "سياحتEW": 5152,
      "آف": 5153,
      "حاد": 5154,
      "سيٺEW": 5155,
      "جيانEW": 5156,
      "علائقو": 5157,
      "1980عEW": 5158,
      "ايوانEW": 5159,
      "گريجو": 5160,
      "کڻڻEW": 5161,
      "اکEW": 5162,
      "صلاح": 5163,
      "مک": 5164,
      "انءEW": 5165,
      "حيدرآبادNL": 5166,
      "تجارتيEW": 5167,
      "جوڙجڪEW": 5168,
      "پاليسيEW": 5169,
      "رقمEW": 5170,
      "سدائينEW": 5171,
      "صادقEW": 5172,
      "ip": 5173,
      "ذرEW": 5174,
      "وڪEW": 5175,
      "چالي": 5176,
      "ڍيEW": 5177,
      "ڪچيEW": 5178,
      "الع": 5179,
      "ماڻي": 5180,
      "عيسي": 5181,
      "تاريخNL": 5182,
      "پلاڻEW": 5183,
      "پائرEW": 5184,
      "ھندو": 5185,
      "سازيEW": 5186,
      "سافٽEW": 5187,
      "تيمورEW": 5188,
      "لکيا": 5189,
      "2008عEW": 5190,
      "رياستونEW": 5191,
      "ڪڍڻEW": 5192,
      "ism": 5193,
      "باڪ": 5194,
      "پوئينEW": 5195,
      "ويرEW": 5196,
      "ويئيEW": 5197,
      "2020EW": 5198,
      "نسب": 5199,
      "اعترا": 5200,
      "سھول": 5201,
      "هجريEW": 5202,
      "يھو": 5203,
      "پخ": 5204,
      "چيو": 5205,
      "ڊينEW": 5206,
      "ڍان": 5207,
      "لاڏ": 5208,
      "اوٽEW": 5209,
      "سوينEW": 5210,
      "گھو": 5211,
      "پهريانEW": 5212,
      "تنھنEW": 5213,
      "دورنEW": 5214,
      "ڪائونٽيEW": 5215,
      "نرمEW": 5216,
      "مٽياريEW": 5217,
      "فطريEW": 5218,
      "فرھنگEW": 5219,
      "300EW": 5220,
      "Ar": 5221,
      "آيتEW": 5222,
      "ساد": 5223,
      "قول": 5224,
      "لٽEW": 5225,
      "مپEW": 5226,
      "پتوEW": 5227,
      "ھيون": 5228,
      "ملائي": 5229,
      "فيلڊEW": 5230,
      "جاگير": 5231,
      "ٻوليونNLزمرو": 5232,
      "انتظامي": 5233,
      "جماع": 5234,
      "ٺاھڻEW": 5235,
      "ڪلهوڙنEW": 5236,
      "پيپلز": 5237,
      "جبEW": 5238,
      "ديءEW": 5239,
      "ڪمر": 5240,
      "برٽEW": 5241,
      "2000عEW": 5242,
      "2006عEW": 5243,
      "2010عEW": 5244,
      "مظاه": 5245,
      "اخلاقيEW": 5246,
      "آمدنيEW": 5247,
      "جتوئيEW": 5248,
      "تتا": 5249,
      "عملنEW": 5250,
      "مڪEW": 5251,
      "ڦير": 5252,
      "بيٺلEW": 5253,
      "احساسEW": 5254,
      "اختي": 5255,
      "داخلاEW": 5256,
      "راندي": 5257,
      "پهچڻEW": 5258,
      "گذريلEW": 5259,
      "خلاEW": 5260,
      "صيEW": 5261,
      "ٻوڏEW": 5262,
      "کٽيEW": 5263,
      "گرينEW": 5264,
      "ائلEW": 5265,
      "هلندوEW": 5266,
      "گاڏ": 5267,
      "سپاسEW": 5268,
      "راشديEW": 5269,
      "سچلEW": 5270,
      "شهنشاههEW": 5271,
      "ميڪسيڪوEW": 5272,
      "ia": 5273,
      "تارنEW": 5274,
      "شوريEW": 5275,
      "ھار": 5276,
      "يونانEW": 5277,
      "تعلق": 5278,
      "ذريعنEW": 5279,
      "تبلي": 5280,
      "گيل": 5281,
      "مٿان": 5282,
      "کوجن": 5283,
      "ايڪٽEW": 5284,
      "پنجاب": 5285,
      "چارلسEW": 5286,
      "بزرگنEW": 5287,
      "لاڙڪاڻوEW": 5288,
      "آEW": 5289,
      "ثوEW": 5290,
      "ڪچوEW": 5291,
      "ھارEW": 5292,
      "اهه": 5293,
      "هنيEW": 5294,
      "ڪمانڊ": 5295,
      "پروٽينEW": 5296,
      "آرٽسEW": 5297,
      "فارسي": 5298,
      "سنگھEW": 5299,
      "ذوالفقارEW": 5300,
      "ذر": 5301,
      "عض": 5302,
      "هڪجه": 5303,
      "وڇ": 5304,
      "NLڊ": 5305,
      "باتEW": 5306,
      "1992عEW": 5307,
      "اچارEW": 5308,
      "ڪھاڻ": 5309,
      "ناڪامEW": 5310,
      "منسوبEW": 5311,
      "32EW": 5312,
      "ob": 5313,
      "ربي": 5314,
      "موهنEW": 5315,
      "ويهيEW": 5316,
      "ائيڊEW": 5317,
      "نوعEW": 5318,
      "سمورنEW": 5319,
      "....": 5320,
      "ايمپائرEW": 5321,
      "باغباني": 5322,
      "آبهواEW": 5323,
      "نامزدEW": 5324,
      "22": 5325,
      "مہEW": 5326,
      "ناريEW": 5327,
      "پت": 5328,
      "NLار": 5329,
      "روڪڻEW": 5330,
      "2019EW": 5331,
      "ڪنگEW": 5332,
      "ناز": 5333,
      "ڪولمب": 5334,
      "فيصليEW": 5335,
      "سليمانEW": 5336,
      "رابطيEW": 5337,
      "مهيناEW": 5338,
      "آسپاسEW": 5339,
      "جمالEW": 5340,
      "رت": 5341,
      "سسEW": 5342,
      "طبEW": 5343,
      "مٺيEW": 5344,
      "انفرا": 5345,
      "پيرا": 5346,
      "ساحلEW": 5347,
      "باتيEW": 5348,
      "سموراEW": 5349,
      "اخبار": 5350,
      "واليEW": 5351,
      "استعمال": 5352,
      "سلطن": 5353,
      "گهربلEW": 5354,
      "علومEW": 5355,
      "دليلEW": 5356,
      "مسئليEW": 5357,
      "افغانEW": 5358,
      "قريشيEW": 5359,
      "صديقEW": 5360,
      "En": 5361,
      "تسل": 5362,
      "سپرEW": 5363,
      "سچEW": 5364,
      "ڇرEW": 5365,
      "ڏئي": 5366,
      "ھجي": 5367,
      "ميني": 5368,
      "يڪٽرEW": 5369,
      "پيچي": 5370,
      "ساٿينEW": 5371,
      "چويEW": 5372,
      "enc": 5373,
      "رجسٽريشنEW": 5374,
      "عقيديEW": 5375,
      "سرشتيEW": 5376,
      "ارتقاEW": 5377,
      "پٿرنEW": 5378,
      "جلالEW": 5379,
      "پرستيEW": 5380,
      "ڪتيEW": 5381,
      "ہيEW": 5382,
      "پوڻEW": 5383,
      "ليٽEW": 5384,
      "شادEW": 5385,
      "شاھيEW": 5386,
      "اتفاقEW": 5387,
      "گڏجا": 5388,
      "لکنEW": 5389,
      "ڪارڪر": 5390,
      "1991عEW": 5391,
      "پراڻنEW": 5392,
      "هٿانEW": 5393,
      "بئنڪEW": 5394,
      "عيسيٰEW": 5395,
      "ميونEW": 5396,
      "ڪمالEW": 5397,
      "ھرا": 5398,
      "رسميEW": 5399,
      "اڻو": 5400,
      "ڪلوEW": 5401,
      "کانپوء": 5402,
      "مٿئينEW": 5403,
      "اشتEW": 5404,
      "نشان": 5405,
      "تصويرونEW": 5406,
      "رضاEW": 5407,
      "رياضيEW": 5408,
      "فلسطينEW": 5409,
      "مقصدنEW": 5410,
      "اقEW": 5411,
      "سپريمEW": 5412,
      "فلEW": 5413,
      "فنيEW": 5414,
      "قاف": 5415,
      "پذيرEW": 5416,
      "ڀٽEW": 5417,
      "NLرو": 5418,
      "ايئر": 5419,
      "بهارEW": 5420,
      "تصوير": 5421,
      "طلاقEW": 5422,
      "آخوندEW": 5423,
      "بجاءEW": 5424,
      "يريEW": 5425,
      "ينڊEW": 5426,
      "واھEW": 5427,
      "پنجونEW": 5428,
      "باز": 5429,
      "فلميEW": 5430,
      "1988عEW": 5431,
      "ٺاهينداEW": 5432,
      "بينظ": 5433,
      "پابنديEW": 5434,
      "36EW": 5435,
      "بطورEW": 5436,
      "رمEW": 5437,
      "مڱ": 5438,
      "کائينداEW": 5439,
      "گرميءEW": 5440,
      "ناظمEW": 5441,
      "ڊيمو": 5442,
      "2013EW": 5443,
      "فارسيءEW": 5444,
      "رجح": 5445,
      "مرتبEW": 5446,
      "سربراههEW": 5447,
      "مادوEW": 5448,
      "ڄي": 5449,
      "ڌا": 5450,
      "هوندي": 5451,
      "واپار": 5452,
      "جيڪلEW": 5453,
      "ويڙههEW": 5454,
      "معز": 5455,
      "ڪلچرEW": 5456,
      "وسيلنEW": 5457,
      "دفت": 5458,
      "پوي": 5459,
      "جوڳيEW": 5460,
      "ناچEW": 5461,
      "اللہEW": 5462,
      "1948عEW": 5463,
      "جهڙوڪ": 5464,
      "معاهديEW": 5465,
      "سوشلسٽEW": 5466,
      "38": 5467,
      "ph": 5468,
      "رهو": 5469,
      "چچEW": 5470,
      "ڏيندڙEW": 5471,
      "لاڙEW": 5472,
      "ياڻيEW": 5473,
      "پاڙي": 5474,
      "آڪسائي": 5475,
      "عنصرنEW": 5476,
      "مسافرEW": 5477,
      "عملدارEW": 5478,
      "عجيبEW": 5479,
      "ٻه": 5480,
      "پرستEW": 5481,
      "لاش": 5482,
      "قولEW": 5483,
      "هايوEW": 5484,
      "فارمي": 5485,
      "رائچندEW": 5486,
      "يتيمEW": 5487,
      "اپEW": 5488,
      "جلا": 5489,
      "عبر": 5490,
      "ٿنEW": 5491,
      "ڊول": 5492,
      "ڏاهرEW": 5493,
      "ڦريEW": 5494,
      "انٽرEW": 5495,
      "ندينEW": 5496,
      "ليف": 5497,
      "انگل": 5498,
      "لغاريEW": 5499,
      "خالدEW": 5500,
      "لسان": 5501,
      "انNLزمرو": 5502,
      "سورا": 5503,
      "بلغ": 5504,
      "گوگلEW": 5505,
      "مرڪبEW": 5506,
      "سمنڊ": 5507,
      "اسپيڪ": 5508,
      "اداڪار": 5509,
      "سائنسدانEW": 5510,
      "زڪواتEW": 5511,
      "آڪسيجنEW": 5512,
      "پختون": 5513,
      "آڱ": 5514,
      "آئونEW": 5515,
      "هٽ": 5516,
      "NLوي": 5517,
      "انيNL": 5518,
      "اهريEW": 5519,
      "پوکEW": 5520,
      "2002عEW": 5521,
      "ڪلوميٽر": 5522,
      "قبيلاEW": 5523,
      "نوازيوEW": 5524,
      "ڪوششنEW": 5525,
      "رمضانEW": 5526,
      "تال": 5527,
      "تيون": 5528,
      "دعاEW": 5529,
      "ربEW": 5530,
      "ٹEW": 5531,
      "ٽڪرEW": 5532,
      "ڀليEW": 5533,
      "چوڏ": 5534,
      "گليEW": 5535,
      "اسسٽنٽEW": 5536,
      "ڪرڻوEW": 5537,
      "ڪنڀ": 5538,
      "چوڪ": 5539,
      "آرگن": 5540,
      "aryEW": 5541,
      "بروهيEW": 5542,
      "لاڳاپنEW": 5543,
      "ڪڍيوEW": 5544,
      "هيٺيونEW": 5545,
      "مسئلوEW": 5546,
      "پشاورEW": 5547,
      "Un": 5548,
      "تاراEW": 5549,
      "دانيEW": 5550,
      "NLبر": 5551,
      "ائشيEW": 5552,
      "الف": 5553,
      "سنڌوءEW": 5554,
      "ڪرائي": 5555,
      "گھٽ": 5556,
      "گهرجيEW": 5557,
      "نشانيEW": 5558,
      "لاڳاپاEW": 5559,
      "مھين": 5560,
      "نواب": 5561,
      "iteEW": 5562,
      "ماهوارEW": 5563,
      "ماڳنEW": 5564,
      "خانا": 5565,
      "صغيرEW": 5566,
      "هف": 5567,
      "وري": 5568,
      "NLيوEW": 5569,
      "لڳندوEW": 5570,
      "مصريEW": 5571,
      "178": 5572,
      "صحافيEW": 5573,
      "روزانوEW": 5574,
      "منصورEW": 5575,
      "عروجEW": 5576,
      ".)": 5577,
      "اياEW": 5578,
      "اٽيEW": 5579,
      "چلEW": 5580,
      "ھاريEW": 5581,
      "ساڻEW": 5582,
      "ويههEW": 5583,
      "سرمائي": 5584,
      "درگاههEW": 5585,
      "مدادEW": 5586,
      "2007ع": 5587,
      "جاگرافيNLزمرو": 5588,
      "leEW": 5589,
      "ھاEW": 5590,
      "انسEW": 5591,
      "فيسEW": 5592,
      "اضافيEW": 5593,
      "وقت": 5594,
      "بنگلا": 5595,
      "هينئرEW": 5596,
      "تنظيمنEW": 5597,
      "حلقوEW": 5598,
      "آڳاٽيEW": 5599,
      "ئلEW": 5600,
      "مڻ": 5601,
      "ڌما": 5602,
      "ماتحتEW": 5603,
      "ينهEW": 5604,
      "ونگEW": 5605,
      "چوٽيEW": 5606,
      "2007": 5607,
      "تخبEW": 5608,
      "طريقاEW": 5609,
      "ڏيکاريوEW": 5610,
      "سياستدانNLزمرو": 5611,
      "مةEW": 5612,
      "يارڪEW": 5613,
      "پان": 5614,
      "ايجو": 5615,
      "ويٺو": 5616,
      "مقبريEW": 5617,
      "2016عEW": 5618,
      "1993عEW": 5619,
      "يعقو": 5620,
      "ايڪڙEW": 5621,
      "سمجھيوEW": 5622,
      "هٿنEW": 5623,
      "ڇپايو": 5624,
      "پهريائينEW": 5625,
      "45EW": 5626,
      "av": 5627,
      "nam": 5628,
      "ou": 5629,
      "هلا": 5630,
      "ٻاھ": 5631,
      "يوزرEW": 5632,
      "الخطEW": 5633,
      "اهڙيونEW": 5634,
      "ايسوسي": 5635,
      "بوءEW": 5636,
      "اٿسEW": 5637,
      "عبدالمجيدEW": 5638,
      "خيبرEW": 5639,
      "ھئڻEW": 5640,
      "بھترينEW": 5641,
      "ميونسپلEW": 5642,
      "بونEW": 5643,
      "ججEW": 5644,
      "ٽيون": 5645,
      "پس": 5646,
      "ڏسEW": 5647,
      "آهيون": 5648,
      "ماضيEW": 5649,
      "فيئرEW": 5650,
      "فرشEW": 5651,
      "دوريEW": 5652,
      "ائونڊEW": 5653,
      "بهر": 5654,
      "رھي": 5655,
      "enEW": 5656,
      "ڇوڙEW": 5657,
      "مسئلاEW": 5658,
      "موسيقيءEW": 5659,
      "مڃتاEW": 5660,
      "سومرنEW": 5661,
      "فورڊEW": 5662,
      "درياھEW": 5663,
      "هائوسEW": 5664,
      "معاشريEW": 5665,
      "مئنEW": 5666,
      "ٻيءEW": 5667,
      "گهيEW": 5668,
      "رهاڪوEW": 5669,
      "معدن": 5670,
      "لڳنEW": 5671,
      "مارڪEW": 5672,
      "2016EW": 5673,
      "وفات": 5674,
      "179": 5675,
      "گذاري": 5676,
      "حقيق": 5677,
      "سهڻيEW": 5678,
      "ميرپورEW": 5679,
      "گهوٽEW": 5680,
      "ڪامريڊEW": 5681,
      "ڪيريئرEW": 5682,
      "ڄائوEW": 5683,
      "NLف": 5684,
      "NL2017EW": 5685,
      "اسڪر": 5686,
      "ايسٽEW": 5687,
      "اواEW": 5688,
      "سوارEW": 5689,
      "اتاEW": 5690,
      "ائيزيشنEW": 5691,
      "نوآباد": 5692,
      "گرھEW": 5693,
      "رکياEW": 5694,
      "ڏنيونEW": 5695,
      "زيارتEW": 5696,
      "1977عEW": 5697,
      "1973عEW": 5698,
      "ديوارEW": 5699,
      "نصي": 5700,
      "قدرتEW": 5701,
      "حڪمراننEW": 5702,
      "قلاتEW": 5703,
      "ورهائيEW": 5704,
      "اڄڪل": 5705,
      "تنهنجيEW": 5706,
      "اڍ": 5707,
      "اما": 5708,
      "ثنEW": 5709,
      "خبر": 5710,
      "مفتEW": 5711,
      "ٻان": 5712,
      "NLجيڪڏهنEW": 5713,
      "استح": 5714,
      "ڪوئيEW": 5715,
      "تيزيءEW": 5716,
      "سرحدونEW": 5717,
      "ائيندڙنEW": 5718,
      "گاهEW": 5719,
      "ثقلEW": 5720,
      "طبيع": 5721,
      "رحيمدادEW": 5722,
      "تشددEW": 5723,
      "شخصيتنEW": 5724,
      "مقناطيسيEW": 5725,
      "محبوبEW": 5726,
      "!!": 5727,
      "اڙيEW": 5728,
      "دلي": 5729,
      "ٺهيEW": 5730,
      "پرس": 5731,
      "ڊپارٽ": 5732,
      "NLز": 5733,
      "روناEW": 5734,
      "ويٺوEW": 5735,
      "جيئيEW": 5736,
      "حيدEW": 5737,
      "سانچوEW": 5738,
      "ايوارڊ": 5739,
      "1958عEW": 5740,
      "دائودEW": 5741,
      "ڳالهائيEW": 5742,
      "رنگنEW": 5743,
      "res": 5744,
      "تمEW": 5745,
      "جئ": 5746,
      "شئيEW": 5747,
      "قرا": 5748,
      "نھ": 5749,
      "هڙ": 5750,
      "ڇڪ": 5751,
      "گنگ": 5752,
      "NLسو": 5753,
      "الفEW": 5754,
      "تبص": 5755,
      "اعجازEW": 5756,
      "ڪئناڊاEW": 5757,
      "خواهشEW": 5758,
      "Con": 5759,
      "ماست": 5760,
      "ڇتEW": 5761,
      "ڇهينEW": 5762,
      "ارڪ": 5763,
      "الم": 5764,
      "اسٽر": 5765,
      "ابڙوEW": 5766,
      "وليمEW": 5767,
      "معديEW": 5768,
      "نظام": 5769,
      "مريضEW": 5770,
      "1997عEW": 5771,
      "مصر": 5772,
      "اسٽيجEW": 5773,
      "1986عEW": 5774,
      "پلان": 5775,
      "گذرڻEW": 5776,
      "گنب": 5777,
      "عمارتونEW": 5778,
      "درويشEW": 5779,
      "لڏپلاڻEW": 5780,
      "lEW": 5781,
      "تم": 5782,
      "عڪ": 5783,
      "عام": 5784,
      "مٽEW": 5785,
      "نج": 5786,
      "ناس": 5787,
      "نھEW": 5788,
      "ٺي": 5789,
      "ٽائرEW": 5790,
      "ڙھيEW": 5791,
      "NLسيدEW": 5792,
      "جھانEW": 5793,
      "1960": 5794,
      "1950عEW": 5795,
      "بحرEW": 5796,
      "جعفرEW": 5797,
      "ٽالپرنEW": 5798,
      "تجربوEW": 5799,
      "اٺينEW": 5800,
      "ڀائرنEW": 5801,
      "آپريشنEW": 5802,
      "عارضيEW": 5803,
      "پيپلزپارٽيEW": 5804,
      "اجEW": 5805,
      "ذمي": 5806,
      "رچ": 5807,
      "فورسEW": 5808,
      "هما": 5809,
      "ڏندEW": 5810,
      "۾)": 5811,
      "سادEW": 5812,
      "منفردEW": 5813,
      "سردEW": 5814,
      "جاينEW": 5815,
      "اڻپوراEW": 5816,
      "بنتEW": 5817,
      "زندهEW": 5818,
      "177": 5819,
      "نشينEW": 5820,
      "الاجيEW": 5821,
      "دستاويزEW": 5822,
      "خاصيتنEW": 5823,
      "هريجنEW": 5824,
      "پرڳڻيEW": 5825,
      "عاشقEW": 5826,
      "بهرحال": 5827,
      "ختEW": 5828,
      "خور": 5829,
      "خاننEW": 5830,
      "طن": 5831,
      "ٽرينEW": 5832,
      "چندرEW": 5833,
      "ڏھEW": 5834,
      "گهڻEW": 5835,
      "سانچ": 5836,
      "سگهيوEW": 5837,
      "ڇڏڻEW": 5838,
      "مينهنEW": 5839,
      "جماليEW": 5840,
      "گرافيEW": 5841,
      "جلسEW": 5842,
      "ڪانہEW": 5843,
      "entEW": 5844,
      "بنيادنEW": 5845,
      "لاڳاپوEW": 5846,
      "ملازمتEW": 5847,
      "وهيEW": 5848,
      "ٽس": 5849,
      "يڪار": 5850,
      "ايجن": 5851,
      "وناEW": 5852,
      "ڪنوارEW": 5853,
      "فوتEW": 5854,
      "شيخ": 5855,
      "تناسبEW": 5856,
      "شرفEW": 5857,
      "پروڊيو": 5858,
      "عيد": 5859,
      "سواء": 5860,
      "زندگي": 5861,
      "رھياEW": 5862,
      "175": 5863,
      "بغدادEW": 5864,
      "اکيونEW": 5865,
      "يڪيشن": 5866,
      "اسماعي": 5867,
      "بمبئيءEW": 5868,
      "شاخونEW": 5869,
      "بندرگاههEW": 5870,
      "ماڻھوNLزمرو": 5871,
      "مڪرانEW": 5872,
      "جھڙوڪEW": 5873,
      "حدهEW": 5874,
      "ساههEW": 5875,
      "شاديءEW": 5876,
      "لصEW": 5877,
      "ڊسEW": 5878,
      "الههEW": 5879,
      "امڪانEW": 5880,
      "ملندوEW": 5881,
      "تيزيEW": 5882,
      "مارڪسEW": 5883,
      "ڪلبEW": 5884,
      "ڇڏينداEW": 5885,
      "ڙوNL": 5886,
      "ڪندڙ": 5887,
      "بچائڻEW": 5888,
      "موسيٰEW": 5889,
      "ڪميونٽيEW": 5890,
      "ھجريEW": 5891,
      "پکڙجيEW": 5892,
      "عيوضEW": 5893,
      "ربيعEW": 5894,
      "حتEW": 5895,
      "ديوEW": 5896,
      "ذهنيEW": 5897,
      "قاض": 5898,
      "ڏڻEW": 5899,
      "ڦاڪEW": 5900,
      "ھمEW": 5901,
      "ائش": 5902,
      "ريلوEW": 5903,
      "تعالي": 5904,
      "مخلو": 5905,
      "سائوEW": 5906,
      "ٺاهي": 5907,
      "ڊگھيEW": 5908,
      "بينظيرEW": 5909,
      "ذائ": 5910,
      "سٽي": 5911,
      "هاڪ": 5912,
      "ڀڄ": 5913,
      "گتEW": 5914,
      "افتتا": 5915,
      "قيادتEW": 5916,
      "بدليEW": 5917,
      "ھوائيEW": 5918,
      "دوستنEW": 5919,
      "NLاينEW": 5920,
      "استادنEW": 5921,
      "ڇوڪرينEW": 5922,
      "ويجهيEW": 5923,
      "تبديليونEW": 5924,
      "موقعوEW": 5925,
      "خالصEW": 5926,
      "برهمڻEW": 5927,
      "دروازيEW": 5928,
      "لائبريريEW": 5929,
      "آڏواڻيEW": 5930,
      "اپن": 5931,
      "طوف": 5932,
      "ڦل": 5933,
      "NLپي": 5934,
      "يوي": 5935,
      "ميڊي": 5936,
      "پوزيشنEW": 5937,
      "ديههEW": 5938,
      "شابEW": 5939,
      "مشين": 5940,
      "ٻوليNL": 5941,
      "ڊيگههEW": 5942,
      "واقفEW": 5943,
      "ڳالهائڻEW": 5944,
      "اڳواڻنEW": 5945,
      "داريءEW": 5946,
      "سورةEW": 5947,
      "موسيق": 5948,
      "عمارتنEW": 5949,
      "شار": 5950,
      "ود": 5951,
      "چؤ": 5952,
      "کوٽEW": 5953,
      "جهل": 5954,
      "2020عEW": 5955,
      "تعمي": 5956,
      "واقعاEW": 5957,
      "بعد": 5958,
      "1998عEW": 5959,
      "قديمهEW": 5960,
      "خاندانيEW": 5961,
      "لغتEW": 5962,
      "ڪامياب": 5963,
      "21": 5964,
      "45": 5965,
      "فين": 5966,
      "مهرEW": 5967,
      "هائ": 5968,
      "NLجوEW": 5969,
      "ايڇ": 5970,
      "منصوبيEW": 5971,
      "اتارEW": 5972,
      "صدارتEW": 5973,
      "ڀيريEW": 5974,
      "ڪينسرEW": 5975,
      "ڪابهEW": 5976,
      "احترامEW": 5977,
      "اترئينEW": 5978,
      "گردشEW": 5979,
      "34EW": 5980,
      "آسEW": 5981,
      "آرينEW": 5982,
      "جيونEW": 5983,
      "رد": 5984,
      "رپور": 5985,
      "غو": 5986,
      "فرنEW": 5987,
      "ممب": 5988,
      "ڄارEW": 5989,
      "ڊانEW": 5990,
      "گمEW": 5991,
      "ارادوEW": 5992,
      "ڪيئيEW": 5993,
      "امتيا": 5994,
      "لوڻEW": 5995,
      "تازيEW": 5996,
      "سماEW": 5997,
      "ناٿEW": 5998,
      "استعي": 5999,
      "2011عEW": 6000,
      "بڻايو": 6001,
      "اٿن": 6002,
      "1971عEW": 6003,
      "گروهنEW": 6004,
      "خودمخ": 6005,
      "بادشاھتEW": 6006,
      "68": 6007,
      "رتنEW": 6008,
      "ٻھرا": 6009,
      "کھ": 6010,
      "گد": 6011,
      "ھنديEW": 6012,
      "لاشEW": 6013,
      "ميسرEW": 6014,
      "ميڪان": 6015,
      "پوٽوEW": 6016,
      "ديتEW": 6017,
      "ترجي": 6018,
      "گھڻاEW": 6019,
      "لڳاEW": 6020,
      "ٽرزEW": 6021,
      "ڪتابيEW": 6022,
      "قلميEW": 6023,
      "عبدالغ": 6024,
      "ڪندا": 6025,
      "ٺهرا": 6026,
      "پوئتيEW": 6027,
      "تڪليفEW": 6028,
      "eg": 6029,
      "رٿ": 6030,
      "عط": 6031,
      "پڌر": 6032,
      "ڦرEW": 6033,
      "کاڻ": 6034,
      "اصلو": 6035,
      "جيNL": 6036,
      "لکڻينEW": 6037,
      "آباديونEW": 6038,
      "لڳائڻEW": 6039,
      "واقع": 6040,
      "2011EW": 6041,
      "کانئسEW": 6042,
      "ڪوششونEW": 6043,
      "سائنسداننEW": 6044,
      "وقفEW": 6045,
      "60": 6046,
      "بچيEW": 6047,
      "تاريEW": 6048,
      "تنگEW": 6049,
      "جندڙEW": 6050,
      "حاميEW": 6051,
      "زهرEW": 6052,
      "زالونEW": 6053,
      "هور": 6054,
      "ڪع": 6055,
      "رات": 6056,
      "ايئرEW": 6057,
      "ايران": 6058,
      "مقالاEW": 6059,
      "اھڙوEW": 6060,
      "2021عEW": 6061,
      "ٽاورEW": 6062,
      "نظرياتيEW": 6063,
      "گزين": 6064,
      "قانوننEW": 6065,
      "منتظمEW": 6066,
      "تار": 6067,
      "حصو": 6068,
      "شڪيEW": 6069,
      "ناف": 6070,
      "وڪروEW": 6071,
      "NLبورڊEW": 6072,
      "انويEW": 6073,
      "ارسط": 6074,
      "راڻوEW": 6075,
      "سيد": 6076,
      "تعلقاتEW": 6077,
      "خوشيEW": 6078,
      "ذريعي": 6079,
      "اقلي": 6080,
      "عيسائي": 6081,
      "صحاف": 6082,
      "thEW": 6083,
      "ضلعوNL": 6084,
      "لباسEW": 6085,
      "فيڊريشنEW": 6086,
      "زخميEW": 6087,
      "محاذEW": 6088,
      "فائونڊيشنEW": 6089,
      "aw": 6090,
      "ran": 6091,
      "حسين": 6092,
      "لعلEW": 6093,
      "ريسEW": 6094,
      "ورڊEW": 6095,
      "ويسٽEW": 6096,
      "پنهنجونEW": 6097,
      "ٽيلي": 6098,
      "صوبي": 6099,
      "دوائنEW": 6100,
      "2013عEW": 6101,
      "مصنو": 6102,
      "طاNLزمرو": 6103,
      "گريڊEW": 6104,
      "جائزEW": 6105,
      "جارجEW": 6106,
      "عالمگيرEW": 6107,
      "مصطفيٰEW": 6108,
      "oo": 6109,
      "فNL": 6110,
      "نمبر": 6111,
      "ڄاڻيEW": 6112,
      "ڊنٽEW": 6113,
      "ديبلEW": 6114,
      "پاڙيEW": 6115,
      "ائينديونEW": 6116,
      "ـــ": 6117,
      "ڀيرو": 6118,
      "ڪراچيNL": 6119,
      "هندوستانEW": 6120,
      "ڪٽنبEW": 6121,
      "حبيبEW": 6122,
      "لنگEW": 6123,
      "ڪٿاEW": 6124,
      "ندڙ": 6125,
      "ئيٽEW": 6126,
      "ڊيزEW": 6127,
      "آمريڪا": 6128,
      "آفريڪيEW": 6129,
      "تشريحEW": 6130,
      "رابطوEW": 6131,
      "اٿارٽيEW": 6132,
      "زمينونEW": 6133,
      "عمرڪوٽEW": 6134,
      "ڪارپوريشنEW": 6135,
      "انڊونيشياEW": 6136,
      "آند": 6137,
      "ظلمEW": 6138,
      "هياEW": 6139,
      "وچينEW": 6140,
      "ڌار": 6141,
      "ڏسوEW": 6142,
      "راو": 6143,
      "راضيEW": 6144,
      "ميلوEW": 6145,
      "ينءEW": 6146,
      "ڪرن": 6147,
      "منتخبEW": 6148,
      "رهيونEW": 6149,
      "نيڪEW": 6150,
      "مداخ": 6151,
      "مهارتEW": 6152,
      "تنھن": 6153,
      "جھاز": 6154,
      "1995عEW": 6155,
      "پراڻاEW": 6156,
      "1956عEW": 6157,
      "نصير": 6158,
      "ڄاڻايوEW": 6159,
      "ميووEW": 6160,
      "ڪونهي": 6161,
      "جڳھEW": 6162,
      "اداڪاريEW": 6163,
      "تصنيفEW": 6164,
      "راجپوتEW": 6165,
      "تعاليٰEW": 6166,
      "آبيEW": 6167,
      "خرEW": 6168,
      "قس": 6169,
      "نث": 6170,
      "ڍاEW": 6171,
      "گينEW": 6172,
      "ڱEW": 6173,
      "اسحاقEW": 6174,
      "شھدادڪوٽEW": 6175,
      "شھيدEW": 6176,
      "دوست": 6177,
      "سگهجنEW": 6178,
      "آرڊين": 6179,
      "فاضلEW": 6180,
      "ٻوٽيEW": 6181,
      "ٻوٽاEW": 6182,
      "اڏاو": 6183,
      "جعفريEW": 6184,
      "سازشEW": 6185,
      "ھندستانEW": 6186,
      "ٻيٽNLزمرو": 6187,
      "NEW": 6188,
      "On": 6189,
      "cl": 6190,
      "قينEW": 6191,
      "نامEW": 6192,
      "ٿڌيEW": 6193,
      "ڀنڀ": 6194,
      "ڌڻيEW": 6195,
      "ھز": 6196,
      "اسين": 6197,
      "پاورEW": 6198,
      "پارڪ": 6199,
      "حڪومت": 6200,
      "1996عEW": 6201,
      "1974عEW": 6202,
      "زرخي": 6203,
      "مھينيEW": 6204,
      "چرچEW": 6205,
      "رابطاNLزمرو": 6206,
      "فنڪارEW": 6207,
      "ٿرپارڪرEW": 6208,
      "سهول": 6209,
      "جسٽسEW": 6210,
      "فھرستEW": 6211,
      "ئمEW": 6212,
      "طلبEW": 6213,
      "ڪٿ": 6214,
      "ڳجه": 6215,
      "NLما": 6216,
      "NLاهوEW": 6217,
      "NLپيEW": 6218,
      "روه": 6219,
      "سنئونEW": 6220,
      "علماءEW": 6221,
      "پاڻي": 6222,
      "نيپ": 6223,
      "اڻيNL": 6224,
      "نظا": 6225,
      "مارڻEW": 6226,
      "ننڍڙاEW": 6227,
      "دوروEW": 6228,
      "هلائيEW": 6229,
      "يونيورسٽ": 6230,
      "1940عEW": 6231,
      "ڪهڙوEW": 6232,
      "تقريرEW": 6233,
      "موڪليو": 6234,
      "سياحنEW": 6235,
      "بيماريءEW": 6236,
      "شاخنEW": 6237,
      "ھيٺينEW": 6238,
      "پارٽيونNLزمرو": 6239,
      "هٿيارEW": 6240,
      "تعليمNLزمرو": 6241,
      "زميندارEW": 6242,
      "،،": 6243,
      "رشيدEW": 6244,
      "شور": 6245,
      "ٽئ": 6246,
      "چڙهيEW": 6247,
      "ڊرائ": 6248,
      "ہNL": 6249,
      "امانEW": 6250,
      "منھنEW": 6251,
      "ويٽن": 6252,
      "ڊيز": 6253,
      "والدينEW": 6254,
      "اسٽري": 6255,
      "اميرنEW": 6256,
      "آنلائينEW": 6257,
      "خطرناڪEW": 6258,
      "ڀڳتEW": 6259,
      "فلڪياتEW": 6260,
      "مشرقيEW": 6261,
      "70": 6262,
      "75": 6263,
      "تمندEW": 6264,
      "سيلEW": 6265,
      "عنو": 6266,
      "فعالEW": 6267,
      "ٻائيEW": 6268,
      "پڪيEW": 6269,
      "گھEW": 6270,
      "ھيونEW": 6271,
      "ھائيEW": 6272,
      "NLحضرتEW": 6273,
      "ويٺلEW": 6274,
      "ٿيل": 6275,
      "بدارEW": 6276,
      "واقعوEW": 6277,
      "ڙهاEW": 6278,
      "ڀرپاسيEW": 6279,
      "قرضEW": 6280,
      "سائيٽ": 6281,
      "تصويرون": 6282,
      "فيصلEW": 6283,
      "قطرEW": 6284,
      "گهٽتائيEW": 6285,
      "هجرتEW": 6286,
      "يونيسڪوEW": 6287,
      "زبردستEW": 6288,
      "New": 6289,
      "sl": 6290,
      "تان": 6291,
      "دون": 6292,
      "ساريEW": 6293,
      "وحد": 6294,
      "پٽي": 6295,
      "ڪانگ": 6296,
      "هومEW": 6297,
      "1920عEW": 6298,
      "هنرEW": 6299,
      "اوھانEW": 6300,
      "باق": 6301,
      "قيمتيEW": 6302,
      "قومونEW": 6303,
      "پروسي": 6304,
      "جھڙيEW": 6305,
      "ڏاڏيEW": 6306,
      "ٻوٽوEW": 6307,
      "متبادلEW": 6308,
      "جڳهيون": 6309,
      "مڃيوEW": 6310,
      "ion": 6311,
      "اگرEW": 6312,
      "تذ": 6313,
      "تلو": 6314,
      "يہEW": 6315,
      "سنوار": 6316,
      "بيٺ": 6317,
      "بلاEW": 6318,
      "شھر": 6319,
      "نامو": 6320,
      "1972عEW": 6321,
      "صحبتEW": 6322,
      "2022عEW": 6323,
      "رحمتEW": 6324,
      "ڪمپنيءEW": 6325,
      "بنگالEW": 6326,
      "جرمنيءEW": 6327,
      "متحرڪEW": 6328,
      "ڏھاڪيEW": 6329,
      "آتمEW": 6330,
      "معدنياتEW": 6331,
      "39": 6332,
      "48": 6333,
      "ah": 6334,
      "our": 6335,
      "ئاEW": 6336,
      "تڪارEW": 6337,
      "ڀائيEW": 6338,
      "لاڳي": 6339,
      "اهوئيEW": 6340,
      "علحدهEW": 6341,
      "لوڪلEW": 6342,
      "سوڀ": 6343,
      "بلڪEW": 6344,
      "نوٽEW": 6345,
      "ناول": 6346,
      "صفحا": 6347,
      "مستEW": 6348,
      "ننڍپڻ": 6349,
      "1987عEW": 6350,
      "عليہEW": 6351,
      "1967عEW": 6352,
      "کوٽ": 6353,
      "tiv": 6354,
      "قبائليEW": 6355,
      "وزير": 6356,
      "وهڪروEW": 6357,
      "چڱيءEW": 6358,
      "ڏوههEW": 6359,
      "نوجواننEW": 6360,
      "منتقليEW": 6361,
      "خطروEW": 6362,
      "ءNL": 6363,
      "بک": 6364,
      "سع": 6365,
      "NLسر": 6366,
      "ميئرEW": 6367,
      "ڪرتEW": 6368,
      "سيمينٽEW": 6369,
      "اتو": 6370,
      "شيدائيEW": 6371,
      "سگهن": 6372,
      "2009عEW": 6373,
      "يونيورسٽينEW": 6374,
      "عبدالرحمانEW": 6375,
      "حالتونEW": 6376,
      "ڪالون": 6377,
      "پروگرامنEW": 6378,
      "ڪپڙاEW": 6379,
      "ٺاھيوEW": 6380,
      "گزينEW": 6381,
      "گهٽجيEW": 6382,
      "نويسEW": 6383,
      "فرينچEW": 6384,
      "انفراديEW": 6385,
      "پاڙيسريEW": 6386,
      "جڳهيونNLزمرو": 6387,
      "آندو": 6388,
      "ڃاڻEW": 6389,
      "ڦلEW": 6390,
      "NLوڪيپيڊياEW": 6391,
      "ياتNL": 6392,
      "پناههEW": 6393,
      "ڪنارنEW": 6394,
      "ننڍيونEW": 6395,
      "نقشEW": 6396,
      "1962عEW": 6397,
      "ٺاهيلEW": 6398,
      "ڀاڄ": 6399,
      "گلشنEW": 6400,
      "ill": 6401,
      "اونهاريEW": 6402,
      "جمهوريEW": 6403,
      "سرشتوEW": 6404,
      "ھڪڙوEW": 6405,
      "خاصيتونEW": 6406,
      "نامياريEW": 6407,
      "هنڌNLزمرو": 6408,
      "هفتوEW": 6409,
      "تاروEW": 6410,
      "رٽائرEW": 6411,
      "لط": 6412,
      "نهنEW": 6413,
      "نئيEW": 6414,
      "ٺاھيEW": 6415,
      "ھيمEW": 6416,
      "انڙEW": 6417,
      "سيٽونEW": 6418,
      "اوبلا": 6419,
      "منط": 6420,
      "رهينEW": 6421,
      "هاشمEW": 6422,
      "والاEW": 6423,
      "صفاEW": 6424,
      "ڏاڙ": 6425,
      "نيوزEW": 6426,
      "روزگارEW": 6427,
      "احتجاجEW": 6428,
      "نائيجيرياEW": 6429,
      "iaEW": 6430,
      "آزم": 6431,
      "اڙ": 6432,
      "جہEW": 6433,
      "شپEW": 6434,
      "نڪرڻEW": 6435,
      "ٻولEW": 6436,
      "۾:": 6437,
      "راھEW": 6438,
      "ورثوEW": 6439,
      "موڪليEW": 6440,
      "ڪوروناEW": 6441,
      "جهازنEW": 6442,
      "احمد": 6443,
      "ڏنيون": 6444,
      "ٽوڙيEW": 6445,
      "صحافتEW": 6446,
      "1930عEW": 6447,
      "عبدEW": 6448,
      "ٻاهرانEW": 6449,
      "ايٽمEW": 6450,
      "پيغمبرEW": 6451,
      "فرمايوEW": 6452,
      "فروغEW": 6453,
      "آسٽرياEW": 6454,
      "خاناNLزمرو": 6455,
      "يونيورسٽيونNLزمرو": 6456,
      "66": 6457,
      "تدري": 6458,
      "تائنEW": 6459,
      "خسروEW": 6460,
      "عمو": 6461,
      "ٻاھرEW": 6462,
      "ٽائون": 6463,
      "پتEW": 6464,
      "ڪجھ": 6465,
      "يورو": 6466,
      "پنهورEW": 6467,
      "2020": 6468,
      "مدنEW": 6469,
      "ٺاهياEW": 6470,
      "SindhiEW": 6471,
      "160": 6472,
      "atEW": 6473,
      "تبديلينEW": 6474,
      "اڀريEW": 6475,
      "ect": 6476,
      "صلحEW": 6477,
      "واپرائيندڙEW": 6478,
      "آئينNLزمرو": 6479,
      "دفاعEW": 6480,
      "ڪمانڊرEW": 6481,
      "چوڪNLزمرو": 6482,
      "ننڍپڻNLزمرو": 6483,
      "جياEW": 6484,
      "زا": 6485,
      "زائ": 6486,
      "طاق": 6487,
      "فاس": 6488,
      "نيونEW": 6489,
      "هہEW": 6490,
      "ڏاه": 6491,
      "گنيEW": 6492,
      "ڳوليEW": 6493,
      "NLد": 6494,
      "منصور": 6495,
      "ڪوري": 6496,
      "جهانگ": 6497,
      "ٽيرياEW": 6498,
      "دواEW": 6499,
      "ضلعاEW": 6500,
      "2015عEW": 6501,
      "1994عEW": 6502,
      "مڪانيEW": 6503,
      "1954عEW": 6504,
      "نشرEW": 6505,
      "سگھي": 6506,
      "1000EW": 6507,
      "رستنEW": 6508,
      "نمائشEW": 6509,
      "نوجوانNLزمرو": 6510,
      "تمادEW": 6511,
      "2019عEW": 6512,
      "لاڏاڻوEW": 6513,
      "ڊيموڪري": 6514,
      "49": 6515,
      "az": 6516,
      "طال": 6517,
      "ناي": 6518,
      "ٿڪEW": 6519,
      "ڏورEW": 6520,
      "المو": 6521,
      "آهيان": 6522,
      "موريEW": 6523,
      "ينديونEW": 6524,
      "جيتريEW": 6525,
      "چوٽيءEW": 6526,
      "لکينEW": 6527,
      "ھونديونEW": 6528,
      "حڪومتنEW": 6529,
      "2012EW": 6530,
      "مالاEW": 6531,
      "100": 6532,
      "اجتما": 6533,
      "نيوڪلي": 6534,
      "اسڪولNLزمرو": 6535,
      "ويڪرEW": 6536,
      "متحدEW": 6537,
      "ڪائونسلرEW": 6538,
      "باقاعديEW": 6539,
      "مداخلتEW": 6540,
      "جھازNLزمرو": 6541,
      "بستEW": 6542,
      "توا": 6543,
      "جبر": 6544,
      "جگرEW": 6545,
      "عالي": 6546,
      "چني": 6547,
      "ڇھEW": 6548,
      "ڊمEW": 6549,
      "ارن": 6550,
      "ميان": 6551,
      "يابEW": 6552,
      "پناه": 6553,
      "گهڻائيEW": 6554,
      "ويهينEW": 6555,
      "مرشدEW": 6556,
      "اترينEW": 6557,
      "رسمنEW": 6558,
      "2014EW": 6559,
      "جلد": 6560,
      "تقريبEW": 6561,
      "حاڪمنEW": 6562,
      "مرحليEW": 6563,
      "وسنديونNLزمرو": 6564,
      "محترمEW": 6565,
      "پڇاڙيءEW": 6566,
      "تفصيليEW": 6567,
      "ub": 6568,
      "تائي": 6569,
      "رٿEW": 6570,
      "نجEW": 6571,
      "کوليEW": 6572,
      "ڪشيEW": 6573,
      "انجڻEW": 6574,
      "بيتنEW": 6575,
      "جوانEW": 6576,
      "جوشEW": 6577,
      "سومرو": 6578,
      "وارو": 6579,
      "معناEW": 6580,
      "پرديشEW": 6581,
      "زيادهEW": 6582,
      "سالارEW": 6583,
      "اعتمادEW": 6584,
      "ٽيڪسEW": 6585,
      "مثلاEW": 6586,
      "oryEW": 6587,
      "ميرپور": 6588,
      "پٺاڻEW": 6589,
      "ترجميEW": 6590,
      "انجنيئرنگ": 6591,
      "حميدEW": 6592,
      "تبليغEW": 6593,
      "uEW": 6594,
      "جڳEW": 6595,
      "شيو": 6596,
      "ـيEW": 6597,
      "پيونEW": 6598,
      "پڙEW": 6599,
      "ڌرينEW": 6600,
      "ڏجيEW": 6601,
      "NLه": 6602,
      "NLڪي": 6603,
      "NLاسلامEW": 6604,
      "يوري": 6605,
      "پوکيEW": 6606,
      "تيهEW": 6607,
      "ويندا": 6608,
      "فيل": 6609,
      "بدنEW": 6610,
      "عرضEW": 6611,
      "نڊاEW": 6612,
      "گيسEW": 6613,
      "1965عEW": 6614,
      "2021": 6615,
      "جعفري": 6616,
      "ageEW": 6617,
      "تصوفEW": 6618,
      "صلاحڪارEW": 6619,
      "58": 6620,
      "ci": 6621,
      "ذخي": 6622,
      "کليEW": 6623,
      "کنڀ": 6624,
      "ڪامEW": 6625,
      "NLڇاEW": 6626,
      "ايائين": 6627,
      "پيشابEW": 6628,
      "سيريزEW": 6629,
      "ساءEW": 6630,
      "نوعيتEW": 6631,
      "بدرEW": 6632,
      "ھواEW": 6633,
      "سڏجڻEW": 6634,
      "جلديEW": 6635,
      "خدمت": 6636,
      "مطالبوEW": 6637,
      "منظوريEW": 6638,
      "لنڪاEW": 6639,
      "لفظيEW": 6640,
      "دفعيEW": 6641,
      "ڪيمياEW": 6642,
      "نڪتوEW": 6643,
      "جمهوريتEW": 6644,
      "اڪيڊمي": 6645,
      "ڪوٺيوEW": 6646,
      "دراصلEW": 6647,
      "اسڪاٽ": 6648,
      "سانچاNL": 6649,
      "978": 6650,
      "آء": 6651,
      "دڪEW": 6652,
      "عدمEW": 6653,
      "فهEW": 6654,
      "فلو": 6655,
      "قاتيEW": 6656,
      "ٽڪريءEW": 6657,
      "ڦEW": 6658,
      "ھہEW": 6659,
      "واڙEW": 6660,
      "ڪرائ": 6661,
      "پهلو": 6662,
      "اخترEW": 6663,
      "رياست": 6664,
      "هارونEW": 6665,
      "جهنگليEW": 6666,
      "اوچتوEW": 6667,
      "چانسل": 6668,
      "ورھايلEW": 6669,
      "ساليانيEW": 6670,
      "جادو": 6671,
      "نباتاتEW": 6672,
      "citeEW": 6673,
      "اڇوEW": 6674,
      "بکEW": 6675,
      "سس": 6676,
      "ضي": 6677,
      "فيءEW": 6678,
      "لنگ": 6679,
      "وٽسEW": 6680,
      "پلوEW": 6681,
      "ٿان": 6682,
      "ڌڪEW": 6683,
      "انٽرو": 6684,
      "اريوEW": 6685,
      "ائنڊEW": 6686,
      "وٺنداEW": 6687,
      "وڃائيEW": 6688,
      "ڪاراEW": 6689,
      "2004عEW": 6690,
      "هندستان": 6691,
      "فارسEW": 6692,
      "خوابEW": 6693,
      "حياتيءEW": 6694,
      "خاصخيليEW": 6695,
      "رجحانEW": 6696,
      "جتEW": 6697,
      "رڪن": 6698,
      "سفڪEW": 6699,
      "ضياءEW": 6700,
      "عنهEW": 6701,
      "فال": 6702,
      "لائين": 6703,
      "ماد": 6704,
      "پونEW": 6705,
      "NLبي": 6706,
      "واڳ": 6707,
      "امرو": 6708,
      "گهڻيونEW": 6709,
      "مشينEW": 6710,
      "وٺندوEW": 6711,
      "بلت": 6712,
      "نظرينEW": 6713,
      "نازلEW": 6714,
      "سڏينEW": 6715,
      "1999ع": 6716,
      "ڀرڳ": 6717,
      "1955عEW": 6718,
      "جيوتEW": 6719,
      "ISB": 6720,
      "باه": 6721,
      "سپل": 6722,
      "فتح": 6723,
      "واه": 6724,
      "وڪال": 6725,
      "NLعامEW": 6726,
      "ولوEW": 6727,
      "جهڙنEW": 6728,
      "پاڙEW": 6729,
      "آھيNL": 6730,
      "مشنEW": 6731,
      "سانچيEW": 6732,
      "ٽرسEW": 6733,
      "موجودگيEW": 6734,
      "جھازEW": 6735,
      "سببنEW": 6736,
      "اولمپ": 6737,
      "عبدالڪريمEW": 6738,
      "1945عEW": 6739,
      "1946عEW": 6740,
      "1953عEW": 6741,
      "مذهبنEW": 6742,
      "آئسEW": 6743,
      "خطنEW": 6744,
      "ڀاڱي": 6745,
      "amEW": 6746,
      "سکنEW": 6747,
      "انجنيئرEW": 6748,
      "ميوزڪEW": 6749,
      "مهرچندEW": 6750,
      "بندوبستEW": 6751,
      "آڪسائيڊEW": 6752,
      "ric": 6753,
      "بڪرEW": 6754,
      "حيو": 6755,
      "ماري": 6756,
      "ڀاڻEW": 6757,
      "NLگو": 6758,
      "موٽ": 6759,
      "موبائ": 6760,
      "علمنEW": 6761,
      "بايو": 6762,
      "دردEW": 6763,
      "رهاڪنEW": 6764,
      "بادشاهيEW": 6765,
      "کير": 6766,
      "انڊسEW": 6767,
      "اعتب": 6768,
      "رھڻEW": 6769,
      "اسپينيEW": 6770,
      "ملازمEW": 6771,
      "ڏيکاريلEW": 6772,
      "جنگينEW": 6773,
      "انسانيتEW": 6774,
      "اسپيسEW": 6775,
      "اورنگ": 6776,
      "جوڻيجوEW": 6777,
      "تڪراريEW": 6778,
      "ib": 6779,
      "رخ": 6780,
      "ناه": 6781,
      "وقEW": 6782,
      "چمڪ": 6783,
      "ڏٺو": 6784,
      "NLميرEW": 6785,
      "ديھونEW": 6786,
      "بلڪهEW": 6787,
      "پرت": 6788,
      "1999عEW": 6789,
      "عبدالرحيمEW": 6790,
      "حوالنEW": 6791,
      "گاڏيEW": 6792,
      "گلگتEW": 6793,
      "tionEW": 6794,
      "ڪلهوڙيEW": 6795,
      "ہيںEW": 6796,
      "سڳورنEW": 6797,
      "کوجناEW": 6798,
      "ڄيٺ": 6799,
      "ايجوڪيشنEW": 6800,
      "بنيEW": 6801,
      "تالي": 6802,
      "تغل": 6803,
      "خاناEW": 6804,
      "لائي": 6805,
      "مسو": 6806,
      "نادرEW": 6807,
      "ڦڦ": 6808,
      "NLاسلاميEW": 6809,
      "لاهيEW": 6810,
      "درجاEW": 6811,
      "ٽيNL": 6812,
      "مطل": 6813,
      "قلندرEW": 6814,
      "طريق": 6815,
      "فلسفوEW": 6816,
      "بھترEW": 6817,
      "37EW": 6818,
      "47": 6819,
      "lineEW": 6820,
      "pp": 6821,
      "اٽEW": 6822,
      "بھEW": 6823,
      "بائي": 6824,
      "جNL": 6825,
      "راههEW": 6826,
      "روپياEW": 6827,
      "مولو": 6828,
      "ڪيمپ": 6829,
      "ويھينEW": 6830,
      "تيز": 6831,
      "ناليو": 6832,
      "درس": 6833,
      "معاھ": 6834,
      "پههEW": 6835,
      "2001عEW": 6836,
      "بنائڻEW": 6837,
      "پھچيEW": 6838,
      "آرٽ": 6839,
      "نقشوEW": 6840,
      "1975عEW": 6841,
      "مائڪرو": 6842,
      "مجاه": 6843,
      "طافEW": 6844,
      "تماڪEW": 6845,
      "تھذي": 6846,
      "ڪلاسيڪيEW": 6847,
      "بادشاهنEW": 6848,
      "ذخيروEW": 6849,
      "ڪولمبياEW": 6850,
      "ٻھراڙيءEW": 6851,
      "تNLزمرو": 6852,
      "رشEW": 6853,
      "فص": 6854,
      "لههEW": 6855,
      "لسٽEW": 6856,
      "وائيEW": 6857,
      "ٿور": 6858,
      "ٿام": 6859,
      "ھد": 6860,
      "NLيونينEW": 6861,
      "انياEW": 6862,
      "يومEW": 6863,
      "واڌاريEW": 6864,
      "ترڪي": 6865,
      "زمانوEW": 6866,
      "اصلاحEW": 6867,
      "هئو": 6868,
      "بدو": 6869,
      "182": 6870,
      "مهراڻ": 6871,
      "مصروفEW": 6872,
      "اسلامي": 6873,
      "ityEW": 6874,
      "دارو": 6875,
      "گھربلEW": 6876,
      "نڪرندڙEW": 6877,
      "معصومEW": 6878,
      "ماسترEW": 6879,
      "65": 6880,
      "Com": 6881,
      "gEW": 6882,
      "oun": 6883,
      "جمع": 6884,
      "عاتEW": 6885,
      "متو": 6886,
      "يمنEW": 6887,
      "پمينٽEW": 6888,
      "القرآنEW": 6889,
      "اسرائي": 6890,
      "ايا": 6891,
      "واٽرEW": 6892,
      "يونائي": 6893,
      "منگEW": 6894,
      "جهي": 6895,
      "سردارنEW": 6896,
      "برصغيرEW": 6897,
      "اھميتEW": 6898,
      "فوٽنEW": 6899,
      "مثال": 6900,
      "ens": 6901,
      "نياڻيEW": 6902,
      "آبپا": 6903,
      "ھڪڙيEW": 6904,
      "دراو": 6905,
      "شتگر": 6906,
      "ڊپارٽمينٽEW": 6907,
      "بز": 6908,
      "حسن": 6909,
      "زئيEW": 6910,
      "راڻي": 6911,
      "بايوEW": 6912,
      "چوندوEW": 6913,
      "ڪاريءEW": 6914,
      "1979عEW": 6915,
      "مالياEW": 6916,
      "1949عEW": 6917,
      "سونهنEW": 6918,
      "فضاEW": 6919,
      "مزاحمتEW": 6920,
      "بشمولEW": 6921,
      "حاضرEW": 6922,
      "ڪنڀارEW": 6923,
      "حرEW": 6924,
      "قاد": 6925,
      "لارڊEW": 6926,
      "لڙائيEW": 6927,
      "ڀڳو": 6928,
      "ڍلEW": 6929,
      "گورEW": 6930,
      "NL1": 6931,
      "NL2": 6932,
      "البتEW": 6933,
      "ريز": 6934,
      "اهيءEW": 6935,
      "ادينEW": 6936,
      "ونياEW": 6937,
      "ساٿEW": 6938,
      "ٽيههEW": 6939,
      "فرانس": 6940,
      "2004": 6941,
      "2012عEW": 6942,
      "2014عEW": 6943,
      "هلڻEW": 6944,
      "بخش": 6945,
      "1976عEW": 6946,
      "مٿيونEW": 6947,
      "تخلصEW": 6948,
      "iction": 6949,
      "اڪيلوEW": 6950,
      "ٻارهنEW": 6951,
      "گھرجي": 6952,
      "آڻينداEW": 6953,
      "وفاقEW": 6954,
      "ٻرندڙEW": 6955,
      "منجهسEW": 6956,
      "سوراخEW": 6957,
      "Pro": 6958,
      "جپ": 6959,
      "سفيدEW": 6960,
      "ظرEW": 6961,
      "فسادEW": 6962,
      "ڏيو": 6963,
      "ڻو": 6964,
      "NLتاريخEW": 6965,
      "لاھورEW": 6966,
      "سوچ": 6967,
      "سومريEW": 6968,
      "مقبول": 6969,
      "تعينEW": 6970,
      "جاڳ": 6971,
      "سمجھيEW": 6972,
      "عبدالعزيزEW": 6973,
      "عبدالقادرEW": 6974,
      "دارال": 6975,
      "طبعيEW": 6976,
      "معامليEW": 6977,
      "اشاعتEW": 6978,
      "اڍائيEW": 6979,
      "اعتبارEW": 6980,
      "nb": 6981,
      "زيلEW": 6982,
      "شديدEW": 6983,
      "ٻرEW": 6984,
      "گني": 6985,
      "يورEW": 6986,
      "جنابEW": 6987,
      "پيٽرو": 6988,
      "گهڙEW": 6989,
      "سيکار": 6990,
      "بيمارEW": 6991,
      "ترخانEW": 6992,
      "جيمسEW": 6993,
      "تيNL": 6994,
      "مرمتEW": 6995,
      "وٺندڙEW": 6996,
      "بلنديEW": 6997,
      "18عEW": 6998,
      "هالEW": 6999,
      "هندي": 7000,
      "جمال": 7001,
      "ڏاڏوEW": 7002,
      "ڇوڪريEW": 7003,
      "اڏوEW": 7004,
      "لسانيEW": 7005,
      "پيرويEW": 7006,
      "دروازوEW": 7007,
      "ميزبانيEW": 7008,
      "iz": 7009,
      "تري": 7010,
      "ساديEW": 7011,
      "طبع": 7012,
      "ظاهريEW": 7013,
      "همع": 7014,
      "ٺٽو": 7015,
      "ڊبل": 7016,
      "ڏنا": 7017,
      "ہو": 7018,
      "ائيلEW": 7019,
      "سياسي": 7020,
      "برفانيEW": 7021,
      "صوبو": 7022,
      "سڀاEW": 7023,
      "نگي": 7024,
      "مسعو": 7025,
      "1942عEW": 7026,
      "تصويرنEW": 7027,
      "ٽائيمEW": 7028,
      "پوکڻEW": 7029,
      "ہيں": 7030,
      "قدامتEW": 7031,
      "سرائڪيEW": 7032,
      "زلزليEW": 7033,
      "نايابEW": 7034,
      "46": 7035,
      "Sh": 7036,
      "ايونEW": 7037,
      "باڪوEW": 7038,
      "سائين": 7039,
      "چڪ": 7040,
      "ائٽل": 7041,
      "ندڙنEW": 7042,
      "سنڌو": 7043,
      "ويچارEW": 7044,
      "ڪنڊي": 7045,
      "ڪاٺيEW": 7046,
      "نگار": 7047,
      "1985عEW": 7048,
      "1982عEW": 7049,
      "علاوه": 7050,
      "ايندو": 7051,
      "خطريEW": 7052,
      "ity": 7053,
      "تجربنEW": 7054,
      "چانڊيو": 7055,
      "منصورهEW": 7056,
      "1NL": 7057,
      "Mar": 7058,
      "if": 7059,
      "صهEW": 7060,
      "غيEW": 7061,
      "لهيEW": 7062,
      "نNL": 7063,
      "وانEW": 7064,
      "ڌاري": 7065,
      "گرنEW": 7066,
      "الدين": 7067,
      "ايگز": 7068,
      "ملين": 7069,
      "فيقEW": 7070,
      "بلينEW": 7071,
      "سائو": 7072,
      "ڇڏيا": 7073,
      "ڏکEW": 7074,
      "آرميEW": 7075,
      "آرڪائ": 7076,
      "فريدEW": 7077,
      "1989عEW": 7078,
      "اچن": 7079,
      "اديب": 7080,
      "خارجيEW": 7081,
      "ڪانفرنس": 7082,
      "ٽيڪنالاجي": 7083,
      "اخلاقEW": 7084,
      "ابوذرEW": 7085,
      "افتتاحEW": 7086,
      "OnlineEW": 7087,
      "وڪالتEW": 7088,
      "38EW": 7089,
      "53EW": 7090,
      "آپEW": 7091,
      "جڙ": 7092,
      "حديEW": 7093,
      "حملEW": 7094,
      "دھ": 7095,
      "شريEW": 7096,
      "لڪ": 7097,
      "ننڊEW": 7098,
      "روڪEW": 7099,
      "مياEW": 7100,
      "ميٽرڪEW": 7101,
      "سترEW": 7102,
      "پوٽيEW": 7103,
      "منگول": 7104,
      "ترنEW": 7105,
      "جود": 7106,
      "ڊيميEW": 7107,
      "خوفEW": 7108,
      "خوشيءEW": 7109,
      "جھڙوEW": 7110,
      "ڪلاڪنEW": 7111,
      "نتيجاEW": 7112,
      "وهندوEW": 7113,
      "انجمنEW": 7114,
      "ell": 7115,
      "ڏوھEW": 7116,
      "نموننEW": 7117,
      "صلاحيتنEW": 7118,
      "جاپانيEW": 7119,
      "ٻاڦEW": 7120,
      "ڪارڪردگيEW": 7121,
      "فارميشنEW": 7122,
      "بنگلاديشEW": 7123,
      "name": 7124,
      "مقبوليتEW": 7125,
      "تڏھنEW": 7126,
      "خمي": 7127,
      "خونEW": 7128,
      "رائڻEW": 7129,
      "مجلسEW": 7130,
      "ڪردارنEW": 7131,
      "ديھ": 7132,
      "جوڳ": 7133,
      "سرحدنEW": 7134,
      "ڪنڊيEW": 7135,
      "معاوي": 7136,
      "اڳئينEW": 7137,
      "لڳاتارEW": 7138,
      "سٽاEW": 7139,
      "ڪيتروEW": 7140,
      "فلمونEW": 7141,
      "آرڪ": 7142,
      "170": 7143,
      "176": 7144,
      "قبرونEW": 7145,
      "مستحڪمEW": 7146,
      "ابتڙEW": 7147,
      "دلچسپEW": 7148,
      "spEW": 7149,
      "ڪينيڊاEW": 7150,
      "طوفانEW": 7151,
      "لطفEW": 7152,
      "97896": 7153,
      "ئوEW": 7154,
      "بيلEW": 7155,
      "حملنEW": 7156,
      "خشڪيEW": 7157,
      "داللهEW": 7158,
      "فرسٽEW": 7159,
      "لونEW": 7160,
      "مڊلEW": 7161,
      "ناھي": 7162,
      "ٻاريEW": 7163,
      "پائي": 7164,
      "ڀٽ": 7165,
      "چاهيEW": 7166,
      "چاچ": 7167,
      "ارجنEW": 7168,
      "ميليEW": 7169,
      "ماھرEW": 7170,
      "ايمانEW": 7171,
      "ستارEW": 7172,
      "ديسEW": 7173,
      "تعلقنEW": 7174,
      "احسانEW": 7175,
      "سڀي": 7176,
      "ضلعEW": 7177,
      "پروجيڪٽEW": 7178,
      "گرامرEW": 7179,
      "قلعو": 7180,
      "براعظمEW": 7181,
      "1961عEW": 7182,
      "گهرNL": 7183,
      "گهوڙيEW": 7184,
      "ريگستان": 7185,
      "عقيدنEW": 7186,
      "طبيعتEW": 7187,
      "اقتصاد": 7188,
      "نڪرندوEW": 7189,
      "عربيءEW": 7190,
      "بنايوEW": 7191,
      "حرفEW": 7192,
      "خاد": 7193,
      "عبي": 7194,
      "لٽيEW": 7195,
      "لڪيEW": 7196,
      "نين": 7197,
      "نفر": 7198,
      "هلEW": 7199,
      "گند": 7200,
      "ماھ": 7201,
      "برجEW": 7202,
      "وارثEW": 7203,
      "ڪاپيEW": 7204,
      "ant": 7205,
      "فريئرEW": 7206,
      "ٺھڻEW": 7207,
      "متحدهEW": 7208,
      "گلابEW": 7209,
      "990": 7210,
      "ٻهرا": 7211,
      "()،": 7212,
      "::": 7213,
      "Am": 7214,
      "SEW": 7215,
      "etEW": 7216,
      "بمEW": 7217,
      "تائ": 7218,
      "دہEW": 7219,
      "صہEW": 7220,
      "قسط": 7221,
      "مادريEW": 7222,
      "وئ": 7223,
      "وڊيوEW": 7224,
      "پتيEW": 7225,
      "چائ": 7226,
      "ڍڪيلEW": 7227,
      "الرحمانEW": 7228,
      "ميدانيEW": 7229,
      "افز": 7230,
      "دوستيEW": 7231,
      "ڪلڪEW": 7232,
      "ٻيلنEW": 7233,
      "ڀرائيEW": 7234,
      "گاهنEW": 7235,
      "1937عEW": 7236,
      "ماهر": 7237,
      "چمڙيEW": 7238,
      "آسانيEW": 7239,
      "زڪامEW": 7240,
      "لکيائين": 7241,
      "ud": 7242,
      "آسان": 7243,
      "رٿاEW": 7244,
      "سز": 7245,
      "صالEW": 7246,
      "فخرEW": 7247,
      "ڀري": 7248,
      "کائ": 7249,
      "NLهوEW": 7250,
      "NLني": 7251,
      "پيئرEW": 7252,
      "امر": 7253,
      "سامEW": 7254,
      "مشغ": 7255,
      "چوريEW": 7256,
      "ڪشانEW": 7257,
      "مطالعو": 7258,
      "سرورEW": 7259,
      "رجسٽ": 7260,
      "ڪاروباريEW": 7261,
      "عدالتيEW": 7262,
      "ماسٽرEW": 7263,
      "باقاعدهEW": 7264,
      "بليڪEW": 7265,
      "راولپن": 7266,
      "ارغونEW": 7267,
      "فاطمهEW": 7268,
      "اسڪاٽلينڊEW": 7269,
      "دارومدارEW": 7270,
      "97896990": 7271,
      "9789699098": 7272,
      "ex": 7273,
      "اھEW": 7274,
      "زب": 7275,
      "نانگEW": 7276,
      "ٽرا": 7277,
      "ڏٺ": 7278,
      "مايوEW": 7279,
      "ابخ": 7280,
      "ملھ": 7281,
      "پوندو": 7282,
      "بدلائيEW": 7283,
      "ڇڏياEW": 7284,
      "ڏکيوEW": 7285,
      "پروٽ": 7286,
      "سبب": 7287,
      "شهادتEW": 7288,
      "شريعتEW": 7289,
      "1983عEW": 7290,
      "برابريEW": 7291,
      "1968عEW": 7292,
      "1938عEW": 7293,
      "رستاEW": 7294,
      "ڊراموEW": 7295,
      "ڀاڱنEW": 7296,
      "گهوٽ": 7297,
      "سفارتيEW": 7298,
      "ولادتEW": 7299,
      "چنيسرEW": 7300,
      "nbspEW": 7301,
      "Ac": 7302,
      "Pl": 7303,
      "جريEW": 7304,
      "دڪانEW": 7305,
      "هالاEW": 7306,
      "وول": 7307,
      "ڄاتلEW": 7308,
      "ڦهل": 7309,
      "گفت": 7310,
      "انچ": 7311,
      "ريمEW": 7312,
      "ڪرسٽ": 7313,
      "ڪوبہEW": 7314,
      "ليNL": 7315,
      "گھي": 7316,
      "طرح": 7317,
      "فرق": 7318,
      "پرائي": 7319,
      "فوجينEW": 7320,
      "ٽران": 7321,
      "2003EW": 7322,
      "گوارEW": 7323,
      "تباهيEW": 7324,
      "هلنديEW": 7325,
      "ڀرتيEW": 7326,
      "1969عEW": 7327,
      "ليکڪنEW": 7328,
      "شاهجهانEW": 7329,
      "ڊوائي": 7330,
      "گنجائ": 7331,
      "پئسفڪEW": 7332,
      "جهنگEW": 7333,
      "ويڪرائيEW": 7334,
      "پارليامانيEW": 7335,
      "روييEW": 7336,
      "تلاشEW": 7337,
      "نامياروEW": 7338,
      "هاڻو": 7339,
      "يقينيEW": 7340,
      "هائيڊرو": 7341,
      "پيچيدهEW": 7342,
      "پختونخو": 7343,
      "زرخيزEW": 7344,
      "Pak": 7345,
      "est": 7346,
      "اڙEW": 7347,
      "چرلEW": 7348,
      "ڏيوEW": 7349,
      "نديون": 7350,
      "الق": 7351,
      "روڪيEW": 7352,
      "موسميEW": 7353,
      "رهجيEW": 7354,
      "نگاريEW": 7355,
      "بنائيEW": 7356,
      "سيڪنڊEW": 7357,
      "پنھنجاEW": 7358,
      "1966عEW": 7359,
      "وانگر": 7360,
      "بچيلEW": 7361,
      "عهدوEW": 7362,
      "عقيدوEW": 7363,
      "ڪيمسٽريEW": 7364,
      "چاهيوEW": 7365,
      "پورچوگي": 7366,
      "صار": 7367,
      "هارينEW": 7368,
      "ٻانهنEW": 7369,
      "ڀٽائيEW": 7370,
      "ڪستانEW": 7371,
      "NLک": 7372,
      "NLجو": 7373,
      "ماٿريEW": 7374,
      "لوههEW": 7375,
      "ڏيڻ": 7376,
      "لڳڻEW": 7377,
      "قويEW": 7378,
      "مدتEW": 7379,
      "2003عEW": 7380,
      "سينگار": 7381,
      "رھندوEW": 7382,
      "بنياد": 7383,
      "پڙھ": 7384,
      "سهڪارEW": 7385,
      "اطال": 7386,
      "پهچائڻEW": 7387,
      "چينلEW": 7388,
      "برداشتEW": 7389,
      "انٽمEW": 7390,
      "عھديEW": 7391,
      "مددگارEW": 7392,
      "ٿولڪEW": 7393,
      "گريجوئيشنEW": 7394,
      "ملائيشياEW": 7395,
      "مصنوعيEW": 7396,
      "حام": 7397,
      "شام": 7398,
      "ليلEW": 7399,
      "لطي": 7400,
      "نب": 7401,
      "نيلEW": 7402,
      "نزEW": 7403,
      "ڊان": 7404,
      "NLٽ": 7405,
      "NLڪن": 7406,
      "ارض": 7407,
      "ملنديEW": 7408,
      "اوچوEW": 7409,
      "محرمEW": 7410,
      "جيل": 7411,
      "پاڙ": 7412,
      "توکيEW": 7413,
      "ڪارلEW": 7414,
      "مهمانEW": 7415,
      "تلاEW": 7416,
      "پھريانEW": 7417,
      "بلاولEW": 7418,
      "طبيعيEW": 7419,
      "ميونسپل": 7420,
      "جزويEW": 7421,
      "عضونEW": 7422,
      "نوآبادياتيEW": 7423,
      "Hist": 7424,
      "Kh": 7425,
      "جڙيEW": 7426,
      "خامو": 7427,
      "فيا": 7428,
      "وسيEW": 7429,
      "يل": 7430,
      "ڀائرEW": 7431,
      "ڏان": 7432,
      "ڏها": 7433,
      "گاھ": 7434,
      "NLرا": 7435,
      "NLاسانEW": 7436,
      "انٽڪEW": 7437,
      "اباڻيEW": 7438,
      "19عEW": 7439,
      "بيٺوEW": 7440,
      "سوشلEW": 7441,
      "اتمEW": 7442,
      "معت": 7443,
      "ڪرامEW": 7444,
      "گاڏينEW": 7445,
      "نصابEW": 7446,
      "ڄاڻخانوEW": 7447,
      "150EW": 7448,
      "بچڻEW": 7449,
      "تفسيرEW": 7450,
      "بلاڪEW": 7451,
      "تخليقيEW": 7452,
      "دستاويز": 7453,
      "سھولتEW": 7454,
      "عيسائيتEW": 7455,
      "PEW": 7456,
      "pl": 7457,
      "اڇاEW": 7458,
      "بيا": 7459,
      "بيونEW": 7460,
      "بشيرEW": 7461,
      "تلاءEW": 7462,
      "رگEW": 7463,
      "پڪوEW": 7464,
      "ڃEW": 7465,
      "ڪاههEW": 7466,
      "گاناEW": 7467,
      "NLق": 7468,
      "NLJogiAsadEW": 7469,
      "اباEW": 7470,
      "سيفEW": 7471,
      "جوڙيلEW": 7472,
      "سٽونEW": 7473,
      "بوريEW": 7474,
      "شهبازEW": 7475,
      "دريءEW": 7476,
      "مرڪز": 7477,
      "قرآن": 7478,
      "نشاند": 7479,
      "ساڳيءEW": 7480,
      "ذميوارEW": 7481,
      "ٽرانسپورٽEW": 7482,
      "چانديءEW": 7483,
      "پندرهنEW": 7484,
      "ردعملEW": 7485,
      "توازنEW": 7486,
      "75EW": 7487,
      "90": 7488,
      "Diction": 7489,
      "aj": 7490,
      "com": 7491,
      "اغ": 7492,
      "حياتيEW": 7493,
      "ـي": 7494,
      "فورEW": 7495,
      "فنڊEW": 7496,
      "نڪيEW": 7497,
      "وتEW": 7498,
      "ٽياEW": 7499,
      "چل": 7500,
      "ڌام": 7501,
      "گوليEW": 7502,
      "ھٿي": 7503,
      "موتيEW": 7504,
      "ايپل": 7505,
      "نوريEW": 7506,
      "يرهEW": 7507,
      "2002EW": 7508,
      "پرورشEW": 7509,
      "جانشينEW": 7510,
      "1936عEW": 7511,
      "2024": 7512,
      "لائبر": 7513,
      "مرادوEW": 7514,
      "دستورEW": 7515,
      "رحالEW": 7516,
      "ڍنڍنEW": 7517,
      "غلط": 7518,
      "سياحEW": 7519,
      "عقلEW": 7520,
      "نموناEW": 7521,
      "ذاتينEW": 7522,
      "ڪثرتEW": 7523,
      "اڄڪلههEW": 7524,
      "چانسلرEW": 7525,
      "بلتستانEW": 7526,
      "55": 7527,
      "65EW": 7528,
      "Ph": 7529,
      "آرا": 7530,
      "حبEW": 7531,
      "شرابEW": 7532,
      "عاق": 7533,
      "فيو": 7534,
      "فون": 7535,
      "قياتيEW": 7536,
      "نائينEW": 7537,
      "ٽڪرنEW": 7538,
      "ڙيNL": 7539,
      "NLٻ": 7540,
      "ارسEW": 7541,
      "راويEW": 7542,
      "ماٿ": 7543,
      "اتNL": 7544,
      "وڌايوEW": 7545,
      "مدوEW": 7546,
      "ٻڌمتEW": 7547,
      "برازيلEW": 7548,
      "1951عEW": 7549,
      "قطارEW": 7550,
      "ass": 7551,
      "هفتيEW": 7552,
      ")؛": 7553,
      "48EW": 7554,
      "آصفEW": 7555,
      "بت": 7556,
      "بها": 7557,
      "جسٽEW": 7558,
      "خبرو": 7559,
      "خانگيEW": 7560,
      "شميEW": 7561,
      "مٺوEW": 7562,
      "مترجم": 7563,
      "ڀون": 7564,
      "ڀريوEW": 7565,
      "ڏجنEW": 7566,
      "ڦٽ": 7567,
      "ڦٽيEW": 7568,
      "گين": 7569,
      "گزي": 7570,
      "ڳڻEW": 7571,
      "ھميش": 7572,
      "NLملڪEW": 7573,
      "ائنٽEW": 7574,
      "اهڙينEW": 7575,
      "هوندا": 7576,
      "واءEW": 7577,
      "پير": 7578,
      "پيار": 7579,
      "منڇرEW": 7580,
      "جوڙEW": 7581,
      "ٽيئرEW": 7582,
      "اھن": 7583,
      "اليگزين": 7584,
      "all": 7585,
      "نتيجنEW": 7586,
      "ميٽڪEW": 7587,
      "ڪاميٽيءEW": 7588,
      "سکر": 7589,
      "حملاEW": 7590,
      "صنعتنEW": 7591,
      "وڪٽو": 7592,
      "انصاريEW": 7593,
      "مهربانيEW": 7594,
      "فلاسا": 7595,
      "غربتEW": 7596,
      "1ھEW": 7597,
      "33": 7598,
      "42EW": 7599,
      "ayEW": 7600,
      "آئنEW": 7601,
      "اڌ": 7602,
      "درينEW": 7603,
      "شمو": 7604,
      "ووٽ": 7605,
      "ڊيءEW": 7606,
      "ڪاهيEW": 7607,
      "NLبا": 7608,
      "جنڪشنEW": 7609,
      "آھستيEW": 7610,
      "ستارنEW": 7611,
      "ڪوئي": 7612,
      "پاڳ": 7613,
      "مقام": 7614,
      "گھرنEW": 7615,
      "لکندوEW": 7616,
      "فرقيEW": 7617,
      "ڇڏيندوEW": 7618,
      "ٻيڙيEW": 7619,
      "رھينEW": 7620,
      "سماج": 7621,
      "کاڌ": 7622,
      "پنجاههEW": 7623,
      "روايتونEW": 7624,
      "عهدEW": 7625,
      "معاشر": 7626,
      "ڪپڙوEW": 7627,
      "تجرباتيEW": 7628,
      "ڇڏيائين": 7629,
      "راشدي": 7630,
      "نفسياتيEW": 7631,
      "تنقيديEW": 7632,
      "مظاهروEW": 7633,
      "ايسوسيئيشنEW": 7634,
      "همايونEW": 7635,
      "ٿامسEW": 7636,
      "Pakist": 7637,
      "داڻاEW": 7638,
      "ظفرEW": 7639,
      "پيڪ": 7640,
      "ڊياEW": 7641,
      "انڍ": 7642,
      "ڪرڻيEW": 7643,
      "اويEW": 7644,
      "اوند": 7645,
      "منعEW": 7646,
      "بيهيEW": 7647,
      "جوهيEW": 7648,
      "ڪنوين": 7649,
      "فيهEW": 7650,
      "گھروEW": 7651,
      "اھڙاEW": 7652,
      "181": 7653,
      "پورهي": 7654,
      "جرنلEW": 7655,
      "ڏاک": 7656,
      "کوههEW": 7657,
      "ديوتائنEW": 7658,
      "1941عEW": 7659,
      "بنگاليEW": 7660,
      "باغيEW": 7661,
      "سهولتEW": 7662,
      "ڪڻڪEW": 7663,
      "حادثيEW": 7664,
      "رانديگرEW": 7665,
      "واپارينEW": 7666,
      "لسانياتEW": 7667,
      "يونائيٽيڊEW": 7668,
      "per": 7669,
      "جرا": 7670,
      "سلوڪEW": 7671,
      "پNL": 7672,
      "کہEW": 7673,
      "انفر": 7674,
      "ماڊ": 7675,
      "ڪرشنEW": 7676,
      "اوڙEW": 7677,
      "جههEW": 7678,
      "سرحديEW": 7679,
      "سواEW": 7680,
      "ٽيف": 7681,
      "هيس": 7682,
      "هيروEW": 7683,
      "دوديEW": 7684,
      "شنNL": 7685,
      "1939عEW": 7686,
      "پڙهيلEW": 7687,
      "وٽامنEW": 7688,
      "فنڪارنEW": 7689,
      "تھھEW": 7690,
      "اطلاعEW": 7691,
      "ology": 7692,
      "يعقوبEW": 7693,
      "نافذEW": 7694,
      "oh": 7695,
      "web": 7696,
      "اٿيEW": 7697,
      "جھن": 7698,
      "زمانEW": 7699,
      "همتEW": 7700,
      "ٻEW": 7701,
      "NLڳوٺEW": 7702,
      "اهونEW": 7703,
      "ڪيتريEW": 7704,
      "امڪ": 7705,
      "سيڙ": 7706,
      "جهرEW": 7707,
      "ويڙه": 7708,
      "معن": 7709,
      "رکEW": 7710,
      "2005EW": 7711,
      "الله": 7712,
      "1964عEW": 7713,
      "مائٽنEW": 7714,
      "2021EW": 7715,
      "آفيسرنEW": 7716,
      "عباس": 7717,
      "ڪهاڻيڪارEW": 7718,
      "راجس": 7719,
      "مرحلنEW": 7720,
      "هزارنEW": 7721,
      "ماليهEW": 7722,
      "اسپيڪرEW": 7723,
      "موسيقارEW": 7724,
      "ڀيروملEW": 7725,
      "ويٽنامEW": 7726,
      "ميرپورخاصEW": 7727,
      "دنيEW": 7728,
      "رتو": 7729,
      "سڪاEW": 7730,
      "ٽاميEW": 7731,
      "ٽڪراEW": 7732,
      "ڳائيEW": 7733,
      "مايو": 7734,
      "سنگه": 7735,
      "ايسٽ": 7736,
      "پيئ": 7737,
      "اوڀر": 7738,
      "ديسيEW": 7739,
      "پايوEW": 7740,
      "جايونEW": 7741,
      "والدهEW": 7742,
      "نسبEW": 7743,
      "مينارEW": 7744,
      "ڳايوEW": 7745,
      "حاليءEW": 7746,
      "خانهEW": 7747,
      "لغويEW": 7748,
      "1935عEW": 7749,
      "اليڪٽرڪEW": 7750,
      "وسلمNL": 7751,
      "قصوEW": 7752,
      "يڪيوٽوEW": 7753,
      "نامياتيEW": 7754,
      "مٽاسٽ": 7755,
      "سجاولEW": 7756,
      "چانديEW": 7757,
      "پرنسپالEW": 7758,
      "جهانگيرEW": 7759,
      "44EW": 7760,
      ":؛": 7761,
      "تباھEW": 7762,
      "ذريEW": 7763,
      "شدتEW": 7764,
      "وجھ": 7765,
      "ٺاههEW": 7766,
      "پڇEW": 7767,
      "کاتوEW": 7768,
      "آهيونEW": 7769,
      "ميڙEW": 7770,
      "زمريEW": 7771,
      "پرفار": 7772,
      "گوادرEW": 7773,
      "مائلEW": 7774,
      "1957عEW": 7775,
      "خانNL": 7776,
      "ڪهڙاEW": 7777,
      "شاهنوازEW": 7778,
      "فائزEW": 7779,
      "ate": 7780,
      "دستخطEW": 7781,
      "ترتيب": 7782,
      "چاڙه": 7783,
      "واسطيEW": 7784,
      "شڪارپور": 7785,
      "مسافرنEW": 7786,
      "ذميواريEW": 7787,
      "سفيرEW": 7788,
      "اورنگزيبEW": 7789,
      "جزوEW": 7790,
      "طار": 7791,
      "غنEW": 7792,
      "فنگ": 7793,
      "نجيEW": 7794,
      "ناسEW": 7795,
      "چال": 7796,
      "NLشيخEW": 7797,
      "ريہEW": 7798,
      "اهڃاڻEW": 7799,
      "ماضيءEW": 7800,
      "يندو": 7801,
      "ولينEW": 7802,
      "گهريEW": 7803,
      "ساڍاEW": 7804,
      "مني": 7805,
      "ڪوانٽمEW": 7806,
      "اصلوEW": 7807,
      "ليڊرEW": 7808,
      "وڃEW": 7809,
      "حيرتEW": 7810,
      "ڪاغ": 7811,
      "2000": 7812,
      "ڪمان": 7813,
      "مينٽ": 7814,
      "چيائينEW": 7815,
      "قائد": 7816,
      "وغيرہEW": 7817,
      "خيال": 7818,
      "ڄاڻوEW": 7819,
      "اڪيليEW": 7820,
      "عددEW": 7821,
      "ڪهاڻيون": 7822,
      "طبقاتيEW": 7823,
      "ڳولڻEW": 7824,
      "جدولEW": 7825,
      "محققنEW": 7826,
      "ٿلهيEW": 7827,
      "وڻندڙEW": 7828,
      "مشاهديEW": 7829,
      "دروازاEW": 7830,
      "اليڪٽرانEW": 7831,
      "ميونسپال": 7832,
      "يهوديEW": 7833,
      "رومانويEW": 7834,
      "فصلنEW": 7835,
      "ائٽلانٽڪEW": 7836,
      "2ھEW": 7837,
      "400EW": 7838,
      "DEW": 7839,
      "Par": 7840,
      "جري": 7841,
      "ساب": 7842,
      "سڪلEW": 7843,
      "شارEW": 7844,
      "طنيEW": 7845,
      "عينEW": 7846,
      "فقEW": 7847,
      "فعلEW": 7848,
      "ننگرEW": 7849,
      "ٺيڪEW": 7850,
      "ڪميEW": 7851,
      "ۡEW": 7852,
      "NLڇ": 7853,
      "NLجي": 7854,
      "NLانهنEW": 7855,
      "انفارميشنEW": 7856,
      "ائپEW": 7857,
      "لاهو": 7858,
      "موري": 7859,
      "ڪيٿولڪEW": 7860,
      "گهي": 7861,
      "گهڙ": 7862,
      "سيNL": 7863,
      "ترتEW": 7864,
      "تيرEW": 7865,
      "نازEW": 7866,
      "پريزي": 7867,
      "آرمين": 7868,
      "رھنداEW": 7869,
      "اينديونEW": 7870,
      "نشانوEW": 7871,
      "پنجابي": 7872,
      "معلوما": 7873,
      "هيٺئينEW": 7874,
      "مفادنEW": 7875,
      "عهدنEW": 7876,
      "خاتونEW": 7877,
      "ترجمانEW": 7878,
      "جذبEW": 7879,
      "صديقيEW": 7880,
      "ابوبڪرEW": 7881,
      "مشاهدوEW": 7882,
      "نسخوEW": 7883,
      "دفتريEW": 7884,
      "ترجيحEW": 7885,
      "تغلقEW": 7886,
      "معاويهEW": 7887,
      "نفرتEW": 7888,
      "Sp": 7889,
      "جاس": 7890,
      "زئي": 7891,
      "ناصرEW": 7892,
      "يان": 7893,
      "ڪٽيEW": 7894,
      "گسEW": 7895,
      "ائتاEW": 7896,
      "لاڙوEW": 7897,
      "ايشيا": 7898,
      "ڪيائونEW": 7899,
      "ڪوه": 7900,
      "جيٽلEW": 7901,
      "تاج": 7902,
      "رسائيEW": 7903,
      "پارسيEW": 7904,
      "ڏيهيEW": 7905,
      "ٻيڙينEW": 7906,
      "شهرينEW": 7907,
      "بهاد": 7908,
      "1978عEW": 7909,
      "ٽيڪن": 7910,
      "واپسيEW": 7911,
      "اميد": 7912,
      "مدرس": 7913,
      "چيئرمئنEW": 7914,
      "جوڙڻEW": 7915,
      "پيداواريEW": 7916,
      "اثر": 7917,
      "گذارڻEW": 7918,
      "هيلٿEW": 7919,
      "پرستيءEW": 7920,
      "طبيعياتEW": 7921,
      "اسماعيليEW": 7922,
      "39EW": 7923,
      "57": 7924,
      "69": 7925,
      "جد": 7926,
      "جمEW": 7927,
      "سجا": 7928,
      "وآ": 7929,
      "ٺارEW": 7930,
      "پائنEW": 7931,
      "چيڪ": 7932,
      "ڊNL": 7933,
      "ڙهنEW": 7934,
      "ڪڇ": 7935,
      "گائ": 7936,
      "روضيEW": 7937,
      "راياEW": 7938,
      "واع": 7939,
      "پيشيEW": 7940,
      "منھن": 7941,
      "بيڪEW": 7942,
      "بيرياEW": 7943,
      "گھڻEW": 7944,
      "ناٽ": 7945,
      "ناڻيEW": 7946,
      "حصي": 7947,
      "شيد": 7948,
      "2008EW": 7949,
      "جماديEW": 7950,
      "خانبهادرEW": 7951,
      "ثقافت": 7952,
      "بلوچيEW": 7953,
      "1933عEW": 7954,
      "1932عEW": 7955,
      "تحقيق": 7956,
      "سخيEW": 7957,
      "ڏاڍاEW": 7958,
      "مڃڻEW": 7959,
      "جينياتيEW": 7960,
      "پاليسينEW": 7961,
      "ڊگھائيEW": 7962,
      "ماليڪيولرEW": 7963,
      "نصيرآبادEW": 7964,
      "II": 7965,
      "ast": 7966,
      "mEW": 7967,
      "toEW": 7968,
      "ug": 7969,
      "اجر": 7970,
      "جئينEW": 7971,
      "خيEW": 7972,
      "دال": 7973,
      "دنگEW": 7974,
      "يزيدEW": 7975,
      "ڀروEW": 7976,
      "ڦٽلEW": 7977,
      "گره": 7978,
      "NLڄامEW": 7979,
      "نديNL": 7980,
      "الاهيEW": 7981,
      "الطافEW": 7982,
      "رورEW": 7983,
      "ماخ": 7984,
      "موٽEW": 7985,
      "ملهايوEW": 7986,
      "جهيEW": 7987,
      "اصح": 7988,
      "ويڙھEW": 7989,
      "ٽيسٽEW": 7990,
      "هيريEW": 7991,
      "ڏياريEW": 7992,
      "2005": 7993,
      "ننڍينEW": 7994,
      "گيرنEW": 7995,
      "پراڻEW": 7996,
      "NLمھ": 7997,
      "2024عEW": 7998,
      "وقتنEW": 7999,
      "رنگينEW": 8000,
      "وڄائڻEW": 8001,
      "ارتقائيEW": 8002,
      "خصوصي": 8003,
      "تسلطEW": 8004,
      "عڪاسيEW": 8005,
      "آبپاشيEW": 8006,
      "ثتEW": 8007,
      "دخ": 8008,
      "سٺاEW": 8009,
      "ضادEW": 8010,
      "مـ": 8011,
      "ماني": 8012,
      "ملاحEW": 8013,
      "ٰيEW": 8014,
      "چرا": 8015,
      "چيلEW": 8016,
      "ڳڙھEW": 8017,
      "NLڪتابEW": 8018,
      "ميرو": 8019,
      "سنسEW": 8020,
      "يندي": 8021,
      "مليا": 8022,
      "اصلاتEW": 8023,
      "پراس": 8024,
      "ڪليڪٽرEW": 8025,
      "سگهندوEW": 8026,
      "ٻيڙيءEW": 8027,
      "جمعيEW": 8028,
      "آرٽيڪلEW": 8029,
      "دريائنEW": 8030,
      "1981عEW": 8031,
      "ديوارنEW": 8032,
      "قرار": 8033,
      "1952عEW": 8034,
      "پليڪسEW": 8035,
      "اسٽالنEW": 8036,
      "ٺهرايوEW": 8037,
      "گروھEW": 8038,
      "155": 8039,
      "ڪمپنينEW": 8040,
      "جوڙيوEW": 8041,
      "نگرانEW": 8042,
      "حسامEW": 8043,
      "عمروEW": 8044,
      "ڪئنالEW": 8045,
      "شماروEW": 8046,
      "ممبئيEW": 8047,
      "همعصرEW": 8048,
      "گنجائشEW": 8049,
      "47EW": 8050,
      "idEW": 8051,
      "ubl": 8052,
      "حاليEW": 8053,
      "رحEW": 8054,
      "ساميEW": 8055,
      "غارEW": 8056,
      "فتو": 8057,
      "ڍنEW": 8058,
      "گانEW": 8059,
      "انتق": 8060,
      "ريجنEW": 8061,
      "وابس": 8062,
      "پونداEW": 8063,
      "ترقي": 8064,
      "ٽيليEW": 8065,
      "ڪارڪننEW": 8066,
      "2010EW": 8067,
      "چونڊيEW": 8068,
      "مثاليEW": 8069,
      "NLامامEW": 8070,
      "ازمEW": 8071,
      "بحاليEW": 8072,
      "گروپنEW": 8073,
      "اٽليEW": 8074,
      "مزدورEW": 8075,
      "مزاجEW": 8076,
      "سپاهيEW": 8077,
      "ورهاستEW": 8078,
      "ish": 8079,
      "مدرسوEW": 8080,
      "اداڪاراEW": 8081,
      "تجربيEW": 8082,
      "گجراتيEW": 8083,
      "سومراEW": 8084,
      "خالقEW": 8085,
      "خوبصور": 8086,
      "مروجEW": 8087,
      "نيڪالEW": 8088,
      "سينيٽEW": 8089,
      "ذميداريEW": 8090,
      "ارسطوEW": 8091,
      "ڊيموڪريٽڪEW": 8092,
      "نشاندهيEW": 8093,
      "مٽاسٽاEW": 8094,
      "eh": 8095,
      "جشنEW": 8096,
      "نان": 8097,
      "پائڻEW": 8098,
      "پڄاڻ": 8099,
      "ڙهوEW": 8100,
      "ڪاڪ": 8101,
      "ڪبوEW": 8102,
      "NLلو": 8103,
      "روNL": 8104,
      "علم": 8105,
      "مليرEW": 8106,
      "پنگEW": 8107,
      "ساھEW": 8108,
      "ويٺاEW": 8109,
      "درسيEW": 8110,
      "گڏيEW": 8111,
      "هابEW": 8112,
      "قائدEW": 8113,
      "سڏباEW": 8114,
      "فريمEW": 8115,
      "يورپينEW": 8116,
      "1943عEW": 8117,
      "بندشEW": 8118,
      "حضورEW": 8119,
      "نامهEW": 8120,
      "فقيرنEW": 8121,
      "رواجيEW": 8122,
      "بلوچنEW": 8123,
      "قبرستان": 8124,
      "اردوءEW": 8125,
      "خوشحالEW": 8126,
      "Ind": 8127,
      "رياضEW": 8128,
      "وسنديEW": 8129,
      "ڇڪتا": 8130,
      "خودمختياريEW": 8131,
      "ڪعبيEW": 8132,
      "وحدتEW": 8133,
      "ايگزيڪيوٽوEW": 8134,
      "اطالويEW": 8135,
      "حنEW": 8136,
      "داست": 8137,
      "رع": 8138,
      "غرEW": 8139,
      "ٿائي": 8140
    },
    "merges": [
      [
        "E",
        "W"
      ],
      [
        "ي",
        "EW"
      ],
      [
        "ن",
        "EW"
      ],
      [
        "و",
        "EW"
      ],
      [
        "ج",
        "يEW"
      ],
      [
        "ر",
        "EW"
      ],
      [
        "ا",
        "نEW"
      ],
      [
        "ا",
        "EW"
      ],
      [
        "ل",
        "EW"
      ],
      [
        "N",
        "L"
      ],
      [
        "ا",
        "ن"
      ],
      [
        "ا",
        "ر"
      ],
      [
        "ا",
        "ئ"
      ],
      [
        "ن",
        "د"
      ],
      [
        "ي",
        "و"
      ],
      [
        "آ",
        "ه"
      ],
      [
        "ه",
        "EW"
      ],
      [
        "ت",
        "EW"
      ],
      [
        "ء",
        "EW"
      ],
      [
        "م",
        "EW"
      ],
      [
        "ج",
        "وEW"
      ],
      [
        "ا",
        "ل"
      ],
      [
        "ر",
        "ي"
      ],
      [
        "ه",
        "نEW"
      ],
      [
        "ي",
        "نEW"
      ],
      [
        "ڪ",
        "EW"
      ],
      [
        "ت",
        "يEW"
      ],
      [
        "ڻ",
        "EW"
      ],
      [
        "د",
        "EW"
      ],
      [
        "ل",
        "ا"
      ],
      [
        "ک",
        "يEW"
      ],
      [
        "ي",
        "وEW"
      ],
      [
        "ر",
        "يEW"
      ],
      [
        "ر",
        "و"
      ],
      [
        "آه",
        "ي"
      ],
      [
        "ا",
        "س"
      ],
      [
        "ا",
        "ه"
      ],
      [
        "س",
        "EW"
      ],
      [
        "ر",
        "ا"
      ],
      [
        "م",
        "ي"
      ],
      [
        "ي",
        "اEW"
      ],
      [
        "ي",
        "ءEW"
      ],
      [
        "ي",
        "ڪ"
      ],
      [
        "ا",
        "د"
      ],
      [
        "ب",
        "EW"
      ],
      [
        "و",
        "ر"
      ],
      [
        "م",
        "ا"
      ],
      [
        "ع",
        "EW"
      ],
      [
        "ک",
        "انEW"
      ],
      [
        "ا",
        "رEW"
      ],
      [
        "ئ",
        "يEW"
      ],
      [
        "ي",
        "ن"
      ],
      [
        "س",
        "ن"
      ],
      [
        "ه",
        "و"
      ],
      [
        "م",
        "و"
      ],
      [
        "س",
        "انEW"
      ],
      [
        "ٽ",
        "EW"
      ],
      [
        "ج",
        "ن"
      ],
      [
        "ي",
        "ند"
      ],
      [
        "ع",
        "ل"
      ],
      [
        "و",
        "نEW"
      ],
      [
        "و",
        "رEW"
      ],
      [
        "ا",
        "ي"
      ],
      [
        "ار",
        "يEW"
      ],
      [
        "و",
        "ا"
      ],
      [
        "ھ",
        "نEW"
      ],
      [
        "ڪ",
        "ي"
      ],
      [
        "سن",
        "ڌ"
      ],
      [
        "ي",
        "ا"
      ],
      [
        "ه",
        "ڪEW"
      ],
      [
        "يو",
        "نEW"
      ],
      [
        "ا",
        "ب"
      ],
      [
        "ڪ",
        "ريEW"
      ],
      [
        "پ",
        "ي"
      ],
      [
        "و",
        "ل"
      ],
      [
        "ت",
        "هEW"
      ],
      [
        "ج",
        "اEW"
      ],
      [
        "ا",
        "م"
      ],
      [
        "ف",
        "EW"
      ],
      [
        "ڪ",
        "ر"
      ],
      [
        "آه",
        "ن"
      ],
      [
        "م",
        "ل"
      ],
      [
        "ج",
        "يڪ"
      ],
      [
        "ائ",
        "يEW"
      ],
      [
        "پ",
        "ن"
      ],
      [
        "آ",
        "ھ"
      ],
      [
        "س",
        "ت"
      ],
      [
        "1",
        "9"
      ],
      [
        "و",
        "ن"
      ],
      [
        "گ",
        "ه"
      ],
      [
        "پ",
        "و"
      ],
      [
        "م",
        "انEW"
      ],
      [
        "ا",
        "ڪ"
      ],
      [
        "ي",
        "لEW"
      ],
      [
        "ه",
        "ن"
      ],
      [
        "ئ",
        "ي"
      ],
      [
        "ہ",
        "EW"
      ],
      [
        "س",
        "ي"
      ],
      [
        "لا",
        "ءEW"
      ],
      [
        "ز",
        "EW"
      ],
      [
        "س",
        "ا"
      ],
      [
        "آه",
        "يEW"
      ],
      [
        "ڊ",
        "EW"
      ],
      [
        "يو",
        "ن"
      ],
      [
        "ب",
        "هEW"
      ],
      [
        "ا",
        "و"
      ],
      [
        "م",
        "ن"
      ],
      [
        "ڪ",
        "و"
      ],
      [
        "ڻ",
        "يEW"
      ],
      [
        "ٿ",
        "يEW"
      ],
      [
        "ب",
        "ي"
      ],
      [
        "ڙ",
        "EW"
      ],
      [
        "د",
        "ي"
      ],
      [
        "ت",
        "ر"
      ],
      [
        "ز",
        "م"
      ],
      [
        "ھ",
        "EW"
      ],
      [
        "ج",
        "ه"
      ],
      [
        "ا",
        "ص"
      ],
      [
        "و",
        "ي"
      ],
      [
        "ل",
        "ي"
      ],
      [
        "س",
        "ند"
      ],
      [
        "ل",
        "يEW"
      ],
      [
        "ب",
        "ا"
      ],
      [
        "2",
        "0"
      ],
      [
        "ب",
        "يEW"
      ],
      [
        "ق",
        "EW"
      ],
      [
        "م",
        "ح"
      ],
      [
        "ج",
        "ي"
      ],
      [
        "م",
        "يEW"
      ],
      [
        "ج",
        "و"
      ],
      [
        "ان",
        "يEW"
      ],
      [
        "ج",
        "EW"
      ],
      [
        "ه",
        "يEW"
      ],
      [
        "ل",
        "و"
      ],
      [
        "ت",
        "ي"
      ],
      [
        "گ",
        "EW"
      ],
      [
        "ائ",
        "ينEW"
      ],
      [
        "ن",
        "ال"
      ],
      [
        "ت",
        "ا"
      ],
      [
        "جن",
        "هنEW"
      ],
      [
        "ش",
        "ا"
      ],
      [
        "م",
        "ر"
      ],
      [
        "ٽ",
        "يEW"
      ],
      [
        "ڪ",
        "يوEW"
      ],
      [
        "سنڌ",
        "EW"
      ],
      [
        "ا",
        "مEW"
      ],
      [
        "س",
        "ر"
      ],
      [
        "ب",
        "ر"
      ],
      [
        "ٿ",
        "و"
      ],
      [
        "د",
        "ر"
      ],
      [
        "و",
        "ڏ"
      ],
      [
        "پ",
        "ا"
      ],
      [
        "ش",
        "EW"
      ],
      [
        "س",
        "و"
      ],
      [
        "ڪ",
        "ن"
      ],
      [
        "ٿ",
        "ي"
      ],
      [
        "ق",
        "يEW"
      ],
      [
        "س",
        "ل"
      ],
      [
        "ج",
        "نEW"
      ],
      [
        "ه",
        "وEW"
      ],
      [
        "ر",
        "ه"
      ],
      [
        "ڙ",
        "يEW"
      ],
      [
        "ند",
        "وEW"
      ],
      [
        "آھ",
        "ي"
      ],
      [
        "ح",
        "EW"
      ],
      [
        "ست",
        "انEW"
      ],
      [
        "م",
        "ش"
      ],
      [
        "و",
        "يند"
      ],
      [
        "سند",
        "سEW"
      ],
      [
        "و",
        "ٺ"
      ],
      [
        "ن",
        "ي"
      ],
      [
        "ا",
        "ت"
      ],
      [
        "ط",
        "ورEW"
      ],
      [
        "پو",
        "ءEW"
      ],
      [
        "ه",
        "رEW"
      ],
      [
        "پن",
        "هن"
      ],
      [
        "ن",
        "يEW"
      ],
      [
        "ب",
        "اد"
      ],
      [
        "پ",
        "رEW"
      ],
      [
        "م",
        "دEW"
      ],
      [
        "ڪر",
        "ڻEW"
      ],
      [
        "ب",
        "رEW"
      ],
      [
        "ٽ",
        "ي"
      ],
      [
        "م",
        "ق"
      ],
      [
        "ت",
        "عل"
      ],
      [
        "ڏ",
        "هنEW"
      ],
      [
        "ف",
        "ي"
      ],
      [
        "و",
        "ار"
      ],
      [
        "زم",
        "رو"
      ],
      [
        "ت",
        "ع"
      ],
      [
        "ع",
        "يEW"
      ],
      [
        "و",
        "ڌ"
      ],
      [
        "NL",
        "زمرو"
      ],
      [
        "س",
        "يEW"
      ],
      [
        "و",
        "يو"
      ],
      [
        "چ",
        "EW"
      ],
      [
        "م",
        "ع"
      ],
      [
        "ان",
        "هنEW"
      ],
      [
        "ائ",
        "ي"
      ],
      [
        "ند",
        "يEW"
      ],
      [
        "ٽ",
        "رEW"
      ],
      [
        "و",
        "ڃ"
      ],
      [
        "و",
        "اريEW"
      ],
      [
        "ن",
        "هEW"
      ],
      [
        "جيڪ",
        "وEW"
      ],
      [
        "ج",
        "ا"
      ],
      [
        "ڪ",
        "يEW"
      ],
      [
        "ا",
        "ف"
      ],
      [
        "ب",
        "ل"
      ],
      [
        "0",
        "EW"
      ],
      [
        "ق",
        "تEW"
      ],
      [
        "م",
        "خ"
      ],
      [
        "ما",
        "ڻ"
      ],
      [
        "ک",
        "ي"
      ],
      [
        "ري",
        "نEW"
      ],
      [
        "ر",
        "س"
      ],
      [
        "ار",
        "ي"
      ],
      [
        "گ",
        "ھ"
      ],
      [
        "ر",
        "نEW"
      ],
      [
        "پ",
        "ه"
      ],
      [
        "ط",
        "ر"
      ],
      [
        "ا",
        "ھ"
      ],
      [
        "ا",
        "ح"
      ],
      [
        "ان",
        "د"
      ],
      [
        "ت",
        "ائينEW"
      ],
      [
        "ت",
        "نEW"
      ],
      [
        "ا",
        "ڳ"
      ],
      [
        "ق",
        "ي"
      ],
      [
        "اه",
        "وEW"
      ],
      [
        "ح",
        "ي"
      ],
      [
        "ش",
        "نEW"
      ],
      [
        "ت",
        "و"
      ],
      [
        "اه",
        "هEW"
      ],
      [
        "سنڌ",
        "يEW"
      ],
      [
        "ند",
        "اEW"
      ],
      [
        "ا",
        "ڻ"
      ],
      [
        "ه",
        "ي"
      ],
      [
        "پ",
        "ڻEW"
      ],
      [
        "گ",
        "ڏ"
      ],
      [
        "ان",
        "گ"
      ],
      [
        "پنهن",
        "جيEW"
      ],
      [
        "چ",
        "و"
      ],
      [
        "ص",
        "و"
      ],
      [
        "ن",
        "ظ"
      ],
      [
        "ڪ",
        "نEW"
      ],
      [
        "ه",
        "ئ"
      ],
      [
        "ن",
        "و"
      ],
      [
        "گ",
        "ر"
      ],
      [
        "ل",
        "ک"
      ],
      [
        "ف",
        "ر"
      ],
      [
        "د",
        "يEW"
      ],
      [
        "م",
        "نEW"
      ],
      [
        "ج",
        "ونEW"
      ],
      [
        "ت",
        "ح"
      ],
      [
        "ھ",
        "ڪEW"
      ],
      [
        "چ",
        "يEW"
      ],
      [
        "سا",
        "لEW"
      ],
      [
        "ٿ",
        "يند"
      ],
      [
        "و",
        "يوEW"
      ],
      [
        "پ",
        "ار"
      ],
      [
        "ڪ",
        "ار"
      ],
      [
        "س",
        "ڀ"
      ],
      [
        "مح",
        "مدEW"
      ],
      [
        "ه",
        "هEW"
      ],
      [
        "ام",
        "لEW"
      ],
      [
        "م",
        "تEW"
      ],
      [
        "خ",
        "EW"
      ],
      [
        "ي",
        "رEW"
      ],
      [
        "تا",
        "بEW"
      ],
      [
        "و",
        "قتEW"
      ],
      [
        "آ",
        "باد"
      ],
      [
        "پ",
        "اڪ"
      ],
      [
        "ب",
        "د"
      ],
      [
        "عل",
        "ائ"
      ],
      [
        "ي",
        "مEW"
      ],
      [
        "م",
        "لEW"
      ],
      [
        "ش",
        "املEW"
      ],
      [
        "ا",
        "تEW"
      ],
      [
        "ڪ",
        "يو"
      ],
      [
        "ي",
        "ر"
      ],
      [
        "ڙ",
        "وEW"
      ],
      [
        "ٿ",
        "ا"
      ],
      [
        "ڪ",
        "تابEW"
      ],
      [
        "ر",
        "ک"
      ],
      [
        "ش",
        "ھ"
      ],
      [
        "ڪ",
        "ا"
      ],
      [
        "ٿ",
        "وEW"
      ],
      [
        "ھ",
        "و"
      ],
      [
        "ه",
        "يءEW"
      ],
      [
        "ڳ",
        "وٺ"
      ],
      [
        "س",
        "م"
      ],
      [
        "ن",
        "گ"
      ],
      [
        "پ",
        "ر"
      ],
      [
        "اه",
        "يEW"
      ],
      [
        "ٻ",
        "ول"
      ],
      [
        "ن",
        "ا"
      ],
      [
        "ڏ",
        "ي"
      ],
      [
        "ڪ",
        "مEW"
      ],
      [
        "ھ",
        "يEW"
      ],
      [
        "1",
        "8"
      ],
      [
        "ل",
        "ڳ"
      ],
      [
        "م",
        "ط"
      ],
      [
        "پ",
        "EW"
      ],
      [
        "ب",
        "نEW"
      ],
      [
        "ي",
        "ڪEW"
      ],
      [
        "ظ",
        "EW"
      ],
      [
        "ا",
        "خ"
      ],
      [
        "ق",
        "و"
      ],
      [
        "نال",
        "وEW"
      ],
      [
        "ما",
        "لEW"
      ],
      [
        "ئ",
        "نEW"
      ],
      [
        "ڊ",
        "ي"
      ],
      [
        "س",
        "ٽ"
      ],
      [
        "اد",
        "يEW"
      ],
      [
        "اص",
        "لEW"
      ],
      [
        "ت",
        "اري"
      ],
      [
        "ند",
        "ڙEW"
      ],
      [
        "د",
        "اEW"
      ],
      [
        "ويند",
        "وEW"
      ],
      [
        "ند",
        "EW"
      ],
      [
        "ش",
        "رو"
      ],
      [
        "ائ",
        "ين"
      ],
      [
        "ن",
        "ڍ"
      ],
      [
        "م",
        "ار"
      ],
      [
        "خ",
        "انEW"
      ],
      [
        "د",
        "و"
      ],
      [
        "ش",
        "هرEW"
      ],
      [
        "ت",
        "ہEW"
      ],
      [
        "ف",
        "و"
      ],
      [
        "ه",
        "ا"
      ],
      [
        "جن",
        "ھنEW"
      ],
      [
        "ج",
        "ڏهنEW"
      ],
      [
        "ا",
        "دEW"
      ],
      [
        "ب",
        "و"
      ],
      [
        "آھ",
        "يEW"
      ],
      [
        "وا",
        "ق"
      ],
      [
        "پاڪ",
        "ستانEW"
      ],
      [
        "س",
        "ان"
      ],
      [
        "ڪ",
        "ت"
      ],
      [
        "ڪ",
        "ئيEW"
      ],
      [
        "خ",
        "و"
      ],
      [
        "ه",
        "ئي"
      ],
      [
        "ع",
        "ر"
      ],
      [
        "با",
        "دEW"
      ],
      [
        "مل",
        "ڪEW"
      ],
      [
        "م",
        "برEW"
      ],
      [
        "ٿ",
        "يو"
      ],
      [
        "ح",
        "ص"
      ],
      [
        "ڳوٺ",
        "EW"
      ],
      [
        "م",
        "د"
      ],
      [
        "ش",
        "ن"
      ],
      [
        "آ",
        "بادEW"
      ],
      [
        "و",
        "ال"
      ],
      [
        "اس",
        "تع"
      ],
      [
        "ض",
        "ل"
      ],
      [
        "ڪ",
        "اEW"
      ],
      [
        "ڪ",
        "ل"
      ],
      [
        "هئ",
        "ا"
      ],
      [
        "وڃ",
        "يEW"
      ],
      [
        "ن",
        "گEW"
      ],
      [
        "ش",
        "ي"
      ],
      [
        "ار",
        "نEW"
      ],
      [
        "ڪي",
        "تر"
      ],
      [
        "ٽ",
        "ر"
      ],
      [
        "ڏ",
        "ن"
      ],
      [
        "ڻ",
        "وEW"
      ],
      [
        "س",
        "گه"
      ],
      [
        "جيڪ",
        "يEW"
      ],
      [
        "ڪ",
        "را"
      ],
      [
        "ي",
        "تEW"
      ],
      [
        "س",
        "ائ"
      ],
      [
        "وڌ",
        "يڪEW"
      ],
      [
        "a",
        "n"
      ],
      [
        "اس",
        "EW"
      ],
      [
        "مو",
        "جو"
      ],
      [
        "م",
        "ه"
      ],
      [
        "آه",
        "نEW"
      ],
      [
        "ٽ",
        "نEW"
      ],
      [
        "ا",
        "لEW"
      ],
      [
        "سڀ",
        "EW"
      ],
      [
        "ز",
        "ي"
      ],
      [
        "ز",
        "يEW"
      ],
      [
        "د",
        "ارEW"
      ],
      [
        "5",
        "EW"
      ],
      [
        "ڪ",
        "ئي"
      ],
      [
        "ئ",
        "ينEW"
      ],
      [
        "استع",
        "مالEW"
      ],
      [
        "مي",
        "رEW"
      ],
      [
        "جيڪ",
        "اEW"
      ],
      [
        "ت",
        "ل"
      ],
      [
        "شھ",
        "رEW"
      ],
      [
        "ا",
        "تيEW"
      ],
      [
        "ت",
        "ن"
      ],
      [
        "د",
        "ن"
      ],
      [
        "ڪ",
        "وEW"
      ],
      [
        "آھ",
        "ن"
      ],
      [
        "20",
        "0"
      ],
      [
        "ال",
        "ل"
      ],
      [
        "ال",
        "ي"
      ],
      [
        "ف",
        "ل"
      ],
      [
        "لا",
        "مEW"
      ],
      [
        "ائ",
        "ڻEW"
      ],
      [
        "اس",
        "يEW"
      ],
      [
        "ٺ",
        "EW"
      ],
      [
        "ڪ",
        "لEW"
      ],
      [
        "ع",
        "امEW"
      ],
      [
        "نال",
        "يEW"
      ],
      [
        "2",
        "EW"
      ],
      [
        "ھ",
        "ن"
      ],
      [
        "وڏ",
        "يEW"
      ],
      [
        "i",
        "n"
      ],
      [
        "ث",
        "رEW"
      ],
      [
        ")",
        "،"
      ],
      [
        "ڪ",
        "رEW"
      ],
      [
        "ب",
        "ن"
      ],
      [
        "عل",
        "يEW"
      ],
      [
        "گڏ",
        "EW"
      ],
      [
        "وڏ",
        "وEW"
      ],
      [
        "دي",
        "ھEW"
      ],
      [
        "ب",
        "ہEW"
      ],
      [
        "ڪ",
        "ري"
      ],
      [
        "خ",
        "اص"
      ],
      [
        "ري",
        "اس"
      ],
      [
        "س",
        "مEW"
      ],
      [
        "ص",
        "ف"
      ],
      [
        "ن",
        "س"
      ],
      [
        "واق",
        "عEW"
      ],
      [
        "و",
        "ريEW"
      ],
      [
        "1",
        "EW"
      ],
      [
        "ڇ",
        "ڏ"
      ],
      [
        "ح",
        "ڪو"
      ],
      [
        "م",
        "س"
      ],
      [
        "ڌ",
        "EW"
      ],
      [
        "ش",
        "اههEW"
      ],
      [
        "ائ",
        "ون"
      ],
      [
        "س",
        "يڪ"
      ],
      [
        "ڪ",
        "م"
      ],
      [
        "ڪ",
        "جه"
      ],
      [
        "شا",
        "ع"
      ],
      [
        "مي",
        "ن"
      ],
      [
        "ر",
        "تEW"
      ],
      [
        "ب",
        "ع"
      ],
      [
        "20",
        "1"
      ],
      [
        "م",
        "ري"
      ],
      [
        "م",
        "ض"
      ],
      [
        "چ",
        "ون"
      ],
      [
        "پا",
        "ڻEW"
      ],
      [
        "ح",
        "اصلEW"
      ],
      [
        "کي",
        "سEW"
      ],
      [
        "دن",
        "ياEW"
      ],
      [
        "هو",
        "رEW"
      ],
      [
        "ٻ",
        "ينEW"
      ],
      [
        "۾",
        "،"
      ],
      [
        "ائ",
        "يند"
      ],
      [
        "ص",
        "د"
      ],
      [
        "مخ",
        "تل"
      ],
      [
        "ت",
        "انEW"
      ],
      [
        "ل",
        "نEW"
      ],
      [
        "ت",
        "ص"
      ],
      [
        "مختل",
        "فEW"
      ],
      [
        "ٽ",
        "و"
      ],
      [
        "چ",
        "ي"
      ],
      [
        "تي",
        "ارEW"
      ],
      [
        "د",
        "ورEW"
      ],
      [
        "مو",
        "نEW"
      ],
      [
        "ٻ",
        "ي"
      ],
      [
        "3",
        "EW"
      ],
      [
        "ذ",
        "ري"
      ],
      [
        "ش",
        "ر"
      ],
      [
        "ن",
        "ڊ"
      ],
      [
        "ڏ",
        "ک"
      ],
      [
        "4",
        "EW"
      ],
      [
        "ق",
        "ائ"
      ],
      [
        "علائ",
        "ق"
      ],
      [
        "ن",
        "نڍ"
      ],
      [
        "ح",
        "ا"
      ],
      [
        "ت",
        "ونEW"
      ],
      [
        "پ",
        "رو"
      ],
      [
        "پ",
        "ور"
      ],
      [
        "ڏ",
        "ين"
      ],
      [
        "ج",
        "ھ"
      ],
      [
        "ڪن",
        "هنEW"
      ],
      [
        "ڪت",
        "اب"
      ],
      [
        "س",
        "رEW"
      ],
      [
        "7",
        "EW"
      ],
      [
        "ما",
        "مEW"
      ],
      [
        "الل",
        "هEW"
      ],
      [
        "ل",
        "وEW"
      ],
      [
        "انگ",
        "ري"
      ],
      [
        "آباد",
        "يEW"
      ],
      [
        "م",
        "سل"
      ],
      [
        "ل",
        "ف"
      ],
      [
        "ڪجه",
        "هEW"
      ],
      [
        "6",
        "EW"
      ],
      [
        "ڳ",
        "EW"
      ],
      [
        "ب",
        "وEW"
      ],
      [
        "گ",
        "و"
      ],
      [
        "مط",
        "اب"
      ],
      [
        "ر",
        "يونEW"
      ],
      [
        "س",
        "ال"
      ],
      [
        "و",
        "چEW"
      ],
      [
        "ڳ",
        "ال"
      ],
      [
        "س",
        "ڏ"
      ],
      [
        "شرو",
        "عEW"
      ],
      [
        "س",
        "ب"
      ],
      [
        "موجو",
        "دEW"
      ],
      [
        "پ",
        "يEW"
      ],
      [
        "ڙ",
        "نEW"
      ],
      [
        "پي",
        "ڊ"
      ],
      [
        "ڪ",
        "ارEW"
      ],
      [
        "س",
        "نEW"
      ],
      [
        "وار",
        "وEW"
      ],
      [
        "بع",
        "دEW"
      ],
      [
        "ر",
        "وEW"
      ],
      [
        "پ",
        "ري"
      ],
      [
        "ف",
        "يEW"
      ],
      [
        "حڪو",
        "متEW"
      ],
      [
        "ش",
        "ه"
      ],
      [
        "ه",
        "ند"
      ],
      [
        "ب",
        "ڻ"
      ],
      [
        "ز",
        "نEW"
      ],
      [
        "تاري",
        "خEW"
      ],
      [
        "ان",
        "ڊ"
      ],
      [
        "ٰ",
        "EW"
      ],
      [
        "ط",
        "EW"
      ],
      [
        "و",
        "ڪي"
      ],
      [
        "ا",
        "ول"
      ],
      [
        "ا",
        "ق"
      ],
      [
        "ان",
        "نEW"
      ],
      [
        "مش",
        "هورEW"
      ],
      [
        "ات",
        "رEW"
      ],
      [
        "ا",
        "چيEW"
      ],
      [
        "قائ",
        "مEW"
      ],
      [
        "گ",
        "يEW"
      ],
      [
        "حي",
        "در"
      ],
      [
        "و",
        "ف"
      ],
      [
        "ج",
        "م"
      ],
      [
        "اد",
        "بيEW"
      ],
      [
        ".",
        "."
      ],
      [
        "ضل",
        "عيEW"
      ],
      [
        "ت",
        "ق"
      ],
      [
        "س",
        "ٽEW"
      ],
      [
        "اه",
        "اEW"
      ],
      [
        "ع",
        "ي"
      ],
      [
        "ص",
        "اح"
      ],
      [
        "19",
        "9"
      ],
      [
        "ڀ",
        "رEW"
      ],
      [
        "ين",
        "يEW"
      ],
      [
        "ع",
        "بد"
      ],
      [
        "ڏک",
        "ڻEW"
      ],
      [
        "e",
        "EW"
      ],
      [
        "خاص",
        "EW"
      ],
      [
        "ک",
        "ان"
      ],
      [
        "گ",
        "را"
      ],
      [
        "ب",
        "اب"
      ],
      [
        "و",
        "يEW"
      ],
      [
        "ع",
        "ال"
      ],
      [
        "صف",
        "ح"
      ],
      [
        "ڳ",
        "ا"
      ],
      [
        "ا",
        "ڻEW"
      ],
      [
        "ان",
        "هيءEW"
      ],
      [
        "پ",
        "ھ"
      ],
      [
        "ٻ",
        "ڌ"
      ],
      [
        "ل",
        "اEW"
      ],
      [
        "آ",
        "ر"
      ],
      [
        "پي",
        "داEW"
      ],
      [
        "ٿ",
        "EW"
      ],
      [
        "تعل",
        "يمEW"
      ],
      [
        "ف",
        "ت"
      ],
      [
        "ٿ",
        "اEW"
      ],
      [
        "مطاب",
        "قEW"
      ],
      [
        "ٿ",
        "ئيEW"
      ],
      [
        "ٻ",
        "ئيEW"
      ],
      [
        "ال",
        "يEW"
      ],
      [
        "ف",
        "ار"
      ],
      [
        "ب",
        "ه"
      ],
      [
        "ض",
        "يEW"
      ],
      [
        "پ",
        "ورEW"
      ],
      [
        "د",
        "نEW"
      ],
      [
        "د",
        "ري"
      ],
      [
        "0",
        "0EW"
      ],
      [
        "آ",
        "مري"
      ],
      [
        "س",
        "وا"
      ],
      [
        "ٿ",
        "يلEW"
      ],
      [
        "ع",
        "وEW"
      ],
      [
        "ب",
        "لEW"
      ],
      [
        "آ",
        "ز"
      ],
      [
        "جي",
        "ئنEW"
      ],
      [
        "حص",
        "وEW"
      ],
      [
        "ت",
        "ب"
      ],
      [
        "ام",
        "يEW"
      ],
      [
        "مل",
        "يEW"
      ],
      [
        "پ",
        "بل"
      ],
      [
        "e",
        "r"
      ],
      [
        "ٿ",
        "يوEW"
      ],
      [
        "ش",
        "يEW"
      ],
      [
        "د",
        "ور"
      ],
      [
        "ا",
        "ع"
      ],
      [
        "ڙ",
        "اEW"
      ],
      [
        "o",
        "n"
      ],
      [
        "د",
        "وEW"
      ],
      [
        "ف",
        "ري"
      ],
      [
        "ز",
        "اEW"
      ],
      [
        "و",
        "ٽEW"
      ],
      [
        "يون",
        "يو"
      ],
      [
        "او",
        "ڀرEW"
      ],
      [
        "ه",
        "ينEW"
      ],
      [
        "اڳ",
        "EW"
      ],
      [
        "ت",
        "وEW"
      ],
      [
        "ه",
        "ل"
      ],
      [
        "مر",
        "ڪ"
      ],
      [
        "ج",
        "ر"
      ],
      [
        "وڪي",
        "پيڊ"
      ],
      [
        "يونيو",
        "رس"
      ],
      [
        "ٿي",
        "ڻEW"
      ],
      [
        "رياس",
        "تEW"
      ],
      [
        "م",
        "ب"
      ],
      [
        "اه",
        "رEW"
      ],
      [
        "گ",
        "ي"
      ],
      [
        "ج",
        "ل"
      ],
      [
        "ت",
        "مامEW"
      ],
      [
        "0",
        "عEW"
      ],
      [
        "م",
        "ص"
      ],
      [
        "ز",
        "ند"
      ],
      [
        "صاح",
        "بEW"
      ],
      [
        "ا",
        "زEW"
      ],
      [
        "پن",
        "ھن"
      ],
      [
        "ق",
        "دي"
      ],
      [
        "س",
        "ين"
      ],
      [
        "ور",
        "تEW"
      ],
      [
        "ئ",
        "ر"
      ],
      [
        "ا",
        "ءEW"
      ],
      [
        "م",
        "ذ"
      ],
      [
        "8",
        "EW"
      ],
      [
        "علائ",
        "قيEW"
      ],
      [
        "ڙ",
        "ه"
      ],
      [
        "ش",
        "و"
      ],
      [
        "د",
        "ينEW"
      ],
      [
        "ر",
        "ھ"
      ],
      [
        "ن",
        "ق"
      ],
      [
        "آ",
        "فEW"
      ],
      [
        "ئ",
        "رEW"
      ],
      [
        "ھ",
        "وEW"
      ],
      [
        "ان",
        "ھنEW"
      ],
      [
        "ماڻ",
        "هوEW"
      ],
      [
        "اس",
        "انEW"
      ],
      [
        "ق",
        "سمEW"
      ],
      [
        "ل",
        "ين"
      ],
      [
        "آ",
        "خ"
      ],
      [
        "ق",
        "ل"
      ],
      [
        "م",
        "ڪ"
      ],
      [
        "ڀ",
        "ر"
      ],
      [
        "ب",
        "خ"
      ],
      [
        "ش",
        "ري"
      ],
      [
        "چون",
        "ڊ"
      ],
      [
        "يند",
        "اEW"
      ],
      [
        "مو",
        "ن"
      ],
      [
        "پار",
        "انEW"
      ],
      [
        "a",
        "r"
      ],
      [
        "ڏين",
        "هنEW"
      ],
      [
        "طر",
        "حEW"
      ],
      [
        "ج",
        "تيEW"
      ],
      [
        "سب",
        "بEW"
      ],
      [
        "زم",
        "ينEW"
      ],
      [
        "ي",
        "NL"
      ],
      [
        "ڙ",
        "و"
      ],
      [
        "ڏن",
        "وEW"
      ],
      [
        "ان",
        "س"
      ],
      [
        "ڪ",
        "اريEW"
      ],
      [
        "ماڻ",
        "هنEW"
      ],
      [
        "لف",
        "ظEW"
      ],
      [
[...]
